{"verbreitet": 44782, "##貸": 117198, "экз": 17243, "seats": 26893, "冢": 2485, "αγώνες": 60147, "1037": 109249, "बी": 39603, "Musim": 97012, "##nose": 53638, "夕": 3188, "##eci": 95076, "898": 85773, "serviço": 44442, "exactly": 62136, "##kot": 42287, "##арх": 100964, "Buddha": 32530, "Köyde": 56015, "##েশ": 105496, "teken": 99704, "Alates": 83512, "##ских": 12445, "krigen": 28872, "##țele": 44412, "категории": 42787, "##aday": 101615, "faible": 37724, "##perk": 60253, "jung": 97275, "Beccaloni": 18531, "بزرگ": 24992, "Ali": 13518, "##աք": 86652, "##griff": 88508, "驮": 8553, "Orrell": 10600, "номера": 98814, "mokslų": 70826, "##дан": 15196, "苫": 6713, "##菀": 116550, "Donji": 91904, "Sharon": 35556, "қосымша": 108709, "Bronze": 28923, "##ущий": 64098, "##تال": 61336, "Contribution": 81864, "échelle": 63992, "##ficazioni": 72595, "اسٹیشن": 74773, "dios": 73738, "##잡": 119199, "##၌": 111509, "יותר": 14371, "таким": 27292, "款": 4780, "spisu": 100859, "portar": 49559, "hemen": 54764, "##漢": 114931, "Chapelle": 35539, "দিয়ে": 38583, "острова": 25996, "##verkiezingen": 103712, "##ôch": 99357, "२३": 91954, "Elder": 57510, "1346": 71428, "initiated": 56571, "caballería": 109049, "orígenes": 98710, "##quire": 72326, "##ínia": 85547, "##基": 112865, "செய்து": 70127, "květnu": 95943, "районуна": 70132, "tackles": 84845, "##yku": 83496, "Edgar": 21002, "proprie": 47212, "Selo": 64880, "Species": 10300, "律": 3769, "sì": 52952, "##got": 47163, "##ISE": 90569, "येक्व": 77903, "##昶": 114150, "##rodków": 81747, "didirikan": 48078, "înainte": 53400, "答": 6076, "Territory": 36720, "ḩ": 1630, "##enos": 58286, "autonomia": 54898, "duró": 90617, "Kalkulado": 15405, "##etara": 96743, "Центар": 68775, "疫": 5656, "##팝": 119380, "convent": 80215, "цю": 53391, "jazz": 17554, "撒": 4229, "cunha": 45909, "1860": 13336, "ہوتا": 40615, "francoski": 106222, "##szentrum": 72100, "північний": 30008, "##icionados": 102535, "##iteit": 42567, "حال": 22848, "願": 8406, "##urio": 87614, "تي": 96615, "Laboratory": 30737, "структури": 87839, "##nictvím": 108772, "##chat": 73267, "wiki": 30351, "##冇": 112236, "杷": 4509, "Bowen": 81891, "##ственной": 34636, "eitt": 75070, "istoric": 74959, "seura": 97700, "##íti": 68896, "ware": 88902, "ålder": 106758, "Lahore": 76624, "Blue": 12972, "##hner": 45930, "सिंह": 46415, "metric": 105200, "중": 9694, "##賑": 117211, "договор": 38349, "##纠": 116070, "CDs": 71180, "woorden": 98664, "##एर": 76131, "##taa": 19273, "magia": 66315, "##摯": 113985, "πέθανε": 78454, "Закон": 48061, "##埕": 112854, "##右": 112526, "Bury": 84780, "Va": 14723, "##קדמות": 77539, "##дства": 58741, "##ספק": 110614, "珊": 5498, "低": 2247, "NGC2000": 48600, "inaugurado": 61606, "gör": 38941, "Wait": 87519, "1994년": 60762, "έδρα": 56867, "receptor": 27080, "##iella": 56491, "власти": 21059, "cestista": 41975, "Sơn": 25823, "bd": 76465, "揆": 4178, "##縦": 116037, "partecipato": 46224, "##сутність": 102991, "Atkinson": 76318, "метод": 40973, "##isë": 51319, "Assistent": 76536, "Co": 13098, "##stide": 87642, "سیاسی": 31030, "ceux": 20859, "##ższe": 64466, "##აც": 30662, "##шти": 64752, "##盘": 115511, "Boxshall": 88766, "##ostí": 105716, "medtem": 106866, "镰": 8125, "considers": 96008, "delvis": 49631, "estudiu": 85306, "吩": 2792, "تیم": 24040, "kilder": 92378, "賈": 7443, "##id": 11249, "книг": 36729, "moderate": 62483, "##led": 16376, "modello": 34198, "фр": 15350, "Oleg": 66318, "постепенно": 54978, "Boote": 101589, "##мат": 31342, "obu": 52968, "Ҙ": 596, "почали": 59113, "один": 13713, "فبلغ": 55283, "Break": 38130, "##حرك": 54969, "##يز": 29548, "berumur": 105994, "##难": 118033, "棉": 4626, "Kiinan": 107122, "Newport": 37877, "hutan": 51220, "أيضا": 24459, "స్వయం": 39794, "rhai": 78520, "cavalleria": 86118, "▲": 1851, "##漯": 114937, "Censo": 27721, "Де": 52935, "identified": 26121, "Vaux": 100605, "製": 7120, "##द्र": 96637, "##lka": 30509, "gewoonlik": 103871, "##zahl": 53998, "статуса": 66899, "##падає": 104218, "gevallen": 75381, "##िता": 66880, "тада": 47534, "collision": 94460, "##визија": 104711, "##tése": 55837, "##ესი": 68832, "Three": 15139, "##ด้": 81831, "##תוח": 93670, "##ীদের": 93418, "##ണ്ടാം": 109200, "طويلة": 77398, "Ямал": 77043, "Frost": 34077, "##чные": 26176, "Monde": 33074, "unos": 15993, "regular": 15670, "##ੋਲ": 87057, "##ità": 15451, "Jacques": 12745, "años": 11278, "##нания": 78693, "##ਫ": 75919, "بني": 35490, "Arzt": 57803, "бойынша": 12652, "instrumento": 56207, "بهعنوان": 39685, "##wór": 47137, "Bau": 18727, "##്രീ": 106656, "Anwendung": 53671, "AE": 35060, "Alma": 34224, "modalità": 75773, "##kkus": 76978, "られている": 37383, "##arkan": 38274, "##HC": 41524, "reformy": 62065, "##かり": 56903, "##zam": 40556, "ouverte": 56935, "aż": 40068, "##uma": 16746, "刎": 2539, "режиссёра": 58134, "jedinice": 97384, "model": 13192, "Atom": 67754, "2009년": 20067, "##zards": 99487, "##व्य": 54908, "jeśli": 80661, "Eds": 44589, "1709": 37679, "revenuo": 24879, "##owane": 25901, "##麺": 118557, "unterschiedlich": 86370, "uvádí": 72839, "맺": 9264, "వి": 105952, "##யும்": 21792, "حیات": 98239, "aprillil": 96410, "kariéru": 96379, "מקום": 37124, "gehiago": 26487, "ல்": 90037, "utara": 25113, "##され": 40048, "estatistiken": 33383, "##జా": 100584, "времето": 37216, "##pena": 53303, "##拢": 113846, "Иртыш": 35676, "Niederlanden": 81707, "##லி": 37886, "珑": 5501, "tisíc": 62629, "Anschließend": 31700, "Mentre": 38739, "Linus": 100765, "tornando": 48136, "مطابق": 43760, "##悪": 113637, "軼": 7608, "În": 11946, "мова": 52848, "##uno": 25091, "जुन": 24342, "эң": 68057, "##Ը": 111113, "entorn": 62196, "Bai": 85172, "syahan": 13381, "dưỡng": 99070, "##映": 114141, "늦": 9047, "翎": 6439, "Dad": 95885, "##hraga": 79767, "MA": 27277, "занимался": 51310, "lluita": 80984, "##כאן": 109966, "proceedings": 93399, "##藏": 116683, "fonti": 57161, "RW": 97322, "##闵": 117938, "թվականից": 33923, "##талія": 78389, "##unen": 78965, "nykyisin": 81059, "Sancho": 54805, "##óm": 56245, "gennaio": 15763, "##muda": 82380, "Thượng": 49883, "##idea": 23058, "Fisch": 100295, "##cii": 30203, "puramente": 88849, "##鯱": 118414, "##onne": 29129, "##vour": 92713, "##ül": 16599, "##مبر": 80502, "honako": 75922, "Vicenza": 57780, "nieder": 63694, "վիճակագրության": 41270, "##ội": 90846, "##nst": 40300, "Clear": 69050, "marmo": 109515, "##posizione": 50134, "000291": 60233, "неба": 54597, "##锄": 117858, "##ətta": 106754, "intervention": 40152, "finala": 75019, "##nictví": 83688, "چون": 39583, "polsko": 72058, "##чав": 57953, "##lehrer": 84564, "##sley": 28428, "缀": 6368, "##tier": 34146, "##ίκο": 71745, "processi": 106658, "##塚": 112894, "november": 11725, "суда": 41923, "1419": 83330, "bədii": 94387, "##тыш": 105821, "existente": 62439, "mestu": 34383, "##cok": 91608, "hadden": 28130, "##пуск": 54018, "##bba": 55350, "過": 7758, "##vom": 33710, "##çons": 74764, "samba": 99928, "##ائية": 30026, "tradiciones": 107287, "nahimutang": 32395, "远": 7702, "##רא": 48316, "thánh": 94482, "##鄕": 117609, "##ikasi": 86226, "##ენა": 84947, "##ndri": 66702, "урнашкан": 16322, "##米": 115906, "ספרד": 82117, "##حركة": 88546, "##역이다": 69960, "ハ": 2030, "垅": 3068, "huvudsakligen": 13674, "leave": 21964, "semula": 45910, "mudar": 100858, "##нку": 51641, "unincorporated": 55507, "##Ā": 110929, "État": 15429, "ತ": 1277, "Hello": 31178, "##очка": 99628, "##pate": 86891, "##fetto": 64316, "##pul": 36748, "##という": 17658, "климатан": 19274, "##ણ": 31953, "##φεται": 103421, "расположен": 35177, "##lod": 51861, "fà": 66246, "##叩": 112516, "##िट": 80858, "谒": 7373, "##оря": 87794, "##lsen": 18797, "žije": 48068, "Binnen": 103339, "originally": 15556, "edildi": 37733, "Daten": 42635, "##rzyć": 108947, "##haidh": 97233, "##dade": 16114, "produkcji": 42662, "varð": 44883, "##馭": 118277, "Typ": 33974, "Brazzaville": 99511, "карте": 75343, "##ipelago": 76623, "##ерс": 62408, "##osi": 20316, "##kë": 64237, "##없": 119136, "##hý": 75309, "컷": 9804, "萸": 6822, "preuve": 80303, "薔": 6900, "xâm": 75956, "Discovery": 19593, "ഇവിടെ": 59870, "##呂": 112572, "##telja": 71145, "différentes": 25794, "enthält": 32341, "##őr": 84530, "האדום": 100875, "燎": 5359, "Rêu": 71768, "Directorate": 86533, "थुकिलि": 65712, "Мари": 50097, "##max": 89757, "prayer": 82012, "傀": 2373, "framework": 54387, "##лідок": 106600, "accede": 105753, "##encia": 24549, "दिसम्बर": 95013, "##ladığı": 91441, "##据": 113906, "voting": 48814, "##mauer": 74179, "Sherman": 16265, "怠": 3821, "poca": 44024, "Ауыл": 97807, "##ovne": 50358, "##rolle": 47820, "##μή": 25833, "écrit": 20745, "##48": 32168, "aperto": 54121, "##ยา": 54633, "tendo": 19252, "व्यक्ति": 53025, "dupla": 60190, "movimentos": 99793, "predvsem": 49746, "cidade": 12814, "Murder": 30109, "очолював": 104946, "entier": 66288, "##펄": 119388, "##kannya": 74826, "008": 54307, "##രുന്നു": 40953, "inzwischen": 41403, "##ією": 25189, "agama": 30845, "##дсан": 67706, "palácio": 95954, "museum": 17825, "koja": 12570, "аталган": 107010, "breite": 99459, "Bergman": 50391, "##臨": 116386, "##ланган": 72706, "podczas": 16096, "amar": 94725, "Gijón": 94121, "##ಜ": 111359, "##짜": 119235, "##রণের": 102582, "##сування": 98879, "Strings": 99094, "conseil": 24898, "##蹇": 117341, "##热": 115070, "##탄": 66554, "##皆": 115485, "##шему": 99220, "Théodore": 75869, "##ூர்": 27734, "##끔": 118707, "##jung": 30425, "Afromoths": 71334, "gewannen": 84215, "##vislosti": 71643, "organisations": 41536, "Amerikai": 61021, "纸": 6320, "detsember": 95238, "първенство": 104139, "##係": 112067, "kterou": 31828, "Ba": 21333, "ellas": 28979, "##jna": 28156, "##eget": 88310, "retornar": 76584, "##Ў": 111066, "sía": 103627, "rate": 18344, "##like": 15805, "##ccato": 96462, "Handball": 70121, "appareil": 65347, "##rger": 80365, "##锻": 117879, "دولتی": 86779, "ਪੰਜਾਬੀ": 41689, "##숀": 119061, "##дина": 60539, "##им": 13478, "neke": 41715, "pomoc": 57437, "##鯖": 118407, "Ватан": 97446, "TCP": 55222, "##晟": 114168, "formó": 39080, "##була": 82499, "##प्रदेश": 99283, "sitting": 62151, "##тира": 97223, "Davies": 23539, "domy": 83940, "##nez": 38087, "fun": 41807, "##গুলো": 72977, "Алексеевич": 74940, "estádio": 86154, "често": 23770, "actividades": 28273, "Anfang": 17561, "sastav": 24797, "1292": 100330, "Bola": 51565, "Espainia": 73935, "##hájil": 104819, "##漱": 114938, "legnagyobb": 31537, "ft": 13786, "##剂": 112328, "##OT": 62146, "##chua": 83501, "enger": 31059, "##쇠": 119059, "ങ": 1338, "игрок": 55801, "غربی": 31739, "##ständig": 79764, "முக்கிய": 45895, "anal": 106615, "obrazy": 89920, "Stowarzyszenia": 110679, "##стом": 54853, "##剃": 112329, "##כריז": 108337, "Price": 23002, "##ケット": 59630, "Norman": 15332, "ekonomi": 34727, "група": 19091, "возраст": 71473, "1763": 25960, "##歙": 114554, "роману": 79787, "Андрея": 93404, "Nils": 33288, "강": 8853, "##ʻ": 51379, "kwam": 16418, "únicamente": 66257, "familiak": 21726, "1546": 56664, "歳": 4800, "##یاں": 48943, "誑": 7216, "たり": 102103, "ụ": 1685, "##enta": 23420, "Ferns": 50953, "감독": 81571, "##vid": 32194, "XXᵉ": 36881, "גרמניה": 42129, "Großen": 37270, "##lzer": 96749, "aciu": 70813, "唄": 2876, "مجموعة": 25786, "Române": 86201, "ফ": 969, "##ския": 22813, "carácter": 30385, "gik": 37488, "Wydziału": 59104, "##댄": 118778, "dystrykcie": 76268, "##iku": 25151, "lights": 71123, "##пра": 76880, "İran": 45423, "##紫": 115965, "##δρο": 99721, "Pred": 90138, "迭": 7711, "##ısı": 34589, "##macher": 81263, "##HS": 62181, "##bəsi": 106021, "##钙": 117810, "##ğin": 68011, "Computing": 68716, "襲": 7137, "Un": 11038, "##worzona": 110081, "##מן": 14929, "##预": 118191, "##zycznych": 105984, "долази": 99648, "xem": 35143, "##agt": 50804, "1984": 10597, "பொருள்": 86130, "großer": 36783, "##ąty": 101635, "##得": 113541, "занял": 40555, "Após": 23906, "##글": 118663, "##ning": 11269, "размер": 66799, "##手": 113770, "BMG": 57126, "饒": 8485, "##谒": 117139, "##ffet": 79275, "##ΐ": 111031, "Episcopal": 59527, "accurate": 54616, "considerado": 21929, "południowy": 82456, "Molière": 62555, "##ljenje": 61493, "échange": 59015, "das": 10242, "совершенно": 86879, "##巍": 113341, "##zal": 32145, "##ković": 38057, "Immigration": 107898, "ficando": 97081, "режисера": 97745, "##ані": 41879, "##芾": 116464, "##nând": 92563, "хүн": 52903, "wichtigen": 75438, "habitesis": 74690, "遙": 7765, "히": 10025, "редакциясын": 78245, "pense": 77184, "漯": 5171, "ീ": 1371, "dieses": 17256, "SAM": 105508, "второй": 19463, "##დების": 71461, "Ces": 17340, "##otten": 64496, "erede": 104966, "##ҙәр": 70773, "Tal": 24471, "know": 21852, "أعلى": 53278, "##dams": 101367, "paprastai": 108732, "Շմադել": 97918, "squadra": 16684, "débat": 102609, "##烈": 115059, "Piemonte": 45324, "##eë": 97967, "става": 22909, "přírodní": 83971, "##tik": 13365, "fundamentalmente": 91430, "##幺": 113412, "拡": 4079, "##yda": 66825, "##凉": 112270, "larvae": 79301, "ainult": 49805, "1137": 95491, "##πίτι": 108450, "jääb": 97142, "##law": 37811, "##ensivo": 105439, "хийцадалар": 95507, "##왈": 119161, "503": 46186, "##žno": 43742, "璧": 5573, "##teilen": 96164, "##çmiş": 70244, "catalán": 40491, "娴": 3303, "PCI": 69280, "къаьста": 65040, "##hida": 63132, "empieza": 60867, "Seinen": 84352, "Kad": 49680, "##褻": 116897, "populației": 33500, "interpolation": 63690, "femmes": 21560, "советская": 55464, "jetzt": 43814, "англисӣ": 85285, "##ൃ": 111401, "##дот": 85714, "쾌": 9821, "##jórn": 98989, "সব": 100024, "Eventually": 61920, "Rechte": 54870, "##aldi": 99771, "##ık": 24596, "trafił": 85991, "saj": 20899, "već": 24295, "##bų": 54005, "ročníku": 92264, "જેમાં": 71579, "Information": 12145, "洼": 4979, "##军": 112248, "##亳": 111942, "##ôn": 37401, "純": 6189, "Timberlake": 75646, "##ـ": 105563, "secure": 45853, "poema": 36281, "entote": 73817, "última": 16077, "Wichita": 109506, "挟": 4108, "竜": 6037, "Бас": 37727, "mediante": 18229, "##tică": 84520, "診": 7189, "ugovor": 105264, "krouet": 106399, "裤": 7114, "জনসংখ্যা": 23246, "##uaire": 54154, "##ürt": 105927, "Meyer": 12963, "Farnese": 104359, "聿": 6495, "ובין": 79267, "##çilik": 91505, "##iaeth": 53567, "795": 71882, "milliers": 85898, "##њ": 96507, "DIN": 63617, "##ايات": 65687, "ويوجد": 81829, "чини": 104018, "##馱": 118279, "relativa": 42699, "##cisa": 89285, "Besuch": 55923, "##υση": 37648, "ehess": 60305, "österreichischer": 53919, "вршено": 83215, "##ti": 10325, "женат": 80749, "##احة": 37468, "##ovnih": 65378, "olympiques": 34437, "##ském": 35730, "##λογική": 101853, "##rania": 90205, "mít": 76148, "possible": 14128, "Wochen": 40224, "sterk": 27431, "##liegende": 103268, "عشرة": 80142, "##achment": 58031, "Schon": 44151, "Región": 35110, "##ку": 11191, "##دلة": 104897, "Mông": 99053, "principal": 11652, "högsta": 11776, "pela": 11793, "Dopo": 15068, "raya": 48340, "##вигатель": 98387, "exemples": 70821, "##tòria": 109408, "liksom": 92094, "煲": 5341, "Culicidae": 93715, "canadese": 66953, "##цин": 45757, "Madsen": 88759, "сл": 52399, "##惺": 113667, "##稻": 115751, "mundo": 13137, "Cumberland": 56481, "##chef": 70279, "##nu": 11147, "##straße": 21272, "เป็นต้น": 55106, "offering": 42281, "##biq": 101349, "##иев": 68249, "залив": 89592, "##ț": 33315, "indoor": 44091, "długości": 31384, "##ranje": 55685, "fuerces": 99985, "collegamento": 105540, "Văn": 23114, "##逅": 117488, "##וסד": 94033, "mg": 25699, "肩": 6514, "գրող": 101875, "##稗": 115739, "مخالف": 101982, "##ncy": 24166, "##ثناء": 83527, "đem": 65119, "committed": 38184, "鲁": 8677, "teatre": 47196, "##kú": 49179, "##лой": 54499, "Unito": 44533, "komplett": 54976, "##به": 24579, "##kane": 87451, "adapté": 87610, "occasion": 21334, "##brar": 69388, "unión": 44064, "##بنية": 100138, "##쟈": 119203, "蝓": 7023, "##ષણ": 97796, "##66": 87372, "髒": 8592, "##ロ": 18872, "钰": 8059, "##الجة": 102898, "##ומר": 61254, "덧": 9080, "##骄": 118334, "attraverso": 21828, "которыми": 89939, "процесу": 83844, "##孺": 113137, "napisao": 59255, "毆": 4832, "##worth": 17929, "##贖": 117237, "групп": 54874, "Tres": 24350, "踩": 7569, "##誣": 116989, "innymi": 32313, "##enas": 48123, "##BA": 35999, "##jā": 17469, "Республикаһы": 47772, "##dach": 45948, "Ruanda": 91215, "祸": 5924, "basada": 37708, "##aigh": 52933, "Премия": 66286, "랬": 9171, "Havilland": 76001, "##浆": 114751, "##łem": 31553, "##حماية": 96478, "##чити": 49211, "##âmica": 94024, "ほ": 1959, "##weer": 91137, "Antike": 89146, "Iris": 35949, "##كار": 53505, "##لبوم": 95942, "الطبيعية": 82699, "旼": 4360, "partite": 31358, "sentyabr": 68636, "Transilvania": 59297, "##ோட்டை": 102935, "##рған": 47080, "##щего": 36049, "36836": 108534, "ചെയ്തു": 34230, "嫔": 3331, "646": 63587, "##лаг": 54869, "1754": 32908, "##ياس": 106202, "廃": 3681, "obliku": 52615, "선수이다": 98944, "Nguyễn": 21471, "euklidsku": 48612, "Ngoài": 45447, "##rų": 52791, "Penguins": 89359, "Istwa": 19391, "##нн": 45102, "рет": 61900, "##նվում": 84644, "Nhĩ": 30504, "częściowo": 84809, "兑": 2438, "##ämpfen": 75058, "niiden": 40911, "##्टी": 84218, "저": 9663, "sólo": 17924, "filem": 23008, "כסף": 63225, "февруари": 29274, "incluyó": 78973, "기준": 63185, "Голова": 60265, "##검": 118625, "##rgie": 58247, "##蜃": 116765, "##рії": 32266, "Coco": 70728, "scholarship": 57125, "##אנשים": 95438, "14th": 38399, "##飞": 118223, "##뻐": 119013, "1565": 44318, "1905": 11812, "##祀": 115667, "nature": 16613, "dong": 52200, "##ảng": 47129, "##ऊन": 66984, "##влен": 78309, "##郯": 117599, "##حاكم": 89214, "каждый": 48295, "藐": 6918, "##ich": 14401, "creata": 83520, "##дова": 38622, "##ционален": 74567, "Insurance": 61490, "مشارکین": 16846, "هوایی": 69511, "Југославије": 48174, "##messo": 54628, "uczelni": 93837, "談": 7237, "ռազմական": 79152, "##νών": 36057, "##ানা": 44465, "##lama": 24540, "##ückt": 67008, "##árias": 41836, "Léger": 63128, "Stockholms": 41155, "##cchio": 44962, "conservar": 94491, "usar": 27050, "parks": 60690, "Paola": 57699, "Entomologist": 95822, "թե": 44084, "آورد": 62542, "##нските": 92136, "##ň": 19424, "Simons": 104900, "##kong": 48523, "##onale": 47103, "##tention": 65587, "##ального": 31636, "tüm": 34654, "##чив": 40181, "##sminister": 40853, "##갱": 118620, "предприятия": 58884, "എന്നാണ്": 71871, "concurso": 39088, "穂": 5990, "prize": 32929, "początku": 24674, "aras": 78997, "Grekland": 85754, "##ță": 17348, "1867": 13821, "Miroslav": 46707, "Community": 18553, "eenheid": 102610, "coverage": 42158, "##cejo": 82938, "##בש": 98946, "##kian": 79189, "##real": 42923, "1269": 109716, "dovrà": 102135, "##овок": 102469, "participar": 23322, "अ": 851, "تمام": 27559, "التركيبة": 76211, "##قص": 80173, "##രം": 24843, "תושבי": 86535, "Julai": 55005, "錦": 7980, "טיפול": 107621, "##曼": 114220, "henne": 33569, "tehty": 72306, "ženy": 53029, "складається": 38492, "limited": 19264, "iklimi": 36157, "Lausanne": 37570, "Nếu": 69106, "谅": 7365, "##侯": 112062, "از": 10383, "##◡": 111743, "במקום": 21767, "боях": 40174, "飒": 8452, "fyrir": 18646, "##gioni": 81434, "##钊": 117806, "##DS": 33953, "каде": 26465, "##ပ်": 57767, "اوستانینین": 59179, "Engl": 61202, "##وشش": 108474, "października": 16973, "durchgeführt": 38857, "##case": 41621, "##kehren": 106660, "జ": 1207, "২৪": 50412, "Ձ": 641, "##崛": 113318, "##釀": 117665, "##mpong": 102824, "principale": 14308, "Verilənlər": 57319, "Rumunija": 71973, "Greece": 25154, "Бәләкәй": 35547, "读": 7360, "##வுகள்": 68260, "颂": 8424, "##패": 119383, "롭": 9207, "##овые": 30165, "##ѕ": 111079, "##auto": 97207, "##oci": 59024, "840": 42935, "##torul": 77157, "##орма": 88021, "direcció": 50267, "avventura": 106277, "while": 11371, "деревня": 17985, "majka": 88973, "##нг": 26720, "õpetaja": 101468, "umbral": 108996, "حذف": 107863, "Занимает": 40155, "käigus": 90374, "##aika": 91386, "Crawford": 32945, "##elheid": 107932, "##скую": 15997, "Петербург": 27979, "##忿": 113577, "##ilu": 63338, "vivant": 54452, "##φος": 43869, "группа": 23495, "Cinq": 77118, "顫": 8411, "87": 12581, "über": 10848, "Baba": 36364, "##그": 78136, "سعود": 71518, "##氹": 114637, "##شكل": 49557, "##τήριο": 91351, "斥": 4327, "##ರು": 14851, "##tje": 32521, "ottelussa": 59715, "##軒": 117366, "##cionários": 103144, "##viada": 83578, "##砕": 115599, "χρησιμοποιείται": 73731, "##곧": 118640, "проводить": 88184, "Cumhuriyeti": 53196, "##tisk": 32251, "DOI": 26889, "##반": 30134, "스": 9477, "##笏": 115819, "findings": 79441, "꼭": 8955, "lectura": 73210, "құрылыстарды": 41117, "##ziano": 52868, "Nowego": 98783, "christlichen": 80460, "команде": 48769, "televisiva": 26305, "klassieke": 82144, "Ela": 26271, "##cția": 70249, "##寞": 113192, "증": 9705, "teorii": 65626, "Впервые": 58190, "possiede": 75537, "ㆍ": 2070, "שלושה": 40717, "XIXᵉ": 24775, "楸": 4675, "pouvaient": 103709, "##梗": 114376, "姻": 3285, "搗": 4200, "##陲": 117996, "بلاد": 72264, "##δίας": 88065, "Properties": 57051, "nera": 86168, "##댓": 118781, "cattedrale": 69100, "##מייה": 92498, "pertsonek": 33914, "Росії": 29642, "##ändern": 102197, "डिभाइड": 67545, "elokuvassa": 72571, "oudste": 47843, "belas": 76600, "獅": 5461, "瓜": 5585, "hispano": 110002, "##మిక": 98435, "##vat": 11857, "татар": 36518, "##doni": 92211, "Nieto": 110807, "sonradan": 93308, "उडिया": 78087, "hemiboreal": 68698, "昧": 4377, "žena": 35453, "##mées": 110047, "lentamente": 91838, "objekata": 23163, "nordeste": 76028, "k": 179, "Baldwin": 39185, "Condado": 27910, "halk": 92005, "##$": 110854, "##Й": 111069, "##ự": 42397, "Beograd": 26620, "##inu": 23038, "Liberia": 59169, "Československa": 84399, "##ct": 14526, "##ivu": 33976, "백": 9331, "##йний": 52849, "##さらに": 92789, "##bosch": 64049, "##ௌ": 111314, "##ে": 11199, "جانب": 38793, "படி": 106611, "##ეული": 68482, "adulto": 82739, "privado": 72626, "गरे": 79263, "##拷": 113859, "##اق": 19445, "2022": 75632, "दयाच्वनि": 66636, "mandray": 98886, "stoletju": 63922, "Sous": 37782, "papers": 34546, "Wszystkie": 89614, "##鯽": 118415, "1991년": 69859, "Pieter": 32905, "Quellen": 40698, "ख": 866, "##府": 113432, "nie": 11058, "Пловдив": 77915, "oman": 62023, "##பர்": 56486, "közötti": 46585, "駱": 8527, "dree": 96824, "##కాలు": 86280, "località": 35313, "Suppl": 85493, "1389": 69305, "##قی": 40376, "општине": 33583, "статья": 73089, "##吧": 112556, "NXT": 61525, "##تها": 20132, "可": 2756, "Nokia": 29428, "Mires": 42764, "إن": 26351, "##regierung": 50527, "##âm": 34595, "##tery": 63366, "売": 3175, "##Ձ": 111120, "##nz": 20259, "##wiki": 92700, "wynikiem": 90096, "القوات": 40720, "##সর": 98410, "restante": 83611, "##룽": 118894, "marcar": 75125, "##lsko": 99137, "TV3": 82616, "##שיג": 81813, "卵": 2699, "кеше": 27449, "膿": 6607, "formen": 41666, "Jornal": 107925, "##촛": 119269, "campagnes": 80818, "പ്രധാന": 42555, "##реда": 61146, "न": 884, "igre": 67318, "сайте": 40087, "##بیت": 87505, "##멜": 118930, "##lige": 14425, "nganggo": 103884, "##лось": 20243, "##biology": 94731, "##yakan": 103049, "##nture": 69927, "りに": 47061, "Presse": 46708, "##nți": 82323, "##ؤية": 94359, "Ở": 1681, "അതിന്റെ": 98271, "##nosa": 41409, "##வதற்கு": 91983, "##naar": 69074, "dirilis": 37868, "##idagi": 93718, "##ণী": 95888, "##valent": 74598, "##rl": 35703, "ilmiy": 93534, "atât": 49657, "hrvatski": 34233, "Vis": 76020, "مقالهسیندن": 15152, "##værk": 98809, "rebel": 56696, "قد": 16141, "құрамына": 20634, "१८": 78918, "##zion": 40307, "Centrale": 47776, "##морского": 105068, "##νο": 24739, "Nõukogude": 56840, "##τς": 59288, "##ildi": 36217, "результатам": 61983, "Erika": 53168, "kohti": 77565, "Cartier": 88735, "1529": 52391, "stöd": 109832, "CBS": 18875, "623": 57080, "hierarchy": 100101, "##蕉": 116649, "historiske": 62923, "馨": 8509, "triunfo": 71531, "##só": 31355, "##ді": 13143, "##יצור": 63716, "Pace": 66017, "popolazione": 22481, "GPS": 38324, "剝": 2574, "smatra": 44314, "优": 2224, "Ukrainy": 85621, "Nemci": 68751, "##ower": 101422, "Львова": 96851, "##왔다": 72995, "През": 13505, "Gap": 56746, "ಗ್ರಾಮದಲ್ಲಿ": 82180, "saja": 44725, "eingesetzt": 19976, "обучения": 60992, "igitur": 69005, "##oak": 38724, "proyecto": 23108, "must": 14982, "concretamente": 101131, "Drie": 98464, "##ড়া": 57963, "nero": 46794, "tamaño": 29098, "voort": 97519, "кВт": 88893, "Jagger": 82710, "מדינה": 93809, "##дел": 44030, "дә": 39390, "pomocą": 52334, "##vica": 44406, "Normandy": 101530, "lambok": 42338, "river": 16965, "##りに": 88319, "##leb": 88360, "##幡": 113402, "##ﻭ": 119496, "nou": 17899, "##лині": 106083, "Bydgoszczy": 78215, "##텍": 119352, "##posten": 85134, "没": 4917, "assumed": 39890, "perceived": 72077, "sastoji": 53821, "살": 9408, "##edia": 51373, "##ποιούνται": 99566, "maja": 15291, "Emily": 25282, "##露": 118082, "diputado": 69944, "redan": 49751, "particulièrement": 29674, "##কে": 18243, "utilisés": 47344, "Henning": 52889, "##ỗi": 38554, "Baza": 76539, "掺": 4172, "##刍": 112304, "ஆவார்": 49241, "ssä": 61415, "帮": 3620, "##klo": 67875, "arasındaki": 56199, "erməni": 108015, "Oko": 93971, "15th": 36293, "##љује": 100367, "212": 22023, "ehk": 27287, "##畅": 115385, "sapiens": 82099, "diferencia": 28204, "Yann": 70661, "término": 25271, "історію": 85207, "Von": 12273, "##ick": 20898, "голосов": 80105, "##杂": 114251, "##philidae": 92875, "##ff": 13820, "petrol": 99435, "červnu": 98936, "##вить": 60797, "phút": 69180, "buques": 84185, "##јан": 46271, "##魃": 118382, "##cem": 20034, "départementales": 106930, "Territorialgeschichte": 107742, "Венгрии": 78470, "有": 4461, "##ებს": 21523, "[unused87]": 87, "244": 27590, "ఋ": 1194, "interno": 16290, "беркате": 33825, "diseases": 54231, "comunidad": 31926, "szkoły": 38844, "Avril": 88261, "##енной": 46336, "##kop": 46392, "readers": 70950, "sz": 61048, "##ਵੀਂ": 102031, "mosque": 95493, "##דרות": 61551, "##軼": 117374, "servir": 22514, "##쩌": 119239, "##xico": 61105, "##meras": 95356, "##держать": 107031, "udalerrian": 16974, "##ברה": 51662, "##踢": 117334, "兖": 2441, "##др": 51965, "Sinclair": 44515, "Eihwohna": 73031, "اهالیسی": 73363, "##matų": 105636, "##错": 117864, "##mir": 20825, "##伝": 111993, "Mujeres": 90231, "Seymour": 43902, "稔": 5972, "bërë": 75367, "##ാത്രം": 102353, "##телни": 66234, "##бной": 92940, "##惶": 113665, "##շրջանի": 93515, "##rrir": 89847, "کاؤنٹی": 20767, "નામ": 95887, "избран": 27936, "Rivière": 43937, "начало": 33431, "##posant": 57573, "przełomie": 85664, "##matik": 56912, "1835": 16270, "##ológicos": 86740, "##шается": 87124, "##szystko": 106819, "samalla": 50827, "怛": 3818, "الفرنسي": 63217, "##ైట్": 110649, "##ular": 18062, "##sama": 62009, "##తోంది": 68450, "##ನೇ": 36746, "يزيد": 90511, "##βίας": 95249, "zabytków": 86000, "Conti": 68918, "##ستی": 44944, "혐": 9980, "revista": 16572, "##იქმნა": 100310, "ҺӨ": 16255, "##kla": 22444, "磷": 5889, "του": 10356, "ով": 37315, "Study": 22138, "##실": 31503, "øst": 32988, "Asteraceae": 73650, "Ehemann": 102040, "オ": 1993, "##niem": 30972, "1240": 57802, "##masının": 105105, "##cc": 28044, "limba": 42883, "##ത്തിനു": 80775, "reduziert": 96132, "sai": 13410, "Ian": 16582, "Większość": 94951, "##烫": 115069, "두": 9102, "##обов": 108823, "точки": 28549, "цар": 42518, "酚": 7866, "##rieri": 94392, "##في": 21970, "comparison": 56542, "kemampuan": 84111, "##칭": 52094, "##uzima": 99263, "Γερμανία": 85734, "uccidere": 69551, "لهیستان": 28538, "કે": 20238, "faj": 34939, "Melolonthidae": 61053, "momentos": 49021, "naar": 11422, "##nberg": 33199, "Category": 80087, "verso": 15942, "##ٹن": 56791, "mid": 15607, "उदाहरण": 77170, "הים": 39013, "becomes": 23785, "campos": 34924, "Here": 18249, "MSK": 39744, "jí": 50693, "##против": 89461, "Genoa": 63362, "حالات": 64607, "spedizione": 77245, "Anteil": 41913, "pēc": 22288, "Đặc": 94470, "Matter": 62989, "землю": 64473, "##mycetes": 79690, "##wodu": 66377, "蒸": 6850, "##겪": 118633, "მოგვიანებით": 97739, "##pool": 61571, "Michelangelo": 54273, "instant": 73312, "ռուսերեն": 101907, "裾": 7121, "##ені": 21118, "közelében": 69882, "tercera": 25826, "##ieniem": 106440, "JPL": 18281, "Jericho": 71129, "gift": 20592, "##daagse": 98219, "##كي": 23379, "НБА": 67744, "carreras": 64614, "##pítettek": 109013, "Italya": 57403, "##μενη": 52496, "##igte": 43321, "##仪": 111971, "##僵": 112171, "fórmula": 46819, "##tea": 24259, "Juifs": 60275, "##èl": 22552, "Cá": 99239, "##με": 41246, "##uttaa": 53014, "##лав": 29952, "născut": 56674, "کیمی": 52578, "##यक": 51094, "сестра": 42415, "##ија": 14570, "##wege": 40529, "##掻": 113939, "đông": 23164, "propiedades": 60411, "1246": 96308, "羰": 6430, "действует": 101640, "NA": 56586, "##롤": 118882, "##riffen": 87050, "димензии": 90396, "tentou": 99639, "##ള": 71430, "Labs": 100849, "literalmente": 98039, "##nò": 35762, "##kins": 39460, "új": 18582, "السورية": 88316, "червні": 79898, "##ничество": 97292, "partout": 104319, "##孤": 113130, "డి": 87988, "543": 50268, "deshalb": 38303, "##вської": 76687, "arbennig": 71571, "Nelle": 49162, "ցույց": 104255, "##jsk": 71893, "##wnie": 102622, "##in": 10245, "##Ό": 111028, "epi": 17247, "службе": 69037, "pjesme": 52259, "archéologique": 106167, "したり": 58565, "RJ": 72201, "##тке": 56014, "falso": 93720, "目": 5755, "##venture": 97961, "mór": 83732, "##ndro": 78908, "čemu": 67413, "Technologies": 49287, "##ező": 107293, "##kyisen": 95112, "##ագրի": 110452, "Juha": 99441, "rosyjski": 80075, "##կայի": 43728, "impériale": 67319, "Вторая": 98407, "罌": 6395, "##կսած": 105371, "##habilitation": 79057, "Prince": 14185, "ask": 63001, "##ੀਨ": 76015, "Halen": 97749, "Carrier": 76577, "perin": 56530, "fato": 38840, "オリジナル": 100207, "##τρατό": 101504, "au": 10257, "دراسة": 54516, "Una": 12148, "##pling": 51741, "enfrentó": 102766, "sikeres": 108395, "המזרחי": 105866, "梁": 4607, "planted": 97444, "תנועת": 76093, "##窒": 115779, "になった": 28798, "podobně": 107729, "##קנה": 73832, "##艱": 116435, "Portugal": 12939, "segunda": 13750, "լավագույն": 57363, "##елен": 56998, "رسول": 55038, "بداية": 48486, "performances": 22744, "##せた": 79713, "arrêter": 97318, "diputados": 106018, "numelor": 79208, "essere": 12098, "##ibility": 68348, "Espanyol": 78748, "##igan": 36784, "مولانا": 83490, "Rhapsody": 93500, "##ਅ": 107827, "##غير": 25726, "が1": 81317, "##eerd": 34063, "полностью": 29305, "##ып": 19504, "crede": 105274, "लाःवन": 43939, "Einzel": 64941, "ਂ": 1006, "##ит": 15811, "arbre": 49916, "ausgewiesen": 105425, "##cidio": 84716, "dividir": 100891, "qualsiasi": 55802, "Mariana": 42466, "blei": 27422, "vulgaris": 72709, "Sprachen": 46829, "Timothy": 32425, "##ינית": 57200, "##ían": 15978, "##имски": 101287, "Word": 34368, "Comandante": 71045, "командиром": 61618, "Mimo": 49578, "##čina": 36463, "onto": 31095, "Parallel": 70913, "##ælde": 98644, "сохтаи": 96540, "##뛰": 118845, "廓": 3686, "हा": 20321, "keväällä": 102940, "сразу": 41198, "japonaise": 57031, "##عتبر": 65282, "synthesizer": 88172, "##ného": 17823, "##lage": 20433, "槟": 4707, "Medien": 25361, "Soares": 67784, "медыяфайлаў": 37552, "##बर": 41082, "##uya": 105066, "Prevention": 81166, "辱": 7680, "##سياسة": 91524, "йылғы": 109884, "Daher": 57262, "─": 1836, "##გიური": 68924, "کراچی": 101190, "центре": 41930, "kralja": 34405, "милли": 90134, "##مكن": 67108, "ઉપયોગ": 61699, "##âneo": 102869, "forts": 63847, "钉": 8039, "##ację": 91816, "lungul": 81662, "Словарь": 93722, "##க்கின்றன": 71618, "Espírito": 71029, "##ասի": 95849, "employment": 48264, "舖": 6641, "##ых": 12861, "##سن": 39548, "zenbait": 73867, "##队": 117958, "władzy": 49264, "חדשים": 72383, "##green": 102247, "marks": 55112, "##摇": 113977, "##odan": 75630, "舵": 6653, "##ಂಗ": 80382, "ketinggian": 53392, "långhorningar": 54845, "often": 12899, "associé": 61486, "више": 21521, "##ution": 30861, "bổ": 43940, "ऐ": 861, "##uria": 53162, "capítulo": 52606, "torraste": 10996, "ontstond": 56758, "hawwe": 53163, "Dadurch": 54297, "##iation": 32767, "Origins": 26471, "başlamıştır": 77370, "弘": 3717, "##sund": 39082, "##sent": 30832, "mici": 75474, "dessas": 109226, "cca": 42360, "histórias": 79761, "農": 7681, "bomba": 39889, "ciclismo": 98342, "sorpresa": 60669, "##kleidete": 107870, "біля": 30913, "روایت": 94798, "univers": 46560, "##etzung": 102993, "resistance": 33823, "gọi": 17430, "elf": 39155, "##bb": 14496, "##béry": 104168, "Алтын": 96821, "platí": 102289, "##uw": 35300, "identical": 58000, "Loira": 73581, "Rights": 22305, "Monmouth": 101965, "縷": 6275, "அளவு": 90355, "może": 20974, "nyní": 77098, "sağlayan": 38995, "##tag": 24603, "יימס": 81675, "胀": 6524, "##рные": 67808, "rin": 42840, "participate": 36353, "mógł": 72296, "##tatu": 78497, "ГТ": 30169, "##hdi": 61028, "vrh": 88801, "Augusto": 26078, "##kelijk": 46956, "##窃": 115775, "##مين": 57655, "vijfde": 69893, "##ize": 19181, "לשמש": 106666, "##рын": 21568, "##авы": 75937, "Pristupljeno": 15051, "đánh": 17959, "гэтай": 88365, "##煤": 115100, "MBA": 62575, "upgrade": 107003, "också": 17176, "old": 12898, "регіоні": 33010, "俸": 2328, "##鏈": 117780, "##писао": 62139, "углавном": 62942, "בדצמבר": 36860, "guanyar": 41564, "Nalazi": 54800, "癇": 5700, "AQShning": 40296, "lijkt": 70688, "알": 9524, "такими": 56317, "##凑": 112275, "凍": 2507, "##為": 115053, "##ാമത്തെ": 94507, "procedures": 70176, "према": 23028, "##रिया": 93856, "##oti": 23841, "delayed": 67058, "robots": 89124, "Genera": 73524, "##вол": 110687, "##لعمل": 99028, "##荷": 116527, "nazivaju": 109777, "encuentran": 23849, "padi": 84198, "government": 12047, "Vicky": 103306, "##ическая": 42242, "voda": 46286, "Software": 21176, "##долго": 91958, "Генрих": 89718, "##εψε": 96356, "##鴛": 118483, "##iassa": 102784, "bong": 102042, "丸": 2108, "①": 1831, "Leonard": 20318, "##јам": 79751, "##инде": 72139, "Strom": 66091, "##屏": 113259, "##nija": 28738, "にあり": 65236, "##aik": 106333, "Galega": 62732, "wine": 43558, "##ricio": 104866, "##licher": 19276, "##viklet": 69830, "Poe": 52544, "降": 8214, "relationship": 19808, "Kendrick": 106469, "##hya": 83211, "##dan": 12146, "మీ": 11314, "भ": 888, "بانک": 92853, "##teto": 88851, "області": 15327, "##iung": 87534, "міста": 17591, "live": 12962, "combates": 87063, "##etera": 85381, "antiguas": 77974, "##ैली": 86969, "##莘": 116538, "главный": 40793, "técnica": 28996, "wewengkon": 71685, "冪": 2489, "##kset": 42214, "##žni": 38270, "デジタル": 106869, "##তির": 66565, "Но": 19732, "##gert": 57241, "poprvé": 45451, "뷔": 9374, "Sabah": 45032, "##老": 116221, "realista": 91232, "##轍": 117399, "ગુજરાત": 27958, "題": 8398, "katere": 107577, "Томь": 95838, "asli": 16012, "TK": 77055, "ראה": 106751, "Munții": 98301, "##поха": 96370, "afleveringen": 84197, "##bahan": 65474, "##stán": 71660, "APG": 56219, "없이": 73610, "sor": 56011, "chosen": 27997, "##λει": 79472, "longtime": 106068, "##gte": 18423, "##vă": 53552, "##tims": 109220, "ઓફ": 56515, "##lz": 48275, "##muşdur": 95590, "##فہ": 70361, "##seksi": 80694, "Filipa": 90486, "épület": 71798, "##ടു": 50318, "##çesinde": 104381, "衬": 7084, "##νία": 35645, "familian": 21182, "sekretarz": 105840, "##pter": 38384, "##علی": 69124, "iyi": 33461, "##诃": 117088, "Sylvain": 76078, "##сіз": 83255, "dens": 37144, "##ре": 14348, "веома": 51619, "Angelo": 22969, "##никова": 98438, "##nch": 31215, "##řadu": 89424, "olunan": 57663, "##елу": 102601, "##らない": 58737, "dietro": 49472, "##׃": 111162, "planet": 15690, "esti": 23933, "saavutti": 49952, "exact": 45809, "Birthday": 57981, "equipo": 13670, "##щественный": 95213, "alábbi": 27438, "702": 62049, "##긋": 118664, "Chrome": 85237, "##handelt": 102169, "Bianca": 51095, "membangun": 78866, "corresponding": 60579, "برای": 11835, "peaks": 86666, "ની": 80167, "##रा": 31277, "狀": 5424, "##uniu": 89626, "##ницы": 31471, "ఒకటి": 26858, "først": 20847, "сыном": 79845, "膺": 6605, "мир": 29345, "##ಶಗಳಲ್ಲಿ": 110255, "##phones": 49566, "##žio": 26183, "ثلاثة": 43032, "жұмыс": 50887, "##爽": 115158, "Herrscher": 97496, "pracuje": 83361, "наоѓа": 29146, "탈": 9848, "proclaimed": 92906, "##モ": 58085, "##ҙары": 90926, "рабочий": 102732, "##ienie": 73778, "तीन": 34139, "melanjutkan": 94043, "##스로": 94980, "##έτη": 71315, "Устье": 89492, "Wim": 73760, "எ": 1146, "WCSP": 19379, "dle": 35421, "Dodd": 101281, "children": 12694, "##阮": 117961, "エ": 1991, "montagna": 70939, "wish": 66069, "passenger": 33155, "revolutionary": 71270, "Фонд": 102152, "хан": 26094, "##tím": 61263, "迂": 7690, "ோ": 1183, "كتابه": 95940, "скончался": 70923, "瑟": 5549, "##达": 117453, "licenza": 104626, "coneix": 84736, "但": 2243, "piramidea": 33157, "প্রকাশিত": 81095, "##痘": 115440, "vivo": 20886, "unterhalb": 54688, "schon": 16363, "##زون": 88478, "chef": 15158, "steht": 17276, "gestorben": 97845, "Patricia": 26751, "##كشف": 97600, "lati": 50427, "##gewezen": 86349, "##šču": 80397, "Dai": 57019, "tar": 24948, "widow": 71598, "fortress": 87208, "als": 10223, "cercana": 76646, "##rdement": 107004, "мәғлүмәттәре": 43381, "##bajador": 100199, "邑": 7795, "Brown": 12623, "##gām": 96502, "##μβάνει": 98414, "##愿": 113683, "劉": 2591, "Europea": 34457, "##१८": 99013, "##꺼": 118679, "Jammu": 103818, "##μικό": 54837, "##сход": 68874, "##ць": 12893, "możliwość": 72010, "sé": 15492, "యొక్క": 16458, "Sinaloa": 79503, "tingkat": 41819, "Festival": 11771, "##媛": 113089, "structures": 24914, "##Շ": 111125, "PT": 30350, "##ональному": 101070, "Smithsonian": 33830, "##iformes": 53011, "Wikipedia": 13997, "својот": 59325, "##ૃ": 111284, "соответствии": 43451, "அந்த": 50982, "##cij": 110684, "Hoffman": 40910, "Wedding": 52109, "documentation": 35811, "##stena": 109761, "##تش": 105702, "Hindia": 88075, "პერიოდში": 76112, "para": 10220, "##чења": 52475, "дебют": 100461, "erbaute": 105248, "Kumbang": 39834, "faisant": 29901, "##уре": 73737, "Order": 14715, "##氛": 114622, "##ստական": 66920, "hecha": 107368, "espressione": 79497, "prononciation": 100012, "drawings": 82301, "##ടം": 53144, "ಿ": 1297, "پادشاهی": 88118, "йочанаш": 42356, "Kina": 20078, "yeniden": 45713, "Newton": 21078, "##joj": 89988, "styl": 64918, "Zimmermann": 77006, "##eito": 59122, "abu": 104735, "##੩": 111262, "1934": 11283, "использует": 89824, "Anjou": 42946, "職": 6492, "庐": 3659, "linguistic": 105768, "##нием": 49396, "##אב": 33915, "ಮುಂತಾದ": 108985, "latest": 50908, "Leipziger": 79646, "##orii": 75076, "孽": 3372, "applied": 26850, "Mansion": 110399, "مشغول": 51728, "##ды": 11890, "اوہناں": 50481, "Semarang": 61030, "##鋸": 117736, "vēlāk": 61122, "Invisible": 76995, "Falco": 70170, "zakonu": 104214, "Երևան": 28861, "##াব্দে": 78927, "##טים": 22838, "should": 14819, "##戛": 113747, "##éroes": 107988, "Ceci": 89451, "Speed": 30949, "Ă": 288, "##öping": 49620, "友": 2731, "##fermato": 98004, "orilla": 96037, "藪": 6927, "দেয়া": 97474, "немецких": 79645, "莢": 6774, "ァ": 1984, "##ნება": 42438, "##gári": 90763, "copper": 61576, "绍": 6334, "##運": 117522, "stile": 26317, "##ಾಗಿ": 21628, "##бит": 51167, "帯": 3621, "парламента": 76967, "fondu": 93363, "platino": 108156, "Nhiều": 81529, "الضغط": 104313, "##ционална": 63770, "device": 33091, "१९५६इ": 98843, "koju": 22737, "##ぱ": 111797, "persons": 34759, "##漠": 114930, "##ท": 37022, "##ニット": 109289, "##טלקית": 102897, "##java": 62580, "##善": 112677, "##ಸ್ಥೆ": 78782, "##gine": 32994, "##δοχή": 108949, "##ается": 54758, "##шину": 109247, "##צרה": 76514, "栱": 4576, "komt": 14984, "verheiratet": 28083, "##platten": 98434, "##sning": 108639, "##tieg": 95654, "##redible": 94530, "musical": 13195, "梟": 4612, "311": 29780, "Studios": 17189, "##瞿": 115576, "评": 7323, "incidents": 73451, "##νή": 28521, "##gini": 54497, "##螺": 116810, "jardín": 74678, "##изация": 86382, "ਰ": 1041, "##yet": 33878, "Vernon": 38376, "Yeah": 103014, "耙": 6466, "Mae": 13240, "##ズ": 14685, "##азан": 74707, "Moskou": 85318, "зона": 49352, "сайті": 56281, "등의": 28697, "##szor": 86565, "carrier": 53402, "Savannah": 82753, "acqua": 24742, "##기로": 62675, "wilaya": 99739, "暇": 4417, "fede": 83482, "жағалауынан": 44177, "وهي": 17149, "Joaquim": 47686, "けていた": 108801, "##燐": 115126, "eingebaut": 98257, "ื": 1446, "몰": 9287, "aplikasi": 110720, "褫": 7128, "##nzia": 77424, "##цкого": 43938, "споменува": 50929, "##ævnt": 86757, "zaczął": 63061, "mitjançant": 43640, "##ವೂ": 106001, "##نيسة": 93620, "Bezug": 58462, "##đenja": 74493, "դերասան": 105659, "嗅": 2935, "##unct": 108647, "siten": 77777, "##gst": 65278, "##quia": 28562, "גיל": 86147, "##cursions": 88228, "Corpus": 45617, "##pterus": 106149, "##ssa": 11253, "gestão": 102288, "Telecom": 79642, "##الدین": 71143, "ulang": 74910, "弑": 3711, "publiée": 53397, "establiments": 36273, "寧": 3432, "##küste": 59326, "##ϊκό": 69623, "temporadas": 36790, "Euroopan": 39213, "Alfons": 48145, "##ap": 16070, "##vem": 42201, "##מאבק": 103427, "##빛": 119007, "деле": 53930, "##بيئة": 102516, "Petite": 51423, "ě": 307, "##isiert": 38446, "próximos": 78036, "Jazz": 16147, "gelangen": 89668, "##gerte": 73703, "##ỉ": 47961, "##روج": 100797, "XX": 12067, "##봇": 118988, "##еке": 58157, "Ravi": 93511, "armate": 71111, "##lbum": 71993, "ljudi": 22893, "##학급": 42248, "Ginklasipika": 36123, "##gjithshëm": 99942, "##чено": 27552, "##większym": 107212, "lemesed": 32217, "Gómez": 25074, "##œ": 110962, "##oký": 109160, "Español": 49664, "zusätzlich": 38824, "Francesa": 52500, "ಸಾಮಾನ್ಯವಾಗಿ": 51839, "##afft": 82794, "Rosji": 42914, "##邵": 117578, "slaves": 56221, "ဃ": 1495, "##ಾಗ": 34740, "dins": 13553, "##ഏ": 111377, "##кл": 53869, "##artel": 94896, "##cies": 18320, "ott": 38465, "##овища": 88059, "інформації": 50279, "##ящий": 61910, "Bundesrepublik": 44216, "六": 2453, "##লাম": 97963, "ces": 12844, "Հայ": 76374, "##nnt": 82572, "Phú": 48548, "२०१७": 91477, "символ": 51235, "##阆": 117949, "història": 29640, "sculptor": 78793, "毘": 4842, "consegue": 74319, "##כתר": 106396, "Niedersachsen": 42616, "##rmente": 98120, "vorgestellt": 86301, "##buran": 67469, "wadi": 60035, "раді": 71342, "vez": 11675, "等": 6069, "enfoque": 102632, "canon": 50244, "година": 11229, "##eutu": 82039, "کرتے": 44984, "##冒": 112244, "√": 1807, "##циональная": 76292, "Rooma": 66270, "gol": 15558, "Hưng": 60802, "bazası": 103488, "vatn": 104514, "ੰ": 1064, "責": 7425, "Shine": 65401, "ഇതിൽ": 86735, "მიიღო": 56399, "劫": 2604, "AM": 24339, "##粵": 115925, "抜": 4043, "##еҙмәт": 97726, "##rete": 34942, "Cochrane": 72744, "joylashgan": 14452, "##vidade": 92726, "Gregg": 72729, "‧": 1732, "црква": 41804, "ਕੁਝ": 84741, "##سو": 81719, "נוספת": 48878, "institutions": 24671, "1A": 74903, "##アン": 53217, "##űködő": 102402, "آتش": 92950, "##iardi": 107088, "沒": 4910, "##ībā": 30308, "bonus": 28215, "Hare": 61535, "995": 66164, "41": 11349, "belongs": 61437, "Западной": 60777, "##ాగా": 95269, "仍": 2189, "紺": 6206, "borde": 68109, "##佟": 112027, "oferta": 56721, "脆": 6549, "##gatif": 85756, "особи": 18976, "Rhythm": 47101, "otec": 51017, "Gray": 17533, "##ваний": 69097, "effects": 21274, "##чался": 101167, "1794": 19690, "##gga": 38541, "##чук": 45188, "Гидрологи": 45530, "Hospital": 16025, "丈": 2076, "немецкого": 87322, "##酬": 117637, "étrangers": 67214, "diversa": 58062, "Rom": 21239, "삼": 9410, "꺼": 8947, "deel": 13380, "##avan": 53587, "jedinjenje": 53609, "Назвы": 40961, "паміж": 47470, "Nombre": 22948, "##יעה": 104258, "হলে": 92576, "##gård": 44173, "Рада": 64231, "benda": 58431, "##إدارة": 105651, "##やすい": 104207, "felé": 37991, "iz": 10793, "##ólogo": 31765, "شخص": 27767, "österreichische": 69515, "[unused18]": 18, "бидејќи": 60009, "Selva": 79919, "##ET": 52338, "Case": 24357, "##jednik": 79899, "giornata": 58389, "biserica": 100719, "##濑": 114983, "Energy": 21058, "голови": 40505, "##rière": 57570, "bor": 27728, "##缇": 116137, "primeiro": 13473, "##цыя": 26896, "Село": 23494, "##čeli": 82626, "Київської": 73584, "##itano": 102834, "Peak": 23734, "Johor": 52324, "alba": 35299, "017": 90071, "##buda": 91794, "buon": 67284, "void": 65099, "##we": 12577, "amerikanischer": 25865, "##արկում": 106030, "##胀": 116290, "##erkt": 100467, "##iamento": 89185, "llogaters": 66012, "globe": 92991, "딥": 9126, "##ртып": 105010, "砂": 5829, "kardinal": 66196, "##wo": 16828, "Onze": 95922, "ánh": 75946, "##TS": 36545, "##ерта": 104294, "городе": 18036, "恤": 3841, "##ствовал": 67955, "slut": 78006, "##밴": 118971, "##ਾਰਾ": 88964, "##淸": 114822, "##ઊ": 111273, "##miseen": 54416, "кроз": 49284, "оподаткованих": 74575, "esquema": 82354, "капитан": 35566, "β": 466, "문": 9297, "ngadto": 71753, "##xte": 72680, "##ומו": 64605, "ઑ": 1080, "##sif": 53212, "chiamato": 30099, "##setzung": 40658, "Serbia": 20141, "proizvodi": 106206, "steps": 50879, "գլխավոր": 42351, "##越": 117302, "Како": 45383, "происходит": 33779, "үш": 77666, "представлена": 69503, "##義": 116194, "3º": 49669, "##zenia": 20482, "підтримки": 85263, "によると": 52669, "##제의": 74242, "Gdy": 59074, "##才": 113771, "##diu": 43919, "разных": 37850, "890": 54149, "höört": 59266, "izendatu": 93312, "сегодня": 72166, "Maire": 72141, "Palacio": 35915, "chip": 64008, "како": 12668, "##são": 24120, "##dé": 29239, "Муниципалитет": 85482, "##čoval": 68074, "gatunków": 50027, "Aquitaine": 30535, "##蕊": 116650, "##fektur": 57979, "##γη": 97317, "Tribunal": 28774, "simple": 16205, "##ઢ": 111282, "ہن": 29240, "啡": 2899, "førte": 30674, "humana": 28554, "Renata": 99237, "razne": 98756, "redor": 38800, "##ดี": 57209, "##냈다": 60209, "النادي": 79176, "##sano": 108466, "arabo": 82331, "##ované": 48913, "tiểu": 20269, "stars": 20756, "voto": 38548, "̃": 421, "##рте": 92965, "##anlagen": 61926, "perjanjian": 84211, "泡": 4945, "噴": 2974, "1615": 45054, "המרכזי": 77934, "שמו": 39380, "##ronik": 97682, "CE": 31078, "##østen": 64960, "ῷ": 1722, "Federer": 67135, "тәшкил": 42450, "politicus": 52415, "прво": 65663, "##เพลง": 110133, "посёлок": 34661, "ESP": 96905, "Smoke": 80677, "Demokratie": 105548, "Contemporary": 17266, "ℤ": 1782, "ਮ": 1039, "remainder": 50308, "##્ડ": 48139, "marking": 98316, "խաղում": 55359, "gepubliceerd": 11428, "##ético": 48092, "Parlament": 29889, "##ئے": 26649, "Bullock": 96763, "##vali": 22263, "##łowy": 61603, "francuski": 35374, "##מח": 71158, "jedes": 53263, "brokparasitsteklar": 72150, "##ली": 15658, "##رل": 81407, "##jona": 85365, "##ՍՀ": 64541, "Naamsvermelding": 65515, "Comment": 105415, "nessuna": 101503, "مجموع": 63582, "protection": 20344, "económico": 46223, "{": 195, "гады": 63485, "paritany": 106776, "begrenzt": 79341, "##ენ": 61579, "##vās": 77623, "##cev": 49556, "ὡ": 1710, "##пий": 103130, "coruñés": 110789, "##વાની": 108153, "##ործել": 81416, "##திப்பு": 83857, "##zeitig": 51172, "lançado": 21666, "puits": 86504, "Glas": 69761, "##iją": 105440, "akit": 74461, "founder": 22826, "##ήμος": 66485, "842": 64494, "它": 3374, "##ği": 16054, "могло": 78664, "militaire": 18982, "overseas": 59391, "##ине": 20563, "##isario": 89236, "besaß": 50719, "rpm": 65016, "امیر": 68990, "illustrated": 46878, "lana": 78650, "沔": 4912, "ditu": 15507, "dopuniti": 29356, "밀": 9313, "##ný": 12417, "Io": 50264, "##分": 112300, "##ванням": 74306, "☉": 1863, "##ביאה": 94739, "పరపతి": 42107, "Sverige": 14649, "reicht": 64604, "Productions": 22279, "##nų": 40580, "咋": 2832, "##anze": 109152, "herausgegeben": 71658, "##uari": 85429, "##िली": 41500, "potere": 30153, "zaidi": 38989, "discurso": 62110, "##ải": 32123, "Birinci": 73612, "dannet": 52572, "qualifizierte": 110378, "##ids": 34181, "stand": 14603, "##致": 116390, "paso": 25307, "Michigan": 15476, "Pesaro": 105165, "##زيد": 91825, "यस": 30629, "##沓": 114677, "Federico": 20809, "цели": 47053, "##família": 103973, "Þegar": 110080, "##δικά": 67652, "諦": 7246, "adolescente": 66624, "##িয়া": 32437, "رہیا": 109064, "辫": 7675, "absolvoval": 102302, "##jing": 108988, "##谅": 117131, "২০০৩": 101709, "##鮟": 118398, "Week": 25227, "бой": 52207, "##ניין": 76031, "##leet": 83780, "##ુ": 23560, "произведения": 41827, "쿡": 9825, "##ache": 41944, "Estes": 40170, "##腕": 116344, "##utor": 31602, "##rts": 26215, "Vacelet": 65904, "##честве": 50043, "1946": 11063, "##شده": 58180, "喷": 2933, "בנוסף": 27793, "führte": 17125, "elk": 45921, "##ை": 17793, "秣": 5958, "##ecko": 57441, "松": 4511, "##餉": 118235, "scoorde": 92228, "Perm": 67222, "##⁰": 111634, "Rockets": 86707, "sécurité": 34239, "με": 10781, "##淇": 114803, "dramaturg": 101263, "##ios": 15587, "Herder": 100536, "заместитель": 43200, "internacional": 16641, "##čajne": 93204, "compone": 72673, "##ásával": 56601, "avversario": 97427, "絕": 6213, "kreyòl": 98635, "Idade": 71580, "qəbul": 44276, "##áil": 42591, "compagno": 78858, "representada": 69327, "macam": 90567, "aside": 95167, "##дро": 50676, "##čného": 53620, "492": 44609, "##llidae": 45182, "seda": 23463, "##atia": 80184, "くの": 20832, "двумя": 36815, "##党": 112209, "doubt": 86697, "##čke": 16795, "##הגיע": 103669, "chassis": 87087, "intae": 91373, "Comunista": 41231, "##醤": 117658, "interests": 36026, "##vence": 84454, "doveva": 55996, "images": 22494, "##饷": 118262, "##カップ": 62140, "##錚": 117743, "Apollon": 95864, "этих": 23459, "community": 13354, "Коми": 35904, "sirvió": 71082, "universidad": 54562, "Kominote": 24795, "шийла": 14219, "##كرة": 62708, "Building": 21630, "aici": 58068, "ordenó": 66095, "ساخت": 33980, "गरिन्छ": 88768, "##дство": 70382, "##стр": 52685, "पुरस्कार": 25855, "terbang": 43663, "construción": 103259, "जाकी": 79155, "Оскільки": 109276, "imperiale": 61184, "među": 28889, "njegovom": 85246, "exemplaires": 47029, "##mor": 35269, "棹": 4643, "##ovej": 50010, "cambiar": 66798, "okolicach": 98562, "turco": 61476, "görə": 20695, "##從": 113544, "##yta": 34409, "##хідна": 103985, "##рху": 94153, "дому": 104926, "##밭": 118970, "纥": 6307, "наши": 106406, "##χης": 89867, "兵": 2459, "##mna": 67786, "thrash": 87897, "deporte": 65827, "אמר": 75072, "కన్నా": 79278, "sat": 20694, "mjr": 88938, "Чувашской": 105359, "##телите": 89446, "Polydor": 81491, "##heur": 73183, "писателя": 72156, "೨": 1311, "Cap": 24069, "huis": 31776, "erhalten": 19453, "deoarece": 68428, "##縉": 116032, "Edmond": 38264, "Vladimír": 64790, "##ıyla": 59190, "Bray": 68316, "milions": 43886, "##ļā": 97168, "##цк": 82648, "mesa": 53953, "xéneru": 73135, "inhabitants": 28348, "циклонашца": 33839, "estão": 24062, "앉": 9522, "радянської": 79934, "ηλικία": 55318, "därmed": 69792, "238": 24388, "hoạch": 48721, "شمال": 21737, "colonel": 31456, "deri": 33109, "ﯿ": 10036, "##ნა": 19060, "##氏": 114615, "##מעותי": 100565, "Димитър": 58744, "diterima": 84571, "کل": 40160, "ordem": 41793, "broken": 36197, "principales": 17378, "номер": 44479, "poate": 25496, "ボーカル": 104788, "harus": 29062, "##лів": 27106, "##skola": 56592, "Mart": 21572, "Mặt": 65205, "Gitarre": 73053, "##аецца": 101234, "##ítő": 52394, "เมตร": 46363, "##等": 115835, "vald": 34517, "ATC": 102093, "##issima": 104081, "##lady": 53494, "##స్": 15370, "Sears": 104403, "juli": 10966, "##ונית": 31404, "Eiropas": 50969, "Burn": 49331, "lasciando": 83562, "唾": 2888, "##وط": 38972, "मणिपुरी": 76308, "brug": 35725, "hiện": 13526, "##诱": 117118, "##նող": 103713, "Araneus": 74683, "##ערבית": 70479, "probe": 110239, "jelentése": 105608, "##ίας": 20415, "##hama": 96143, "##tifs": 86651, "##lmiş": 47293, "##ítva": 94955, "##მი": 28161, "perdendo": 72922, "##itum": 60814, "maxima": 92098, "fila": 86644, "euros": 26715, "##fet": 77880, "Abdel": 102882, "Herriko": 92009, "Timo": 62723, "とされる": 66960, "##czesnej": 77281, "##вшего": 75683, "##թ": 28571, "Позже": 48679, "##లోనూ": 34082, "Sự": 55472, "первый": 18794, "퀘": 9829, "mumkin": 71195, "##eed": 40154, "declined": 44948, "Vielzahl": 74150, "##ನಲ್": 89272, "Kelurahan": 86128, "##vasti": 50065, "Osiris": 101899, "Planets": 42501, "##fekt": 64169, "##ple": 22238, "##目": 115521, "##ísní": 107453, "##sere": 81470, "뀌": 8968, "avantage": 97212, "##сън": 75873, "Acoustic": 66749, "##탈": 119336, "Athletic": 24380, "континентан": 23221, "詢": 7199, "##인이": 56789, "##apo": 102161, "spin": 30428, "doch": 21131, "Antarktis": 43901, "##矣": 115582, "Seminary": 71131, "снежня": 49986, "asteroida": 100163, "##گاههای": 92641, "兒": 2439, "##WA": 42196, "Urteil": 97243, "মধ্য": 92006, "##ије": 20777, "második": 20405, "ς": 482, "سرعت": 59608, "Italiana": 30036, "արտաքին": 104436, "religious": 19366, "##૪": 92716, "Harding": 66102, "##nien": 25175, "618": 45806, "##zë": 79197, "Havana": 64403, "exempelvis": 78587, "##ヶ": 57340, "Celle": 46047, "##ările": 82373, "Osborn": 110705, "tri": 15633, "Sugar": 37415, "komen": 23504, "britannico": 35255, "wrestling": 48720, "﹐": 10042, "technical": 29914, "##zone": 26076, "نہ": 32546, "##ृत": 37500, "Sgt": 80599, "##ewing": 106691, "##黯": 118577, "คน": 25915, "writes": 49501, "anv": 28526, "時": 4388, "alternativa": 39160, "聶": 6491, "comună": 21076, "1427": 82765, "الموجودة": 90453, "captain": 28157, "Ladies": 38094, "sela": 51935, "misiones": 94611, "Málaga": 40603, "jedan": 18627, "arena": 33080, "১১": 38101, "trừ": 70352, "peuple": 36477, "賣": 7454, "Cela": 42742, "##מקור": 52960, "Reichenbach": 92794, "Vermont": 34919, "comedy": 25737, "סדרת": 60909, "##木": 114239, "RC": 40089, "aren": 99045, "মার্চ": 38647, "الاسم": 29964, "##scription": 55785, "##금": 40032, "##終": 115973, "##ifikation": 80636, "##kun": 49581, "##લી": 29402, "exhibit": 66890, "##lid": 35201, "##佘": 112021, "đáp": 96387, "##янов": 106791, "##두": 118802, "Giám": 58886, "spielten": 57332, "##鲱": 118455, "洞": 4968, "kategorie": 54331, "буде": 29891, "褶": 7130, "##зення": 102133, "缅": 6369, "##gando": 44789, "Desert": 33944, "習": 6440, "ferdig": 76129, "##ның": 12204, "##o": 10133, "socialista": 47981, "Sitä": 76277, "اور": 11363, "stem": 37649, "##stes": 19227, "##іті": 89576, "nombreuses": 19770, "##nkurrenz": 110321, "##쁘": 119022, "##స్తుంది": 28674, "vector": 46514, "goli": 105900, "##옛": 119151, "மே": 77515, "##ੁ": 111256, "##ಲ್": 16456, "##蝠": 116793, "Fleetwood": 98374, "##吃": 112533, "MIT": 31472, "minerals": 73388, "ottelua": 55690, "kuno": 84377, "reviewed": 61873, "##ldet": 106499, "struck": 45622, "##вается": 65335, "##tynyt": 74530, "##レンジ": 109047, "##ческим": 40033, "##tiden": 44087, "својата": 49753, "##籾": 115909, "ಐ": 1259, "Jebel": 77018, "Bones": 59656, "wait": 83279, "utwór": 62476, "Союза": 20547, "埋": 3085, "Я": 540, "automatically": 64585, "brass": 109555, "Since": 15591, "##ճ": 66115, "Confederate": 56112, "605": 48141, "##lands": 18425, "##टर": 57134, "##ведены": 79582, "ћ": 584, "আর্কাইভ": 67803, "##wczych": 108019, "륜": 9226, "zichligi": 25383, "##جرد": 99510, "##격": 45465, "##dən": 17438, "1970er": 37126, "##ıları": 103499, "##gården": 65538, "##тства": 70776, "sureste": 59270, "imperijos": 103952, "sentenced": 53365, "##Э": 44209, "nouvelles": 22877, "Asturies": 88512, "nacido": 36989, "##lab": 41284, "продолжил": 69210, "##遹": 117546, "##turi": 40388, "जूगुलिं": 39290, "gu": 75980, "όλο": 99179, "##дерінің": 87579, "##иро": 72252, "hala": 41862, "Luís": 28559, "Franc": 61893, "پہلا": 101972, "##inta": 42948, "##峨": 113301, "инженер": 44432, "##zeń": 55386, "##ллин": 98185, "OTAN": 82878, "飞": 8457, "veg": 108193, "cikk": 46081, "خواهد": 41871, "dunha": 27523, "##ღ": 111515, "[unused95]": 95, "فارسی": 29658, "##宥": 113165, "cinq": 15864, "محافظة": 29506, "گؤره": 38910, "చేసే": 105161, "élevait": 106510, "##ιν": 43202, "##ộc": 104484, "Zukunft": 54861, "cantante": 17236, "базасындағы": 26681, "Diputación": 84429, "участке": 108117, "馗": 8506, "##сло": 55984, "##очет": 110732, "877": 70960, "妒": 3249, "Komuna": 104477, "alemã": 93017, "televisió": 69877, "##foro": 64511, "邛": 7798, "teologi": 99358, "##zawskim": 99754, "założony": 88527, "between": 10948, "ebbe": 21900, "yw": 14464, "agiurnàt": 80939, "Premi": 31732, "##нда": 12903, "נראה": 79539, "##sima": 35864, "##льской": 44428, "zna": 93744, "##ίρισης": 95544, "##oe": 20085, "##ság": 19993, "##挛": 113871, "ارتش": 60139, "##ဆ": 111475, "##częły": 80663, "709": 67432, "溜": 5112, "bersifat": 91791, "##蔑": 116631, "##饺": 118263, "לארץ": 59840, "ქ": 1585, "Harz": 97651, "paositra": 25362, "制": 2556, "##zik": 19502, "##జీ": 71729, "kroner": 76059, "##謂": 117025, "##lse": 14433, "departement": 32948, "hija": 26429, "овом": 54244, "trono": 27750, "hans": 12021, "Italiyaning": 77804, "Không": 34879, "ursprünglich": 26108, "##∩": 111695, "##seende": 77953, "##bia": 14345, "닛": 9054, "偃": 2357, "Debido": 41070, "##itée": 110389, "##ύλου": 103366, "Marlene": 90440, "ぃ": 1905, "##isha": 54112, "इन्डो": 37593, "##dsen": 82569, "##finite": 89618, "##тие": 47072, "tanár": 77077, "##ーカー": 77147, "کیے": 74084, "1213": 103720, "juist": 92310, "蘊": 6935, "Jagd": 97117, "仆": 2185, "neuf": 37999, "фільмі": 79039, "##нимал": 93903, "промени": 86437, "Myöhemmin": 55156, "##aikan": 74486, "되": 9098, "провёл": 34240, "##崩": 113320, "Վ": 654, "vocalista": 51381, "kuitenkin": 18037, "##ना": 16380, "каб": 78717, "##vuse": 92685, "##פיים": 54967, "##lijn": 59156, "Gaon": 84958, "##פיה": 34494, "zawiera": 64751, "Egypten": 74440, "Entre": 13645, "##tants": 52547, "##горій": 100576, "##hique": 108433, "鉛": 7938, "##versión": 92960, "1626": 43198, "##Տ": 111133, "ajudar": 52277, "Fernand": 58653, "##웬": 119174, "##чем": 52086, "Flames": 64501, "##ίδα": 40831, "##metro": 55651, "##ങ": 111385, "##trag": 50325, "##punan": 74131, "contar": 59714, "клетки": 80581, "##rants": 55208, "##zing": 19308, "Mühle": 64781, "fx": 100567, "secció": 101393, "##sluitend": 109658, "##muje": 72198, "##rong": 58761, "##lej": 61346, "##malt": 46222, "##駙": 118289, "bere": 15147, "appear": 22641, "ảnh": 23317, "##buhan": 69358, "##خيص": 105602, "Roskilde": 81147, "[MASK]": 103, "Азербайджана": 61219, "##thetic": 64899, "##gajar": 96225, "ै": 912, "##mel": 19390, "櫚": 4762, "Shuttle": 67565, "##ющий": 20716, "##sion": 17467, "Bibliotheca": 109338, "muuta": 79104, "##രും": 56613, "##uário": 108413, "nogen": 76899, "##rth": 32510, "Yên": 49560, "Located": 82859, "Unterstützung": 34484, "##طر": 48227, "altas": 47532, "хит": 104944, "marché": 32410, "шамасында": 20912, "évolue": 44310, "##庙": 113430, "##уз": 45803, "대회": 93291, "##ңы": 47697, "marque": 26035, "##tetit": 93458, "достаточно": 45923, "##де": 12265, "##タン": 47665, "谦": 7385, "##quier": 39190, "##சன்": 44816, "ďalšie": 88591, "##точна": 68132, "Брокгауза": 54437, "नाप": 30192, "##enger": 102591, "ship": 17309, "##ാരി": 107918, "তৈরি": 61664, "崭": 3555, "bedre": 52430, "鱿": 8675, "Vallée": 59748, "cose": 63067, "##уват": 68572, "jednou": 55381, "##訖": 116941, "##र्ड": 52905, "##빚": 119006, "##ાસ": 48003, "Vanessa": 39422, "Drop": 69661, "♥": 1871, "##凛": 112276, "##зія": 65646, "brick": 42157, "##estiones": 101265, "##ेस्ट": 110615, "1449": 87603, "آباد": 27233, "mayo": 15392, "throne": 53409, "りで": 77361, "selten": 38383, "##續": 116065, "musicista": 74370, "##ೂರು": 54686, "hypothesis": 79357, "RI": 56658, "##ûr": 95999, "turcos": 106630, "##jans": 80729, "σύνολο": 91320, "##檬": 114520, "be": 10347, "Bulan": 108220, "winter": 25977, "findet": 21904, "Volksschule": 106271, "ganando": 69900, "Йохан": 80023, "monstrat": 76089, "μάχη": 73420, "##牝": 115167, "Aubin": 92727, "##Ⅳ": 111672, "lac": 23455, "веку": 58095, "Бо": 95931, "ketua": 68648, "##атар": 61290, "Garros": 88943, "Rodriguez": 41778, "##弔": 113480, "taču": 60542, "Площадь": 53433, "प्राथमिक": 110114, "انسانی": 70054, "##ものが": 51967, "ponovo": 65503, "областан": 12548, "Mauricio": 59647, "##veg": 55576, "الطاقة": 55095, "усіх": 44599, "metais": 26738, "criticized": 42318, "increased": 19299, "escribir": 49419, "##شی": 20916, "Observer": 52648, "and": 10111, "notizia": 82420, "##іг": 46678, "##bungen": 60323, "Inghilterra": 35817, "eine": 10359, "##prire": 96711, "##翟": 116209, "##cer": 17505, "##вилися": 110569, "##들의": 25258, "biển": 18394, "१२": 48788, "griega": 76807, "##衔": 116838, "فلم": 40987, "##遊": 117521, "তবে": 46406, "solve": 100679, "##鑑": 117794, "##格": 114346, "##ovní": 80647, "##由": 115377, "##bab": 51382, "##χων": 107421, "Evolution": 23672, "Nikita": 69729, "##rial": 34108, "##енного": 51593, "blitt": 19439, "teorije": 78515, "##eson": 81420, "kostel": 45690, "##圀": 112782, "loài": 10945, "##ション": 68165, "颶": 8448, "الكتاب": 44717, "##laire": 64239, "रचना": 75639, "##ālu": 65900, "párt": 107701, "赛": 7519, "Agostini": 81375, "Grant": 17606, "##ാക്കി": 61725, "1953": 11087, "##poda": 47492, "Gone": 34042, "hoc": 29317, "##puso": 42312, "蛎": 6982, "##тно": 29290, "Hockey": 18733, "##rdia": 45157, "avientu": 28429, "##cera": 28568, "teen": 33003, "##株": 114341, "焰": 5321, "##mido": 99279, "械": 4619, "Baseball": 27084, "habe": 21404, "##sigliere": 92497, "##mig": 72498, "##聴": 116256, "##この": 20997, "##bę": 35446, "##۶": 21141, "διάρκεια": 29742, "群": 6424, "Roumanie": 74469, "kol": 58133, "artikkelen": 22947, "##dné": 65317, "##šší": 89244, "пулнă": 84409, "1429": 80276, "Export": 108268, "##ツ": 31483, "##nyata": 110657, "capitolo": 90006, "Natalie": 40318, "стил": 67459, "1433": 83456, "##boa": 69865, "##lob": 79775, "ɐ": 387, "##ం": 13652, "employed": 29682, "##竊": 115798, "##隨": 118023, "stazione": 26013, "##క్స్": 93572, "##რ": 20062, "##njuk": 100731, "tijekom": 33234, "##iding": 28142, "##frica": 68953, "##yde": 67963, "Mas": 16423, "hôn": 63559, "##nere": 45313, "децембра": 72467, "gjeld": 80169, "##bilità": 44180, "लागि": 39852, "##aby": 98867, "##יקים": 81374, "bë": 88082, "municipal": 14935, "кастрычніка": 35503, "Бориса": 100206, "passagers": 93925, "setempat": 107538, "սպեկտրալ": 87805, "##される": 52350, "L2": 97645, "ณ": 1411, "ns": 81582, "Sm": 41922, "##槳": 114475, "##埗": 112855, "annuelle": 45576, "одним": 17291, "rozpoczęła": 69543, "##kent": 48238, "庆": 3655, "いて": 23400, "##ido": 12306, "Журнал": 60066, "Έχει": 60944, "##чають": 64528, "certifications": 92587, "Karin": 41633, "بناء": 46955, "miền": 22553, "раніше": 49204, "permukaan": 47385, "891": 80250, "bbc": 79726, "vars": 69855, "serata": 110393, "konferencija": 88986, "瓢": 5586, "Laba": 88739, "neskôr": 38826, "艱": 6669, "##قطع": 58689, "##вање": 20441, "##jeta": 53520, "Chalcidoidea": 28661, "舶": 6654, "##佈": 112011, "cáo": 44074, "##مول": 105906, "##哭": 112636, "##иби": 80366, "svolta": 79954, "1727": 36950, "##ined": 28751, "ка": 56280, "электр": 75103, "##ьбу": 92618, "vollständig": 37304, "jis": 28882, "Yhdysvaltain": 39433, "senso": 35581, "חינוך": 105167, "##ალი": 44774, "##στος": 80398, "##فرق": 85323, "местных": 63211, "킴": 9842, "##cznej": 22409, "gëtt": 32695, "дивізії": 77600, "forest": 27736, "szereplő": 106735, "##ٰ": 61960, "Laut": 24684, "##яват": 53108, "жайында": 75208, "坑": 3048, "auprès": 28624, "directly": 22062, "benyttes": 87723, "##lfa": 95991, "завдання": 82390, "##ütz": 71208, "##iát": 87235, "प्रसिद्ध": 35775, "##ತು": 24313, "##੦": 111259, "##osphate": 82801, "稿": 5988, "Primo": 39711, "##носта": 91464, "khắp": 77649, "行": 7069, "therapy": 49619, "შ": 1588, "kereta": 34901, "naturais": 57063, "##ow": 16602, "Kelley": 88551, "钨": 8056, "##擧": 114027, "minuta": 25395, "dipilih": 66249, "荻": 6762, "ligg": 20453, "##اس": 15995, "##әләр": 87785, "##stria": 61546, "##lch": 93049, "hauek": 41659, "##ての": 107632, "Romain": 54456, "##ase": 16896, "opposed": 30488, "##婪": 113080, "##ერო": 64500, "haviam": 88484, "asteroizi": 47659, "Astronomie": 70943, "##制": 112322, "refuse": 48787, "廊": 3684, "##nych": 12837, "##ста": 15535, "tarkibiga": 16427, "Anak": 54927, "Januarie": 66765, "##dik": 21423, "Rama": 42746, "edición": 15934, "usare": 84101, "##嚮": 112752, "##螃": 116803, "##эрэг": 97503, "add": 42852, "productor": 36530, "marques": 79889, "vozila": 96532, "##ணம்": 29130, "1060": 94142, "蔓": 6866, "Mountain": 15135, "podrían": 84656, "##鱒": 118432, "啮": 2902, "##vez": 27468, "预": 8425, "غ": 782, "戚": 3980, "##憧": 113711, "##icum": 51668, "阅": 8182, "Põhja": 64830, "Bring": 73859, "懂": 3953, "##زية": 83641, "##那": 117568, "##ești": 31565, "Reginald": 60298, "Step": 41653, "disabuik": 27269, "сержант": 60148, "representació": 102982, "츠": 9775, "##סם": 78631, "##vación": 75551, "strijd": 66275, "##dannet": 58690, "գավառում": 48900, "zugleich": 43561, "punyo": 31121, "##森": 114405, "##п": 11078, "Baku": 44005, "##əs": 96745, "origins": 50062, "punta": 32979, "anisan": 76848, "مدد": 84864, "##韩": 118129, "Oaxaca": 43620, "vương": 30923, "茵": 6738, "skladby": 87330, "residente": 92699, "pályára": 106470, "еді": 89936, "Echo": 48029, "रोजी": 31236, "Prancūzijos": 98230, "かつ": 61819, "##嘴": 112726, "##يض": 63055, "##娄": 113055, "گیا": 17571, "##們": 112101, "##дік": 29637, "Beitrag": 50785, "##ätzt": 77416, "##文": 114079, "inaugural": 44138, "engage": 38391, "eksempel": 32042, "bekend": 15401, "##cuje": 80687, "##wacji": 82498, "geração": 86610, "ismét": 38397, "titular": 26883, "edustaa": 75449, "##ybių": 101320, "ефект": 110725, "##rgt": 74232, "поселення": 36458, "ခ": 1493, "Интернет": 82727, "nata": 44420, "##DE": 60675, "gewonnen": 29572, "##کری": 103482, "##cenas": 101948, "azienda": 42162, "Talent": 47962, "hundred": 34242, "##vall": 53484, "聯": 6486, "##vik": 21533, "韜": 8360, "##ane": 12822, "##ễn": 39345, "についての": 83273, "##nota": 57587, "wijze": 89014, "첨": 9748, "##bán": 72806, "##غیر": 72086, "椰": 4655, "1020": 100718, "##tō": 80920, "МСК": 90891, "Janssen": 94180, "EA": 38478, "símbolos": 74668, "memakan": 81531, "industrials": 83675, "неактивних": 47879, "##蹄": 117340, "##marca": 91191, "##emaa": 71721, "kənd": 37071, "##ಕಾರಿ": 71926, "##ويت": 108451, "##дея": 86492, "Elm": 50295, "jer": 20290, "##itti": 34211, "States": 10859, "##jnih": 104830, "recentemente": 59574, "##bildet": 80888, "Οκτωβρίου": 55195, "Αυγούστου": 58233, "祢": 5918, "translated": 29909, "##น": 16000, "yhdysvaltalainen": 37111, "control": 12608, "specifically": 33228, "迎": 7695, "Kurzfilm": 73860, "##чага": 106966, "сияқты": 72184, "ু": 984, "Lodewijk": 66504, "##νι": 64472, "asub": 39012, "thuộc": 12005, "ਆਮ": 88050, "##床": 113423, "obținut": 97396, "severní": 58655, "siyopans": 43009, "zwölf": 39086, "giả": 29691, "philosophie": 44379, "církve": 104757, "##izmu": 63236, "Cotton": 52732, "drużyny": 44144, "Са": 55920, "1387": 81525, "##ೇಕ": 110593, "bardziej": 39733, "##크": 20308, "##ille": 14420, "velké": 46905, "Garry": 89374, "möglicherweise": 65296, "##消": 114776, "##közben": 69896, "##泻": 114723, "##tragung": 78628, "méthodes": 74771, "Miller": 14615, "personagens": 49203, "##훼": 119454, "caer": 107687, "##خل": 61783, "російської": 99786, "##ните": 13862, "Chapter": 23355, "##రీ": 40686, "##abb": 39211, "##ഘ": 111384, "##vade": 106240, "деятельность": 34112, "##relli": 50566, "##ровать": 34234, "общината": 80219, "stanowi": 48025, "##傑": 112143, "##ente": 13177, "##tt": 11527, "##слав": 42937, "##かに": 68375, "##某": 114303, "spéciale": 81999, "##mjena": 81056, "représentent": 83580, "работник": 107152, "##閱": 117914, "غرب": 32035, "캐": 9792, "##ライナ": 107513, "Baghdad": 73055, "Bauer": 34118, "⊙": 1826, "comuns": 64419, "بیولوژی": 81190, "réduit": 83103, "颖": 8437, "##tish": 99715, "ആയിരുന്നു": 67691, "##ヘ": 111824, "##logique": 51299, "potentially": 80916, "Дж": 43747, "##öör": 87729, "Geist": 62105, "pp": 11309, "Bohemia": 53238, "##inhos": 85291, "遲": 7775, "League": 11074, "##勤": 112397, "##♂": 111748, "俊": 2304, "##rean": 51312, "MOWD": 85712, "esculturas": 98303, "vagyis": 88824, "drugą": 102957, "ega": 45192, "efektif": 90638, "Contudo": 96277, "##unda": 20357, "Aida": 93337, "##ынка": 88037, "mestaruuden": 54984, "##ązki": 72876, "disponibles": 43762, "##cution": 64195, "莪": 6775, "Gesamtwertung": 102033, "蠍": 7057, "##ugo": 108074, "ricevuto": 50541, "##рдо": 55652, "Night": 12703, "Ģ": 311, "##גיה": 62356, "깝": 8944, "régiment": 29385, "줘": 9695, "##қа": 18747, "較": 7611, "varrella": 110457, "##nung": 35637, "##anken": 83789, "limitée": 79273, "Claude": 14318, "gebouwd": 26953, "atac": 58586, "璃": 5563, "##front": 31044, "##紡": 115962, "हिस्सा": 110091, "##ਸ਼": 33342, "##ható": 30359, "księcia": 57971, "లేదా": 27826, "liée": 85219, "появились": 62468, "ఎక్కువ": 21648, "néerlandais": 71819, "IV": 11094, "##کول": 85408, "##یون": 84124, "mintegy": 52965, "##رفت": 55734, "başqa": 46543, "entrega": 47937, "Manon": 110844, "മികച്ച": 78324, "nang": 55607, "##aktadır": 83775, "##环": 115253, "edo": 16100, "allowed": 18162, "Sun": 13967, "йәшәй": 96543, "##ಕಾಯಿ": 75269, "jeho": 12102, "##parade": 97072, "Theater": 16223, "сериала": 58337, "Irlandia": 109149, "lödöps": 32115, "##áculos": 97847, "పథకం": 23834, "##冶": 112263, "tìm": 23375, "##鸠": 118512, "allows": 26466, "Medicinal": 105648, "Teodoro": 79110, "##viste": 37628, "lebt": 34024, "Lightning": 47193, "##ティ": 25719, "tarkoittaa": 66424, "闘": 8159, "##视": 116926, "##ಿಗೆ": 36163, "##蜘": 116773, "##ikin": 49364, "відкриття": 90543, "kraftig": 61859, "món": 22793, "Aujourd": 69169, "Полша": 109547, "##ikk": 64907, "Patterson": 49207, "بزرگی": 97121, "اضافه": 105792, "##лиште": 101193, "##ıq": 49638, "Església": 58795, "Collette": 91960, "##олнения": 93812, "##県": 115532, "proximité": 35483, "##izes": 59080, "##릎": 118905, "##anı": 52351, "Fallen": 69466, "334": 33956, "Izrael": 66732, "##irect": 102691, "##היה": 102673, "##hagen": 63833, "##ean": 14654, "##争": 111914, "##lnie": 42080, "Huang": 41909, "crop": 99402, "##신": 25387, "드": 9113, "имела": 64692, "आधार": 49696, "Chong": 105442, "##بانی": 97016, "promotional": 92199, "Lyons": 54654, "luka": 75592, "##복": 70915, "rainha": 89860, "##for": 19706, "ám": 42251, "##late": 23953, "##чному": 49146, "##μικά": 64954, "نظر": 21312, "droits": 30217, "Новой": 75064, "Володар": 59807, "##xement": 90945, "caza": 58571, "Factory": 35231, "Jabal": 41288, "Reykjavík": 44473, "##讶": 117077, "##ућа": 94015, "MM": 22283, "##皈": 115487, "miejsca": 39777, "зміни": 69777, "NF": 89829, "أمريكي": 48188, "पहले": 29474, "Kors": 89906, "723": 70486, "классов": 91394, "Luna": 22950, "arquitecto": 48672, "maximum": 22393, "malattia": 67328, "barubah": 23695, "##رة": 15072, "voiture": 48432, "Abbas": 45679, "1932": 11333, "##tnih": 107959, "soleil": 61879, "##韭": 118131, "pls": 60996, "##quilibrium": 76395, "Kalifornien": 39042, "銜": 7954, "##，": 119507, "Họ": 43344, "ஆறு": 76516, "verbonden": 63259, "##ㆍ": 111836, "##ției": 23083, "sélections": 66830, "##aste": 25096, "distinguished": 45233, "ব্যবহার": 41808, "##علم": 35263, "exposição": 105699, "1850": 13881, "tuli": 17802, "with": 10169, "##良": 116433, "много": 16318, "##ulier": 95818, "Øst": 104758, "顆": 8397, "παρέμεινε": 99117, "q": 185, "Sir": 12852, "antigo": 30569, "##јски": 35380, "##ولی": 81398, "傭": 2385, "všechny": 43476, "##坞": 112820, "European": 11914, "##이지": 44359, "##鴦": 118485, "oficjalnie": 94512, "funding": 30446, "ydy": 36916, "##žní": 52857, "##עשרים": 96060, "##픈": 119411, "formed": 14629, "##starší": 110422, "girl": 24699, "elää": 110456, "##yatro": 73279, "##midades": 91357, "promoviert": 59581, "summer": 17995, "известен": 32823, "##لری": 56444, "autobus": 72937, "厄": 2705, "莆": 6765, "##okou": 100015, "##广": 113417, "##еход": 100851, "humans": 26058, "kulkee": 96348, "##æti": 107014, "##佳": 112037, "嵇": 3557, "ڈی": 56561, "vormde": 102027, "Estudos": 96034, "పచ్చిక": 103134, "architecte": 39598, "الغربية": 50849, "##参": 112492, "##桃": 114352, "##нічний": 110500, "rele": 43373, "##índo": 85817, "##儲": 112186, "##黍": 118565, "##णारे": 91959, "priority": 92602, "##谨": 117152, "తెగల": 39913, "旷": 4357, "bár": 51709, "Pantai": 90248, "鋼": 7971, "##್ದ": 87841, "πλευρά": 89042, "##ulas": 89088, "Gera": 107807, "Cole": 23799, "##ature": 44701, "##ירות": 29398, "##ував": 23176, "2월": 17520, "походить": 81715, "Matrix": 55769, "##ocarpus": 90931, "653": 58905, "##ρίζει": 70718, "ஐ": 1148, "гвардии": 50848, "렌": 9188, "winnen": 74204, "##梟": 114378, "cinema": 18458, "##சர்": 85273, "مکان": 81330, "##다고": 85634, "Bewegung": 39178, "##onează": 103727, "##tas": 11390, "opus": 35317, "begon": 24621, "##adt": 49431, "Alone": 39960, "##ations": 24965, "﹞": 10047, "##zine": 51703, "դուրս": 49038, "##ол": 17010, "Pot": 59128, "้": 1458, "その": 11332, "стране": 22476, "zámek": 103246, "##wedd": 72128, "Haas": 54347, "pounds": 61982, "requires": 39575, "##帳": 113389, "##рык": 110396, "##zał": 34105, "蚕": 6967, "##пад": 36614, "ביותר": 15989, "sách": 24544, "##يت": 31092, "damage": 26115, "ইলতাই": 29220, "screen": 29963, "angon": 79806, "운영": 91988, "##判": 112315, "##мица": 91463, "районам": 96350, "limbi": 77755, "##乃": 111882, "##jo": 11039, "революционер": 94156, "Upon": 26669, "जाने": 34413, "##dang": 24058, "ның": 75665, "##疑": 115416, "мы": 35818, "ши": 86490, "##olták": 84985, "Vaucouleurs": 46311, "畳": 5636, "Liz": 56085, "író": 55320, "Bellini": 96707, "requested": 59728, "##pado": 73526, "Krishna": 45299, "পালন": 83749, "ական": 57896, "##فه": 46413, "##ittu": 84523, "##瞬": 115570, "##دند": 109076, "##റിൽ": 94814, "##oya": 51814, "زیرا": 76045, "overgenomen": 84404, "牽": 5412, "##uaren": 51696, "##գույն": 96956, "##ains": 91270, "puede": 12994, "penyanyi": 42853, "sob": 22755, "珩": 5507, "##vait": 65135, "בסמוך": 105417, "紀": 6178, "troisième": 19296, "worn": 32091, "冤": 2486, "Hugo": 15945, "älteren": 57375, "całym": 70367, "##uir": 31160, "nové": 34897, "Caribbean": 31778, "裙": 7109, "Gen": 32560, "městem": 88356, "Bitte": 79575, "ak": 19647, "##stellation": 68952, "hidden": 57786, "##caret": 98397, "المسلسل": 99212, "社": 5900, "toda": 15650, "ისინი": 61511, "苛": 6707, "綜": 6231, "ヶ": 2067, "impression": 59513, "특": 9891, "「": 1890, "##יד": 22209, "##ranie": 84045, "##rion": 51238, "##гән": 19875, "皎": 5723, "naturlig": 25511, "##贾": 117268, "##cionais": 62060, "priklausė": 58818, "Against": 29809, "salle": 30914, "plazo": 97837, "##堊": 112873, "προς": 23383, "Bereiche": 95130, "##囚": 112763, "lì": 64819, "##戶": 113759, "гг": 15634, "Ефрона": 53977, "楷": 4674, "底": 3662, "晉": 4390, "непосредственно": 69894, "ü": 282, "Plantae": 80359, "徭": 3784, "gruppi": 32387, "producing": 31958, "랄": 9160, "##жном": 51477, "##monė": 100694, "internet": 18938, "##百": 115482, "baten": 20814, "populație": 22059, "Zweiten": 18754, "咲": 2849, "театре": 61784, "冉": 2472, "##lap": 47263, "szó": 58508, "驍": 8540, "фортепиано": 80364, "##Pherson": 95893, "##漣": 114932, "##իա": 55404, "italien": 29884, "##kera": 56383, "##кција": 81073, "蓋": 6857, "##ыта": 86360, "差": 3590, "ЕС": 109795, "见": 7156, "xe": 28174, "##še": 14747, "Рима": 68942, "principaux": 34390, "##нического": 70547, "##ழகம்": 90292, "Thames": 43606, "誅": 7211, "Carpenter": 37755, "##cija": 13492, "##രിച്ച്": 90307, "##ово": 20007, "##蚜": 116734, "Eles": 49848, "盂": 5732, "##ಾಯಿ": 76309, "##odea": 78155, "##llus": 60628, "##icji": 80029, "zodat": 42175, "##нув": 47695, "helyet": 64626, "мебошад": 22748, "send": 45567, "muere": 71349, "##rnych": 79920, "aurie": 56594, "##öte": 70660, "vervolgens": 36755, "построен": 48699, "##nite": 86705, "announced": 13854, "铉": 8072, "ёсць": 44450, "Leave": 61463, "vehicles": 27237, "ઐ": 1079, "губерния": 90825, "הוועדה": 95959, "Hubble": 54812, "##CD": 40952, "пилот": 103335, "##gande": 63585, "Königin": 53293, "հունիսի": 57746, "theatrical": 75303, "Thompson": 13288, "离": 5944, "članov": 109803, "##sport": 36565, "Lowe": 53955, "chức": 16244, "joined": 13914, "##enda": 27808, "WM": 38232, "Translation": 58804, "金": 7911, "##裁": 116868, "##ér": 22858, "Ewing": 106409, "võivad": 71166, "925": 59384, "##пектакль": 97154, "wśród": 25207, "Расстояние": 62813, "싯": 9493, "nebuvo": 96951, "##boot": 65324, "Bogotá": 28689, "##vial": 95570, "##বর্তন": 99870, "Thinking": 98559, "##րված": 33014, "けられている": 96976, "Saddle": 68562, "biz": 94912, "There": 11723, "##яття": 95343, "procento": 71024, "##lin": 13020, "##该": 117110, "գրանցված": 63791, "герб": 72466, "##emba": 82633, "##ուցիչ": 96737, "##雄": 118036, "匂": 2642, "போர்": 98304, "живописи": 79372, "carré": 101698, "##zilgan": 104501, "население": 20435, "шш": 14216, "kuning": 98577, "##graphie": 26775, "natural": 13409, "ὴ": 1713, "équipe": 13950, "##﹕": 119488, "##25": 69168, "##misesta": 106890, "współpracy": 71574, "Bills": 99051, "Chi": 21946, "ratu": 45840, "##ტი": 20320, "##zima": 85583, "окончании": 66635, "##보다": 80001, "possuem": 69569, "##ציה": 22226, "korában": 77169, "stazioni": 110791, "žmonės": 106688, "賑": 7445, "##izal": 76616, "##细": 116096, "##росла": 99125, "##ّ": 18519, "##hi": 11924, "Näin": 104603, "sayıda": 81471, "Kai": 26387, "##niecības": 76416, "##λών": 46742, "吓": 2780, "czerwca": 16983, "олардың": 53967, "kahe": 91547, "titel": 22455, "ospita": 79562, "Culham": 12701, "neu": 14861, "枡": 4525, "quedando": 60339, "##ധ": 111394, "##со": 30604, "இருக்கிறது": 101479, "##дсэн": 71312, "દ": 1099, "targets": 56996, "Cyprus": 45639, "izlases": 104516, "##як": 60749, "אש": 103409, "ro": 25470, "Kapelle": 33135, "##рни": 42511, "subjects": 38567, "##griffen": 90919, "map": 14876, "Déu": 58168, "##வு": 19187, "##שדה": 79910, "בשנת": 12053, "الإمارات": 100252, "##ва": 10852, "##มือง": 105710, "presto": 41957, "##מכים": 103217, "##stern": 78780, "轼": 7650, "bão": 84394, "Entry": 70824, "anguaño": 80073, "賂": 7439, "Скончался": 98594, "Montevideo": 30304, "Walking": 47505, "##ధిక": 73140, "دیگری": 42333, "」": 1891, "idag": 43915, "објектот": 36875, "நாட்டின்": 105490, "##еле": 31851, "Augsburg": 40998, "##lalta": 88413, "fuera": 19959, "yalnız": 57975, "publishing": 38880, "Barn": 61802, "აშშ": 55253, "胺": 6545, "bitki": 38715, "##այում": 19840, "Auseinandersetzung": 103918, "بنایا": 95415, "##олі": 71738, "Las": 11518, "##redor": 96136, "ready": 42374, "VM": 18618, "بريطانيا": 91493, "Orientales": 90789, "Aria": 68081, "millimeter": 10962, "##裨": 116881, "клубом": 56025, "tầng": 61521, "##اب": 14634, "որպես": 21690, "cinquième": 49407, "njohur": 55346, "introdotto": 107802, "portent": 76635, "##vité": 92629, "femte": 69034, "##ūs": 43759, "Flag": 47789, "##Ж": 111068, "##кість": 73580, "tarihinde": 19781, "Nike": 68502, "übernahm": 19526, "27일": 44514, "##group": 82908, "##чній": 54129, "##泾": 114726, "tanan": 22259, "мужчины": 62894, "##ুল": 30277, "##ами": 12040, "##idor": 37665, "##কা": 58883, "города": 13805, "##이": 10739, "##чения": 25972, "##冬": 112256, "##欄": 114533, "empêcher": 97540, "ペ": 2041, "csak": 14891, "##ნ": 17974, "##curo": 65321, "##ынан": 24885, "sức": 36600, "profesorem": 81086, "condados": 107808, "پولینڈ": 82718, "马": 8551, "시작했다": 70927, "##إشارة": 90683, "##住": 112014, "##łyta": 86634, "##के": 38150, "##ptera": 27588, "##zczone": 88404, "flying": 34676, "##蔬": 116640, "откуда": 97432, "mintaqasida": 23835, "fournir": 109668, "##O₄": 88351, "बनी": 92537, "揪": 4188, "##wami": 105097, "olimpijskich": 52867, "##縻": 116042, "polski": 19495, "##﹝": 119489, "cet": 18734, "##perator": 85639, "marido": 40407, "妖": 3251, "##رین": 34811, "üzərində": 57622, "aeropòrt": 91220, "rychle": 101067, "direutor": 92280, "víctima": 91031, "Ásia": 91916, "Mario": 14011, "Gert": 84687, "##ად": 23871, "यदि": 64952, "substituir": 101801, "jap": 33106, "helikopter": 87585, "родов": 86583, "##ytet": 83907, "النساء": 58344, "##監": 115517, "Prusia": 71373, "ET": 74568, "ataupun": 19074, "##ӯ": 111105, "Sándor": 33300, "ولم": 39539, "принимал": 52356, "однако": 17435, "##סינגל": 86320, "vehículos": 59536, "TNT": 65655, "##tono": 44637, "cúpula": 80568, "productes": 53322, "неделю": 103672, "qədər": 26396, "Show": 13450, "армией": 91089, "ব্রাজিলর": 30379, "Тоді": 79587, "##taire": 31247, "egli": 27990, "lados": 56834, "##ício": 53387, "Churches": 81458, "##rivé": 63534, "ТВ": 41905, "##ord": 17392, "sidlakan": 16645, "##個": 112099, "##ությունից": 65683, "effets": 52597, "##シア": 57509, "Wolfram": 77115, "Ministry": 19170, "joukkueen": 59981, "wenigen": 45995, "##्दी": 82337, "##کو": 47902, "Sandro": 69187, "Abel": 33359, "rappelle": 92490, "颇": 8428, "Премьер": 83464, "[unused71]": 71, "студентами": 36654, "Burmese": 106296, "##cl": 103675, "달리": 78139, "artistico": 80435, "Parsons": 45737, "keine": 14618, "Raquel": 93896, "##вляє": 89067, "##पुर": 22607, "mention": 33507, "##മായും": 106295, "Гэта": 93594, "millor": 29919, "##נמצא": 94531, "النقطة": 64963, "CSU": 64921, "Switch": 80072, "##dner": 94529, "##oia": 108054, "混": 5055, "##悅": 113624, "##dali": 52662, "2°": 59931, "##يها": 90391, "##湾": 114870, "أنحاء": 76069, "сиха": 23335, "зэрэг": 56050, "##āl": 105928, "гибели": 109480, "##膩": 116368, "sawijining": 73770, "##枯": 114297, "##нный": 28501, "sommeren": 64702, "ED": 74053, "##蒔": 116608, "Namnet": 56522, "vía": 32492, "представители": 48509, "1935": 11271, "Sejak": 55748, "1871": 13511, "Bayern": 17200, "Agustín": 39858, "respectively": 25179, "površini": 40336, "##rony": 76766, "disco": 14884, "##rimo": 91711, "##bow": 63081, "Sb": 73282, "environmental": 32704, "##уб": 40124, "cámara": 49368, "##zează": 110275, "渕": 5072, "ί": 464, "directe": 43752, "##۷۹": 70008, "##গ্রহণ": 63078, "vůči": 106834, "##paksa": 78556, "##овим": 46183, "##laren": 62936, "Stettin": 81742, "##ätä": 93295, "dessen": 14113, "hoe": 22735, "indios": 82079, "voient": 109676, "##lik": 11863, "sydvästra": 23988, "##днем": 107631, "##όθηκε": 80896, "Vescovo": 79888, "reliable": 103581, "##шоў": 78562, "historically": 67391, "verlaten": 67158, "позднее": 42473, "Noiz": 21734, "Nikola": 43677, "##ците": 19783, "Rosario": 26489, "##sado": 61011, "оказывается": 102128, "##واں": 79730, "##র্ক": 63490, "##твует": 64260, "ghost": 100766, "memperoleh": 67818, "Institution": 15819, "bands": 28781, "התקופה": 79901, "Mixed": 56291, "introduzione": 80999, "ਕਈ": 68614, "ஒவ்வொரு": 73811, "таа": 42831, "##هی": 50158, "##松": 114277, "ее": 75431, "East": 11830, "飽": 8465, "##幼": 113414, "##øde": 47165, "Елена": 44027, "##∼": 111698, "##ბის": 27053, "introduction": 23890, "##伊": 111983, "##钧": 117821, "Jugoslavia": 90169, "bodies": 34106, "pm": 52160, "tapo": 29816, "##衅": 116833, "132": 18385, "carries": 64216, "##丕": 111852, "##але": 33719, "আয়তনহান": 48169, "nachdem": 25670, "##öli": 110359, "ც": 1590, "zijde": 105635, "electrónica": 88799, "Funktionen": 65264, "électrique": 54340, "##お": 25204, "posse": 83509, "säv": 45213, "##uleur": 91712, "##ωσαν": 97933, "книге": 48658, "1099": 89028, "from": 10188, "verwenden": 103643, "##îte": 89238, "системы": 21845, "dealing": 73082, "##olen": 48835, "àrab": 75618, "##拙": 113838, "března": 31554, "##gh": 15774, "Swing": 53314, "уйăхĕн": 25540, "Arbeiten": 27677, "##맺": 118919, "##겉": 118628, "مدير": 93800, "##观": 116923, "Sparta": 36354, "##vog": 95926, "##ゐ": 111810, "##ವನ": 63787, "همچنین": 18300, "germans": 96992, "##tās": 101252, "raok": 60535, "楔": 4661, "déclare": 49464, "động": 13254, "Mercury": 24059, "Kopenhagen": 59700, "Tiến": 88946, "également": 12091, "弾": 3733, "Kommission": 50894, "suoi": 13783, "Missing": 65182, "##sese": 96577, "Bug": 80272, "erste": 13131, "۱۵": 36148, "##buat": 75685, "szintén": 36506, "torre": 21438, "##קת": 25596, "快": 3806, "расположены": 56686, "##rij": 32964, "##坨": 112826, "##nada": 51758, "##락": 107693, "Relasyon": 49748, "Guilherme": 69762, "##uteen": 45285, "تعمیر": 94570, "##альные": 53599, "##嚎": 112748, "##鵑": 118489, "شارك": 40558, "Pearson": 38453, "ർ": 1386, "##茜": 116497, "nitrogen": 85153, "##jke": 36646, "особенно": 36428, "##ותר": 65121, "felt": 24666, "voittanut": 89384, "hosts": 39466, "##井": 111922, "secolo": 14215, "##geschlossen": 103805, "##兆": 112195, "##više": 93765, "##ыстық": 95253, "merci": 109325, "##yoshi": 52908, "澗": 5204, "dużą": 91913, "福": 5933, "1585": 42391, "riksdelen": 70306, "##əyə": 51674, "200": 10777, "##७": 23180, "universelle": 90401, "##纾": 116090, "倫": 2348, "build": 23332, "Zimmer": 54570, "оквиру": 71490, "faktor": 52221, "verschillende": 19651, "##icato": 91677, "באמצע": 102542, "regla": 99423, "##чү": 53039, "##elma": 95243, "##ду": 15986, "##posé": 49113, "##亚": 111924, "patří": 32795, "Stereo": 93022, "Bellamy": 108635, "##岗": 113280, "##iñ": 56474, "##כיר": 58717, "##ęto": 92457, "mining": 32802, "sound": 19302, "kuasa": 55618, "##ük": 17053, "##箭": 115866, "edirdi": 71308, "Waves": 108879, "蜡": 7010, "Tây": 17806, "סוג": 58724, "##inado": 50287, "##لا": 20451, "##vente": 77491, "##ječe": 80844, "abitato": 60855, "produced": 13433, "للمدينة": 93101, "petite": 22321, "inch": 34397, "punika": 20396, "##сот": 87526, "Finaliste": 74725, "competizioni": 64280, "Irish": 15624, "##ore": 13024, "bilakaera": 32561, "##lte": 17098, "Reuter": 109223, "##eas": 42658, "##Ｓ": 119532, "##萌": 116576, "bleven": 82716, "##ालय": 34059, "وما": 44749, "##ращения": 44484, "sajeroning": 70606, "uchun": 30658, "##攀": 114034, "suuri": 51241, "##nského": 80486, "traditionnel": 94018, "##нца": 23716, "閏": 8134, "гитара": 39027, "Etazonia": 24251, "dalla": 11353, "szef": 82245, "menentukan": 100180, "bandes": 56171, "dessus": 29272, "초": 9757, "Europejskiej": 105647, "##iền": 102799, "негизги": 82740, "栓": 4568, "##used": 40015, "santo": 43951, "él": 14370, "np": 21324, "##вид": 53156, "鱧": 8669, "##రి": 20347, "ARM": 89323, "##rę": 51812, "##షన్": 73950, "okrese": 28170, "##риство": 99043, "kwenye": 28532, "советской": 55086, "esimese": 85653, "pont": 22939, "##jaus": 90333, "##菊": 116555, "##öz": 34871, "része": 26515, "nagusietatik": 33293, "teme": 92354, "Aerospace": 70979, "籤": 6137, "##udoval": 62463, "պատրաստված": 52197, "Seminar": 85295, "##tenant": 50468, "##ちゃん": 90230, "1236": 96903, "##äärin": 98025, "أمام": 56061, "858": 78390, "트": 9890, "##ív": 29244, "##cture": 57336, "##狸": 115205, "##artement": 104046, "犯": 5421, "##ismo": 13689, "1527": 48701, "##rcia": 101936, "металл": 100702, "recientemente": 87445, "##úar": 53176, "##람": 61250, "кольору": 89712, "Percy": 33969, "spite": 102845, "##ñou": 97296, "goes": 25441, "связь": 68454, "##نهاية": 102064, "finalista": 79285, "prakticky": 104881, "istifadə": 27639, "##ық": 29814, "Jana": 18909, "úrovni": 102111, "manage": 59251, "##rain": 32782, "ninguna": 46055, "##リリース": 80429, "##kert": 62218, "ં": 1068, "სექტემბერი": 91294, "ß": 253, "ਿ": 1048, "provisions": 67623, "##ścić": 103343, "##vački": 92704, "##ädagogik": 102386, "Correa": 95283, "肛": 6507, "錘": 7976, "defense": 30100, "საუკეთესო": 68203, "##space": 109351, "##九": 111899, "Zagreb": 18772, "##mell": 92648, "##tikai": 107450, "amateur": 28230, "đốc": 45529, "куйган": 91291, "##meni": 52580, "categoría": 22645, "Assembleia": 87284, "##riate": 88958, "##购": 117254, "стадион": 74413, "##ckich": 43172, "鞠": 8352, "##אחת": 92087, "момент": 20658, "Európában": 98490, "秉": 5951, "ou": 10431, "##ссе": 74044, "##dieron": 92970, "##жей": 71787, "informatie": 19443, "dette": 14246, "Economía": 84095, "##jut": 58851, "##شاه": 54507, "##dret": 87882, "employer": 94526, "Egli": 55193, "Torneo": 39630, "##rédito": 86161, "bestuur": 64755, "României": 43111, "[unused49]": 49, "diversos": 15170, "Artens": 22343, "integrar": 78710, "числа": 32246, "místě": 34880, "##ు": 15697, "NP": 64804, "indígenas": 49856, "Daniela": 45954, "Toscana": 39059, "Ameerika": 54175, "költözött": 106865, "enfermedad": 51855, "##been": 89024, "##萄": 116573, "graves": 40834, "芎": 6679, "##鱸": 118439, "vlade": 72289, "それに": 69582, "##ři": 25964, "##然": 115088, "waiting": 62052, "Hydrology": 19530, "晝": 4400, "ممثل": 63434, "wir": 33963, "öster": 12784, "Австралии": 65391, "staat": 14887, "holes": 76956, "Phelps": 97041, "العثمانية": 84653, "weight": 25512, "##蕗": 116652, "827": 72635, "1437": 81995, "físico": 49169, "##辐": 117426, "織": 6285, "##ớp": 69072, "zwar": 24635, "plat": 48740, "Goldstein": 89755, "Kiba": 17338, "Claudio": 26400, "##рованных": 72226, "のうち": 47215, "its": 10474, "Kongelige": 103201, "##宮": 113169, "chefs": 60477, "alueen": 42191, "هر": 17534, "##帘": 113376, "##isyen": 108939, "##iul": 66328, "##ociaciones": 108989, "1414": 91004, "permainan": 48163, "descubrimiento": 104030, "incorporated": 32844, "##zoo": 72713, "ʃ": 400, "ден": 35085, "##锺": 117878, "1324": 95614, "Amer": 69286, "##ضا": 45935, "فیزیک": 52687, "##skab": 55551, "##øver": 50369, "Leandro": 86151, "##צה": 16568, "relève": 91273, "##심을": 86904, "NO": 49307, "##掛": 113921, "354": 33540, "##chner": 60260, "Marocko": 54914, "Braga": 55045, "ایتالیایی": 66533, "峇": 3529, "biri": 20263, "##cia": 11462, "své": 18346, "İyi": 52271, "##wirkung": 80981, "##حل": 37548, "bestehen": 37362, "##劉": 112357, "Moonlight": 87527, "الدراسة": 104930, "kuni": 23702, "##belt": 83742, "religiøse": 96635, "##ίδι": 73902, "scientifica": 98862, "##绫": 116121, "##ichen": 34751, "ידי": 12734, "البيض": 61461, "الأخرى": 31426, "қарай": 41267, "Hala": 58892, "##знав": 86996, "##ությունները": 31823, "##áty": 64610, "##വിൽ": 62571, "##רחים": 105099, "##veen": 53467, "囪": 3005, "##鹈": 118528, "##க்கம்": 34767, "kleiner": 35357, "澀": 5196, "Hertfordshire": 104844, "Formule": 36749, "##kal": 17463, "##r": 10129, "Dictionnaire": 32727, "algum": 61403, "##níků": 76793, "Bees": 52840, "vara": 20657, "165": 19233, "岛": 3518, "##fish": 40497, "##ργος": 87751, "ప్రతి": 70937, "bak": 36786, "##хоза": 74159, "545": 49589, "##nce": 12150, "##rnu": 60771, "वाले": 27862, "masoandro": 51355, "zvijezda": 84882, "##ೊ": 57508, "Илья": 108242, "Forrest": 60388, "##ség": 15538, "##dition": 34540, "तापमान": 47374, "##loos": 99391, "Volumen": 83593, "##ίνονται": 101879, "אליו": 58289, "##حكام": 90778, "##増": 112910, "Hauptort": 101099, "pittura": 91458, "[unused27]": 27, "##০২": 93849, "X": 161, "remplacer": 82238, "Unió": 40536, "لئی": 26818, "religiosas": 64433, "科": 5954, "##tiska": 62398, "##暉": 114185, "masuk": 34675, "頃": 8374, "związanych": 106147, "нового": 23190, "##еру": 43450, "regras": 95359, "##poser": 62565, "bestätigt": 66846, "tjeneste": 76137, "##juje": 53862, "##rop": 30698, "##сса": 48621, "##place": 30236, "koningin": 91444, "##霉": 118071, "целом": 47936, "contrato": 27661, "##ε": 21263, "##etlen": 69741, "nousi": 40550, "##曲": 114213, "dilaksanakan": 104452, "1663": 45049, "##djan": 69062, "České": 26049, "閉": 8132, "Therefore": 54844, "##۹۳": 60870, "exile": 67696, "Ž": 371, "эпохи": 67570, "mẹ": 42118, "pak": 17284, "dặm": 88811, "wcześniej": 35266, "zelfs": 37806, "incluyen": 41860, "##nés": 31597, "coups": 69693, "##ficada": 36493, "Оахака": 87366, "Iwan": 74830, "##疸": 115428, "বাংলা": 49133, "מלך": 44268, "##ksud": 69408, "laatste": 19323, "Instead": 47556, "військового": 90602, "longtemps": 40755, "Уранометрија": 102138, "##jetí": 92389, "##ซ์": 87904, "##онте": 75714, "школі": 58676, "различни": 28145, "nana": 97624, "##nee": 56059, "Tamién": 34124, "##పేట": 108119, "##치": 18622, "яти": 100285, "漳": 5174, "##háza": 103419, "『": 1892, "沐": 4909, "свої": 37802, "##enstkreuz": 96038, "dilihat": 80752, "Знак": 75050, "##ール": 15396, "amháin": 105191, "##room": 25525, "鎧": 8008, "՝": 666, "децата": 97087, "druk": 43806, "##烃": 115058, "えられ": 82104, "##etengah": 103436, "Heiligen": 42208, "אברהם": 54553, "##ционални": 66293, "belt": 62705, "##사는": 64379, "cesta": 45402, "##ченні": 79174, "##hoz": 19843, "Reggio": 47518, "größtenteils": 93220, "Ebrill": 97283, "##Å": 110907, "batean": 33081, "Siden": 48666, "ప్రాథమికోన్నత": 39220, "昉": 4365, "gemeenten": 27466, "kontre": 59683, "##щта": 65178, "##viamente": 82946, "Yoshida": 108352, "##防": 117964, "霧": 8314, "##墘": 112911, "sauver": 96524, "tudi": 13361, "Grange": 88329, "Scholar": 105044, "##cari": 44350, "représenter": 105095, "miały": 47370, "ธ": 1416, "ستاره": 109778, "vedoucí": 107354, "##胱": 116307, "##五": 111921, "sådan": 70066, "##점을": 67477, "##顾": 118187, "أغسطس": 25173, "ﻭ": 10053, "Mia": 41367, "彰": 3755, "иностранных": 53813, "##釋": 117671, "remporter": 104329, "##mania": 44051, "##۵۴": 99750, "##inių": 38118, "בעברית": 93301, "##cilla": 92952, "##اک": 44601, "cliente": 69301, "銹": 7960, "comedian": 85996, "##莊": 116533, "1884964311": 19044, "lanaw": 44239, "##рака": 79765, "淆": 5036, "얻": 9550, "##cce": 48798, "巢": 3582, "כל": 14408, "yangi": 93868, "friendship": 74447, "379": 37251, "3885570963": 108834, "zbyt": 92552, "Baltimore": 21413, "##ris": 12125, "##所": 113765, "ça": 78323, "Foot": 47239, "gitar": 30194, "Seven": 21077, "##ല": 38847, "그를": 76203, "Ochrony": 102818, "##óc": 60937, "chúa": 60054, "ૂ": 1120, "debutto": 62784, "Москві": 85028, "##æste": 95769, "1469": 66192, "##寝": 113191, "батько": 72269, "sikre": 84994, "Fuente": 58498, "unitatum": 77839, "Zi": 99890, "##γραφική": 109829, "sjedište": 100905, "##jawab": 89309, "Արեգակի": 90087, "##зацию": 71599, "##ثال": 90956, "Reise": 40210, "##करण": 70721, "paraules": 101607, "##sive": 37413, "##hn": 15797, "901": 70732, "בתקופת": 46384, "团": 3001, "doby": 33530, "##賠": 117217, "##bian": 42041, "आन्ध्र": 84343, "##but": 23170, "canción": 17361, "bakal": 64276, "solely": 86159, "άλλους": 86576, "rektor": 62027, "##chnet": 61172, "Nowy": 40559, "out": 10950, "מ": 737, "Bulu": 103038, "##ruppe": 64392, "которую": 30956, "ito": 19694, "Langue": 75591, "núcleos": 81301, "Polly": 88994, "Macau": 59358, "nn": 105192, "улар": 106285, "##粗": 115914, "##uki": 39821, "##ócrata": 80577, "separación": 73203, "##zyki": 84870, "##դա": 88963, "##击": 112294, "##gueira": 80155, "оның": 22699, "##vost": 52499, "Kral": 86844, "element": 19527, "ноҳияи": 20677, "própria": 42229, "worth": 43509, "binne": 23417, "córkę": 108830, "悪": 3871, "Literature": 25870, "椒": 4651, "interpretation": 55760, "становится": 35970, "##ië": 27672, "陡": 8221, "насељено": 30440, "cabinet": 33801, "##ந்து": 22178, "Khánh": 70794, "Palermo": 26588, "##صاد": 68595, "Királyság": 105537, "slide": 92010, "maladie": 49145, "departament": 17663, "alrededor": 25289, "Jet": 39933, "##forcement": 90202, "##ecido": 72006, "##šel": 27785, "##osassa": 99856, "طائرة": 102219, "리그": 43723, "##γματα": 77233, "##iten": 22454, "іноді": 71059, "houdt": 86937, "124": 17944, "flood": 71027, "Gujarat": 63025, "газети": 101927, "بعدی": 93885, "##遙": 117531, "##ьского": 58441, "##oje": 18357, "vessel": 47023, "zemlje": 42444, "ラ": 2056, "##രിക്കുന്നു": 71452, "##রিয়া": 86305, "VV": 65060, "##ισμού": 100895, "бъдат": 65245, "##otros": 96376, "fondo": 27335, "אוניברסיטת": 64429, "сили": 29699, "facer": 59506, "##issait": 91002, "Homo": 29491, "##aration": 104614, "##্জ": 106203, "##pair": 110547, "##druck": 58888, "9월": 16959, "##ੰਬਰ": 66564, "елементи": 50138, "unclear": 94475, "##ptat": 66078, "kariéry": 99316, "##emmat": 91472, "##텀": 119350, "##dag": 19115, "сторон": 90193, "##rany": 51739, "laboratory": 67047, "塩": 3131, "##柴": 114319, "##вів": 77943, "animais": 41451, "ಫ": 1283, "##ள்ளி": 62172, "whatever": 104429, "hafa": 34320, "##棍": 114394, "##ąż": 53992, "bhfuil": 58061, "##ոք": 83151, "##夷": 112972, "##양의": 92290, "##성": 17138, "bulunduğu": 65796, "Gilbert": 18608, "##蒜": 116610, "##γιο": 47608, "jo": 12541, "suivie": 107181, "Prize": 17017, "##ಂದಿನ": 86263, "##marka": 97579, "konu": 98881, "Podczas": 28355, "verder": 25714, "##勅": 112381, "samhällen": 24961, "##бір": 36876, "##gic": 42153, "##相": 115526, "##碘": 115633, "Đến": 51864, "##ikh": 76993, "##шала": 76885, "##抓": 113802, "##উ": 89362, "نحو": 33807, "1355": 85548, "##udan": 82870, "##féle": 50605, "##浙": 114761, "principle": 48300, "сети": 53165, "##кает": 56690, "приликом": 100802, "generale": 16952, "없다": 39218, "mjestu": 36628, "estén": 110734, "##að": 107719, "humains": 71686, "Tervuren": 108716, "Указ": 51800, "repertus": 76946, "Марија": 79448, "coast": 22216, "##ивных": 77396, "విధంగా": 31491, "##ծման": 76052, "##mper": 52876, "##来": 114267, "крае": 67317, "בסגנון": 99041, "饶": 8495, "Centrală": 65220, "##čica": 54479, "Search": 27518, "##ത്തെ": 26695, "##廢": 113457, "##влення": 72554, "Boyko": 68913, "##ivos": 26700, "ḫ": 1632, "Jennings": 57648, "really": 30181, "Groupe": 45484, "##σίας": 34448, "occupation": 28929, "捲": 4141, "##킴": 119332, "státu": 61612, "##mide": 58137, "qualità": 41825, "संग्रह": 106309, "##성되어": 103764, "Landgemeinde": 92984, "##빵": 119010, "##峙": 113297, "##नंतर": 74064, "ครั้ง": 90819, "japoneses": 80400, "933": 79145, "##ấn": 33448, "##بی": 23772, "folyamatosan": 100410, "relació": 47535, "##huis": 31280, "##արանում": 71981, "##ך": 14959, "##valg": 78150, "Homer": 31430, "ಇತ್ಯಾದಿ": 90786, "wieder": 12426, "лело": 20982, "疹": 5663, "Sci": 23359, "ಮೂರು": 62714, "ledna": 31533, "##ณ": 62914, "##ā": 11483, "##łego": 58261, "Новое": 90161, "июне": 41546, "Ranier": 50926, "ofiziala": 52519, "##pített": 89753, "##ідною": 72697, "ഹ": 1368, "枚": 4521, "tenir": 20152, "från": 10544, "Knox": 47325, "##трат": 109135, "קודם": 62306, "##न्तु": 84487, "ceremonies": 97799, "avanti": 63257, "pari": 24289, "Zugang": 64161, "هناك": 22635, "phenomenon": 79409, "牛": 5400, "պետական": 23207, "##ച്ചത്": 67051, "mọi": 39439, "formations": 62728, "совета": 30751, "##ิด": 76062, "##秒": 115721, "##кина": 99557, "##migo": 87325, "325": 25843, "##clut": 60100, "헤": 9973, "nella": 10807, "yield": 95757, "##otov": 106933, "흩": 10022, "માં": 56178, "漣": 5166, "怕": 3816, "prawa": 37522, "Dodge": 50142, "##紧": 115964, "##üste": 83000, "kalles": 61449, "gles": 77255, "joukkueessa": 98536, "рос": 28171, "Carter": 18047, "서울특별시": 75553, "##izacja": 110363, "##glo": 77646, "ఆయన": 39567, "##ガル": 93841, "##voll": 52806, "aktiboak": 32616, "кор": 80062, "##fondre": 94852, "musicals": 87405, "gratis": 61162, "##ستر": 43138, "Maret": 25412, "এছাড়াও": 72880, "##stå": 83020, "##stelle": 36242, "瀾": 5248, "exhaustif": 67845, "repeated": 57026, "керівництвом": 66634, "##คือ": 76918, "娃": 3288, "šis": 84266, "feeding": 87713, "лелаш": 13033, "削": 2565, "Heute": 31349, "##мати": 87943, "الحكم": 51904, "##புரம்": 63765, "retail": 52232, "##沥": 114685, "longitud": 23230, "##nicima": 92785, "粒": 6146, "participantes": 43313, "##odni": 74284, "учасник": 79609, "сборник": 38829, "##煦": 115102, "##يك": 34022, "Federal": 14492, "##nyire": 87240, "ফলে": 54899, "احمد": 31269, "誨": 7227, "desenvolvimientu": 72045, "finales": 17800, "Quận": 54829, "ensemble": 15576, "організації": 41392, "##dinate": 104169, "##inate": 78321, "##વે": 59980, "##иги": 104695, "##wedstrijden": 76654, "σχεδόν": 70712, "##ылган": 78557, "charts": 32171, "באותה": 28389, "##ुर": 52398, "##溪": 114884, "nimi": 23499, "rexón": 57328, "Beira": 110650, "साक्षरता": 54471, "Uhr": 32452, "##ων": 16099, "093": 109512, "változása": 36454, "##ensive": 77796, "##武": 114560, "prepared": 39837, "##باز": 83475, "početka": 68518, "##ಕನ್": 110428, "##tijas": 105212, "Format": 30625, "##ੈ": 78142, "Brassicaceae": 107947, "Schlesien": 82797, "Героя": 46270, "醬": 7894, "1360": 62419, "skupina": 25206, "မှ": 62434, "dirigent": 40274, "colpo": 67939, "beobachtet": 92489, "مشہور": 55182, "##rului": 68300, "Michail": 84584, "ể": 1665, "##绍": 116100, "președinte": 95861, "##tivat": 109369, "##stlustel": 109638, "##γεια": 104345, "##醉": 117649, "قناة": 57759, "․": 1730, "Campionat": 62546, "錶": 7988, "##ленне": 62354, "artwork": 64271, "顗": 8405, "##tism": 106965, "canciones": 23957, "بنابراین": 74793, "##lver": 63345, "##漫": 114935, "espagnol": 40448, "каля": 33730, "Revenue": 69092, "درمان": 78578, "inducted": 63202, "##itter": 62549, "савезној": 12831, "स्पष्ट": 101120, "пяти": 55506, "mehr": 12471, "ნოემბერი": 58927, "суспільства": 104128, "##volgende": 92559, "incluir": 85586, "inclusive": 34379, "Marais": 79608, "拝": 4076, "другий": 70546, "##örü": 99215, "##listan": 105022, "##cido": 18678, "##kunnan": 35027, "oppidum": 58012, "declara": 92795, "濡": 5223, "amerindios": 64413, "##olare": 47222, "дни": 41133, "##าม": 79790, "pacahan": 23711, "Пер": 54247, "##ंगु": 93591, "February": 11508, "постійно": 91198, "##ြား": 67798, "Cecilia": 40213, "1990년": 71767, "##éroe": 94738, "waarden": 40791, "فارماکولوژی": 71679, "##्तम": 108749, "bombs": 94510, "тих": 43524, "##úti": 83653, "##твы": 65853, "pregnant": 82495, "australiano": 61836, "elegit": 90634, "bandas": 37431, "brezel": 73000, "##bagi": 99664, "##fr": 71843, "刪": 2552, "ṃ": 1634, "##necht": 103957, "##ֆ": 92539, "inspire": 95664, "réel": 74621, "merkezi": 47522, "##¿": 110901, "Ü": 250, "yana": 64428, "##遇": 117520, "Não": 31107, "provenant": 75941, "##纜": 116069, "Bibliothèque": 37969, "atd": 98939, "##랐다": 106220, "Marka": 67121, "legislatura": 63044, "##穂": 115756, "simplex": 85956, "##mondo": 74862, "##淨": 114814, "##ötland": 78966, "##אמר": 70355, "Grimm": 45345, "Origin": 47004, "банка": 59492, "نهایت": 91917, "戻": 3996, "सिक्क": 65962, "personales": 90770, "pareja": 54580, "Luftwaffe": 34424, "##mies": 44092, "beating": 58081, "##Խ": 111118, "Україні": 21567, "##律": 113535, "career": 13021, "Paraíba": 85130, "##גר": 33169, "Doña": 81595, "heet": 68479, "vattnet": 55644, "IK": 53182, "##када": 84072, "Voiced": 99745, "##与": 111847, "cunoscută": 41044, "однієї": 84256, "##遡": 117535, "perché": 19469, "etapa": 16736, "receber": 87120, "鄺": 7856, "GA": 74212, "oba": 35355, "okruzi": 73807, "##icznej": 83411, "##שמש": 95381, "##瑋": 115307, "##dul": 42918, "##盏": 115504, "##цкім": 71522, "жовтня": 23067, "edilmişdir": 30299, "##сточная": 86387, "gir": 46264, "##wki": 85872, "##蔭": 116641, "##달": 89851, "главной": 61327, "٭": 814, "Berlinie": 81390, "betek": 57950, "uchder": 102690, "puestu": 103610, "najczęściej": 58201, "Need": 30255, "##ност": 19364, "السوري": 107744, "忆": 3794, "álbum": 12658, "Türkei": 54485, "continuò": 75198, "##ď": 25849, "Banque": 75570, "guests": 62375, "##itate": 28198, "##ками": 18697, "##own": 49126, "Twin": 36820, "##േശീയ": 103137, "2700": 83746, "Во": 12624, "##র": 11128, "годината": 60136, "Въпреки": 60648, "##sci": 89270, "##მ": 18718, "##skih": 17136, "dr": 17094, "восстания": 77627, "altar": 38412, "Belgia": 39023, "राज्य": 16916, "##১": 23538, "mieć": 106884, "##vasi": 53856, "##fürst": 103838, "welches": 27503, "селі": 22592, "škola": 31758, "##ுத்த": 91939, "Նրա": 49066, "##tly": 69253, "لهذا": 55634, "##פלגה": 90608, "Tonga": 61600, "bilinir": 99891, "Katolik": 49570, "Led": 47922, "##矿": 115593, "ವಿರುದ್ಧ": 103391, "Շարժման": 95233, "råder": 11578, "##罂": 116159, "##മി": 43260, "##ішча": 101377, "##škų": 77594, "##فاعل": 64568, "##зда": 45076, "njemu": 32064, "##وجة": 83213, "surgery": 44811, "která": 14910, "##』": 111776, "nhờ": 71038, "araignées": 95565, "past": 17781, "##麥": 118552, "άλμπουμ": 61073, "оригінальному": 89795, "Lycée": 87619, "Color": 37010, "##만": 19105, "Landing": 72664, "spécial": 84212, "côn": 84547, "Vargas": 37280, "Costa": 13902, "Vereinigten": 28373, "##动": 112367, "##롭": 118884, "febreiro": 42585, "publication": 16877, "##icznego": 90257, "руководителем": 108398, "ракет": 105560, "##rist": 24953, "یئر": 25023, "πως": 34520, "Object": 17211, "##τικοί": 92617, "تحریک": 89257, "довха": 88152, "Rede": 29712, "Центральной": 81511, "##хьара": 101976, "стр": 19240, "##ριο": 30564, "##zeniem": 70129, "Rover": 57836, "chân": 28066, "##gani": 102405, "appartient": 52199, "ilhas": 84271, "##ਡੀ": 83949, "薹": 6913, "Ω": 460, "bob": 77443, "Garten": 59515, "##скае": 97282, "offizielle": 69573, "medida": 26080, "##strahlung": 98307, "vok": 68465, "своето": 65505, "Referee": 36199, "skola": 107245, "##タ": 21462, "筛": 6078, "##ська": 14799, "探": 4159, "жана": 12315, "khí": 26488, "##անք": 91249, "839": 74738, "##yti": 35005, "##rder": 72016, "ingresó": 84286, "##áig": 50033, "بوده": 25607, "##奉": 112980, "##tnosti": 93111, "##цент": 60515, "wygrał": 62018, "hivyo": 82312, "besser": 53978, "juga": 11535, "##陞": 117985, "బయోగ్యాస్": 42243, "بعضی": 64624, "##jąc": 15442, "争": 2148, "Alben": 57591, "##鶇": 118498, "##ավոր": 26949, "##dre": 16419, "##ਂ": 22225, "entweder": 51686, "польск": 49229, "entered": 19226, "tanggal": 12641, "Snake": 48364, "Superintendent": 95771, "##صاب": 58863, "##öy": 66992, "##sedia": 107667, "altijd": 38095, "tõttu": 51231, "dyrektora": 102216, "faster": 66109, "annars": 85120, "tuần": 37716, "##讳": 117076, "ਨਹੀਂ": 38240, "##艘": 116428, "régime": 38414, "kì": 95732, "SDP": 108983, "##vudstaden": 108532, "mendukung": 82159, "sitä": 25450, "radiation": 56503, "##ländska": 63656, "aktivite": 39720, "##вами": 102637, "projektu": 32186, "##òng": 54082, "قاعدة": 71608, "##valieri": 82057, "##ave": 23641, "prosinca": 57947, "##test": 42615, "##ези": 80883, "محصولات": 102429, "##歩": 114562, "##равы": 89510, "Theory": 21271, "chilena": 85797, "valid": 64999, "côtes": 87467, "##wasser": 42290, "cricketer": 77192, "peces": 37842, "1671": 45501, "utilizzo": 54070, "Penny": 50551, "##TER": 99552, "##cua": 75545, "対": 3446, "溶": 5122, "##ბრივი": 49656, "##ktik": 85936, "##åland": 106457, "Bahari": 88374, "unterschieden": 87360, "♠": 1868, "層": 3500, "ੱ": 1065, "di": 10120, "peau": 81949, "##ട്": 51844, "##سازی": 32781, "##طن": 46318, "томе": 64571, "brit": 52676, "##որը": 103667, "entinen": 53024, "સમાવેશ": 91840, "##jien": 42324, "##rint": 62695, "##jni": 56436, "cità": 90842, "112": 16129, "##ici": 13439, "Sunca": 92138, "phản": 31062, "荼": 6763, "হওয়ার": 96347, "lebten": 38721, "##ಸುತ್ತಾರೆ": 59723, "##ந": 111308, "Monica": 29242, "tích": 16499, "##33": 69646, "графиня": 92099, "##変": 112950, "Yayınları": 95369, "##రెస్": 101872, "experience": 20627, "##тско": 108402, "interviewed": 94501, "dédiée": 92613, "aelodau": 59544, "##裴": 116883, "Apple": 17216, "##ailles": 91006, "毀": 4829, "##chs": 42008, "##mble": 48272, "##нікаў": 70598, "##versari": 76582, "Bhutan": 63270, "вести": 59568, "Delft": 72831, "ulaşımı": 47202, "Polen": 18878, "waarop": 47658, "1302": 89869, "gyventojai": 60182, "Kazimierz": 44167, "##多": 112957, "縊": 6267, "##еї": 72970, "basen": 18748, "冲": 2493, "##窖": 115781, "##schaft": 16866, "Ī": 316, "Ӏаьнца": 59767, "agency": 34649, "SE": 23056, "彼": 3760, "Academy": 12578, "Hollow": 66086, "##रे": 28546, "Già": 97138, "隗": 8249, "##зяржавы": 109625, "absolvierte": 26797, "spiritual": 42422, "었": 9557, "1988년": 75991, "##خدمة": 75894, "##कृत": 73928, "##ча": 13035, "##ذیر": 104876, "उनकी": 38159, "##ŕ": 110963, "ә": 618, "impressed": 88363, "##unter": 74230, "##秃": 115716, "##keus": 110710, "Danny": 20340, "259": 29559, "##äe": 57314, "##ril": 31860, "majorité": 34775, "##ssants": 108245, "Rhagfyr": 46303, "কলেজ": 67210, "Record": 18814, "##რს": 46838, "елгы": 24303, "oant": 35891, "##vár": 67733, "Académie": 23534, "голову": 83603, "Gesundheit": 101056, "##zők": 102084, "##hnten": 92487, "##ված": 14788, "своєї": 42690, "Arbor": 76361, "110": 13057, "##BU": 108865, "払": 4011, "##hese": 80450, "##عی": 40750, "Berlusconi": 99654, "Saveznom": 107978, "cimitero": 104098, "mænd": 103521, "##бы": 18766, "USA": 11061, "kababarak": 62830, "восемь": 101625, "tone": 43619, "1576": 50003, "##ifiant": 98742, "汎": 4878, "genyen": 26844, "strips": 107913, "allgemeinen": 79228, "##сера": 90728, "##랩": 118858, "##経": 115977, "##kl": 57850, "##cam": 67354, "##ĕнĕ": 83446, "##מות": 15482, "##arrow": 105867, "떠": 9138, "avions": 45536, "sullo": 73467, "assassinato": 101335, "Megachilidae": 78679, "##자는": 53639, "##pero": 76058, "Ini": 25336, "##koj": 24378, "ví": 70673, "capacità": 39550, "茗": 6729, "شهرلرین": 22411, "##μα": 15177, "##yawa": 109430, "##gebouw": 78544, "ž": 372, "giết": 43011, "柯": 4550, "úgynevezett": 108735, "##eleg": 105687, "##ость": 40780, "##أحد": 92260, "##viles": 73198, "অর্থ": 100945, "构": 4514, "arrives": 69631, "Tettigoniidae": 61665, "##ിരുന്ന": 93083, "祟": 5916, "Makes": 110141, "披": 4049, "Kaunas": 53480, "anunciado": 70610, "ಉದಾಹರಣೆಗೆ": 97459, "##वन": 45052, "1873": 13789, "##зода": 87572, "бет": 31664, "##vét": 81322, "पूरी": 96597, "##ੜੇ": 71496, "##묵": 118944, "үчүн": 31337, "southwestern": 84505, "##estas": 95120, "##僧": 112166, "Przez": 36253, "##pore": 62758, "##wand": 31389, "generate": 74195, "комиссии": 53515, "##bris": 48284, "##tuvo": 76809, "elftal": 90219, "##heter": 33926, "2ᵉ": 21672, "##dós": 59864, "Государственной": 59400, "##ஃ": 111292, "Risk": 70074, "catalogue": 31528, "inden": 44723, "584": 48322, "##brane": 55165, "##زف": 107560, "##stön": 91919, "##зіла": 92041, "##рто": 54555, "populația": 52104, "kup": 101079, "##ђе": 43319, "##eia": 75228, "##תיאטרון": 79894, "Yoga": 81546, "##ена": 12868, "وغيرها": 59207, "772": 73373, "##憂": 113704, "linha": 31174, "##пределение": 71282, "ながら": 103622, "##쉽": 119072, "##сией": 106801, "Kościół": 38651, "nghỉ": 103387, "##향": 79544, "##axe": 51848, "группе": 47788, "##омих": 88212, "west": 13735, "##ppa": 33729, "questi": 18160, "Alien": 49333, "##posed": 76996, "aur": 73635, "##работки": 80670, "혈": 9979, "乍": 2122, "##лько": 72537, "##迥": 117472, "few": 13824, "kole": 73994, "##ząc": 70618, "##oman": 70228, "Ant": 40328, "më": 13079, "Auftrag": 35833, "##unun": 37889, "فارس": 44758, "##aio": 73897, "##陸": 118001, "draagt": 67427, "Albion": 56878, "##τερα": 37822, "війна": 109677, "ಹೊಂದಿದೆ": 61089, "兴": 2458, "##טת": 44410, "svake": 80843, "Künstlern": 108590, "campione": 44409, "Pune": 107279, "圻": 3038, "VHS": 39915, "##br": 36867, "##xenes": 96581, "Brother": 33381, "Genus": 33444, "##ը": 10971, "Russia": 14664, "raste": 94793, "Viola": 36497, "comida": 56588, "##pas": 20084, "##zaak": 99897, "##िम": 50419, "Mitsubishi": 44296, "pełnił": 40016, "珏": 5500, "##rio": 12013, "tribus": 39798, "sente": 97705, "letu": 43064, "racconti": 82346, "##нали": 62990, "1313": 93581, "estable": 89345, "##సిన": 57856, "ã": 257, "##àu": 110585, "##ப்படுகிறது": 26966, "अप्वया": 58188, "##كز": 61566, "##mą": 27635, "##齒": 118590, "##历": 112473, "mudança": 76066, "##iť": 66763, "sold": 15337, "##UN": 69849, "équilibre": 110055, "Dick": 19988, "##felt": 60490, "##eler": 49205, "##粲": 115924, "gitt": 41893, "##ด์": 74483, "establecido": 81105, "средишта": 86887, "1878": 13234, "##bird": 37398, "medverkade": 101592, "##jvoda": 98372, "타": 9845, "妞": 3254, "Auburn": 87454, "fè": 54935, "##cence": 65217, "##RD": 84444, "soient": 51265, "##ulat": 46059, "קטנה": 96436, "którzy": 30214, "##OW": 33893, "##氣": 114625, "##անակ": 61887, "##恼": 113620, "Ragnar": 87639, "Mix": 17764, "##лым": 63029, "Boone": 71801, "abril": 12207, "phân": 16225, "##థ": 72234, "驕": 8542, "terminar": 51687, "##јску": 89585, "##šské": 82128, "##vec": 53174, "##ligen": 29775, "Turm": 36464, "Magdeburg": 48434, "1280": 60957, "##ъв": 40917, "##iales": 67105, "ভ": 971, "డాక్టర్లు": 38870, "Allmusic": 38513, "##履": 113267, "политику": 103759, "##愁": 113668, "##рани": 32229, "##oc": 25125, "##ырым": 91966, "##sland": 36799, "##鼬": 118585, "1270": 62044, "miał": 22273, "##lapa": 102515, "नाटक": 95096, "##ometer": 68962, "Conte": 49082, "presentó": 39118, "passage": 22718, "##зованы": 109926, "ஆனால்": 39209, "##IP": 30331, "Vo": 59482, "##rebbe": 65550, "Nevers": 101855, "erkennbar": 110595, "##ellan": 92455, "##pia": 17837, "会": 2226, "##ógia": 82921, "Kristiansand": 96110, "Werkstatt": 109871, "Masa": 64807, "##idir": 48020, "##얽": 119135, "hof": 88550, "polonaise": 80396, "##rako": 63418, "068": 102517, "##્ણ": 102725, "голям": 67840, "##стен": 49271, "留": 5625, "##oki": 32592, "娟": 3296, "##ремі": 102277, "high": 11846, "馮": 8512, "谟": 7380, "##чая": 95156, "##залежності": 102439, "Hacia": 94303, "artigo": 52686, "podaci": 55756, "##ncang": 88589, "Tephritidae": 48230, "världens": 88627, "##цького": 29384, "##ME": 42424, "Sidney": 29167, "##ಗದ": 108743, "##fuhr": 81536, "создания": 38665, "걀": 8862, "pierwszym": 31547, "וב": 38866, "##eet": 23203, "nisu": 24184, "##schickt": 108118, "øvrige": 85131, "تفسیر": 110776, "Trio": 30271, "geven": 34274, "blev": 10930, "پاسخ": 106025, "että": 13696, "Brytanii": 51097, "##posredno": 103413, "giovani": 44317, "együtt": 28269, "##isu": 59584, "##יית": 25857, "Donovan": 55072, "درست": 81487, "sport": 17925, "свободы": 82604, "fondateur": 46723, "##äi": 40235, "bedient": 93677, "##анский": 71455, "Parco": 74391, "ನಾಲ್ಕು": 99080, "settled": 29014, "##nh": 16317, "דמות": 108034, "SDSS": 34612, "Concorde": 109266, "우승": 56263, "##yka": 31686, "Batu": 43063, "##eis": 36776, "##wyddyn": 103646, "ҫ": 603, "notion": 48213, "anaknya": 110109, "Pisera": 72250, "##ేక": 103925, "##forscher": 105079, "##עיירה": 56327, "##ელი": 20940, "##瑞": 115314, "únicu": 105550, "##椿": 114424, "tal": 13675, "maig": 27442, "dla": 12197, "түрде": 90975, "##േഷൻ": 85088, "##ázal": 77243, "palabras": 35678, "تکزاس": 92179, "##èn": 20276, "垒": 3071, "##جليزي": 90663, "agenda": 70231, "##ünkü": 58764, "საფრანგეთის": 110041, "Oise": 31864, "regnum": 79243, "倩": 2346, "केवल": 46605, "881": 79386, "Republic": 13681, "proses": 25458, "hogy": 11352, "##weight": 31869, "przy": 14052, "імператора": 99169, "rois": 85248, "##帅": 113368, "##আ": 111221, "Hermes": 58368, "سلطنت": 47857, "Verbindungen": 70705, "Dolls": 80332, "笋": 6052, "oraz": 11221, "pensar": 54827, "реестра": 78682, "##ндә": 17906, "##ერიის": 100444, "Arctiinae": 73987, "IAU": 44424, "Österreichs": 89491, "말한다": 52462, "Neste": 49022, "кн": 47779, "訟": 7180, "doubles": 46255, "##τος": 19622, "foods": 109310, "##tional": 42361, "pory": 108157, "трех": 83370, "deste": 26839, "##nder": 16497, "brugt": 70574, "ocağı": 45774, "fanden": 31144, "##콘": 119307, "##čno": 14850, "履": 3501, "Белая": 92829, "Falls": 23118, "##חברות": 79133, "Taman": 34818, "ફ": 1103, "войсками": 49353, "##иці": 37835, "کردند": 30140, "को": 11267, "##זכיר": 80227, "населённые": 84839, "Doo": 59048, "##тое": 89206, "vahel": 42778, "##מה": 12726, "volbách": 39816, "hoje": 29601, "1317": 93216, "##atakse": 93747, "produz": 108316, "##니": 25503, "##ائی": 32245, "try": 31638, "ದೊಡ್ಡ": 59983, "##의를": 78505, "وعلى": 38828, "##rnik": 83247, "Runde": 31786, "봐": 9363, "##柱": 114317, "pág": 85096, "##jazdu": 107698, "יו": 92731, "walog": 64813, "типті": 59531, "același": 46011, "##şı": 23589, "##餵": 118244, "limits": 47418, "বিরুদ্ধে": 93370, "##аки": 50034, "##ёта": 53191, "##illon": 45310, "##bka": 70872, "729": 68372, "dniem": 60553, "c": 171, "Psychology": 38175, "பிறகு": 72364, "##jaan": 44113, "##षित": 79559, "拮": 4088, "靜": 8331, "##ifier": 95195, "należał": 84291, "##swert": 84056, "##аке": 110702, "既": 4347, "especie": 15136, "ποτέ": 95105, "##ference": 52790, "sels": 76056, "##PO": 93520, "##өмөнкү": 104029, "##ntz": 80745, "##staan": 55192, "атындагы": 98329, "Prva": 52927, "##presidente": 83029, "ẵ": 1657, "##нтом": 60057, "ờ": 1680, "повинен": 89901, "##zh": 15104, "##দান": 100491, "##osa": 14271, "##tuto": 85708, "GameSpot": 101045, "Piano": 24336, "Sunderland": 60269, "##يں": 96588, "Acrididae": 64157, "Nunavut": 96798, "Much": 35555, "klas": 104901, "##사에": 86580, "##maları": 101572, "##valet": 86156, "##ptes": 91714, "Bununla": 89725, "ibunya": 97118, "ganska": 13402, "##燃": 115122, "##માન": 93630, "пізніше": 39543, "##кция": 44103, "##கிறார்": 51724, "Libri": 96259, "utamanya": 68720, "việc": 14331, "##רוב": 107783, "Baviera": 33665, "Oscars": 94648, "##город": 54734, "##िले": 52433, "##jovice": 109153, "report": 17553, "bilo": 14698, "Yüksek": 100813, "濬": 5226, "##應": 113722, "##vision": 62632, "tentera": 45279, "눅": 9033, "sub": 13987, "flytta": 92536, "##fonie": 61050, "##prano": 99199, "##ől": 21197, "ממנו": 49606, "haren": 76442, "sloot": 87265, "##квата": 108680, "沼": 4931, "bouw": 56313, "Якщо": 51531, "Лучшая": 103820, "##杆": 114253, "kamadan": 104572, "0521669928": 103253, "##jubav": 100994, "hoy": 25235, "##LL": 82834, "Woody": 32274, "##еме": 47792, "род": 17517, "##metre": 46556, "٪": 811, "eléctrico": 102939, "кушылып": 67463, "Rwanda": 57557, "Problems": 67185, "##煉": 115091, "ιδιαίτερα": 67858, "unbekannt": 79948, "##都": 117604, "喆": 2912, "##ಗಾಗಿ": 76959, "նոյեմբերի": 51107, "república": 53666, "##يّة": 80093, "spricht": 54738, "contenuto": 81819, "##զ": 42837, "שם": 16335, "בנובמבר": 35722, "##лений": 27193, "ml": 58240, "##繋": 116049, "Stage": 25171, "##aic": 80621, "counties": 41199, "ない": 35410, "##ogique": 52581, "##éraux": 79126, "##gating": 91045, "հանդիսանում": 83047, "Dio": 26332, "دون": 25533, "##કે": 88625, "##вшими": 104657, "straal": 65661, "ciclo": 30720, "阪": 8194, "आय": 98440, "##ausstellung": 71074, "##lila": 81523, "próprio": 34642, "##۶۷": 91466, "比": 4839, "основан": 36586, "olnud": 42760, "Cat": 25059, "##ঊ": 111223, "673": 65213, "светског": 67445, "##與": 116397, "энцыклапедыя": 56366, "##鏗": 117782, "economische": 93886, "##yra": 35327, "##ിച്ച്": 59681, "799": 79739, "віком": 34628, "indígena": 82011, "末": 4475, "joulukuuta": 35951, "koncert": 46220, "Moscow": 18744, "нөмірге": 100264, "##ნეს": 47863, "Stari": 91102, "##ეთის": 38178, "value": 19211, "##яна": 47381, "Teoria": 92979, "##注": 114715, "capilla": 61660, "kuperad": 13260, "##piä": 94997, "rezultat": 48306, "##čiaus": 84853, "geographical": 14449, "4일": 43494, "vượt": 55574, "명": 9281, "Mau": 103722, "universités": 100486, "##83": 68073, "换": 4135, "##밤": 118968, "består": 13022, "妊": 3247, "吕": 2781, "নদী": 78794, "쉽": 9471, "##στικό": 39512, "##даний": 60461, "##13": 45389, "millóns": 78837, "ngành": 49257, "##pade": 48134, "Gun": 31328, "##entu": 45610, "##挪": 113881, "##엿": 119146, "Jamaica": 32699, "Tabachnick": 69745, "हिमालय": 61505, "kalawan": 82583, "##mman": 43230, "stranka": 105459, "Prussian": 89279, "motori": 62424, "lequel": 24809, "##する": 29442, "הייתה": 14827, "peraturan": 103654, "istitussional": 78804, "Melchior": 100933, "Modena": 46792, "کرمان": 89247, "Ambassador": 55060, "Gianni": 43750, "heit": 90286, "domeniul": 94076, "##gár": 91609, "Chemie": 42930, "Being": 39641, "Volgens": 26950, "infant": 76072, "objektu": 99026, "##sing": 16357, "capa": 40306, "त्वते": 67515, "photos": 41833, "##ektrum": 61882, "النهائي": 82315, "력": 9193, "Aquitània": 97762, "##qları": 53351, "##hes": 19904, "##եսի": 68708, "omkring": 14163, "##舘": 116409, "##seller": 79395, "Buster": 80508, "Sovjet": 62057, "partija": 81307, "Samara": 99536, "costituita": 62537, "మార్కెటింగ్": 39303, "##ệp": 51392, "kasaluruahan": 22281, "##улі": 84313, "bringen": 45199, "댐": 9072, "znajdują": 37486, "##lmaktadır": 65371, "##صنف": 67498, "x86": 74548, "##멍": 118926, "##ędąc": 108050, "урыны": 93479, "##ていたが": 94203, "hidrogen": 101118, "##חיות": 76509, "##擒": 114020, "aquell": 50815, "俶": 2327, "##ंश": 51715, "Gibbons": 96125, "sudaro": 62386, "üyesi": 77122, "##ட்டியில்": 103250, "trolig": 108567, "bassist": 56960, "Eugène": 26548, "CA": 24707, "##组": 116094, "Tomb": 72076, "movimiento": 26144, "convention": 37812, "desarrollar": 82243, "ордена": 23550, "##ømme": 54776, "દિવેલા": 85628, "##htiö": 52236, "咩": 2843, "##tanen": 103106, "auxiliar": 80556, "##पालिका": 74467, "Moi": 82447, "胃": 6526, "##coles": 110756, "##ραβείο": 71760, "대통령": 70672, "##בן": 38473, "Populations": 55840, "##ェイ": 77657, "##צר": 19245, "##ブル": 82554, "1584": 47478, "повести": 109542, "##ltan": 93731, "ondorengo": 30867, "cm": 11207, "일": 9641, "蕴": 6893, "##xan": 56277, "##ദ്ധ": 101483, "##Ż": 110977, "紗": 6190, "##延": 113461, "戡": 3983, "##گر": 29255, "897": 77353, "##вёл": 75604, "##ופים": 75176, "硅": 5846, "відстані": 22557, "##точната": 109411, "crystal": 104905, "##홉": 119442, "##胃": 116292, "svým": 45824, "απόσταση": 106954, "##jë": 29713, "##будовано": 90356, "koristi": 28555, "952": 56114, "##chal": 48890, "Gonzaga": 54229, "Serbie": 66757, "փետրվարի": 67719, "##粤": 115918, "##豹": 117175, "jopa": 46682, "Hee": 107443, "##మి": 76231, "місцевого": 34559, "##кін": 57608, "##csi": 39582, "Австрия": 61522, "minori": 65411, "seriálu": 64967, "št": 51770, "４": 10072, "##gimento": 76245, "ு": 1177, "RTL": 43001, "はない": 63928, "Lamiinae": 105175, "pagasts": 106301, "trọng": 22728, "pobre": 84988, "##ķis": 52047, "ဇ": 1499, "membuat": 21261, "Входить": 39444, "淋": 5038, "centers": 44924, "##olat": 99447, "各": 2768, "##ждава": 87055, "##জন": 77983, "##ristianisme": 87865, "perdana": 104747, "##婚": 113076, "outer": 52092, "##örner": 75116, "##guin": 86041, "339": 34753, "916": 82292, "##雰": 118059, "##酱": 117641, "Elk": 96440, "##reut": 101633, "prije": 24230, "弋": 3708, "908": 78260, "##sele": 68640, "##кома": 66055, "##fusa": 100200, "##ечь": 75865, "אדם": 27030, "Isla": 29907, "##erina": 90643, "##ٹا": 38894, "尭": 3471, "##cale": 45330, "晦": 4404, "##ɡ": 110994, "##ллер": 84758, "liées": 97832, "##渎": 114834, "enfin": 37063, "span": 51551, "tận": 109327, "Leta": 21490, "corazón": 41609, "##ेला": 66786, "ఝ": 1208, "Rome": 14592, "appelé": 25419, "Granger": 108923, "##lán": 28110, "60": 10709, "teraka": 25409, "bo": 20506, "##здат": 96871, "##hian": 51936, "contribution": 34967, "##淡": 114811, "fortsatte": 32723, "##rul": 24849, "Bumi": 67793, "Art": 11397, "##熾": 115120, "Filho": 53927, "##riko": 60543, "##牧": 115172, "дозволяє": 64457, "injury": 27443, "perustettu": 66856, "Hermann": 15833, "carreira": 21495, "вокал": 33027, "##узі": 105628, "ٔ": 802, "##糕": 115932, "Hugh": 20850, "Klasse": 20326, "##jonen": 22084, "verschenen": 83083, "вже": 23692, "feita": 46579, "##洄": 114728, "##ాలను": 44754, "##yre": 31993, "##糯": 115940, "##漸": 114941, "là": 10331, "parts": 15569, "דה": 35602, "##熏": 115111, "##ાળ": 97352, "포": 9928, "oppført": 92512, "##zije": 43151, "Daptar": 34928, "##唸": 112653, "##譬": 117049, "Lực": 99990, "Герой": 32046, "Tito": 32764, "##جامع": 109425, "##ниях": 104985, "##قر": 30506, "##岡": 113285, "nabijgelegen": 58059, "pitched": 80525, "##esca": 58412, "н": 554, "bind": 55154, "kulture": 53611, "கே": 86728, "##жу": 27557, "##━": 111720, "comments": 61565, "estimate": 78059, "##orp": 72504, "##тичні": 64005, "membros": 26528, "elsewhere": 60249, "Участвовал": 86724, "##团": 112767, "##രുന്ന": 41950, "##kaita": 105112, "##áris": 90925, "##culata": 55980, "hende": 76180, "##asyon": 77927, "藤": 6924, "##stücke": 73712, "##ೋ": 43744, "##ęć": 54488, "sampun": 103619, "##ларын": 40538, "##вался": 61158, "třetí": 53116, "IGN": 35649, "Karma": 87589, "Französisch": 109554, "Манчестер": 81485, "viajar": 108207, "coalición": 75261, "сейчас": 61149, "##বী": 70060, "Chile": 13218, "Bungtod": 76915, "proporciona": 78842, "##ბულ": 90002, "##涝": 114784, "##mend": 101480, "od": 10311, "protéger": 68624, "Palestinian": 56119, "किंवा": 50723, "##揽": 113960, "##에": 10530, "insan": 40840, "##歿": 114573, "Bro": 32470, "Affair": 63207, "ḷ": 1633, "kasama": 96968, "黑": 8802, "ौ": 915, "##郗": 117589, "##凹": 112292, "titulada": 64031, "##meer": 41933, "##ukt": 84433, "kirkko": 75220, "denominazione": 67884, "##כלל": 90777, "Просјечна": 93535, "Defensa": 52026, "Clemente": 43809, "##маны": 77534, "夾": 3210, "بلغ": 17652, "##kowego": 86085, "##щается": 51901, "Jeremy": 27087, "Montpellier": 38069, "м²": 68365, "##岱": 113290, "駛": 8524, "Scala": 47292, "Abschnitt": 40557, "sortu": 38350, "Tercer": 101900, "eder": 47461, "##길": 118666, "ವಿಜಯಪುರ": 106972, "Первым": 79862, "response": 21001, "##isto": 27773, "##腻": 116355, "##wandte": 87094, "##椒": 114417, "幕": 3634, "극": 8925, "##ferenza": 57997, "##irin": 89080, "putri": 64763, "κυκλοφόρησε": 69552, "##қ": 13876, "軾": 7610, "##ärer": 93394, "##regnum": 110314, "مثلاً": 78222, "##票": 115686, "Farm": 30837, "wur": 87011, "##raken": 99988, "pembangunan": 52469, "получили": 43547, "compostos": 76257, "##kjer": 88219, "##אול": 101864, "##Մ": 111123, "Ⅰ": 1785, "##ziger": 102192, "##bom": 52043, "strikes": 86206, "lite": 18711, "##fere": 50544, "seguiu": 103588, "foundation": 33572, "##zneg": 107311, "split": 24137, "##يوم": 68995, "##jęcie": 66873, "##爷": 115153, "Vecchio": 91358, "вновь": 25698, "Atlanta": 19600, "timp": 22836, "##юються": 95466, "##爸": 115154, "##tták": 71385, "landing": 37798, "1046": 94879, "##zeka": 77008, "##鍼": 117763, "restauració": 66966, "Pages": 63337, "deixou": 45916, "jaton": 102981, "ouzh": 46046, "##льф": 97382, "suspended": 49799, "მონაცემებით": 40562, "##чита": 93784, "気": 4854, "Эти": 47861, "españoles": 34317, "瓒": 5582, "لفظ": 96183, "##ъка": 72101, "##pent": 55939, "cunfìna": 70451, "effort": 24912, "acide": 84669, "貢": 7419, "túnel": 99318, "adıyla": 50417, "##uton": 90686, "Shakespeare": 19897, "##ingi": 44274, "фурудгоҳ": 54951, "Isère": 46463, "οποίων": 84154, "بحسب": 55950, "donnée": 71107, "##عتبار": 94251, "Tor": 24446, "옷": 9588, "Indianapolis": 35142, "転": 7604, "##솜": 119055, "Turin": 32886, "situación": 23963, "##чком": 52150, "##wende": 73687, "##ציון": 90546, "quen": 47618, "놓": 9029, "##onali": 86966, "começa": 63698, "Җ": 594, "nafngifta": 97076, "степени": 19133, "Isabel": 19939, "anledning": 103800, "##liselt": 61751, "lykwols": 68622, "##דע": 69401, "##vljenje": 107877, "Нова": 33592, "verjetno": 108953, "letzte": 23764, "DOS": 36442, "grego": 48618, "Selatan": 18307, "##áciu": 77270, "अन्य": 22197, "##ojen": 30069, "狛": 5431, "či": 16784, "Georg": 13994, "##亩": 111936, "##駱": 118293, "##ásico": 84410, "necessary": 27039, "هنگام": 56039, "woman": 18299, "##鯡": 118410, "hängt": 105593, "坵": 3063, "sistem": 16144, "1877": 13776, "##绩": 116119, "##dessen": 58213, "##wierdził": 79534, "қарсы": 58685, "##煇": 115090, "##ラビア": 104992, "koadroko": 50313, "probablement": 27804, "comptait": 28865, "##지는": 32815, "##חלק": 58113, "##ेय": 82617, "వ్యవస్థ": 17245, "Bretaña": 50387, "השנייה": 22577, "izen": 104008, "Hen": 86362, "Anwesen": 92941, "##nome": 61282, "李": 4489, "吋": 2772, "##тике": 72458, "significantly": 40394, "##учи": 83856, "विधान": 88089, "615": 50036, "chute": 48946, "Toutefois": 46573, "Par": 17434, "Nye": 92913, "ait": 25518, "начала": 21351, "depuis": 12056, "##цыйна": 86893, "پا": 92690, "Benton": 70758, "состоялась": 49007, "識": 7278, "volontà": 77580, "##ンドン": 109791, "withdrawn": 84863, "##шніх": 65022, "##נשי": 95295, "bebyggelse": 44778, "underarter": 10946, "GC": 87065, "##枠": 114290, "##שתי": 81193, "Doris": 45448, "10⁶km": 46074, "músico": 42942, "корабли": 101373, "##دان": 22841, "##恪": 113611, "##tve": 60332, "spelat": 105327, "Genetic": 96751, "terrorist": 76482, "##滕": 114902, "মৌজা": 73228, "தமிழ்நாட்டின்": 60375, "Retrieved": 11139, "administered": 68491, "##见": 116922, "రెండు": 31837, "##湛": 114864, "Bomber": 83232, "постройки": 91086, "participação": 40912, "襟": 7134, "##roc": 87015, "شہروں": 88790, "Německu": 93255, "Новага": 42573, "##ండి": 73088, "Mali": 24427, "##יצג": 108837, "##عدام": 80809, "предложение": 87803, "2015ஆம்": 75022, "##ђује": 92089, "poem": 38869, "főleg": 63729, "Од": 22651, "##agu": 47540, "ఇద్దరు": 65845, "Grieks": 101391, "##isk": 14362, "Zusammen": 56357, "passer": 34650, "kantonen": 34144, "##ी": 10914, "weet": 80441, "offiziell": 42316, "##tones": 63503, "floating": 106720, "või": 16301, "##fts": 105475, "Tristan": 52728, "##दर": 71478, "bird": 44519, "annunciato": 81285, "Ḥ": 1627, "Missouri": 16279, "##煽": 115108, "першы": 102531, "مقدار": 56367, "##վական": 105356, "遽": 7783, "Между": 61586, "##sni": 67826, "pidettiin": 95292, "críticas": 40073, "арналған": 31726, "##тә": 33449, "##ീയ": 68922, "##举": 111880, "Zusammenarbeit": 36470, "zadnjih": 104977, "##ஹ": 111311, "婷": 3318, "##унта": 74376, "##rai": 33186, "Tiefe": 96181, "##ach": 11587, "ampliar": 91506, "свет": 40363, "##۴": 21108, "osnivanja": 85820, "##hār": 91671, "berjalan": 84242, "阐": 8187, "edad": 22757, "991": 80351, "books": 15174, "Inde": 43376, "##бын": 106152, "露": 8316, "##ätti": 81888, "##ելով": 35652, "paar": 36291, "##ведки": 108856, "premi": 45997, "##uana": 57861, "##сак": 83872, "##irkan": 85644, "Poet": 103461, "внесении": 93463, "##Ļ": 110951, "järjestettiin": 100141, "harrn": 88355, "radius": 20212, "monthly": 61673, "certificate": 93552, "##vchi": 61332, "##舜": 116411, "والعشرون": 70309, "tale": 17307, "瞑": 5797, "饵": 8494, "##疲": 115426, "##ներին": 33322, "armii": 48242, "onların": 40240, "joc": 46487, "##letni": 105627, "##贄": 117229, "Victoria": 13661, "529": 49102, "Troya": 43362, "##алов": 68551, "##凿": 112296, "केही": 95090, "Orta": 42096, "ligesom": 92747, "##腳": 116351, "##鬘": 118373, "ी": 904, "##λοι": 82638, "interpretato": 31363, "##itaria": 44721, "Ľ": 327, "##ïna": 67269, "##ुओं": 90018, "passeggeri": 99312, "##רצה": 85001, "Marc": 15254, "##äisin": 95049, "геоинформаци": 45553, "posteriorment": 56397, "կազմի": 73357, "##器": 112736, "tháinig": 93489, "##ילים": 95736, "Gravity": 86451, "bispo": 58890, "Bahia": 34566, "##llige": 104468, "العلاج": 80327, "държава": 102259, "##йка": 88138, "Kjell": 89062, "Видът": 43720, "nakalista": 10890, "pierwsze": 38007, "הנשיא": 69740, "##tte": 12131, "contrairement": 91820, "##فس": 71902, "freier": 109861, "募": 2629, "##udra": 81216, "面": 8335, "basowa": 77704, "Bogdan": 68194, "##êtes": 62448, "##desi": 94228, "##玮": 115252, "Kentucky": 19627, "chargée": 91628, "Clin": 107786, "unten": 56958, "##äß": 72624, "Geografía": 18024, "Mailand": 67452, "##他": 111962, "Olsson": 80967, "Taxonomische": 47347, "bietet": 35846, "##桝": 114362, "ході": 84727, "Lars": 21574, "conversation": 72028, "Luisa": 37335, "##АО": 69630, "ביולי": 33614, "栾": 4582, "mensaje": 103739, "Italiji": 24315, "##則": 112330, "שנים": 20662, "兇": 2430, "##巡": 113347, "grabaciones": 107215, "புதிய": 57928, "699": 55596, "Opfer": 42611, "kur": 19830, "kulturelle": 75697, "##bh": 39554, "##work": 37382, "예": 9576, "##wne": 43201, "71": 12513, "Bulgarian": 43680, "σκοπό": 93078, "##hti": 31270, "Souls": 76625, "##样": 114343, "坎": 3045, "##erit": 101493, "наследник": 110089, "Constable": 97911, "виды": 67367, "nevét": 54111, "lle": 27651, "##边": 117448, "território": 34337, "Tussen": 56452, "##ását": 28199, "##ràt": 73546, "##企": 111981, "Fourth": 38536, "Pekka": 61348, "Probleme": 46865, "vite": 34903, "錠": 7978, "tech": 100986, "涙": 5016, "Programm": 37510, "पूर्व": 20012, "sekitar": 19825, "tallet": 17143, "轰": 7645, "وتم": 47235, "鲉": 8681, "Valence": 74992, "##ques": 12633, "Gross": 50557, "##gkat": 97521, "název": 39198, "আছে": 40560, "##బాదు": 100880, "##titled": 105205, "čia": 72282, "Acta": 29490, "Melaka": 83346, "particularly": 19658, "##흐": 119460, "터": 9861, "skipet": 110054, "##秤": 115725, "##oeste": 70948, "jord": 80547, "##эс": 53700, "mode": 18417, "敢": 4301, "##טיבת": 97662, "орналасуы": 30175, "##ѓа": 89612, "caminos": 95851, "establishment": 31989, "##tycznego": 98991, "##വൻ": 67092, "William": 10694, "##ës": 13516, "pimpinan": 98113, "##իայի": 83226, "##eren": 13653, "sources": 19023, "##إن": 107559, "Sonne": 64843, "##ლება": 38660, "eat": 69110, "Tochter": 19128, "##tene": 52423, "personas": 14888, "mondial": 31813, "manje": 33183, "कभी": 50058, "Warszawskiego": 88669, "јер": 33704, "bygningen": 109646, "stanie": 23875, "##inės": 36139, "char": 101328, "瑳": 5558, "po": 10514, "##桧": 114368, "reis": 35176, "##uko": 39084, "nową": 77748, "##ресу": 106157, "оборудования": 92011, "Отец": 61628, "幢": 3637, "Stadtgebiet": 92376, "##க்கப்பட்டது": 44638, "perkataan": 109785, "154": 20481, "odlazi": 92065, "##ラブ": 66030, "chom": 98696, "彝": 3744, "esposo": 98473, "##umos": 85964, "Tự": 82086, "founders": 74763, "##ול": 17345, "##뚫": 118843, "Душанбе": 45421, "##pito": 79182, "сеть": 81700, "〝": 1902, "äldsta": 109405, "##shaus": 80969, "##سام": 49379, "Ά": 429, "ilikuwa": 56323, "giảm": 39140, "lediglich": 31896, "사": 9405, "ibi": 23562, "##tén": 83793, "потужністю": 106705, "visiting": 48780, "##aut": 30570, "ự": 1693, "löste": 69568, "โดย": 69517, "memenangi": 74749, "Летом": 63570, "сільська": 40871, "##сточного": 88785, "弛": 3718, "Sebastián": 31198, "##pressed": 96616, "karar": 72915, "బోరుబావుల": 80532, "##kte": 16143, "##ôg": 104271, "##衷": 116853, "##ուսական": 100116, "##ols": 55289, "glumica": 102368, "##celles": 98753, "Tanz": 98321, "què": 27163, "Труда": 71281, "##ライブ": 79121, "##eton": 102709, "##ptica": 61239, "##ստ": 37790, "beschikbaar": 99285, "##jelo": 90930, "Phía": 108295, "direkten": 92208, "##ilen": 26943, "rector": 56986, "貧": 7420, "сайта": 100120, "Nicolson": 10821, "ВКП": 54114, "##enie": 24061, "Φεβρουαρίου": 69843, "partenza": 72523, "జూనియర్": 39753, "袍": 7093, "##ß": 17422, "établissements": 25982, "##משפחה": 81926, "maj": 13250, "anchor": 72027, "##emu": 39674, "्": 916, "afdeling": 70277, "##ტორია": 97917, "کیلومتری": 77437, "[unused99]": 99, "مه": 77010, "компания": 30115, "admitted": 40345, "facilitar": 75832, "赚": 7518, "छ्येलिगु": 18572, "刈": 2536, "##ekli": 63507, "かった": 36266, "Кале": 104496, "邊": 7793, "Meanwhile": 43309, "##耀": 116220, "берега": 73925, "##涿": 114798, "Riemann": 92781, "##מילים": 99606, "미": 9309, "##ritti": 84537, "##灭": 115024, "축구": 37905, "enseigne": 76105, "телескоп": 92627, "daraufhin": 36595, "忏": 3797, "cargos": 45729, "##î": 25790, "poco": 14445, "estimada": 33419, "##leges": 48706, "می": 29869, "Prifysgol": 90855, "Sacred": 47568, "filmen": 25145, "倹": 2352, "棨": 4638, "tepat": 87768, "visi": 75769, "válce": 50411, "##단": 24989, "септембра": 61298, "勝": 2627, "##해": 14523, "جنوبی": 30094, "bando": 88931, "粕": 6147, "valittiin": 41174, "##נל": 58811, "cemento": 100127, "95": 11978, "properties": 25457, "tongue": 102655, "##lərin": 19697, "Suffolk": 53506, "СС": 54267, "##раҡ": 79127, "utworzono": 62462, "topic": 57680, "భారతీయ": 102948, "##անի": 27629, "اللہ": 29941, "##ége": 39988, "##∫": 111697, "Oost": 37626, "##သ": 111493, "hezkuntzako": 48648, "fatta": 59868, "##smine": 103631, "##リ": 21612, "ermöglichen": 77327, "pruvincia": 46248, "##ಯಲು": 107471, "之": 2120, "##nicznych": 93648, "##бурга": 99800, "##āra": 81718, "##ತಿ": 25800, "الرسمي": 28346, "collectif": 87177, "наукових": 59812, "өлкәсенең": 58566, "潤": 5189, "##бний": 70879, "Довжина": 48400, "Standing": 58592, "##ennych": 92957, "riprese": 60088, "proposed": 21622, "##ними": 18780, "##jas": 13917, "अक्टोबर": 110518, "odd": 104356, "との": 15137, "Queen": 13704, "син": 21536, "Plzeň": 67559, "saint": 24353, "Russische": 44235, "मात्र": 58011, "##戳": 113757, "Osvaldo": 90566, "Salinas": 69566, "vocals": 15736, "ditamukan": 20596, "Parizu": 96193, "Francesca": 43571, "##lske": 39309, "поход": 74006, "Duke": 16519, "叶": 2761, "##ύθηκε": 75195, "bướm": 17797, "continuously": 99996, "##min": 14956, "ко": 59781, "dintre": 18789, "##פי": 18639, "##〉": 111714, "##몬": 118936, "đất": 20175, "sebagian": 39564, "Ocidental": 101130, "thậm": 109690, "##arda": 44634, "sắc": 31137, "Európa": 33663, "ятник": 83240, "##овник": 93023, "##乘": 111897, "AHL": 57870, "head": 13578, "snail": 99876, "##kurransen": 87462, "național": 86432, "挡": 4110, "##rme": 29744, "##san": 14434, "##вую": 72536, "##عادة": 45103, "##슷": 119082, "centura": 39506, "##ље": 23344, "##шы": 16375, "statt": 15754, "и": 549, "##बे": 85002, "Lëtzebuerger": 59720, "gihabogon": 22189, "##浄": 114749, "##чень": 63549, "attacking": 69030, "##奘": 112990, "Además": 19236, "бюро": 57834, "ప్రాథమిక": 17955, "##θεί": 18219, "##ロン": 55287, "##teral": 98161, "नाही": 41168, "För": 35169, "líder": 21770, "Simpson": 24582, "##entat": 61876, "齋": 8822, "filmin": 75030, "Franco": 16644, "Alpes": 15829, "##кали": 82510, "ali": 12134, "##jeti": 44439, "##jik": 97157, "##னங்கள்": 85409, "##lər": 13084, "阮": 8195, "médico": 32816, "Malaya": 70302, "семей": 67338, "##겸": 118635, "Ever": 42055, "seejärel": 95376, "##rly": 52347, "UNAM": 102272, "התנועה": 62059, "Mokslo": 56807, "lid": 21923, "##rala": 56805, "##punten": 73174, "gestellt": 35709, "ara": 13785, "їх": 16771, "einigen": 24888, "Sent": 53417, "방송": 64002, "##曖": 114205, "prowincji": 34798, "##sica": 44553, "##ёт": 17186, "##лама": 97273, "##раз": 34556, "cun": 38367, "najveća": 107809, "淼": 5060, "obale": 86872, "鯱": 8648, "##quipe": 89673, "##اع": 21337, "##inischen": 58275, "Mannschaft": 19638, "inclinata": 85344, "##quette": 57616, "Afrik": 74294, "##nik": 12027, "##imientos": 61108, "hàm": 64917, "Walters": 77693, "##UR": 98348, "##ећи": 67300, "##meister": 21449, "gebuer": 50123, "արվեստի": 78766, "##엉": 119139, "computer": 18765, "bertan": 49111, "KNVB": 97895, "matematik": 46783, "Itali": 45050, "школах": 106876, "Kuna": 63710, "జనాభా": 27575, "Lyn": 102603, "##譏": 117043, "ferskate": 88572, "présenter": 82377, "##阀": 117946, "new": 10751, "825": 62553, "ունեցել": 48360, "##brana": 87921, "##рывается": 97794, "##kti": 31915, "folosit": 63421, "꼈": 8953, "stiftet": 64989, "folgende": 28643, "##뭔": 118951, "betrug": 35495, "##hető": 31521, "परिवर्तन": 100225, "##؍": 111166, "équipage": 82031, "Länge": 28295, "Spraak": 106036, "##okban": 43755, "##ೇಶ": 77653, "какой": 78351, "Học": 96660, "##ovi": 16653, "Гапоненка": 60775, "soutien": 39875, "##esten": 40100, "##řilo": 77825, "העונה": 41263, "##jassa": 60215, "streets": 41969, "اکثر": 75533, "##onia": 21004, "##卧": 112458, "názvem": 43399, "柳": 4552, "##蚬": 116740, "Cuenta": 64011, "smo": 91053, "produce": 17368, "##阱": 117963, "##vissa": 57082, "durante": 11047, "##alde": 39011, "##ją": 12110, "Fach": 100705, "Miró": 104401, "oblik": 55795, "mjesta": 36039, "輻": 7627, "##ville": 12043, "marts": 34997, "##wim": 80217, "Teen": 35072, "análise": 68872, "uwagi": 100771, "Bender": 88433, "##ہر": 52437, "##煕": 115096, "##voy": 81843, "журнал": 30149, "enhanced": 90274, "##లం": 41243, "##ăх": 82601, "any": 11178, "##mate": 27801, "##أتي": 82463, "Peterborough": 104232, "##иња": 77731, "vienas": 43298, "referir": 86356, "digantikan": 93307, "martā": 82438, "сега": 86656, "citizens": 29812, "استخدام": 32353, "枫": 4529, "vysoké": 85027, "##gle": 23239, "dernière": 21269, "##ფილი": 80415, "ilmestyi": 73540, "jener": 76490, "viso": 104151, "##רית": 37000, "荧": 6758, "внутренних": 61727, "##瀑": 115003, "Melastomataceae": 89858, "Toen": 35205, "##deutschland": 80783, "##bran": 81371, "Русский": 51673, "војна": 52426, "##琮": 115295, "assalto": 107170, "받은": 74141, "idade": 29350, "##тла": 64357, "নামক": 79540, "##gewiesen": 80597, "##다는": 82034, "##েশন": 81323, "aspetti": 93829, "Warrior": 45449, "##بون": 85722, "점": 9668, "יכולת": 89408, "##har": 18387, "όλη": 81532, "varies": 75640, "##आ": 111193, "##geen": 97025, "##borg": 18026, "Complete": 19312, "Casablanca": 54971, "Kantons": 99472, "Dillon": 60018, "으": 9630, "světě": 65043, "##cay": 69218, "pelea": 104303, "leit": 59982, "εποχή": 50366, "##품을": 104485, "they": 10689, "efecto": 37154, "##곶": 118645, "##מץ": 63009, "##ence": 18492, "##나라": 82490, "Nanjing": 92035, "Arad": 71193, "Zappa": 65275, "##摻": 113989, "061": 106084, "##دیا": 58574, "##ayo": 50253, "internationalen": 29332, "Liberal": 22285, "##στικές": 91482, "##plete": 97598, "##demia": 93262, "##начна": 99258, "tasks": 72068, "##kilpailussa": 106298, "##慶": 113701, "##стерство": 108067, "negative": 25785, "になり": 47919, "ერთად": 41857, "piani": 53171, "Нацыянальны": 73621, "##tės": 50122, "##öfe": 49446, "וגם": 49336, "##ब": 18351, "##洋": 114729, "издательство": 64376, "televisión": 19019, "##亦": 111933, "présidentielle": 79683, "semblent": 105394, "Mean": 80703, "##ədəniyyət": 81343, "##øge": 95785, "藍": 6916, "##nfahrer": 91378, "##ék": 14093, "##ator": 18962, "mula": 20133, "egna": 79817, "njihove": 60250, "##sitter": 87362, "hired": 35444, "##eidae": 76489, "Գետի": 79976, "枋": 4517, "acara": 33808, "ֆր": 57199, "Kristen": 35032, "Điển": 95623, "##ობაში": 102125, "Miloš": 75847, "claim": 27445, "Andrej": 51975, "Frank": 11872, "##銚": 117719, "검": 8868, "რომ": 19007, "dall": 12640, "الرياض": 108912, "نقل": 34893, "Neo": 43106, "##嚣": 112751, "柞": 4545, "##hri": 53743, "людей": 17358, "Jena": 35848, "##chtigen": 89776, "910": 50834, "đây": 20502, "obteve": 71537, "सूची": 87361, "##ือก": 87506, "складу": 17536, "doktor": 43307, "olika": 22417, "passagem": 82480, "##njen": 93894, "##rum": 12659, "dichiarato": 77598, "固": 3013, "##扼": 113793, "negro": 31481, "堂": 3102, "僳": 2404, "##іння": 28114, "##şik": 68153, "usw": 78940, "##gewerkt": 110701, "1205": 86882, "gairebé": 52820, "versi": 20010, "##geladen": 103950, "##蛮": 116755, "Lutheran": 65226, "##佤": 112031, "студзеня": 46432, "##おらず": 57046, "Food": 24182, "##ట్టు": 99387, "##ставка": 79132, "терминдерінің": 49564, "##町": 115383, "##lons": 57098, "officiel": 33481, "##﹞": 119490, "vaid": 40009, "политик": 54310, "グ": 1999, "Byrne": 57139, "çeşitli": 39793, "لهستانی": 103247, "последнее": 107366, "##wimmer": 87608, "elettorale": 108863, "##оружения": 72601, "percussion": 40504, "##িকা": 84402, "Tracy": 37125, "équipements": 23325, "bera": 85199, "Hate": 60928, "##定": 113154, "Grundlage": 38761, "kiri": 86279, "משפחה": 86058, "〇": 1885, "##жен": 23855, "zo": 12555, "RP": 38968, "Madness": 71092, "producers": 46511, "ಆರ್": 106389, "Pendant": 29205, "nhẹ": 93799, "grandeso": 41690, "1820": 16776, "##pali": 98598, "##rades": 28313, "##bnosti": 76168, "僭": 2401, "metropolitan": 51721, "магнитуда": 42508, "陥": 8225, "Sachs": 65631, "##ална": 87746, "卖": 2681, "么": 2118, "kuat": 51618, "##ođen": 103060, "圈": 3019, "dibina": 74792, "##wadzonej": 99200, "##stiche": 66059, "இந்தியா": 87183, "strict": 68930, "##нә": 28284, "powierzchnię": 95793, "Центрального": 85420, "кількість": 29042, "##luan": 82221, "##инов": 79279, "käytetään": 36883, "framför": 91774, "ли": 33190, "ultimi": 32677, "##љена": 53013, "##처": 60469, "辜": 7668, "επέστρεψε": 98432, "oa": 15455, "加": 2598, "Rogaland": 99190, "telt": 15766, "դարի": 45511, "##帝": 113380, "vyko": 107792, "##شير": 65080, "##tionen": 37432, "##stische": 40355, "##ыя": 20379, "잠": 9655, "designada": 81361, "Among": 24470, "洗": 4965, "mei": 12661, "##essa": 18621, "Dot": 108789, "ярына": 32455, "MR": 52157, "место": 13323, "응": 9636, "télescope": 106961, "motor": 15257, "##ivamente": 42748, "வரைபடம்": 70785, "##חבר": 46612, "##cento": 46913, "##סי": 44658, "Svenska": 28801, "##훔": 119451, "ਨਾ": 93473, "##ptation": 85707, "砧": 5838, "翊": 6437, "देता": 74067, "##Ց": 111135, "Jardín": 106214, "Forschungen": 87354, "鈕": 7922, "##Ẹ": 111581, "továbbá": 83432, "##庫": 113438, "##이의": 87456, "6ᵉ": 57095, "##արավային": 110480, "赤": 7524, "doen": 35342, "##وضع": 59758, "seeds": 68488, "##끗": 118708, "анализ": 68416, "říjnu": 103195, "главно": 69663, "##bring": 109720, "lang": 12603, "##íodh": 69731, "isn": 98370, "##іва": 60795, "Boyer": 30259, "##扶": 113791, "segundo": 12943, "pabaigoje": 105408, "luar": 27120, "בתור": 65189, "##şmaya": 97098, "Warfare": 66297, "280": 17859, "centrum": 21203, "ORF": 94620, "پی": 38672, "##зија": 49237, "イ": 1987, "Erbe": 95122, "##рала": 74182, "ning": 12411, "živjelo": 36713, "birželio": 53180, "Wilkes": 91756, "prácticamente": 75814, "bil": 13897, "Tv": 101969, "##抄": 113797, "Philippine": 28893, "##க்கான": 59889, "required": 17468, "bansa": 99002, "начинается": 63106, "volumes": 25079, "oficial": 13771, "##ärt": 62908, "aa": 28335, "tappa": 38799, "Indoor": 69152, "邢": 7801, "##│": 111721, "pourquoi": 85539, "##инна": 98029, "før": 16102, "##된": 13441, "Vid": 28411, "Frankrike": 19552, "Japó": 73014, "##седі": 79926, "##čas": 87798, "niederländischen": 78168, "тоді": 40227, "妈": 3246, "##イン": 26583, "một": 10417, "##克": 112199, "régionale": 66633, "Freddy": 52358, "тапҡыр": 105438, "Brewer": 109040, "spanyol": 61549, "Prema": 13165, "擒": 4254, "##theless": 60251, "وچوں": 102356, "##ాల్లో": 102862, "Sama": 55927, "Orquesta": 77467, "到": 2555, "##ரான": 66171, "לעומת": 61706, "Fußball": 34716, "烟": 5298, "##тский": 47831, "##מחצית": 110049, "Wolverhampton": 98739, "率": 5476, "Force": 13384, "##ויה": 93739, "##וצרים": 97691, "dvě": 32261, "introducing": 107063, "dì": 84651, "##ンジン": 93580, "उत्पादनया": 98679, "կարևոր": 91646, "##ुना": 103021, "նախկին": 89280, "톡": 9874, "##ография": 50452, "finalist": 78096, "##ové": 14231, "vòng": 32868, "creació": 61424, "situada": 15173, "Тури": 50976, "##엄": 96090, "##紇": 115949, "дивізія": 96402, "##فته": 64579, "##떼": 118838, "₆": 1759, "蠱": 7063, "##仇": 111952, "ਸ਼ਹਿਰ": 89409, "깊": 8938, "толькі": 37367, "##邪": 117571, "Fortune": 45128, "bởi": 15686, "цвета": 42128, "редактором": 80479, "Region": 13919, "Zweig": 106642, "zag": 78098, "##脯": 116328, "1817": 18695, "激": 5213, "##holdt": 32421, "קשה": 61948, "##వ": 18892, "Lahti": 84075, "największych": 104762, "##õi": 76024, "撥": 4235, "##Ի": 111116, "Церкви": 52695, "##dication": 93141, "wilayah": 15407, "temperature": 23509, "v": 190, "販": 7422, "సంఖ్య": 13618, "豬": 7408, "##арна": 103569, "别": 2553, "Genver": 109538, ":": 131, "било": 16090, "##ध": 27694, "नवम्बर": 102317, "habiendo": 109707, "películes": 91922, "##蛇": 116743, "##рска": 40148, "Tee": 97287, "προκειμένου": 108708, "Թ": 633, "##пустила": 69640, "##лага": 33206, "מאז": 34114, "Bischof": 26754, "VC": 77916, "##čený": 71714, "##дау": 87917, "##ював": 90324, "став": 16673, "臘": 6614, "##২": 21466, "##ификации": 65185, "õ": 275, "ayahnya": 77978, "Coffee": 69868, "muestra": 31694, "Dne": 55001, "风": 8451, "leta": 12946, "frantsesez": 77746, "არის": 26604, "έχουν": 24282, "Mot": 97736, "US": 10808, "उत्तर": 17297, "##sının": 40189, "littéraires": 107239, "працювали": 74110, "ẻ": 1661, "будівництва": 73896, "##陵": 117998, "eivät": 32800, "##든": 90537, "segreto": 75935, "egon": 70784, "Dewan": 38962, "ملک": 54102, "ЦСКА": 74350, "993": 82931, "##ెడ్డి": 73824, "veliko": 36901, "lema": 93661, "добила": 88540, "##ahl": 78975, "bedeutenden": 105484, "适": 7720, "##rua": 60021, "endorsed": 108417, "Baixos": 54820, "rápidamente": 53235, "pnas": 84612, "Ga": 69699, "##óis": 77053, "finnes": 28242, "которой": 16209, "592": 51447, "扒": 4008, "岖": 3513, "Israël": 42581, "##падает": 61015, "##minución": 89989, "##сць": 27881, "盎": 5737, "##이트": 41620, "##忏": 113563, "##קופת": 103916, "Barcelone": 62194, "பூசை": 57793, "##фти": 58365, "キリスト": 103065, "##ంగ్": 30164, "روس": 61054, "incorporar": 93390, "siellä": 59131, "جمهورية": 56871, "Greenwood": 16697, "attributus": 77728, "čega": 42871, "##קנים": 110259, "##கங்கள்": 91946, "œ": 343, "inte": 14168, "Mayıs": 30705, "Fabricius": 45488, "jezik": 16576, "##앓": 119114, "realizan": 82137, "Dave": 16073, "##obu": 57873, "##edá": 107811, "##tie": 14859, "века": 13843, "Ủ": 1686, "tehnika": 107952, "અન્ય": 33604, "Łodzi": 55614, "##NF": 94954, "##ćen": 76396, "##ھی": 38498, "##lur": 39467, "463": 45914, "瑄": 5540, "##상이": 83902, "стати": 89035, "##łek": 80249, "Hektar": 50634, "碰": 5873, "Römer": 106139, "بنسبة": 41974, "##ρωση": 83001, "Popular": 18710, "받고": 79602, "Nashville": 32027, "什": 2181, "##ेश": 48157, "Sculpture": 94200, "##嘉": 112712, "损": 4133, "কিছু": 37855, "##var": 16648, "##șu": 109887, "Levante": 92146, "##ვლის": 61217, "െ": 1375, "cuidado": 97262, "芥": 6684, "##歡": 114555, "Archaeology": 54691, "##UC": 93089, "##蘇": 116700, "bildete": 41250, "insting": 62588, "##bies": 68275, "##іне": 26012, "instead": 17427, "περί": 101557, "presentation": 68533, "Simpsons": 62431, "kokatuta": 43563, "##owiec": 65681, "소속": 96770, "Way": 15661, "aviones": 56379, "Ans": 98671, "##点": 115052, "Descartes": 70188, "檸": 4757, "nevezték": 72222, "сезона": 20804, "шоқжұлдызында": 64127, "Ecology": 24209, "べた": 90745, "Associazione": 60790, "Eropa": 35639, "асфалт": 94602, "nag": 59065, "FF": 44297, "##лады": 28329, "##уска": 55244, "Forza": 92271, "##jmuje": 99728, "miêu": 13760, "##ഡ": 111391, "##컴": 119299, "##êre": 42625, "##ніх": 31612, "##veur": 83620, "##boek": 43916, "##ügyi": 55964, "##澹": 114978, "##ņ": 110955, "чалавек": 38843, "최고": 83491, "сцены": 93166, "##teur": 17519, "##茸": 116506, "##钺": 117830, "ဲ": 1537, "narodil": 78510, "Campania": 40833, "человеком": 101292, "##grid": 91340, "analiza": 102214, "oli": 10626, "##gebouwd": 93927, "##ंथ": 106891, "えば": 41986, "##innen": 35633, "##јавио": 76244, "##낀": 118711, "##ութիւն": 74253, "17": 10273, "##rait": 33907, "##очном": 91779, "smrt": 53232, "ocidental": 109987, "lion": 73025, "##άζεται": 67980, "##傀": 112139, "##enne": 21838, "##formes": 32545, "湾": 5104, "ISBN": 10199, "द्रविड": 54923, "##ば": 25417, "jednotlivé": 108331, "##adle": 83216, "၈": 1556, "##ът": 13368, "##חם": 32255, "럿": 9182, "##攝": 114039, "pr": 20157, "младший": 73575, "সর্বোচ্চ": 109003, "##قول": 51554, "conhecidos": 78962, "##elda": 87938, "fondateurs": 104252, "Най": 42437, "##hrax": 100600, "һ": 613, "championne": 106815, "##abu": 64194, "అత్యంత": 104619, "radios": 86275, "まれている": 80049, "etxek": 13793, "##ає": 17863, "掌": 4149, "провинциясында": 103328, "Always": 48119, "Cymdeithas": 29788, "##代": 111968, "Morales": 37397, "ऽ": 901, "ساز": 104909, "乌": 2121, "dadurch": 34133, "##ilitat": 85655, "године": 11001, "women": 13190, "##厉": 112474, "##원": 14279, "##holders": 75111, "Stacy": 103696, "Aufstieg": 42056, "tăng": 21740, "строительство": 42313, "嚕": 2983, "οι": 12311, "##puesta": 73881, "##识": 117091, "ninu": 110026, "##eb": 21057, "##енная": 33523, "любовь": 76976, "715": 56036, "##葛": 116594, "##бн": 87232, "associate": 46175, "Slalom": 102106, "Produced": 101460, "psl": 35260, "resides": 108541, "yeux": 49985, "mansion": 85897, "luglio": 15889, "министр": 46661, "היהודי": 55836, "##ámica": 87763, "մարդ": 16447, "##ента": 58109, "##מינים": 65035, "viagem": 81023, "##掲": 113933, "fundit": 70198, "##انہ": 84648, "famül": 32030, "gioco": 23882, "forment": 63642, "матч": 33054, "讨": 7302, "nuevas": 31316, "1858": 14877, "##ött": 22938, "##踏": 117330, "劍": 2592, "Administrasi": 46442, "##剧": 112344, "##nisce": 98102, "##錯": 117751, "составляют": 88926, "Deborah": 53469, "##vab": 93870, "##銓": 117716, "郜": 7824, "Саксонија": 107182, "ャ": 2050, "Jerusalén": 109993, "##hd": 102090, "##ิล": 78045, "##yjne": 100558, "##пус": 101012, "الحالة": 81810, "##神": 115681, "풋": 9939, "谱": 7391, "Kromě": 65748, "##亜": 111926, "Sztuki": 91010, "##tert": 81505, "##чики": 71406, "հանրապետության": 99420, "इस": 14265, "Fourier": 78272, "##рква": 105493, "Formicidae": 80697, "renn": 98346, "##åpen": 82336, "naturally": 91799, "##рас": 56680, "##ಗರ": 94352, "vet": 56975, "##鼓": 118582, "anses": 61648, "nowego": 55916, "master": 22013, "Elections": 69618, "Berlim": 103652, "she": 10833, "Facebook": 22329, "##מצרים": 72261, "##дон": 42999, "anglaise": 51162, "thái": 39431, "Tennis": 27380, "##圳": 112802, "##渊": 114831, "Ralf": 63424, "##仙": 111965, "荃": 6743, "هؤلاء": 69691, "##rmous": 110068, "골": 8892, "##롱": 118886, "Selv": 54372, "1356": 78905, "祗": 5911, "აღმოსავლეთ": 64706, "move": 18577, "##нской": 20037, "##TION": 98207, "balandlikda": 32694, "вице": 47179, "fără": 34477, "兔": 2440, "Argentinien": 80507, "##adores": 29837, "امنیت": 90042, "έτος": 75298, "такого": 45586, "##浓": 114759, "antal": 34948, "Ultra": 44462, "##ذج": 60175, "tās": 37543, "పబ్లిక్": 23437, "##ünzen": 108478, "svom": 48161, "победа": 48270, "##nore": 99772, "providers": 110392, "奘": 3224, "შეადგენდა": 53389, "novu": 101643, "##苑": 116469, "பட்டியல்": 26967, "رمان": 109107, "celebrado": 87895, "saxophone": 54357, "éviter": 51024, "伺": 2239, "##リーグ": 37935, "moll": 81968, "##čelo": 92061, "##чул": 52375, "няма": 26129, "##ieven": 96514, "##erade": 30912, "accueillir": 92214, "jacas": 68157, "##گ": 15570, "枯": 4531, "besitzen": 52319, "смрт": 99798, "1260": 54993, "saab": 40553, "dipartimento": 37764, "Berria": 89923, "allí": 28644, "##ру": 14360, "reduce": 29888, "гр": 55895, "några": 35610, "сябе": 107502, "ngôi": 33574, "דוד": 41446, "##稚": 115741, "##тою": 71153, "växer": 12927, "filiale": 81937, "##犁": 115180, "##ее": 38049, "손": 9450, "##μμα": 92667, "##āja": 25795, "##lico": 47578, "papan": 79268, "mohli": 96863, "##ondo": 39493, "##ído": 28095, "##ateur": 38747, "匈": 2645, "Phúc": 65477, "[unused72]": 72, "الجهاز": 24435, "المدارس": 92506, "cominciò": 76941, "beste": 13972, "##括": 113852, "##zle": 58588, "کردن": 29259, "Thunder": 34308, "##ο": 13517, "ancestral": 95363, "##tinción": 58594, "Châu": 30044, "Советский": 84600, "鎮": 8011, "##ಇ": 111344, "##àdio": 92259, "musique": 17649, "cantù": 78246, "##鋅": 117728, "##loop": 63330, "Felipe": 20473, "그리고": 23289, "vuoteen": 39716, "Zentimeter": 47095, "武": 4794, "##AN": 41275, "##碩": 115638, "絞": 6214, "まれた": 31196, "flew": 64284, "##ссия": 53063, "rôle": 16211, "Hollywood": 14642, "##orno": 65173, "##یند": 103398, "##żał": 82129, "##овых": 21277, "邸": 7813, "##蛹": 116759, "##ría": 15792, "##илася": 57705, "Aki": 93026, "Така": 35150, "hopes": 82467, "##μική": 42630, "蔻": 6878, "polskiej": 41458, "##iran": 27974, "##aden": 47002, "##imet": 71200, "Pape": 16420, "অন্যান্য": 50503, "##وبة": 86043, "##کھے": 98241, "selve": 88696, "Là": 61767, "jedinica": 64756, "##няга": 105663, "##rita": 27821, "##驯": 118320, "מדינת": 65148, "##ষ": 34070, "##כונת": 63688, "Georgian": 49857, "##壹": 112945, "##siste": 76205, "눈": 9034, "Львові": 79290, "##banyakan": 79214, "##港": 114852, "##şe": 74788, "hiệp": 66866, "թվականին": 12915, "##vici": 52624, "samo": 15183, "##ítani": 61532, "##kkonen": 108711, "##ąk": 102075, "Էստոնիայի": 34332, "Erich": 24413, "valeur": 31874, "половини": 93982, "BASIC": 93320, "Safari": 79844, "הראשונים": 50819, "##acle": 100755, "आहे": 13090, "Branch": 27544, "Giang": 40771, "Trang": 80168, "이라는": 51815, "మొబైల్": 39010, "樑": 4718, "##лите": 43432, "執": 3097, "##bles": 14273, "姜": 3276, "arbeiten": 48259, "ей": 33870, "zespołem": 89147, "אך": 14016, "340": 22405, "Криму": 106175, "choć": 59676, "##стический": 53052, "lính": 64713, "ceety": 36539, "Evil": 27555, "रुपय्": 23868, "##rüstung": 103395, "##煌": 115093, "肤": 6512, "Arthropoda": 12498, "##ل": 10961, "africana": 57661, "##ြ": 111504, "đ": 299, "Jong": 33459, "sợ": 93663, "ь": 569, "##徘": 113542, "άλλα": 49063, "##di": 10703, "##datud": 70201, "##慳": 113700, "drużyna": 71172, "causó": 106516, "molekula": 102173, "##egd": 58032, "##գետ": 109472, "##ολλοί": 97559, "##球": 115279, "Quatre": 45253, "##秧": 115727, "entire": 19192, "##deutschen": 47444, "poursuivre": 100049, "##ssem": 102130, "##yje": 32658, "661": 58876, "黎": 8800, "##rta": 16294, "##צגה": 89567, "##িতে": 41602, "slot": 52617, "Tevens": 92593, "##arın": 88638, "谚": 7377, "绩": 6353, "bin": 16292, "Barbados": 69121, "##ser": 12754, "численность": 65328, "##niste": 86657, "registro": 45296, "##portant": 101661, "Pablo": 17199, "Vietnam": 15940, "Дмитро": 86907, "tunggal": 75857, "忠": 3803, "##pí": 107318, "pair": 27643, "Lamerikän": 27772, "hac": 91196, "Þjóðskrá": 89893, "کلومیٹر": 90011, "##ى": 11832, "[unused92]": 92, "##fonds": 107378, "##ibu": 91610, "belegt": 51949, "蠅": 7056, "Valois": 65719, "dute": 26321, "##尘": 113230, "Pokal": 47934, "##sig": 45283, "Вскоре": 48877, "##kori": 39276, "allemande": 31019, "萇": 6808, "ع": 781, "##вним": 54336, "همسر": 108010, "##dicat": 45375, "Velika": 46029, "##キング": 68239, "Enzo": 50734, "##ения": 14762, "направлен": 86867, "##课": 117128, "Bishop": 17576, "неговите": 43887, "##ibo": 68514, "zanger": 80096, "##arska": 92337, "pallacanestro": 93289, "##گه": 65985, "Ingenieur": 85748, "纷": 6319, "##끝": 118709, "doctrine": 53336, "smallest": 109457, "Emploi": 31808, "咄": 2830, "##bne": 31296, "noticia": 78880, "##was": 64785, "##vljen": 59367, "Political": 18907, "ਕਰਨ": 36745, "cane": 79325, "Midway": 73280, "##σείο": 87132, "estimé": 62031, "Béarla": 110781, "বর্গ": 23250, "parecido": 102110, "##牒": 115164, "habitantaro": 21231, "##遍": 117523, "##誤": 116990, "したため": 42262, "##शा": 105764, "mot": 12082, "##lal": 29267, "垭": 3081, "##辗": 117431, "##ій": 15178, "presencia": 27111, "Mk": 28079, "##utta": 29249, "##挙": 113869, "夔": 3187, "Toren": 91975, "]": 166, "junija": 99947, "##szország": 70402, "jatkoi": 64535, "##rami": 67571, "##راضي": 97333, "bronce": 37562, "Infatti": 75785, "尧": 3469, "raggiunge": 64979, "##bliche": 46190, "Summary": 42027, "Top": 12685, "茨": 6733, "##ਓ": 111248, "라": 9157, "îles": 38537, "cerca": 13698, "Francuske": 22350, "##鳕": 118468, "##력이": 61964, "dayalıdır": 52005, "##bue": 97438, "##னும்": 96552, "##ulse": 84710, "這": 7734, "##рчу": 102373, "##oar": 45817, "сучасних": 102526, "hertug": 99991, "brukar": 102541, "Otro": 69269, "dargestellt": 46324, "käytetty": 82747, "##abi": 62229, "／": 10067, "##蟑": 116814, "##öße": 86542, "##żytku": 105788, "##чке": 19347, "##оца": 93481, "##izar": 35752, "煌": 5327, "Søren": 84255, "##rba": 61494, "樣": 4724, "Plants": 13562, "922": 72446, "Lawrence": 16198, "Segovia": 69520, "##уге": 50749, "organi": 91969, "administrativa": 25655, "עורך": 95776, "як": 11350, "זאת": 18944, "揣": 4187, "ז": 729, "##ാൾ": 64896, "##慈": 113685, "closing": 57409, "원본": 37370, "സ": 1367, "половины": 78499, "stabil": 71338, "konci": 38320, "липня": 23380, "lit": 27937, "collapse": 64306, "1620": 33299, "alebo": 17769, "notable": 19011, "##حق": 44262, "Tačiau": 72619, "eccezione": 81445, "溫": 5119, "ா": 1174, "Premiul": 69869, "הבחירות": 91883, "laws": 28160, "layiq": 97171, "teori": 43717, "fue": 10553, "Capitaine": 102032, "##ilità": 83236, "##vato": 50846, "delas": 33490, "vojska": 43945, "bodde": 61442, "##侧": 112058, "korrik": 103416, "##剌": 112333, "أكثر": 17597, "搶": 4205, "poetas": 77948, "##tom": 25032, "##ikide": 82457, "upravo": 84129, "époux": 102182, "PSD": 100663, "##lanılmaktadır": 110274, "אתר": 93251, "ciudadanos": 61273, "Lancaster": 35369, "##icap": 73130, "##বারের": 87828, "鲨": 8687, "relasyon": 19990, "alredor": 83153, "hovedstaden": 107124, "tố": 49193, "Hòa": 33053, "##挹": 113884, "makan": 76306, "Saat": 44451, "Estadística": 16809, "minh": 30407, "wody": 46967, "Мартин": 46295, "Hukum": 83128, "##জে": 72061, "Carex": 48267, "ಇದನ್ನು": 41066, "Сен": 31357, "Rimini": 77571, "##浇": 114752, "双": 2732, "##narodowych": 89854, "##מי": 15463, "آزاد": 36870, "##niej": 73837, "жыхароў": 70862, "connaissances": 109340, "Framräknat": 10903, "войну": 62719, "##jana": 20611, "Behavior": 67160, "regele": 99781, "##šių": 54259, "##憫": 113714, "橡": 4742, "премьер": 52422, "stood": 39320, "##逍": 117492, "bertsioa": 41782, "با": 10909, "вобласць": 31901, "Sljedeći": 46290, "menores": 33737, "##rtus": 71216, "##cir": 45455, "##ген": 14276, "Snow": 28154, "competitors": 92093, "##vnih": 50111, "کشاورزی": 75732, "##poche": 103638, "kniha": 102508, "1654": 37519, "护": 4046, "##贤": 117245, "1381": 89276, "प्रत्येक": 49614, "trattato": 64397, "##aze": 85744, "varandra": 91650, "##íocht": 76964, "##gawa": 48075, "窩": 6023, "##ând": 17106, "##chium": 107269, "箴": 6102, "2a": 51836, "materiali": 66407, "##లి": 29652, "Земјата": 79935, "##ਤਾਨ": 93107, "##nél": 52822, "фактически": 66532, "##ضح": 102689, "ocean": 50528, "##yền": 96097, "Yun": 90075, "autonomous": 80641, "ژوئن": 29074, "##länge": 63317, "другом": 45130, "Katarina": 65988, "Nora": 42504, "##örp": 52880, "Deze": 14955, "bordered": 104441, "ownership": 41354, "устья": 90162, "Alt": 24466, "weg": 21437, "ในวันที่": 64033, "##rowing": 77449, "vĩ": 90166, "gespeeld": 32459, "倡": 2342, "мг": 93427, "Namur": 71671, "##نيات": 90972, "Kraft": 32770, "Sociedade": 58023, "kritika": 100873, "##czu": 60314, "の1": 33429, "##works": 51778, "##涉": 114777, "Gus": 61067, "##бская": 85160, "novas": 36675, "Uppsala": 29912, "모두": 29414, "##렁": 118870, "##diendo": 94876, "િ": 1117, "ел": 30777, "Reaktion": 73024, "bezit": 64656, "AG": 17935, "etter": 12245, "Greenberg": 104878, "класс": 74049, "filmie": 62755, "evo": 40527, "Millionen": 20219, "##γωγής": 102340, "यह": 13525, "औ": 864, "##umm": 87951, "悔": 3862, "Malawi": 51020, "茂": 6723, "##مر": 24639, "##هان": 49428, "valgt": 41140, "eile": 39407, "##ecké": 48043, "气": 4853, "##েলে": 67735, "कृष्ण": 108932, "Berry": 28692, "Friends": 23113, "galaksidir": 89705, "##ļa": 30477, "tegenwoordig": 60978, "##νοντας": 109164, "Throughout": 56302, "vuelta": 35860, "##侶": 112064, "##jára": 59621, "koncem": 98244, "lider": 74602, "押": 4054, "gemiddelde": 78356, "XVIII": 13058, "kultūros": 47646, "##uisen": 103128, "##པ": 111457, "moléculas": 83825, "##isse": 28169, "Канади": 105879, "Janez": 110227, "Таа": 84715, "##πολη": 52744, "##ленного": 89331, "nyugati": 51225, "Alexandra": 23438, "##kommt": 63383, "##ગર": 73030, "##lop": 101908, "擋": 4251, "سكانها": 18724, "попису": 19970, "argitaratu": 47044, "##бийство": 93000, "пасля": 30469, "Татар": 84173, "##kowe": 51837, "蛱": 6991, "Ще": 81442, "##öre": 106810, "##クス": 90610, "撿": 4244, "##mert": 99057, "##浑": 114757, "ý": 283, "##dingen": 83132, "suggests": 40132, "##iples": 103705, "##urance": 41078, "Sally": 33636, "Senegal": 38052, "Germán": 97866, "орденами": 66769, "darf": 57977, "脛": 6559, "Europäischen": 49908, "##țe": 29690, "##ζαν": 98171, "##щину": 71316, "##菫": 116565, "八": 2451, "##ങ്": 69718, "kahenera": 27884, "обладнання": 106047, "Amanda": 30380, "municípios": 72263, "##拮": 113854, "قلب": 78703, "بيانات": 64522, "##‚": 111617, "##ོ": 111466, "##ladı": 32985, "dasar": 44396, "掠": 4157, "##ūra": 38582, "Andrés": 24972, "##lyse": 83836, "##ída": 42909, "##噂": 112731, "adalwyd": 18798, "consisted": 31465, "tierras": 36345, "悼": 3877, "##ヤ": 73115, "растения": 60112, "##sivat": 86842, "Albums": 23111, "program": 12483, "##pose": 50864, "1975": 10665, "##ливим": 91326, "##であり": 69603, "Zona": 32751, "spend": 63222, "Lödanef": 32102, "kanalizasyon": 48673, "##larını": 25341, "##dował": 62305, "##‹": 111629, "##كين": 103422, "812": 71283, "электронды": 56070, "ս": 696, "##rath": 42724, "##can": 24154, "##έχνης": 85384, "tos": 84686, "نیروهای": 52962, "गाउँ": 90021, "1326": 84089, "changer": 88674, "Leistung": 45349, "svenska": 23470, "Filadelfia": 91192, "Play": 17712, "procédé": 105633, "Víctor": 38490, "mono": 70997, "##ฺ": 111430, "0521347483": 108629, "##ваат": 28064, "祀": 5901, "stå": 81644, "constant": 29152, "Lec": 96818, "seguente": 32394, "partir": 11523, "##áló": 55124, "mini": 25103, "##âtre": 64168, "Франсуа": 91944, "##gines": 87363, "hlavní": 30962, "##llah": 98134, "romà": 95259, "등으로": 86475, "ditabik": 59294, "његов": 62657, "torrente": 108909, "трьох": 42913, "được": 10476, "народних": 107938, "Athens": 33765, "Nemačke": 95237, "##bni": 63226, "##meralda": 102860, "##тивного": 91888, "domina": 90399, "##нула": 103614, "livet": 36810, "##yron": 78579, "##wach": 60118, "stops": 67791, "простору": 84702, "cijfers": 105458, "##埭": 112861, "Hungary": 24601, "##асійскай": 109330, "##도": 12092, "444": 40984, "##போது": 77234, "##ptères": 66123, "paciente": 78104, "##ենց": 78456, "##viar": 91678, "Bangladesh": 24080, "##ۇ": 111190, "classé": 37328, "siguientes": 20943, "##eck": 26721, "##espräch": 106979, "##ქსი": 104530, "Октябрь": 98539, "cinéma": 26552, "##іли": 77197, "승": 9484, "##줘": 119221, "##雨": 118055, "##פיתוח": 86112, "funds": 32067, "participe": 21748, "Heritage": 21642, "瑯": 5556, "מערב": 79886, "息": 3848, "dikwels": 87757, "aktris": 80684, "##ಾಲಯ": 85768, "##ший": 16483, "塵": 3135, "##gere": 22976, "##gatan": 76804, "##νικής": 47128, "##lhas": 99831, "##دة": 14653, "edukiaren": 71817, "بلند": 73962, "##怒": 113581, "laki": 36449, "Randy": 29769, "巍": 3575, "##ನ್ಸ್": 81222, "сами": 77489, "Buck": 40477, "български": 25769, "той": 14346, "Budget": 62967, "navodi": 89151, "##fur": 33874, "épisode": 17809, "Andrei": 40594, "##unicaciones": 107906, "displayed": 52991, "##ымі": 80070, "##ბში": 45686, "보통": 84097, "Commandant": 105908, "Even": 28140, "assez": 29094, "роками": 86125, "359": 35403, "marge": 89378, "Compañía": 52050, "迩": 7708, "sáu": 88598, "##йг": 56340, "<": 133, "##聊": 116242, "ಅವರು": 22397, "##cudo": 95868, "苍": 6701, "##nių": 23260, "Mori": 62077, "##tudes": 79627, "함": 9956, "assure": 62316, "molekul": 86594, "אירופה": 45872, "superficie": 14230, "##ύουν": 94766, "Brescia": 39277, "##sers": 64671, "ailes": 85494, "Assim": 43479, "voornamelijk": 45875, "##quité": 89458, "Luzon": 82805, "எஸ்": 59307, "##钚": 117811, "1743": 35836, "Monitoring": 17919, "##cę": 40752, "##გლი": 101039, "drafted": 55746, "орталығы": 27957, "hands": 27925, "solgte": 88697, "##ین": 12710, "##条": 114265, "##bá": 76030, "mto": 81993, "##нүн": 94437, "бизнес": 69080, "gagne": 59596, "##elig": 44134, "绥": 6351, "##อย": 100145, "##SF": 46378, "##վոր": 32207, "Plata": 24550, "soms": 32789, "means": 17574, "Teheran": 25519, "inside": 22978, "Balkans": 89251, "ді": 34110, "##мова": 64789, "relatie": 79347, "##ன": 17506, "添": 5059, "##положительно": 107916, "##طفال": 104439, "##נתה": 43220, "meta": 39063, "branche": 58760, "partito": 35513, "Guitarra": 67249, "моделей": 87515, "posteriore": 74191, "ᵃ": 1606, "##贼": 117267, "kəndində": 95697, "Mariah": 86348, "quốc": 14369, "بودند": 25070, "词": 7329, "##ाचे": 38682, "Фильм": 58318, "whereas": 47761, "Аьхка": 61812, "##ft": 12961, "наряду": 82097, "##סור": 49768, "##führung": 23706, "մեկը": 41359, "длиной": 51653, "佥": 2266, "zazwyczaj": 84496, "陀": 8205, "에": 9559, "##žek": 79970, "##kou": 14530, "informazio": 81268, "fenêtres": 96668, "##환": 51745, "##ents": 24384, "svojom": 62709, "três": 17016, "##ರಲ್ಲಿ": 22790, "جهاز": 95234, "imaging": 110391, "нысандарының": 63386, "##歲": 114565, "տարի": 40095, "gründeten": 99060, "##рого": 96959, "##rend": 68712, "fortuna": 50516, "द": 882, "σαν": 55622, "تعد": 83160, "##ûs": 76937, "##phere": 56013, "Η": 443, "motors": 84664, "вёска": 32687, "##ẫn": 84724, "blancs": 64949, "Einaudi": 94292, "Viborg": 91896, "##zlik": 86836, "##ämpfer": 108124, "##isemmin": 110008, "2011": 10158, "Het": 10867, "##ldı": 30672, "sized": 68126, "##raz": 29948, "##ticu": 62493, "menurut": 54205, "##களாக": 96796, "Carrera": 58599, "ССР": 24576, "##04": 92546, "々の": 39896, "Bluetooth": 81217, "##穆": 115757, "##蘂": 116697, "Brigada": 68308, "హెక్టార్లు": 13231, "##feln": 79650, "##邓": 117562, "Сепак": 98567, "##ift": 30313, "进": 7701, "루": 9213, "##êne": 78208, "állandó": 86859, "Marta": 32088, "false": 37155, "##کز": 90115, "театра": 31846, "##ferd": 90204, "##лый": 48276, "##вет": 41102, "406": 28081, "##tum": 15673, "3166": 48115, "ij": 47174, "##พ": 39901, "fordelt": 85850, "##鵜": 118491, "##אפשר": 69194, "lokakuuta": 35191, "440": 24653, "الإمام": 69363, "commun": 47605, "##ბული": 49585, "##מד": 24480, "蒿": 6852, "##preso": 66818, "Temperatur": 88455, "список": 39673, "Лауреат": 59237, "tudott": 86980, "1467": 70266, "尘": 3464, "##52": 92161, "##fizieren": 88179, "rằng": 16487, "sua": 10603, "bebas": 64901, "##quée": 34322, "##салы": 74590, "##zato": 48180, "##uvat": 66683, "##այ": 53284, "朵": 4481, "##əvi": 79907, "جهة": 33982, "##ozta": 76075, "##ವೇ": 69331, "繁": 6279, "##ѓ": 111078, "##outs": 72199, "قوم": 89049, "漢": 5165, "Москви": 98922, "##া": 12079, "Brock": 42661, "釗": 7912, "drove": 72256, "వ్యర్థాలను": 42166, "Literatur": 25713, "蚂": 6963, "##rma": 25248, "елгасына": 64213, "磺": 5890, "##kare": 44343, "##ープン": 79505, "calcio": 22485, "prese": 36958, "機": 4741, "ჩ": 1589, "##ында": 13882, "##χία": 81234, "partea": 32396, "895": 67323, "Hayward": 79320, "け": 1917, "Publishers": 22764, "##oned": 80930, "##흰": 119468, "другими": 36297, "Bald": 92339, "Jerusalem": 20599, "təmsil": 110782, "⅓": 1783, "Brigitte": 52769, "##كد": 66562, "##rao": 32360, "provinciji": 27923, "організація": 104334, "##zések": 75500, "сценарий": 86052, "ು": 1299, "Oos": 89231, "##ఛ": 111331, "##ância": 32281, "°": 211, "साली": 59201, "##גמר": 85914, "##ետր": 95909, "##yek": 73713, "hanc": 101249, "patag": 28701, "B3": 69634, "mòrt": 74032, "本": 4476, "relation": 25245, "##魨": 118390, "##ths": 91893, "Bristol": 24732, "Anvers": 73472, "##uh": 18593, "básicos": 100282, "冊": 2473, "諫": 7248, "Worth": 49591, "markets": 42893, "듭": 9119, "##匠": 112419, "своему": 58536, "##ołecznej": 99409, "##vator": 74218, "##how": 52743, "druh": 52493, "zespole": 80436, "Giacomo": 26328, "czasach": 87581, "##矩": 115585, "##ií": 54279, "knew": 46000, "minor": 17746, "many": 11299, "##τητα": 38048, "普": 4407, "##lna": 24626, "google": 41181, "##altet": 63669, "鋪": 7966, "##мов": 33170, "##钉": 117805, "##quela": 43913, "파": 9901, "تمت": 28621, "##聋": 116243, "nacionalnog": 81215, "##è": 13340, "##奐": 112984, "1930": 11028, "zmínka": 72674, "##wet": 70684, "としての": 27824, "##тай": 25987, "lunghezza": 40046, "opført": 84909, "Constantine": 51184, "##зация": 53826, "Airport": 13962, "игроков": 64976, "##ako": 20293, "##塙": 112893, "Bros": 23844, "tangan": 48371, "ge": 46503, "osam": 106211, "judul": 85908, "##ーの": 95439, "gần": 23594, "ratio": 26755, "somme": 55487, "##۔": 111191, "ball": 20724, "дијаметар": 97574, "Wolfe": 62263, "##ペ": 111826, "valtion": 89841, "##早": 114118, "signature": 44852, "intelligent": 75856, "##색": 41442, "nòrd": 51959, "##éndose": 40549, "HIV": 30855, "tardi": 44165, "toj": 90154, "##äisessä": 79396, "##baut": 100044, "ゥ": 1988, "##ures": 18367, "החברה": 30895, "Stab": 106307, "midten": 47500, "Schulen": 45471, "Торонто": 87252, "ई": 854, "huhtikuuta": 34789, "bağlı": 18921, "TA": 91075, "timpul": 27200, "##ülür": 62832, "##敬": 114070, "鳶": 8713, "Liverpool": 18376, "батальона": 67472, "udaljenost": 42226, "Pieces": 85868, "给": 6342, "##ہڑا": 108588, "##mbung": 110448, "släpptes": 60977, "존": 9680, "##வான": 53000, "Cambodia": 78062, "##хисник": 100648, "Szenen": 79881, "##vd": 54685, "herbu": 72960, "##궐": 118659, "Strip": 79527, "婪": 3314, "भनिन्छ": 99278, "żoną": 95289, "##칙": 119283, "##躺": 117360, "##enes": 28999, "Huis": 76997, "##ட்டு": 24780, "##抢": 113811, "dòng": 40563, "1": 122, "蒞": 6845, "varen": 78609, "Magallanes": 91851, "##pita": 55207, "##ーク": 31564, "##agle": 103392, "ဖ": 1513, "値": 2344, "##нецов": 105662, "##այի": 14599, "Count": 32000, "##ctylus": 101161, "##ymi": 44918, "##живания": 80202, "Hera": 106786, "1951": 11200, "۲۱": 39488, "heel": 39965, "##dens": 32607, "барлық": 42879, "##ною": 19569, "##բանական": 98298, "쿄": 9823, "##யை": 23729, "beaucoup": 21934, "Premiu": 72176, "##пер": 29633, "usine": 51192, "pouvoir": 20106, "##ագրական": 53705, "##ledge": 100803, "##gaus": 93048, "##简": 115854, "Ocean": 20500, "えていた": 88557, "slowly": 63088, "##दय": 93635, "##абет": 91604, "Tavakilian": 18091, "Hr": 74968, "##啉": 112657, "##водных": 103762, "בצפון": 61169, "ranges": 74397, "кездеседі": 86767, "distance": 18527, "##讃": 117057, "##iria": 108285, "Университета": 87121, "##ц": 12181, "Doom": 49283, "fq": 99443, "邇": 7790, "##ذكر": 42172, "باشد": 20369, "Deportivo": 28040, "##нською": 89288, "##lki": 41910, "Kepler": 44433, "##瀆": 114999, "##lves": 86506, "уьш": 52028, "проживали": 25437, "##dres": 49695, "##čje": 46174, "conseguir": 38041, "easier": 81853, "shorter": 73797, "##सार": 107530, "##raali": 100440, "Weg": 22850, "gevormd": 79859, "Effekt": 108388, "##钦": 117820, "contest": 37596, "saling": 109002, "zweiten": 17321, "##ᵤ": 111544, "##uv": 67000, "diouzh": 88265, "considera": 23718, "##ilidad": 60188, "matches": 18258, "##şen": 80346, "Aosta": 73123, "agentes": 68737, "straat": 80499, "驛": 8545, "瞋": 5795, "츰": 9777, "klassischen": 64221, "##关": 112223, "##וקי": 94047, "американского": 85181, "##niti": 62648, "alfa": 45351, "ساحهسی": 47099, "právo": 62173, "##heiro": 40180, "serviços": 48785, "##ület": 46709, "##यन": 65469, "##váno": 74600, "catedral": 36483, "##ültür": 68826, "##ads": 72341, "Pri": 30797, "populares": 35801, "culture": 15162, "##ബ്": 68600, "Hidrogen": 97546, "temi": 72857, "鸢": 8748, "chest": 94230, "蔡": 6870, "bly": 107148, "##дардын": 51988, "UCB": 17643, "jeweiligen": 41934, "cư": 34954, "##жат": 30901, "##തിന്": 94979, "##czony": 32884, "##venta": 104270, "##чила": 49550, "successeur": 90817, "міст": 56752, "##vim": 54009, "prevalentemente": 71661, "assume": 46197, "këtij": 95300, "##ிலான": 108517, "##綽": 116010, "##瑀": 115304, "##zov": 74883, "كبيرة": 34318, "##olus": 61447, "дарыянын": 106053, "##ಬಹುದು": 44117, "滝": 5140, "瞳": 5807, "optional": 96645, "##용": 24974, "puertas": 66698, "##ภ": 111422, "##妮": 113025, "engelska": 49644, "1357": 101552, "gedéna": 35702, "певец": 103496, "##рып": 46653, "##νας": 71861, "früh": 66877, "##dko": 96857, "Scientific": 24689, "豁": 7396, "onbekend": 94590, "басқарған": 67678, "##stein": 16206, "المستوى": 110370, "##atge": 38149, "##istic": 29025, "鰹": 8659, "Educação": 78460, "Savannas": 74798, "hovedstad": 86527, "onze": 41208, "##釁": 117666, "së": 15044, "##mura": 50866, "##пасти": 106179, "##алог": 107457, "covered": 21543, "беларускай": 86233, "Edwards": 17263, "Landesliga": 100843, "הן": 26834, "##zami": 69886, "inggih": 44679, "##yba": 57005, "##lendi": 72384, "Seal": 63323, "28일": 42784, "##博": 112450, "萄": 6807, "##您": 113635, "##혔": 119436, "##絢": 115982, "hərbi": 51469, "tendría": 87771, "##χισε": 104848, "##افة": 51212, "Gundam": 69360, "##럭": 118864, "get": 15329, "##哮": 112637, "1617": 46028, "Sendung": 60474, "##өйөк": 110495, "összesen": 73150, "Jiang": 68373, "cattle": 56980, "##man": 10589, "##ßt": 50130, "娄": 3289, "##xid": 51583, "##mpre": 103612, "##juma": 108579, "ছিলেন": 24355, "##tické": 62789, "Haynes": 101352, "Hai": 26329, "##steiger": 86055, "powrócił": 49979, "fatti": 56117, "##லம்": 33961, "뮬": 9307, "击": 2528, "upaya": 106471, "茜": 6731, "##ullit": 60219, "награди": 105991, "egyre": 50635, "##essione": 68272, "Subway": 104809, "##窗": 115782, "Punta": 23714, "оркестра": 98951, "##քները": 77778, "Asina": 109632, "##stoff": 42236, "##執": 112863, "छ": 871, "іншых": 58946, "##ständen": 76086, "bureaux": 110445, "ministros": 100769, "##کے": 56057, "##κές": 35705, "sker": 77987, "hosszú": 40746, "azok": 66736, "##ゆ": 111808, "untergebracht": 70828, "頁": 8372, "aniversario": 91644, "##klų": 89243, "статье": 103943, "Hongrie": 54500, "gur": 58824, "##團": 112792, "##톰": 119360, "몫": 9285, "##ительные": 90190, "colpi": 105300, "இல்": 28231, "##ológicas": 108898, "##בלה": 54579, "##Ա": 68016, "կոմունա": 92231, "abil": 86766, "università": 58372, "feel": 38008, "resistència": 110707, "Octobris": 91439, "фон": 15420, "##cə": 28412, "روش": 44563, "דו": 74889, "魅": 8618, "rõ": 47488, "najmanji": 57110, "##ičina": 78601, "Publishing": 14092, "##儿": 112189, "##vremeno": 55272, "##owie": 28612, "##ählen": 82424, "##deva": 75150, "இருந்தது": 59590, "monument": 19720, "##bado": 51606, "##unków": 100681, "##nea": 32239, "Trofeo": 68792, "UB": 106005, "##فلام": 88528, "##katzen": 51980, "##玥": 115249, "assurer": 53617, "##ндії": 56576, "1960": 10699, "paru": 46039, "##roje": 71723, "Min": 28291, "sell": 36300, "класу": 47219, "Elite": 37377, "##μένων": 36677, "##sore": 64111, "Sutton": 49913, "llavors": 34113, "Gaztelaniaz": 42848, "acht": 19802, "##mora": 79374, "Move": 57961, "unlikely": 107914, "panonpoé": 35683, "Cuba": 17226, "সে": 58417, "##ದ್ದು": 50531, "ス": 2008, "##렇": 118871, "ninth": 54905, "##槓": 114469, "коды": 11707, "району": 17675, "##tett": 34226, "##ưng": 48727, "Fürst": 64987, "##頗": 118150, "lignende": 81530, "##ഡ്": 27186, "Mutter": 22643, "##哉": 112625, "gościnnie": 90026, "duda": 92837, "したことで": 110814, "Kensley": 103554, "東": 4506, "ute": 86207, "##ակվում": 81730, "##isjon": 51040, "着": 5778, "Duitsland": 26912, "##uste": 42043, "offers": 23818, "##nabis": 85215, "##tskim": 107438, "##ساعد": 63773, "##骼": 118353, "##퀘": 119321, "##ају": 63478, "##ntschieden": 102129, "pengetahuan": 99837, "innen": 29657, "podjął": 74744, "##播": 114003, "দিন": 71839, "Wappen": 44163, "##tib": 99910, "##щил": 107276, "##уучу": 90552, "Napoleone": 83990, "##вка": 26198, "Diversity": 66203, "##rire": 53460, "PM": 46161, "Azul": 47158, "berre": 42773, "##бок": 62078, "đảo": 22587, "##break": 83065, "##ktur": 57419, "febreru": 29489, "своей": 16596, "##nania": 97676, "insula": 97687, "visu": 82211, "Deutschen": 15093, "##овими": 65110, "Guanajuato": 80891, "##ния": 12268, "Independence": 36834, "bilgi": 45688, "ਜਨਮ": 49215, "##璽": 115343, "巒": 3576, "##zaron": 73550, "Träger": 84679, "##isering": 74494, "taller": 55236, "Statoids": 51655, "京": 2172, "bestemte": 95950, "Benedict": 50660, "tokoh": 43458, "##lorade": 105218, "胚": 6532, "математика": 72524, "fee": 54524, "Abstand": 80473, "dvärgstritar": 86609, "##স": 15258, "##训": 117071, "hacer": 21267, "Understanding": 65723, "##时": 114122, "##芳": 116458, "masjid": 56922, "Königreich": 34435, "##값": 118611, "fifth": 22237, "mga": 11136, "unang": 60782, "пісні": 56380, "Similarly": 89126, "دنبال": 83906, "Salon": 30979, "##lba": 70830, "強": 3729, "##ষ্ঠান": 95473, "zgodnie": 78359, "##стави": 96098, "conseguiu": 36781, "הכנסת": 46445, "Writing": 42732, "nau": 60042, "Av": 33799, "ہے": 10861, "##вість": 77138, "##ilmiş": 62056, "railway": 18271, "##bilidad": 37530, "臓": 6613, "Corse": 50024, "##웃": 119170, "##ციის": 29029, "Pasifik": 90108, "ביטוי": 109244, "MAX": 93238, "##φθηκε": 63769, "Schools": 33543, "##ldi": 22619, "результатами": 93172, "Mustafa": 31945, "EM": 20569, "ɲ": 397, "kommun": 15484, "##rmą": 99293, "022": 83983, "urbe": 89558, "Энциклопедиялык": 107474, "憂": 3938, "Wisdom": 87079, "événements": 52142, "1345": 83889, "2549": 66046, "eso": 36584, "##脖": 116323, "##తారు": 82980, "##ীন": 81337, "薪": 6907, "憲": 3950, "trois": 12653, "corner": 33625, "##äldern": 107067, "UCI": 27281, "##局": 113249, "##ají": 78886, "الكريم": 86256, "##프리카": 108032, "piloto": 35635, "かな": 86219, "acto": 51397, "الخامسة": 26493, "##繊": 116048, "chiar": 49143, "##kkelen": 89934, "1456": 80716, "Krim": 94496, "riguardanti": 71289, "Damit": 28457, "estero": 85157, "arcidiocesi": 104355, "практики": 91804, "iż": 41303, "1687": 43047, "##稠": 115744, "##zione": 11115, "Linha": 85861, "取": 2737, "Punch": 89874, "Websäit": 71836, "1728": 37696, "##hance": 100586, "##kara": 33066, "летних": 105865, "erfolgen": 97583, "##ház": 56103, "##gebroken": 108987, "había": 12758, "Tunnel": 41338, "##lege": 23995, "Mey": 42110, "##ץ": 15279, "већи": 109981, "의하여": 104377, "Іванович": 71809, "##봄": 118987, "róla": 97787, "訛": 7178, "##erz": 82902, "816": 60750, "Áo": 81035, "július": 29035, "##поля": 100521, "##lern": 103204, "##ಲಾ": 109491, "شبكة": 72340, "doppio": 38089, "##栄": 114325, "##py": 16740, "##even": 37578, "##汞": 114653, "##cud": 95177, "##gewicht": 45078, "##ટ": 26846, "superiore": 31066, "Београду": 46604, "鶏": 8734, "큰": 9835, "##vale": 29044, "здоров": 77770, "complexe": 46009, "انه": 76216, "prend": 18541, "##قاء": 49632, "##セン": 81134, "##ps": 13221, "Ceará": 70267, "##성의": 79599, "Giovanni": 13297, "založena": 91305, "1226": 93064, "##璃": 115329, "hielo": 105839, "Giancarlo": 74991, "1742": 35661, "##ஏ": 111300, "##أقل": 91700, "timber": 55447, "##пур": 87034, "landscape": 47521, "средств": 48712, "identification": 38877, "grupp": 74779, "Золотой": 63314, "keiser": 66965, "Fiesta": 60688, "遷": 7778, "изучения": 81610, "Bronzemedaille": 74255, "##zações": 108066, "големите": 80869, "véase": 105731, "sito": 33587, "Klaus": 21350, "##ppt": 80265, "##頃": 118140, "撃": 4224, "яка": 16442, "posee": 38751, "##sessä": 75234, "mezzo": 32675, "itself": 17587, "prey": 94638, "Tage": 25275, "entwickelte": 28069, "鎳": 8012, "##ziki": 91414, "##ပြီး": 35881, "##labas": 97956, "Dato": 47401, "##에서는": 23635, "Miejscowość": 97612, "marcou": 75833, "Вона": 40776, "utwory": 79091, "Metro": 20640, "representing": 31221, "##ige": 11907, "764": 76398, "##גין": 109178, "jeziora": 91217, "لیکن": 45202, "Jungen": 77205, "debido": 16103, "##ған": 14858, "بأنه": 63581, "##рм": 65412, "##rdes": 92578, "Pascal": 26543, "潔": 5182, "##匱": 112425, "sharp": 77348, "##狀": 115190, "resta": 25929, "##erroksella": 110235, "Boulder": 82175, "##ėnų": 83982, "##ே": 18827, "Rainfall": 13970, "##ádu": 72469, "##額": 118165, "component": 38483, "агенттиги": 107588, "被": 7098, "##慨": 113697, "##жної": 63609, "immediate": 46938, "Fast": 28191, "Tango": 53333, "Alan": 14309, "gắn": 87606, "ohne": 15032, "Μαρτίου": 58151, "##dejší": 98288, "淦": 5047, "834": 84229, "##òmic": 79264, "Jarosław": 107694, "führen": 32092, "##φους": 70252, "##илия": 80350, "diketahui": 53396, "anti": 14249, "direktør": 61183, "kterém": 61969, "заместителем": 74681, "Geiriadur": 73791, "arbeider": 95695, "1401": 89976, "भाषा": 11986, "contemporanea": 83812, "रहता": 90213, "linee": 48757, "Tập": 48430, "##मंत्री": 109520, "##ीत": 59851, "##нний": 54961, "吐": 2777, "##fig": 74115, "##כוחות": 101598, "##բան": 92597, "richiesta": 61479, "##迹": 117481, "##მიის": 82276, "acompañado": 97054, "Pasir": 56808, "UHF": 80195, "##ống": 29028, "MSN": 94238, "హెక్టార్లలో": 37195, "Ala": 56500, "1300": 20968, "Pertempuran": 83808, "##bjerg": 78521, "uses": 19873, "elaborate": 90052, "##惹": 113666, "אני": 62205, "پایه": 81123, "größten": 28400, "vị": 15598, "الحديث": 52485, "##析": 114284, "CM": 42741, "ی": 834, "voisine": 105158, "##szone": 110358, "##س": 11091, "##식의": 106589, "##тий": 35087, "##inius": 76745, "##議": 117051, "##וט": 37672, "窈": 6011, "вона": 20723, "Anthology": 63127, "granica": 81826, "簷": 6127, "##lement": 37587, "桜": 4595, "Jeden": 65388, "Burada": 49168, "##rrela": 103597, "档": 4599, "##аса": 41489, "而": 6459, "devenant": 93773, "##шення": 26214, "##ceed": 66390, "часть": 15848, "Trading": 110260, "zatim": 43546, "Arcade": 71332, "çын": 61071, "Feature": 62683, "##ريب": 61503, "##だった": 61963, "ayında": 45802, "partners": 48125, "##նությամբ": 74948, "türkischen": 91085, "Hauptrolle": 79008, "Ensiklopediyası": 97305, "pregledaču": 49977, "ヘ": 2039, "Factor": 41556, "Clusters": 44492, "مليون": 39851, "לפחות": 99845, "##দ্ধ": 47231, "Nazionale": 17093, "doas": 109783, "Министерство": 75700, "performance": 14432, "ساختار": 94476, "##ხის": 41253, "瑠": 5550, "dortigen": 60904, "అతను": 62530, "първите": 66285, "鯉": 8639, "panjangnyo": 85717, "##rd": 12023, "Band": 11928, "љ": 582, "##vative": 81901, "##оже": 94837, "##צרת": 84123, "Doors": 77601, "##зна": 45572, "##istique": 52619, "Franciscus": 92591, "##ếu": 57004, "১৩": 44425, "##洗": 114731, "##tía": 106313, "##υτικής": 104620, "الرابع": 59594, "call": 20575, "Скотт": 108317, "郝": 7825, "##терін": 76921, "##iado": 49239, "manlalaro": 72866, "##оў": 23646, "poderoso": 85350, "Posjeduje": 105737, "##্ধ": 66199, "instituti": 82983, "##ono": 12507, "Alive": 34701, "##shan": 60511, "pertsona": 16344, "прошлом": 110191, "##絳": 115988, "##nt": 10368, "1721": 36317, "Centrum": 34541, "Dolly": 69562, "##kade": 64578, "##oons": 89305, "##┃": 111722, "πολιτική": 79406, "##pen": 12708, "dnešní": 76883, "vene": 46326, "##teht": 109517, "möglich": 23973, "ائلهییب": 67767, "##赢": 117288, "##则": 112310, "bronse": 102456, "##turm": 41121, "ні": 57210, "дивизии": 27078, "continuat": 101576, "Survey": 17341, "##тио": 91091, "##pland": 54472, "improvement": 70010, "esteve": 72409, "बारे": 70885, "##ু": 16166, "92": 12458, "##ვი": 27560, "piosenki": 81605, "nuestros": 107447, "##צוות": 52058, "đưa": 25576, "##álu": 42091, "##delige": 104748, "##تم": 31498, "Chili": 37931, "Aire": 66914, "ski": 40122, "יהיה": 63532, "deras": 40406, "##ldades": 110285, "parla": 37348, "Sve": 77439, "Jahrbuch": 94412, "mounted": 44709, "collecting": 88737, "##nern": 89494, "verkocht": 52810, "##역": 23160, "१५": 42477, "##ίων": 22413, "隣": 8255, "##чання": 85492, "##첼": 119264, "##RC": 52932, "следующие": 47420, "Belt": 55905, "삿": 9412, "##во": 15275, "druhé": 27036, "waren": 11228, "yera": 20301, "ဟ": 1522, "##овину": 87595, "uainishaji": 90421, "üzere": 32228, "criar": 56161, "##lassung": 46664, "сериале": 100134, "348": 36721, "जगह": 107857, "позволяет": 46418, "##oured": 73499, "lineup": 90223, "node": 62584, "497": 52804, "Rothman": 40895, "contestant": 96509, "ਪਹਿਲੀ": 103887, "##³": 34152, "##inä": 56899, "которому": 47565, "începând": 104918, "ЮНЕСКО": 87157, "самолёта": 83556, "२९": 97536, "##ñón": 57120, "tabantuak": 22269, "##backs": 68694, "tồn": 44691, "subsidiary": 53898, "90": 10919, "dica": 68970, "##°C": 28585, "##яется": 43128, "сан": 43426, "##歷": 114568, "ruines": 87242, "ੂ": 1051, "讐": 7293, "##orar": 84643, "##czestnik": 80526, "##zzioni": 54057, "##rera": 43371, "fällt": 60581, "ya": 10549, "458": 24333, "钙": 8044, "qué": 38188, "Empress": 81236, "##katan": 54757, "淖": 5040, "تحديد": 80445, "牝": 5401, "##лық": 13237, "1966": 10857, "وكذلك": 41925, "met": 10428, "competiciones": 110528, "orkester": 84239, "##імі": 64712, "##벼": 118983, "1227": 84619, "Robaina": 45276, "##դիայի": 87686, "##жења": 101654, "##ಾಗದ": 104458, "##ాస": 105535, "項": 8375, "##ネット": 50217, "##mbe": 35216, "weitgehend": 40483, "##ցրել": 71266, "壽": 3181, "completing": 59054, "hicieron": 48928, "Alegre": 37617, "77": 12527, "salah": 14089, "సహకార": 39348, "Nhưng": 64737, "Атлантикан": 51667, "Віктор": 76774, "nr": 13798, "##кончыў": 96563, "által": 23017, "##גרות": 85250, "грудні": 77446, "##rase": 70281, "המשנה": 103864, "箪": 6099, "##ینده": 50041, "##ino": 12349, "##kampioenschappen": 91805, "##лна": 22579, "após": 16509, "emperor": 52964, "##ègne": 110644, "مقام": 35194, "##ῆ": 111610, "comprising": 78720, "पुणे": 69985, "penting": 34162, "mase": 102820, "הצעיר": 77540, "##uilla": 89659, "Japan": 11891, "ganze": 42765, "##േണ്ടി": 108254, "##mmy": 73549, "Памятник": 82483, "Hawk": 42260, "Isaac": 21639, "##éhez": 47268, "dele": 28250, "##櫻": 114532, "##تقدم": 104964, "##èvre": 52427, "representatives": 49959, "pertenece": 60665, "##wili": 61144, "##必": 113559, "Wiederaufbau": 101842, "Kategorie": 28885, "pasu": 82691, "##jednica": 98590, "componentes": 52029, "蠢": 7061, "Mouth": 102336, "pierres": 76003, "##كر": 39337, "坜": 3052, "##xes": 25439, "##vær": 104996, "arti": 46118, "фебруар": 77587, "容": 3410, "Tartu": 22194, "vertelt": 107415, "সদর": 88058, "Dordogne": 63404, "Vehicle": 75009, "complicated": 104904, "entrò": 53486, "vgl": 72281, "##ਝ": 111252, "Californie": 43239, "IR": 86851, "arall": 83405, "映": 4375, "tempada": 48867, "渔": 5071, "Barbosa": 82558, "##수는": 93835, "Exteriores": 98227, "obiektów": 108009, "##ছ": 53574, "aufgegeben": 91298, "egészben": 49629, "##gint": 95577, "Several": 28604, "Halle": 23368, "Hậu": 78325, "##珞": 115269, "##옐": 119150, "פרס": 38690, "sido": 12477, "##chine": 45205, "pé": 53393, "Juraj": 93556, "деца": 43623, "限": 8215, "##yd": 18659, "thesis": 67026, "09": 11035, "ottenuto": 44780, "tốt": 33598, "Roots": 59557, "릇": 9235, "있으며": 22634, "错": 8098, "հատուկ": 69433, "##لي": 20109, "marca": 13534, "autor": 14391, "manchmal": 65915, "colombiana": 108390, "nebylo": 107804, "લોકો": 53375, "bày": 80432, "##сла": 37936, "##sbezirk": 67358, "##ᶠ": 111546, "姓": 3272, "reine": 37238, "utility": 85410, "behaalde": 45542, "##eze": 41641, "neidr": 58182, "legi": 78198, "##崙": 113317, "być": 19669, "膏": 6593, "##词": 117095, "denken": 91682, "olevan": 38097, "세": 9435, "தரவின்படி": 76326, "Mivel": 58022, "Kuba": 42455, "##考": 116222, "Arroyo": 34232, "##档": 114365, "ิ": 1443, "funcional": 97979, "sortant": 94061, "və": 10711, "בארץ": 37318, "Corner": 48686, "Supreme": 22872, "##сау": 106762, "BL": 102549, "اوت": 52637, "##申": 115379, "##ciatori": 98693, "wygranym": 101651, "ми": 37140, "##вими": 104954, "##কালে": 80180, "##νε": 87276, "終": 6207, "##य": 13874, "siebie": 47607, "ethnic": 34216, "Педро": 88937, "Nghệ": 83250, "Christchurch": 90380, "##хия": 104240, "##зных": 66190, "شہرستان": 60715, "después": 12884, "##ttage": 69255, "辈": 7657, "##כונה": 37508, "warga": 49006, "участокĕ": 70092, "chiến": 14463, "ぴ": 1952, "Kita": 73679, "hauria": 70568, "##ider": 61024, "utilisent": 88676, "језика": 79489, "scrive": 99528, "##frau": 75053, "ң": 602, "lack": 23582, "nova": 15656, "tuyển": 47706, "##絃": 115974, "##펼": 119397, "##عات": 26921, "##垄": 112833, "konpontzeko": 68739, "##য়া": 26710, "리": 9238, "Buna": 54393, "linija": 94232, "##ető": 84202, "私": 5949, "##amat": 49158, "##dowego": 41438, "perangkat": 103378, "##bangkan": 77263, "Wizard": 70530, "износила": 67031, "Lily": 35619, "males": 24617, "изменения": 51436, "##tande": 56203, "થી": 102430, "painted": 37992, "##natha": 94372, "etablert": 56227, "albédo": 97554, "originala": 75132, "następujące": 63691, "##炯": 115048, "##érprete": 98599, "##ვარი": 58746, "terpilih": 77334, "##wództwo": 100497, "Wort": 35330, "##égration": 105802, "ιστορία": 49814, "##饪": 118254, "տվյալներով": 24065, "vive": 26309, "بررسی": 57532, "collectie": 109093, "Delgado": 52715, "roots": 46892, "Именно": 71184, "pesmi": 70633, "##顒": 118168, "postigao": 107216, "Krievijas": 50368, "prisioneros": 102066, "ক্রিকেট": 52245, "앗": 9528, "klima": 15324, "##ワード": 79681, "बार": 44551, "##鈉": 117685, "昊": 4366, "Nello": 55601, "nogle": 37566, "входить": 64415, "throughout": 15916, "##čino": 52407, "xúc": 88636, "voet": 96053, "ingkang": 18183, "Flächen": 91370, "университете": 34925, "סיפור": 90482, "الموسيقى": 104508, "пісень": 89004, "Consultado": 14019, "Fragment": 66986, "##ags": 78600, "##był": 71367, "sportif": 69413, "etmektedir": 86813, "Ғ": 592, "själv": 52369, "##सरी": 110572, "סין": 104076, "diverse": 15082, "##zgatója": 95281, "sportivo": 65348, "Pilipinas": 32738, "przegrał": 103402, "μέχρι": 22520, "##وات": 34414, "49": 11580, "茱": 6735, "Negra": 57571, "Czerwonej": 93997, "##ność": 19846, "906": 77452, "m": 181, "##נד": 22622, "1635": 40019, "료": 9211, "турган": 58091, "##ुक": 97571, "الهند": 65414, "شكل": 45852, "صلی": 104672, "mida": 24760, "##partiet": 45834, "nyelvű": 71402, "SW": 92438, "perempuan": 30874, "##cado": 31001, "1539": 54103, "##ాదు": 104658, "##кой": 14397, "##ере": 47970, "sonraki": 75211, "##论": 117081, "vents": 92355, "##nii": 25885, "Civilization": 65782, "##棧": 114403, "##ronse": 88563, "equipu": 43267, "Camillo": 70837, "جشنواره": 62969, "asta": 98910, "zámku": 91318, "##fanya": 95610, "##ngi": 31681, "Tämä": 40700, "##데": 28911, "##igheid": 88509, "Abril": 26691, "птица": 56691, "##īvi": 73333, "##quences": 107420, "chapitre": 69653, "搖": 4199, "##oma": 17039, "##ces": 14585, "##nía": 43521, "meses": 17359, "scuole": 68354, "entwickelten": 88381, "Belgii": 99148, "##ong": 13891, "##تطور": 106282, "ONE": 57929, "##прочем": 105965, "##tö": 80252, "மொழி": 76271, "Honorary": 60153, "##mlju": 88235, "##ർക്കാർ": 105054, "##秽": 115732, "Senado": 53648, "Datum": 62662, "##чал": 37322, "Joanna": 48402, "##еп": 29749, "Together": 29586, "659": 64057, "##ште": 33828, "popolo": 51244, "ricostruzione": 102465, "ஆண்டு": 21048, "center": 15630, "##logische": 43158, "ÖVP": 99724, "##忌": 113561, "Ann": 15879, "더": 9074, "Pointe": 45065, "怖": 3817, "货": 7482, "##鍍": 117757, "朗": 4467, "蜒": 7003, "aeronaves": 82895, "pochodzi": 39416, "vice": 16543, "##sl": 50659, "##鸞": 118510, "percent": 22362, "裟": 7112, "Latitid": 96583, "większość": 53702, "član": 31878, "жас": 38074, "##itional": 110667, "##záu": 64475, "浬": 5002, "circle": 54309, "Weekly": 24192, "Documents": 25146, "##ће": 26107, "第": 6063, "##ूत": 59342, "danse": 51569, "Indie": 48373, "##是": 114146, "##dii": 108310, "##ոշ": 65140, "umfasst": 28817, "##颯": 118212, "##gangen": 44257, "##rov": 23229, "Argentina": 12853, "Ausführung": 97937, "interès": 59846, "ауылында": 105974, "herečka": 91623, "drug": 20998, "природи": 72259, "Републички": 90785, "吞": 2785, "altura": 19886, "##יק": 24196, "sapere": 92016, "etxetan": 20830, "produk": 53044, "Schubert": 53260, "argent": 22576, "озод": 86861, "chur": 97353, "Indicem": 33957, "##stave": 91870, "[": 164, "מוזיקה": 82335, "##ഋ": 111375, "soi": 63804, "##saient": 109748, "ೋ": 1306, "Vorsitzende": 104827, "Lục": 93120, "connect": 58415, "##oek": 77391, "replacement": 41636, "##pu": 17490, "attorno": 50916, "種": 5980, "passione": 105201, "neige": 105253, "Nahimutang": 15269, "провінції": 53088, "lämnade": 80760, "圳": 3036, "##uido": 72982, "熊": 5344, "##فعل": 77028, "gedaan": 69632, "städtischen": 91095, "directament": 96268, "##берт": 57289, "##chov": 109230, "Mur": 103192, "temsil": 69817, "##ുടെ": 52285, "岁": 3507, "贝": 7473, "annonce": 29142, "##ffe": 27008, "ರ": 1288, "##βαν": 103524, "##mea": 41947, "##ルド": 94667, "##یر": 15747, "सब": 110334, "SpeciesFile": 53458, "obicei": 98276, "##нилось": 110499, "ఇది": 18702, "##۹۵": 80395, "البحث": 76680, "Gegner": 58401, "脱": 6563, "wollten": 91948, "ابو": 68147, "##ের": 11421, "Freundin": 106740, "##овной": 70417, "►": 1853, "Халиско": 84346, "##левич": 105884, "##၁": 36439, "Remember": 48655, "политика": 45689, "Čechách": 102959, "##мая": 73977, "paintings": 35449, "設": 7184, "fees": 81557, "அல்லது": 19952, "##ni": 10342, "##薰": 116678, "cori": 69243, "Уфа": 33973, "##ფი": 52357, "partage": 67310, "perdió": 45864, "##णा": 69965, "постоянного": 45829, "privadas": 93952, "##８": 119519, "##meid": 70260, "##ibes": 74844, "##異": 115400, "##upu": 90571, "૨": 1131, "垟": 3074, "##үк": 41069, "##운": 21614, "quest": 21974, "취": 9773, "扰": 4022, "##zzò": 76094, "稱": 5981, "resultaten": 104392, "##겼다": 94344, "1940": 10888, "functional": 55550, "beneficio": 105284, "شمار": 66693, "##茹": 116507, "宰": 3404, "површина": 84604, "##ertu": 58123, "địch": 35385, "##uksi": 52590, "contribute": 72484, "##좋": 119214, "aki": 17657, "##rema": 56318, "INSEEren": 17960, "Latin": 14617, "##စ": 111474, "##rval": 94023, "##昵": 114149, "nastupa": 93133, "##琦": 115291, "##етка": 61396, "Europie": 54351, "potenza": 50691, "##گے": 63984, "Espainiako": 54882, "propose": 30027, "individuales": 93239, "##раф": 102612, "команда": 24052, "lah": 25827, "##мно": 107960, "рішення": 49140, "cyklu": 57114, "##ենտրոն": 104955, "##вић": 42150, "##ор": 13097, "визначення": 92998, "緝": 6253, "##тен": 25263, "##народний": 89472, "ایران": 11979, "##izma": 84063, "Алтай": 44095, "detection": 91578, "##명이": 66923, "檗": 4751, "պատճառով": 47976, "##殃": 114575, "всех": 16989, "aldri": 51779, "familia": 10594, "office": 14301, "ю": 571, "emisión": 83054, "沭": 4924, "games": 13332, "Portsmouth": 46933, "қол": 110671, "##્સ": 45638, "##廣": 113458, "высоте": 62331, "埜": 3090, "Bibliographisches": 82041, "kolmas": 62141, "訖": 7175, "##čila": 33637, "##包": 112409, "##totta": 50482, "המפלגה": 48883, "dawniej": 99133, "##বা": 56078, "процесс": 45234, "խմբի": 72375, "##עו": 63015, "1630": 33222, "饿": 8499, "провести": 78695, "promoción": 60200, "Natomiast": 103385, "Hz": 47115, "motion": 30107, "anden": 32648, "dates": 27722, "##ма": 10993, "##ământ": 89701, "porté": 72473, "Michelle": 27062, "666": 38593, "Straßen": 53727, "দুটি": 85654, "##colhido": 106494, "стран": 32619, "##玛": 115246, "##தை": 31354, "##tiert": 99840, "cử": 29381, "муниципальных": 20087, "##χθεί": 70159, "schrijver": 60748, "temat": 57577, "[unused14]": 14, "Hawker": 93566, "skin": 40564, "##煜": 115098, "Daughter": 54924, "##{": 110878, "ခုနှစ်": 26838, "##าก": 101983, "swojego": 39895, "##ньої": 33532, "##jából": 62352, "suspected": 80337, "##qat": 49465, "گونه": 39983, "backup": 94182, "ऐसा": 71853, "##錢": 117745, "##שפעה": 72893, "nosaukumu": 104202, "##šte": 25861, "##蹤": 117345, "Sarajevo": 21402, "##nations": 105708, "მცირე": 76375, "菀": 6784, "1249": 105180, "淺": 5058, "convinced": 71869, "##geo": 103665, "##enze": 34043, "nostri": 49433, "venendo": 66338, "seed": 49282, "түрлі": 46501, "##ucht": 38298, "##ра": 11079, "爸": 5388, "譴": 7287, "Lyon": 17980, "Medalla": 46984, "##lights": 56552, "##ektedir": 71466, "##doende": 57944, "##ਸਤ": 94640, "##чких": 46353, "triển": 21098, "##șii": 79407, "Madonna": 18373, "CPNI": 108204, "lume": 65911, "ఉంటాయి": 59402, "nda": 24477, "Ramírez": 42006, "##ki": 10506, "shelter": 85947, "Hunter": 20043, "anlässlich": 72904, "##عاون": 55793, "თებერვალი": 99155, "san": 14608, "##ddi": 37226, "סופר": 107200, "کردار": 107410, "contexte": 62856, "においても": 88103, "##াত": 43004, "##ttaforma": 109816, "localidad": 19108, "pu": 34597, "##റ്റിൽ": 78836, "календар": 103175, "1335": 88000, "farmers": 55543, "éléments": 29721, "##spiele": 30916, "nodig": 48435, "##奢": 112993, "grottor": 65694, "voitti": 19324, "pomocy": 62593, "половина": 50178, "®": 210, "pêche": 72553, "طرح": 31674, "alue": 58454, "rəsmi": 71119, "Szwecji": 81438, "Pfarrei": 72200, "ಅದು": 42569, "##صة": 29425, "##gebung": 96381, "##raut": 85506, "둥": 9107, "daarvan": 45385, "Albert": 12422, "mengikut": 105632, "jaren": 16484, "##寅": 113182, "##ーブ": 109296, "##онов": 45568, "ಛ": 1268, "##യെ": 51206, "##luence": 91869, "##takt": 105092, "Disyembre": 32098, "Jaume": 44397, "번째": 41074, "playwright": 105035, "ríos": 39221, "completion": 45734, "sijaan": 76082, "##nyerte": 81704, "detsembril": 92172, "##足": 117309, "sündis": 87626, "төрт": 99339, "##нскую": 84203, "totdat": 109026, "hver": 27855, "toen": 19000, "##ək": 28708, "Kathleen": 51979, "않았다": 49137, "##50": 28847, "takes": 19135, "##пания": 74423, "##vazione": 102873, "Kabupaten": 16842, "документы": 108397, "##diti": 63203, "Hänet": 43498, "Ι": 445, "Delia": 103553, "denied": 47467, "conocida": 21400, "Librairie": 74995, "Kaiserslautern": 86440, "facente": 47037, "ingresos": 38326, "началась": 61123, "痒": 5671, "Ékséntrisitas": 36118, "Eindhoven": 55552, "##емја": 92972, "##TO": 60493, "##енных": 35459, "それが": 103849, "##渇": 114828, "Of": 12610, "Ещё": 60682, "##ינים": 38515, "сучасного": 110582, "##呕": 112581, "##학과": 65610, "vitesse": 32832, "1933": 11247, "arrangement": 40258, "അവരുടെ": 77064, "dwèt": 49668, "ésser": 99211, "##ohn": 77406, "##硼": 115622, "testi": 41319, "helt": 21566, "शब्द": 46973, "##टना": 65487, "′": 1734, "Mi": 19803, "vecinos": 48399, "efectiva": 106802, "##ಠ": 92352, "##mten": 68496, "Province": 15664, "satt": 35293, "ಮೊದಲು": 89978, "stát": 58608, "Để": 79477, "##skiego": 16189, "##mbol": 94116, "##zuführen": 60883, "##ఱ": 111338, "##റെ": 43917, "Life": 10337, "##ятно": 101339, "##order": 102626, "##儋": 112179, "verschiedenen": 19785, "##онд": 105114, "##гол": 85952, "arah": 50388, "##뇨": 118750, "鲸": 8692, "##wody": 62698, "لا": 13879, "##తమైన": 79362, "##zano": 39874, "Circus": 40151, "##geben": 51305, "##עלה": 66506, "eftir": 26970, "##Ủ": 111587, "αυτών": 78178, "معه": 73643, "ocupación": 61206, "kwa": 14266, "finanziellen": 100305, "##rs": 10943, "mach": 109664, "angolul": 42966, "hôtel": 36555, "densitat": 51956, "##istische": 32809, "Familie": 14514, "##债": 112119, "##栱": 114342, "vieler": 104527, "Criminal": 42198, "##划": 112307, "##sel": 12912, "##弘": 113483, "województwie": 22844, "애니메이션": 102222, "Worms": 66995, "谈": 7366, "lagata": 35920, "腱": 6584, "Sami": 49324, "逵": 7746, "curva": 60594, "sở": 28077, "##новы": 105856, "Clancy": 99734, "альбома": 29928, "##žana": 109925, "সাধারণ": 89075, "1587": 49598, "tíz": 104159, "Beynəlxalq": 82325, "نقطه": 98108, "##chera": 107759, "Санта": 35445, "элементов": 70650, "##ماً": 91903, "45": 10827, "##ți": 13601, "らの": 34446, "있": 9647, "##baru": 89398, "console": 44203, "##శ": 70265, "srpna": 33889, "legislative": 53374, "##chard": 43013, "Luca": 26001, "Jaime": 30454, "Ḑ": 1625, "##മായ": 27081, "##strate": 79383, "Tahiti": 89515, "elegido": 35847, "Satan": 63859, "تصميم": 107192, "##нюю": 33334, "творчості": 98545, "斷": 4334, "##鶥": 118501, "ăn": 23061, "##лії": 46244, "##ẹ́": 99567, "Death": 15467, "Benfica": 57679, "##SA": 27138, "##dique": 81412, "dní": 69213, "سياسي": 87591, "##铎": 117839, "##俞": 112079, "##P": 11127, "##šek": 54852, "##bl": 31766, "кратко": 96548, "appartenente": 47862, "##no": 10343, "128": 16196, "จ": 1400, "ging": 13629, "Æ": 231, "diventato": 72204, "vitit": 36831, "##rime": 105881, "##jeve": 53208, "##ler": 10815, "##θοποιός": 108279, "orosz": 47940, "Savoie": 35362, "酐": 7862, "##tuar": 48821, "kar": 25085, "1407": 93190, "japonés": 57456, "ष": 897, "##от": 11016, "骥": 8581, "##醇": 117648, "##밝": 118966, "##ொ": 111313, "компанія": 68434, "Италии": 35253, "##имой": 83969, "ocupades": 62826, "culto": 33508, "living": 14625, "Independent": 20199, "##erto": 52012, "##слуг": 55918, "დაახლოებით": 68578, "##ഗം": 68638, "rohkem": 68152, "##borado": 88568, "茲": 6736, "##ступил": 65775, "drag": 71840, "என்றும்": 46738, "kesäkuuta": 34668, "##hy": 19275, "свои": 22003, "nid": 92181, "蒯": 6847, "lesen": 106234, "##ಗಳಲ್ಲಿ": 18136, "##วน": 73179, "உ": 1144, "Czech": 22148, "Groß": 42855, "Ondanks": 100099, "##ash": 73491, "לונדון": 98816, "##藜": 116688, "##zamento": 103850, "##vde": 69480, "montant": 104646, "əhatə": 105912, "##تبة": 95782, "western": 16672, "##ônia": 29574, "Allí": 58142, "##ợt": 70857, "##ísticas": 77856, "렀": 9183, "ajo": 41740, "השלישי": 38493, "यांच्या": 70401, "высотой": 94456, "##ած": 24133, "screenwriter": 99204, "##ведения": 59309, "नए": 103285, "##ાય": 60125, "##nię": 50994, "explain": 67004, "##hje": 72740, "##nquista": 89313, "##wanej": 52138, "көнне": 31706, "盒": 5741, "lopulta": 45606, "##raca": 59666, "säsong": 101614, "懒": 3959, "голема": 90331, "з": 548, "departamencie": 42431, "Goldman": 57886, "ニュース": 91377, "bacino": 108327, "kterých": 72569, "habitatges": 16407, "Kammer": 87059, "##הם": 26323, "##פעולה": 79087, "pulo": 49774, "##мки": 54929, "fiel": 30607, "切": 2535, "Zélande": 76334, "##lser": 25946, "месте": 27889, "瀑": 5237, "##वादी": 63291, "tourné": 101593, "landskommun": 71556, "Helm": 76973, "Regne": 48640, "descenso": 89503, "ビ": 2034, "##cazioni": 97733, "segurança": 64447, "##phase": 82101, "knee": 75217, "##cidae": 37983, "##に": 11312, "recherche": 22191, "japanischen": 58670, "怒": 3815, "1789": 17887, "##ְ": 111149, "##ustre": 95261, "彎": 3738, "بڑا": 85015, "Molti": 94246, "Гидрологик": 36136, "勤": 2631, "групата": 28735, "キ": 1996, "மற்றும்": 12584, "evangelischen": 80285, "283": 29857, "##ално": 85879, "proposto": 97338, "##tarian": 109810, "primeiras": 40393, "##蠕": 116824, "Hon": 19431, "മറ്റു": 69812, "##یو": 45668, "##coil": 105272, "nagrado": 82778, "##au": 11705, "Cash": 41286, "Entdeckung": 37957, "bisbe": 49367, "рядом": 40103, "בפרס": 54916, "Aprile": 88502, "amenaza": 85170, "##partimento": 96022, "##拶": 113858, "fera": 82460, "##américa": 55535, "##ाज": 44735, "##מר": 20597, "晔": 4395, "Fabio": 42311, "##领": 118193, "católicos": 79648, "##ntarios": 94542, "##jong": 81208, "Fed": 91335, "nổi": 24610, "batteria": 34483, "Kaisar": 74487, "vent": 36678, "##שיות": 107359, "официально": 55138, "risale": 65093, "člověka": 100952, "ö": 276, "##ાર": 24985, "deur": 15227, "##raneo": 86434, "անգլ": 17261, "folgen": 75031, "établir": 68020, "căn": 60741, "##ീറ്റർ": 82224, "芬": 6687, "du": 10168, "developed": 14628, "##هن": 43642, "Vyriausioji": 86337, "Burt": 59025, "Bolt": 101539, "thành": 11629, "Thin": 85581, "पदार्थ": 103536, "##جر": 24618, "##צרי": 86988, "憤": 3944, "##әү": 69915, "##ша": 13235, "Luego": 31224, "motifs": 76204, "თბილისი": 75939, "##恤": 113607, "Time": 12000, "jižní": 60115, "##യും": 25715, "##ոլային": 102895, "Harris": 16667, "Indian": 12544, "##ciu": 18606, "ᵛ": 1617, "constituent": 55965, "pontos": 29514, "##oran": 74482, "##濂": 114981, "اوستانیندا": 34978, "Sheridan": 57434, "cestu": 86618, "Civil": 14906, "білім": 93970, "Ut": 83189, "adott": 35650, "tentar": 110694, "##取": 112503, "włoski": 69622, "աշխատում": 108542, "annos": 105558, "নামে": 41990, "##вара": 75419, "##梢": 114379,
[...]
