{
  "awards": 23443,
  "прве": 98639,
  "XIIᵉ": 54900,
  "caratterizzato": 77860,
  "11일": 46986,
  "discovered": 21756,
  "##mą": 27635,
  "##evo": 36237,
  "甩": 5606,
  "##vassa": 90788,
  "Brent": 56333,
  "الحرب": 27598,
  "askeri": 73808,
  "Seni": 72670,
  "Frysk": 55997,
  "##hnung": 42680,
  "##pere": 62443,
  "##ДР": 100337,
  "pouvoirs": 66226,
  "intégré": 108149,
  "managing": 61274,
  "##kowych": 65743,
  "##рана": 20842,
  "##ানী": 97671,
  "দেশ": 88324,
  "Bloch": 61652,
  "sinistra": 34708,
  "##tration": 54525,
  "Catholic": 15473,
  "惮": 3893,
  "##karan": 91012,
  "seraient": 87959,
  "##లకు": 34296,
  "##ೋಳ": 89290,
  "##mino": 62606,
  "स्थापना": 43185,
  "få": 15806,
  "strain": 110158,
  "Южна": 60979,
  "##錄": 117738,
  "緬": 6259,
  "##rive": 48521,
  "##睞": 115548,
  "##rmi": 76936,
  "##ங்கு": 37255,
  "Фридрих": 40353,
  "nível": 33546,
  "Ottoman": 28342,
  "eraiki": 91645,
  "釈": 7902,
  "##弹": 113496,
  "Gutiérrez": 41908,
  "##jawab": 89309,
  "grenser": 102595,
  "##kori": 39276,
  "objavil": 50639,
  "##tumia": 106156,
  "##rnog": 103796,
  "Schäden": 107314,
  "plataformas": 100957,
  "汤": 4891,
  "##蘄": 116698,
  "those": 12676,
  "##guda": 47674,
  "33": 11000,
  "generic": 76955,
  "##zioni": 12246,
  "жыл": 19913,
  "Actes": 106947,
  "երկրային": 94381,
  "##cesión": 69904,
  "##∙": 111690,
  "comun": 30529,
  "granite": 95549,
  "Cuban": 60845,
  "##iel": 19428,
  "usato": 42782,
  "##üket": 86785,
  "إذ": 54221,
  "Giochi": 43999,
  "储": 2383,
  "down": 12935,
  "calciatore": 17485,
  "##зерото": 94485,
  "੦": 1058,
  "Kazimierza": 87319,
  "Collegiate": 91163,
  "bientôt": 95644,
  "##깨": 118678,
  "Petite": 51423,
  "##ежно": 86294,
  "sağlayan": 38995,
  "салалық": 63344,
  "dues": 16915,
  "країнах": 74817,
  "庙": 3664,
  "##ధ": 99288,
  "##瑳": 115324,
  "Nad": 51726,
  "Blackmore": 107816,
  "रंग": 80191,
  "કરતા": 94333,
  "اسپانیا": 73369,
  "##jától": 106723,
  "##zeka": 77008,
  "visione": 71630,
  "##jub": 100187,
  "##турно": 53685,
  "ν": 477,
  "##rál": 82560,
  "##말": 89523,
  "держав": 92748,
  "##鄺": 117622,
  "##這": 117500,
  "Neil": 19687,
  "рус": 14217,
  "levou": 42400,
  "bhliain": 27702,
  "앙": 9530,
  "Paola": 57699,
  "asli": 16012,
  "SAM": 105508,
  "##्याचा": 83851,
  "часів": 46201,
  "dagar": 56832,
  "תפקיד": 60068,
  "Cape": 18642,
  "##gruppe": 24013,
  "doilea": 58459,
  "trends": 109086,
  "dört": 54026,
  "##ടർ": 74637,
  "##ше": 13391,
  "legate": 74659,
  "Widerstand": 64071,
  "egyéb": 59274,
  "##лялись": 57659,
  "Klinik": 84969,
  "##ája": 21875,
  "Тұрғындарының": 48926,
  "kladograma": 26255,
  "1437": 81995,
  "##mur": 33246,
  "большинства": 97277,
  "अनुसार": 26362,
  "##밭": 118970,
  "Thom": 93759,
  "僧": 2400,
  "##urno": 78388,
  "##tão": 41894,
  "##plant": 65921,
  "##训": 117071,
  "##謬": 117039,
  "खँग्वसफू": 78214,
  "Garrison": 87412,
  "##რში": 52670,
  "##מורה": 53080,
  "##ಡೆ": 52609,
  "Алтын": 96821,
  "kralj": 35319,
  "##訝": 116945,
  "輕": 7617,
  "##emon": 87964,
  "##արունակում": 94715,
  "##try": 30449,
  "vocalista": 51381,
  "##лод": 75173,
  "inimest": 73597,
  "அம்மன்": 100286,
  "##CS": 61857,
  "##ੋਲ": 87057,
  "房": 3998,
  "лицо": 107643,
  "Umm": 93545,
  "##برز": 71302,
  "973": 56468,
  "##ებას": 58388,
  "##kkal": 56374,
  "##տը": 50891,
  "##nito": 96491,
  "подполковник": 91771,
  "PGC": 20667,
  "Angola": 21149,
  "Lens": 72008,
  "Paesi": 49689,
  "którym": 19057,
  "##чае": 64916,
  "wegen": 16331,
  "Walking": 47505,
  "##r": 10129,
  "стали": 17465,
  "##entamiento": 96039,
  "газеты": 46396,
  "existing": 26636,
  "kobiet": 46125,
  "##jaus": 90333,
  "Władysław": 43491,
  "##గ్": 104533,
  "Alles": 67380,
  "Ａ": 10085,
  "##ymer": 89254,
  "##ळी": 44779,
  "##седатель": 104447,
  "##екла": 87765,
  "hradu": 77918,
  "французский": 57355,
  "سليمان": 82280,
  "выпущен": 62918,
  "##弧": 113489,
  "##彻": 113525,
  "しなかった": 95962,
  "##рдо": 55652,
  "Ramsey": 71049,
  "##יתה": 63121,
  "الجنوبية": 56521,
  "berikutnya": 63022,
  "##δρα": 97044,
  "фонд": 50408,
  "##jną": 70342,
  "Tracy": 37125,
  "nową": 77748,
  "##ruppe": 64392,
  "##ientes": 36765,
  "올": 9583,
  "壺": 3180,
  "劉": 2591,
  "Rahman": 41149,
  "telenovela": 45602,
  "дейін": 24370,
  "##외": 78705,
  "##мя": 67382,
  "Аудан": 102282,
  "Elder": 57510,
  "##伽": 112007,
  "##środek": 78190,
  "##enaar": 79989,
  "споменува": 50929,
  "Twelve": 71171,
  "сарын": 29542,
  "saivat": 75089,
  "આ": 1071,
  "hur": 52824,
  "علوم": 35324,
  "albüm": 88859,
  "observatoire": 75184,
  "eine": 10359,
  "##ivă": 69850,
  "kích": 28901,
  "ассоциации": 76874,
  "##ілу": 78485,
  "##venti": 83692,
  "挡": 4110,
  "赐": 7514,
  "kahaboga": 18857,
  "sicasí": 78419,
  "deceased": 96002,
  "##åll": 98016,
  "##czył": 27250,
  "##աք": 86652,
  "Uetz": 107535,
  "ecliptica": 86188,
  "##يز": 29548,
  "temperaturas": 60659,
  "軔": 7601,
  "pavadinimas": 96865,
  "בשלב": 62773,
  "們": 2335,
  "Rico": 21012,
  "peoples": 55332,
  "इंग्लिश": 72964,
  "##帽": 113393,
  "Merrill": 59905,
  "onderzoek": 41617,
  "TX": 86545,
  "##անակ": 61887,
  "##յին": 68713,
  "##യുന്നു": 81575,
  "Под": 23600,
  "##tycznej": 58235,
  "regreso": 53478,
  "##拥": 113848,
  "##शा": 105764,
  "မြန်မာနိုင်ငံ": 98494,
  "februarie": 42605,
  "##ngiu": 106928,
  "1690": 34881,
  "režie": 56230,
  "lod": 108850,
  "raio": 53267,
  "керівництвом": 66634,
  "oni": 30231,
  "jeb": 63874,
  "చెందిన": 28034,
  "##nissa": 82131,
  "##شاركة": 95990,
  "huolimatta": 76870,
  "книге": 48658,
  "ביוני": 34639,
  "employer": 94526,
  "pendent": 78655,
  "المستوى": 110370,
  "したという": 88487,
  "##rmal": 66619,
  "dadi": 29563,
  "статьи": 65086,
  "##قسم": 45755,
  "##mell": 92648,
  "قاجار": 89234,
  "##munud": 110100,
  "bbc": 79726,
  "##unek": 106716,
  "##zaje": 104406,
  "##ba": 10537,
  "практики": 91804,
  "ایل": 35851,
  "אן": 70470,
  "Guilherme": 69762,
  "##ати": 16583,
  "العدد": 92440,
  "ғына": 109467,
  "##舷": 116421,
  "##곽": 118646,
  "hacerse": 99594,
  "행": 9966,
  "Extremadura": 72526,
  "червні": 79898,
  "779": 80408,
  "##іч": 37918,
  "##鞠": 118118,
  "##itis": 36967,
  "Donetsk": 97825,
  "1586": 50746,
  "##тельно": 34136,
  "##이를": 66623,
  "alba": 35299,
  "іл": 59182,
  "Draft": 28695,
  "Gas": 34874,
  "민": 9311,
  "1332": 83042,
  "lẽ": 93346,
  "traduction": 51763,
  "##ić": 16662,
  "Finalement": 91612,
  "minoritate": 36589,
  "##ਕਾਂ": 84806,
  "assoluto": 87237,
  "sesuai": 48792,
  "seria": 18756,
  "才": 4005,
  "reeds": 40620,
  "Zbog": 38341,
  "calling": 37023,
  "##гээр": 60425,
  "componist": 63502,
  "Tyto": 62349,
  "##vées": 73326,
  "Tổng": 27140,
  "propio": 22170,
  "Warsaw": 43669,
  "стан": 66345,
  "sư": 30283,
  "##gina": 24769,
  "##ಕ್ಷ": 73893,
  "moved": 13059,
  "ビ": 2034,
  "83": 12408,
  "hydrogen": 67321,
  "később": 21150,
  "##ervo": 85794,
  "médio": 77060,
  "##мә": 56509,
  "Hans": 11768,
  "##vimo": 51166,
  "##kam": 46750,
  "##ίωμα": 93878,
  "throwing": 110039,
  "##yton": 59622,
  "esculturas": 98303,
  "язок": 91760,
  "Celsius": 102972,
  "##rship": 78692,
  "protagonistas": 97488,
  "Бу": 81478,
  "##stor": 42396,
  "ormai": 37355,
  "demais": 57996,
  "يونيو": 24937,
  "gives": 24952,
  "##隗": 118015,
  "##군은": 70605,
  "Lisitry": 73266,
  "mümkün": 90093,
  "חינוך": 105167,
  "garrison": 94884,
  "Португалия": 110283,
  "引": 3715,
  "##ਹ": 34963,
  "Krim": 94496,
  "陀": 8205,
  "Mandela": 63881,
  "rugadh": 107118,
  "varv": 97481,
  "працездатного": 44147,
  "##빛": 119007,
  "##tyczny": 77462,
  "##штајн": 98593,
  "##국": 20479,
  "countries": 15911,
  "оператор": 95046,
  "enää": 58055,
  "Taça": 63890,
  "##یوں": 106582,
  "листопада": 24561,
  "Івана": 55217,
  "초기": 106280,
  "##통": 43022,
  "랑": 9164,
  "Raj": 56510,
  "##tliche": 45225,
  "##मानित": 102068,
  "Daleithiau": 104104,
  "##jö": 37735,
  "##тік": 33101,
  "regió": 22318,
  "guru": 31097,
  "##の": 10634,
  "عراق": 48280,
  "禧": 5937,
  "Stratford": 93293,
  "Scoble": 18871,
  "1460": 51114,
  "##slav": 51100,
  "##atkan": 58835,
  "##guard": 80928,
  "ունեն": 67027,
  "bis": 10467,
  "##телство": 68583,
  "soutien": 39875,
  "regentschap": 39216,
  "estableció": 49576,
  "##niti": 62648,
  "##Υ": 111047,
  "##ಲಿನ": 84795,
  "Reef": 92834,
  "##атели": 93056,
  "##yksen": 49247,
  "##ρόγραμμα": 95551,
  "Creation": 29938,
  "##mii": 52025,
  "wcześniej": 35266,
  "צ": 745,
  "籲": 6139,
  "Књига": 84225,
  "Ｓ": 10089,
  "offentlig": 83437,
  "gesehen": 56882,
  "Estrella": 73815,
  "turėjo": 57640,
  "Struggle": 101866,
  "##вшего": 75683,
  "##्वे": 72312,
  "##dig": 17208,
  "comunque": 28321,
  "Ex": 27746,
  "﹞": 10047,
  "##крытие": 102627,
  "Li": 13258,
  "##揆": 113944,
  "##グ": 35757,
  "týmu": 56905,
  "Với": 63249,
  "riconosciuto": 103283,
  "堀": 3101,
  "##ҷ": 111096,
  "꿈": 8965,
  "##ђе": 43319,
  "##krotny": 101095,
  "stêd": 56653,
  "Neben": 20483,
  "कि": 14117,
  "pekerja": 102836,
  "##진": 18623,
  "added": 16288,
  "##hel": 31572,
  "উত্তর": 43578,
  "राज्ययागु": 47563,
  "20일": 41518,
  "времени": 16643,
  "##nces": 28524,
  "цел": 40951,
  "இருப்பினும்": 81162,
  "poseen": 104786,
  "türk": 60786,
  "##빼": 119011,
  "##anin": 106281,
  "transformación": 107190,
  "##黑": 118568,
  "##鰕": 118421,
  "Winner": 40815,
  "influences": 46486,
  "sekitar": 19825,
  "靠": 8333,
  "##滦": 114911,
  "##чара": 95114,
  "seek": 48394,
  "##jú": 17269,
  "##ден": 16770,
  "##dette": 83895,
  "##置": 116172,
  "סוף": 64220,
  "смъртта": 57729,
  "##ジア": 88822,
  "Disember": 69435,
  "##ени": 15065,
  "##癢": 115471,
  "##muan": 37302,
  "##zlar": 67692,
  "teljes": 33902,
  "窖": 6015,
  "705": 52979,
  "मेमेगु": 41590,
  "鲷": 8691,
  "##oy": 20712,
  "yá": 26833,
  "##ších": 44198,
  "##חם": 32255,
  "kraja": 43885,
  "রান": 98898,
  "Stargate": 92159,
  "ab": 11357,
  "confusion": 61318,
  "brukar": 102541,
  "bansa": 99002,
  "zeigen": 40259,
  "changing": 43068,
  "溅": 5108,
  "##teca": 44405,
  "량": 9175,
  "آیووا": 94188,
  "Damascus": 100002,
  "byť": 39525,
  "Борис": 28300,
  "wieś": 19203,
  "##ξει": 47220,
  "Warschau": 72545,
  "ii": 59139,
  "##льский": 48296,
  "##րվել": 30106,
  "##razioni": 62854,
  "How": 14962,
  "址": 3040,
  "##կին": 73494,
  "situação": 59362,
  "área": 13487,
  "##塊": 112887,
  "##rial": 34108,
  "##tajana": 83339,
  "##patikana": 98094,
  "ي": 793,
  "tuli": 17802,
  "##礙": 115659,
  "##рация": 67607,
  "儡": 2418,
  "Esti": 42272,
  "چالیشیب": 75480,
  "tagolong": 40577,
  "médico": 32816,
  "Արեւմտահայաստանի": 99922,
  "Tako": 35971,
  "##樫": 114493,
  "##šné": 56989,
  "Imperium": 63987,
  "##าก": 101983,
  "Leopold": 22532,
  "雁": 8269,
  "##貧": 117186,
  "##mier": 86192,
  "broni": 68037,
  "Disease": 53878,
  "أول": 20582,
  "Loire": 15810,
  "捕": 4129,
  "pracoval": 50022,
  "##ு": 18660,
  "पूरा": 93335,
  "##chant": 86825,
  "叙": 2740,
  "Parke": 104039,
  "מזרח": 67881,
  "kapten": 99128,
  "الأحمر": 84787,
  "կողմից": 18525,
  "龚": 8838,
  "##娣": 113064,
  "##nastu": 94870,
  "ണ": 1347,
  "hlavne": 80827,
  "##raciones": 63020,
  "работал": 19775,
  "şehri": 110783,
  "վերջին": 51202,
  "##jecaj": 110643,
  "роста": 110273,
  "concretamente": 101131,
  "##顷": 118182,
  "##ضافة": 77330,
  "pangkat": 88661,
  "nạn": 72125,
  "##чения": 25972,
  "Isa": 56787,
  "Diocese": 41293,
  "##ógicos": 82812,
  "##վական": 105356,
  "##lig": 12554,
  "отримала": 55206,
  "##ånden": 104680,
  "libro": 15568,
  "good": 15198,
  "われる": 21496,
  "navire": 47214,
  "筲": 6083,
  "##onimia": 108916,
  "痍": 5670,
  "##ybos": 44065,
  "২৪": 50412,
  "##ministrativo": 100581,
  "##finale": 39546,
  "Чарльз": 85761,
  "##зала": 71742,
  "fondateur": 46723,
  "Ӯ": 622,
  "casa": 12088,
  "萝": 6814,
  "edges": 92616,
  "##탄": 66554,
  "따르면": 59355,
  "Maison": 30016,
  "##աղի": 86269,
  "##sierung": 101425,
  "trzeci": 78065,
  "##дија": 41202,
  "scrittore": 31741,
  "bestritt": 51314,
  "25일": 43283,
  "Maj": 72180,
  "##mjena": 81056,
  "攤": 4275,
  "##达": 117453,
  "##仮": 111973,
  "##énétique": 110059,
  "enlarged": 108200,
  "medaille": 57058,
  "菀": 6784,
  "厢": 2716,
  "酶": 7877,
  "שכל": 105409,
  "##虜": 116715,
  "Wilson": 13083,
  "viņu": 71591,
  "226": 23776,
  "Reggie": 105424,
  "##tó": 16555,
  "khiến": 39156,
  "ब्रिटिशतयेग": 98841,
  "площі": 70299,
  "PJ": 92973,
  "سالم": 95488,
  "bezocht": 18146,
  "##ِ": 21421,
  "сәйкес": 97458,
  "novelas": 65088,
  "##alas": 109088,
  "erhält": 55767,
  "Чијапас": 60776,
  "##каторыя": 109849,
  "permaneció": 64277,
  "метрів": 53800,
  "avendo": 64683,
  "городским": 92127,
  "##uzat": 99081,
  "תוכנית": 44910,
  "Unlike": 45227,
  "##jia": 27005,
  "##仕": 111961,
  "руслар": 78149,
  "confini": 77354,
  "##orchester": 91228,
  "kole": 73994,
  "##怜": 113585,
  "Borja": 95540,
  "memerintah": 106052,
  "##甜": 115365,
  "vlády": 36105,
  "طالب": 69883,
  "##ních": 20760,
  "moh": 49234,
  "Будучи": 97431,
  "sugli": 67776,
  "Alvin": 61987,
  "##nå": 103222,
  "תחילה": 101694,
  "City": 10773,
  "Maria": 11066,
  "dahin": 48186,
  "体": 2251,
  "898": 85773,
  "będzie": 46845,
  "۲": 840,
  "##פוץ": 75605,
  "размер": 66799,
  "comuns": 64419,
  "dünyanın": 66678,
  "WTA": 27931,
  "suite": 13314,
  "vindt": 59200,
  "##partimento": 96022,
  "הוצאת": 34683,
  "polskiej": 41458,
  "Ол": 35586,
  "conocimiento": 52057,
  "급": 8929,
  "dl": 63940,
  "нею": 86899,
  "estado": 11965,
  "##nista": 57272,
  "##лучу": 81923,
  "vents": 92355,
  "##лину": 61622,
  "достаточно": 45923,
  "Italo": 102171,
  "inneheld": 50066,
  "Meeting": 50986,
  "begynnelsen": 69827,
  "Wahl": 27753,
  "үҙәгенә": 78500,
  "conjuntos": 95890,
  "Entwicklung": 20426,
  "##涝": 114784,
  "Sinclair": 44515,
  "levels": 21559,
  "стороны": 23167,
  "Five": 19268,
  "করা": 14704,
  "De": 10190,
  "##hã": 72765,
  "tỏ": 40801,
  "##čuje": 32280,
  "##怨": 113591,
  "Wilkinson": 59558,
  "мешканців": 30402,
  "ծնվել": 59060,
  "##敬": 114070,
  "##siä": 48116,
  "лютого": 25909,
  "Còngo": 91213,
  "Emden": 99120,
  "олар": 85698,
  "xəritəsi": 96294,
  "##enzen": 62085,
  "permanente": 29670,
  "##stwa": 38529,
  "temperatura": 18192,
  "##կացի": 99999,
  "##بیل": 64726,
  "Грција": 101586,
  "##鯉": 118405,
  "élections": 25878,
  "##ก": 18427,
  "זאת": 18944,
  "##渓": 114836,
  "##đenih": 79853,
  "##بين": 55733,
  "袈": 7091,
  "##ваний": 69097,
  "곶": 8897,
  "##ುತ್ತದೆ": 76127,
  "sadrži": 23076,
  "ﯽ": 10035,
  "##wise": 48339,
  "Sojuz": 92680,
  "Cell": 29494,
  "Praia": 60641,
  "##upen": 92051,
  "extranjeros": 94601,
  "раёна": 62092,
  "ایران": 11979,
  "Giovanna": 81256,
  "روم": 85361,
  "##ішча": 101377,
  "женщины": 42403,
  "Finlande": 77125,
  "##yet": 33878,
  "haalde": 70695,
  "hær": 67230,
  "##凶": 112290,
  "дохил": 24851,
  "asub": 39012,
  "Berger": 27121,
  "##hataja": 108544,
  "##鳃": 118461,
  "Maddalena": 108518,
  "##ція": 15887,
  "##슭": 119079,
  "құрайды": 18808,
  "##xus": 69704,
  "愼": 3916,
  "produite": 93294,
  "amacıyla": 85869,
  "좋은": 79633,
  "Só": 97074,
  "poderia": 55325,
  "casado": 55617,
  "械": 4619,
  "##苗": 116472,
  "##கி": 110502,
  "ES": 49004,
  "##TC": 55671,
  "##ешка": 61557,
  "ավելի": 24743,
  "##rã": 107165,
  "innerhalb": 21103,
  "Wilhelmina": 96074,
  "##ές": 24450,
  "##骆": 118336,
  "Arthur": 13134,
  "##lita": 41701,
  "Typ": 33974,
  "ragione": 87264,
  "##едь": 102013,
  "రెండు": 31837,
  "छोटे": 79102,
  "##րում": 25116,
  "##ilen": 26943,
  "##ூரி": 106107,
  "efficace": 67695,
  "melebihi": 91379,
  "gebildet": 44610,
  "##页": 118180,
  "##укова": 110787,
  "##озмір": 109626,
  "թվականը": 108486,
  "##cyjne": 39668,
  "##간": 18784,
  "##ஊ": 111298,
  "составляли": 87145,
  "Achille": 57111,
  "##widmet": 101165,
  "Pöpinumamabür": 32057,
  "fishes": 28632,
  "Rasmiy": 33859,
  "amás": 43525,
  "comarca": 19708,
  "##ષ": 94135,
  "часи": 70815,
  "Адміністративний": 62250,
  "马": 8551,
  "##ämä": 46427,
  "##ицы": 66045,
  "సహాయక": 39866,
  "##蛾": 116762,
  "敵": 4308,
  "Pat": 24714,
  "輯": 7625,
  "northeastern": 81029,
  "početku": 59085,
  "chemical": 29677,
  "##杰": 114271,
  "expensive": 58069,
  "првог": 104335,
  "atelier": 45710,
  "##aat": 27124,
  "겁": 8869,
  "खेल": 73869,
  "שדה": 84739,
  "Borg": 65791,
  "쭉": 9724,
  "Netz": 70994,
  "##qués": 44351,
  "##വും": 23073,
  "naît": 72427,
  "##čić": 56742,
  "الرابع": 59594,
  "governo": 15885,
  "survive": 55681,
  "##جد": 26897,
  "##荖": 116517,
  "##ensi": 48019,
  "렵": 9197,
  "Floor": 71336,
  "姍": 3269,
  "Nationen": 80123,
  "##vire": 80253,
  "специально": 92909,
  "##matta": 93263,
  "సినిమా": 29113,
  "##قالات": 76247,
  "##郢": 117594,
  "##kretær": 105136,
  "idet": 70873,
  "##辉": 117424,
  "ғарыш": 66981,
  "Έλληνας": 64137,
  "##gage": 93794,
  "nặng": 47428,
  "##摂": 113974,
  "##нял": 47514,
  "##लों": 51665,
  "##膜": 116362,
  "##ẳ": 111578,
  "Україні": 21567,
  "っており": 41517,
  "##hauer": 81460,
  "rang": 25696,
  "Sans": 49029,
  "potrzeby": 107274,
  "bizonyos": 76565,
  "鹵": 8773,
  "chosen": 27997,
  "olla": 21248,
  "##द्यालय": 71032,
  "এছাড়াও": 72880,
  "diversas": 20449,
  "##пись": 56342,
  "##дии": 32866,
  "##rous": 81823,
  "чотирьох": 79528,
  "##ョー": 65919,
  "tripulación": 97029,
  "##зывали": 87903,
  "##gués": 60409,
  "directeur": 19971,
  "obwohl": 46411,
  "##ničkih": 97508,
  "борби": 93100,
  "##увалися": 76984,
  "и": 549,
  "Marriage": 64810,
  "##တာ": 60674,
  "لندن": 36361,
  "##厕": 112477,
  "Escola": 27810,
  "cristal": 66664,
  "吒": 2779,
  "##א": 13834,
  "##トの": 84208,
  "holds": 28278,
  "##脫": 116327,
  "##繫": 116058,
  "درون": 86775,
  "Szabó": 62293,
  "IB": 110503,
  "##寵": 113205,
  "##페": 119391,
  "dambos": 90092,
  "faixa": 45347,
  "procedente": 93042,
  "##דית": 51297,
  "##ømt": 59449,
  "##idala": 110345,
  "szabad": 88307,
  "##רמה": 68108,
  "652": 63974,
  "ખાતે": 83769,
  "helft": 65072,
  "##詢": 116965,
  "Ấn": 25582,
  "呢": 2820,
  "aid": 19778,
  "簸": 6128,
  "##rire": 53460,
  "##rné": 59561,
  "победи": 98652,
  "Lex": 54740,
  "utworów": 72784,
  "caratteristiche": 40817,
  "поверхности": 57658,
  "##idan": 52299,
  "##lları": 75365,
  "পিছেদে": 77716,
  "##ительство": 64069,
  "Саксонија": 107182,
  "Lorena": 47078,
  "##ովի": 43173,
  "փետրվարի": 67719,
  "Agostini": 81375,
  "Mali": 24427,
  "hiztegi": 39690,
  "mouth": 42213,
  "avgust": 98865,
  "milioni": 26560,
  "территорию": 68574,
  "веке": 32479,
  "nilai": 46554,
  "kashf": 80386,
  "мјесту": 98450,
  "svolse": 110316,
  "Texten": 108258,
  "janvier": 13529,
  "409": 37659,
  "##נוי": 41644,
  "poäng": 76765,
  "##irse": 90900,
  "##타": 22695,
  "ओ": 863,
  "flower": 66775,
  "ờ": 1680,
  "##stum": 71301,
  "կոդ": 99775,
  "सकल": 42949,
  "hän": 11960,
  "##gens": 22408,
  "나": 8982,
  "##mli": 98373,
  "샘": 9419,
  "вже": 23692,
  "##ρίου": 37829,
  "stal": 17844,
  "suit": 26315,
  "##yria": 86849,
  "जल": 80619,
  "isleños": 80385,
  "鼻": 8820,
  "##АССР": 96127,
  "娟": 3296,
  "sự": 12636,
  "##태로": 85386,
  "י": 732,
  "##ത്തെ": 26695,
  "服": 4463,
  "##family": 78330,
  "##gés": 53269,
  "##eois": 46542,
  "##ladan": 99463,
  "Frieden": 60751,
  "دیس": 97206,
  "службы": 34192,
  "లోని": 55150,
  "körülbelül": 96546,
  "##kiej": 19426,
  "##нское": 78883,
  "commanding": 93644,
  "##woord": 74368,
  "##rtí": 105552,
  "forderte": 85760,
  "##בש": 98946,
  "##statud": 103147,
  "##未": 114240,
  "مناسب": 74093,
  "சிறந்த": 61892,
  "##倦": 112111,
  "##מונה": 43874,
  "##簸": 115894,
  "Meurthe": 50124,
  "다만": 107930,
  "berri": 107515,
  "##bidae": 82366,
  "##ردن": 83536,
  "игра": 28940,
  "earliest": 34913,
  "脷": 6565,
  "##alista": 97876,
  "Karol": 40129,
  "552": 44809,
  "##own": 49126,
  "firmy": 37938,
  "##τερ": 88222,
  "לאורך": 39638,
  "araw": 104886,
  "0816044732": 103255,
  "llamados": 75137,
  "##嚎": 112748,
  "Bills": 99051,
  "social": 12142,
  "primitive": 68558,
  "##go": 10797,
  "Hochschule": 28472,
  "##猫": 115219,
  "tamo": 105973,
  "провели": 102462,
  "மூன்று": 51468,
  "##גיעה": 69368,
  "င": 1496,
  "Ädabinons": 20274,
  "##ien": 11540,
  "Alemaniako": 78946,
  "琛": 5522,
  "##انيا": 60568,
  "##iennes": 104538,
  "##rna": 13471,
  "##miten": 102537,
  "cioè": 33180,
  "Indiana": 16564,
  "##ysk": 61909,
  "Tora": 95673,
  "##gangenen": 102577,
  "аймағына": 36368,
  "2000": 10180,
  "successful": 17330,
  "catégories": 91081,
  "魎": 8620,
  "##জ": 24383,
  "Франко": 99974,
  "##each": 67208,
  "##zina": 27797,
  "##ES": 25054,
  "##בק": 104956,
  "##ington": 24077,
  "##jedno": 65454,
  "##или": 16878,
  "teritoriju": 95805,
  "##tti": 12683,
  "##bet": 20125,
  "##鮃": 118394,
  "Venäjällä": 110262,
  "##дови": 66809,
  "Южная": 99419,
  "##ыгыш": 91096,
  "##ty": 11195,
  "##ádza": 53886,
  "Bring": 73859,
  "pagkayana": 23817,
  "vinto": 31794,
  "børn": 65706,
  "##רצ": 106248,
  "Selena": 85791,
  "migliore": 43040,
  "##ئه": 46818,
  "ontdekt": 59499,
  "##ural": 75627,
  "banned": 58587,
  "##cée": 41657,
  "prvom": 56727,
  "kuten": 22032,
  "##zása": 85452,
  "eri": 23152,
  "##nke": 53770,
  "1920s": 44126,
  "##dots": 89032,
  "Tenggara": 38358,
  "##lü": 28205,
  "geschat": 69012,
  "##gonal": 41762,
  "##鑫": 117797,
  "Audiodateien": 42835,
  "krvi": 74180,
  "unas": 27493,
  "##lly": 17903,
  "Viņš": 87092,
  "##èrs": 51501,
  "##ber": 12212,
  "atradās": 98431,
  "##ਿਲ੍ਹੇ": 109697,
  "##ضر": 70959,
  "だと": 54707,
  "##ų": 10844,
  "##곤": 118639,
  "línea": 20215,
  "љ": 582,
  "однойменним": 76647,
  "##髭": 118365,
  "##فير": 77289,
  "##biti": 71986,
  "names": 17978,
  "तथा": 14862,
  "##initive": 93551,
  "##gų": 50206,
  "récemment": 82017,
  "阶": 8202,
  "rekna": 81454,
  "Києва": 65611,
  "trans": 37241,
  "UEFA": 13528,
  "صورة": 98683,
  "##βαση": 84233,
  "##炯": 115048,
  "Nazionale": 17093,
  "##ueel": 82748,
  "meet": 23267,
  "sedan": 17091,
  "době": 23052,
  "##rib": 47116,
  "suatu": 22370,
  "Livre": 41095,
  "##ལ": 111462,
  "であり": 14044,
  "dende": 14413,
  "喻": 2934,
  "##ortion": 95171,
  "##ਵੀ": 54603,
  "ὁ": 1707,
  "zesde": 99708,
  "genyen": 26844,
  "鉾": 7945,
  "##ategi": 82956,
  "entonces": 16720,
  "Trade": 15006,
  "berlaku": 53347,
  "##wały": 41152,
  "##lmente": 25856,
  "Conus": 93316,
  "containing": 27248,
  "sorta": 65974,
  "arrondissement": 18011,
  "себя": 17900,
  "Got": 24291,
  "якой": 64219,
  "##ł": 11133,
  "##fes": 58058,
  "nedeniyle": 45609,
  "斥": 4327,
  "##よる": 68794,
  "##віч": 59735,
  "alcuni": 15347,
  "broers": 102215,
  "автомобиль": 52196,
  "ఏడాది": 32660,
  "Olson": 96913,
  "literally": 59232,
  "234": 24966,
  "##gla": 41572,
  "##noty": 97416,
  "##елия": 104206,
  "##uzima": 99263,
  "вакыты": 42542,
  "Straße": 17241,
  "##braica": 101331,
  "##lesiastical": 102536,
  "Köln": 18083,
  "Abgerufen": 57260,
  "ہوں": 88199,
  "thắng": 27368,
  "CH": 39774,
  "##्यात": 55344,
  "petition": 88022,
  "cine": 22262,
  "##דרת": 103924,
  "##fiziert": 91170,
  "tér": 70602,
  "charts": 32171,
  "upcoming": 78228,
  "cantando": 89527,
  "##質": 117223,
  "статье": 103943,
  "Lebanon": 40037,
  "##kban": 46551,
  "Nazareth": 101459,
  "##咕": 112604,
  "mellem": 20988,
  "##essen": 83962,
  "##omme": 97551,
  "Mika": 53379,
  "sides": 27263,
  "##ribuito": 79173,
  "Janssen": 94180,
  "##drich": 63516,
  "Vaikka": 73473,
  "##bëtar": 89876,
  "##posizioni": 78508,
  "##ρου": 31333,
  "##ぽ": 111805,
  "##ิล": 78045,
  "##arse": 28790,
  "##hut": 46296,
  "##škim": 90988,
  "মিটার": 43933,
  "tabel": 97514,
  "Hofmann": 84745,
  "יש": 18415,
  "##훗": 119452,
  "严": 2099,
  "鍼": 7997,
  "##shafen": 92926,
  "пилот": 103335,
  "kandidaat": 108201,
  "kompanii": 81627,
  "矯": 5823,
  "ngăn": 72228,
  "Japonya": 81139,
  "##geva": 101999,
  "誰": 7231,
  "##ρα": 17762,
  "Tomé": 65990,
  "顏": 8401,
  "Дом": 37106,
  "drive": 23806,
  "Res": 32070,
  "##植": 114415,
  "##cito": 39811,
  "бидат": 83876,
  "Solutions": 81182,
  "носи": 56877,
  "##oron": 86141,
  "Truth": 31925,
  "регионе": 49435,
  "naval": 25922,
  "magazine": 15438,
  "##сыз": 64889,
  "##笑": 115820,
  "ٍ": 796,
  "زيادة": 64233,
  "continuar": 36055,
  "rejoint": 27280,
  "парку": 63982,
  "##Ť": 110970,
  "##ำว่า": 110429,
  "##רוק": 92982,
  "Troy": 40777,
  "##ார்": 18191,
  "##нна": 26404,
  "رهبری": 88631,
  "##ิ": 28220,
  "się": 10424,
  "tek": 20351,
  "dedicat": 98718,
  "Stella": 34319,
  "##ане": 30201,
  "##SI": 44802,
  "Basidiomycota": 85205,
  "##udoval": 62463,
  "##teg": 102318,
  "轮": 7643,
  "stvari": 80401,
  "##יכה": 85804,
  "ika": 57378,
  "Ludwik": 88952,
  "##zehn": 69456,
  "##sjonen": 41709,
  "cooperation": 56547,
  "René": 16703,
  "##좋": 119214,
  "monte": 23756,
  "юккъехь": 91864,
  "شخص": 27767,
  "update": 35896,
  "zählen": 50700,
  "compression": 98295,
  "jedna": 19270,
  "##랜": 118856,
  "waard": 16274,
  "Prayer": 62399,
  "##मद": 104200,
  "sejam": 93721,
  "##ίοι": 107089,
  "snaga": 61242,
  "##rrea": 100076,
  "Captain": 17448,
  "juara": 67737,
  "temps": 12358,
  "##趙": 117305,
  "afluente": 73596,
  "Bom": 67618,
  "峰": 3539,
  "탔": 9852,
  "##וצאת": 82269,
  "##nskom": 63360,
  "Expo": 52947,
  "marta": 51487,
  "##овского": 35257,
  "bevolkingsdichtheid": 40114,
  "następujące": 63691,
  "llevar": 39226,
  "Hartman": 84885,
  "changements": 90757,
  "гравцем": 98483,
  "##ალური": 96595,
  "оркестр": 97489,
  "использовал": 106291,
  "מצב": 71159,
  "․": 1730,
  "Estonia": 31475,
  "Gard": 37214,
  "staat": 14887,
  "епархии": 60712,
  "##تحقيق": 91812,
  "hemiboreal": 68698,
  "薦": 6904,
  "reconnaissance": 42823,
  "Георгия": 91023,
  "melyben": 96467,
  "இந்தியாவில்": 109313,
  "##য়ন": 56459,
  "뚫": 9148,
  "##dium": 26440,
  "victories": 62664,
  "Mandarin": 89033,
  "Þ": 252,
  "squadra": 16684,
  "Grimm": 45345,
  "laisse": 54613,
  "##یش": 37050,
  "##صاص": 62590,
  "علت": 64430,
  "Caroline": 21259,
  "など": 16533,
  "##ании": 43403,
  "踝": 7566,
  "##нічного": 83519,
  "Тоҷикистон": 25869,
  "bekannten": 43218,
  "vertrok": 78339,
  "sorti": 21773,
  "Bintang": 72743,
  "kang": 15086,
  "##aros": 95203,
  "Lines": 43076,
  "ideiglenes": 95240,
  "##剝": 112340,
  "##rom": 25750,
  "junto": 13597,
  "cz": 53873,
  "nuevas": 31316,
  "##нти": 32210,
  "667": 52541,
  "Om": 18864,
  "賜": 7449,
  "دُوَّار": 44475,
  "conférence": 71130,
  "Mur": 103192,
  "Indoor": 69152,
  "неактивних": 47879,
  "pintura": 25364,
  "variedad": 56728,
  "菌": 6790,
  "##dzie": 24356,
  "##кәре": 80933,
  "姜": 3276,
  "Leone": 29578,
  "vene": 46326,
  "##碍": 115627,
  "となっており": 87533,
  "ناحية": 68844,
  "Walters": 77693,
  "##njo": 40239,
  "鬧": 8611,
  "##قافي": 106378,
  "arbeitet": 43988,
  "##lane": 25920,
  "##্রাম": 83476,
  "##čného": 53620,
  "Details": 67873,
  "##۸۰": 53313,
  "Roger": 13513,
  "conosce": 99281,
  "для": 10520,
  "указом": 99452,
  "qualquer": 28527,
  "só": 18429,
  "సహకార": 39348,
  "##кха": 70852,
  "##בור": 44399,
  "##ള്ള": 28152,
  "santuario": 71491,
  "##urar": 61553,
  "##കളുടെ": 55114,
  "Lisaks": 80039,
  "##이자": 55171,
  "Walter": 12506,
  "란": 9159,
  "婿": 3320,
  "тӀуьна": 18218,
  "##wijk": 42727,
  "Hierbei": 85101,
  "柔": 4540,
  "##ikus": 31364,
  "آمریکانین": 65793,
  "##歪": 114563,
  "挑": 4101,
  "##uális": 94069,
  "міститься": 76307,
  "##вок": 72578,
  "πρώτα": 71952,
  "##穰": 115767,
  "##밍": 118960,
  "璟": 5571,
  "verkozen": 89314,
  "yhden": 40848,
  "##former": 59106,
  "രണ്ടു": 80667,
  "директора": 41352,
  "tarkoittaa": 66424,
  "芹": 6695,
  "##سع": 82397,
  "بهشمار": 98461,
  "авч": 105090,
  "##ესი": 68832,
  "stark": 20118,
  "Ice": 22694,
  "##rook": 95898,
  "##езе": 109990,
  "Каролина": 104393,
  "##erst": 51915,
  "##టీ": 37551,
  "приєднався": 105691,
  "##ээ": 17701,
  "##latt": 64424,
  "谪": 7387,
  "##sichtlich": 65381,
  "ETA": 80559,
  "Hr": 74968,
  "##quée": 34322,
  "##ברת": 75745,
  "situatie": 100346,
  "druhů": 58375,
  "##וב": 18476,
  "##ਿੰਗ": 94716,
  "Bay": 13146,
  "Armas": 94083,
  "enseñanza": 68291,
  "##posal": 101177,
  "journal": 19061,
  "##깁": 118668,
  "scomparsa": 101478,
  "##đena": 51139,
  "Héctor": 51624,
  "裂": 7103,
  "Joaquin": 110482,
  "##قا": 41003,
  "##rent": 28208,
  "Mio": 40234,
  "両": 2096,
  "Vokietijos": 75080,
  "##sni": 67826,
  "offensive": 31820,
  "بارے": 53053,
  "ചെയ്തു": 34230,
  "Mildred": 109956,
  "##ôle": 54634,
  "##kud": 52813,
  "##ಳೆ": 54517,
  "##泉": 114703,
  "綬": 6236,
  "Rooney": 81626,
  "Amerike": 69873,
  "tilbage": 31485,
  "Região": 63062,
  "tinggal": 34966,
  "##welling": 89848,
  "摊": 4212,
  "捨": 4138,
  "##ldade": 101500,
  "*": 115,
  "##윅": 119177,
  "visão": 82250,
  "##έχνης": 85384,
  "##ыҡ": 93143,
  "##ша": 13235,
  "##饪": 118254,
  "fuggire": 97185,
  "ҡоролмалар": 35890,
  "##óns": 66919,
  "Lynn": 30278,
  "##peler": 74911,
  "ustanova": 69406,
  "bulk": 91415,
  "##ix": 13274,
  "##равления": 89839,
  "##нення": 23299,
  "折": 4040,
  "##dej": 90062,
  "##viare": 102097,
  "##ībā": 30308,
  "##K": 11733,
  "##truit": 100836,
  "##нула": 103614,
  "肆": 6499,
  "Madeira": 54367,
  "انتشار": 49520,
  "narodowej": 60347,
  "오": 9580,
  "##чком": 52150,
  "##ственные": 41144,
  "혹은": 61259,
  "##屏": 113259,
  "app": 72894,
  "rayonu": 69142,
  "##fix": 57014,
  "##hacht": 104291,
  "##ferencia": 57593,
  "茅": 6726,
  "##۳": 21354,
  "championnat": 19460,
  "##acea": 108409,
  "quantum": 60554,
  "##널": 49881,
  "##ší": 15685,
  "##ბის": 27053,
  "##oq": 54265,
  "Adelaide": 27228,
  "##inje": 75620,
  "midden": 51601,
  "##셰": 119051,
  "##车": 117403,
  "צבי": 66645,
  "##rao": 32360,
  "##лардың": 57794,
  "##ней": 17000,
  "##瑕": 115308,
  "tại": 12086,
  "##овки": 59526,
  "麹": 8790,
  "flytta": 92536,
  "Rosberg": 85356,
  "##г": 10823,
  "1회": 99448,
  "аьхкенца": 48807,
  "##MM": 93252,
  "盖": 5743,
  "1063": 92842,
  "vody": 47149,
  "##jának": 38204,
  "縦": 6271,
  "##эн": 16893,
  "##ग्री": 75147,
  "Franklin": 18003,
  "##偵": 112134,
  "Sergej": 78976,
  "##ązków": 95461,
  "##skih": 17136,
  "##jne": 29301,
  "Democratic": 19281,
  "funkcija": 87234,
  "##ликува": 107440,
  "пределах": 84408,
  "##нат": 27476,
  "涅": 5008,
  "##лих": 50462,
  "věnoval": 96843,
  "í": 267,
  "##jarah": 106489,
  "negra": 38455,
  "着": 5778,
  "Джон": 21499,
  "Jean": 10766,
  "Hamar": 99629,
  "##籤": 115903,
  "##руг": 75624,
  "##िस": 29822,
  "##kapet": 57040,
  "##맹": 109265,
  "##طح": 99272,
  "підтримку": 104929,
  "##ӣ": 13603,
  "clima": 21700,
  "Duomo": 101931,
  "Examples": 89998,
  "دفتر": 68652,
  "economics": 55181,
  "технических": 85400,
  "##עין": 44894,
  "ide": 38938,
  "sydlig": 23675,
  "##orax": 73376,
  "opposing": 93780,
  "fizik": 85636,
  "यदि": 64952,
  "ਚ": 1021,
  "##财": 117243,
  "##şa": 38959,
  "sił": 72576,
  "1521": 39501,
  "##unció": 81883,
  "Oscars": 94648,
  "origines": 67693,
  "२२": 96223,
  "##ヒ": 76145,
  "##gram": 31253,
  "crossed": 56433,
  "##cel": 32942,
  "escribe": 91174,
  "##nende": 108513,
  "Pleasure": 97641,
  "асанан": 33821,
  "nau": 60042,
  "##мечает": 94906,
  "beendet": 76332,
  "##gay": 102635,
  "##blem": 76419,
  "Κοινότητα": 70866,
  "델": 9086,
  "zweier": 86455,
  "##рри": 95836,
  "##avia": 42365,
  "Leary": 110601,
  "Feb": 21194,
  "ταινία": 39297,
  "Missile": 87352,
  "when": 10841,
  "Paderborn": 72124,
  "proximité": 35483,
  "درجة": 37970,
  "##nac": 61804,
  "##lons": 57098,
  "Renault": 21839,
  "einzige": 29991,
  "##daniem": 67521,
  "grupę": 82882,
  "##isessä": 72525,
  "Angry": 104834,
  "Hilda": 75335,
  "лиге": 45246,
  "Biografie": 84389,
  "##дка": 34885,
  "опыт": 90281,
  "Bridge": 17426,
  "Royce": 46753,
  "carretera": 30414,
  "똑": 9145,
  "##aad": 100754,
  "摄": 4209,
  "##باً": 72733,
  "административдик": 97293,
  "riguardo": 77051,
  "дарыя": 53600,
  "greatest": 31434,
  "marketed": 106652,
  "hänelle": 75362,
  "・": 2068,
  "Existem": 99762,
  "effetti": 42159,
  "##íl": 39819,
  "##甩": 115372,
  "Eylül": 32756,
  "##८": 21654,
  "钓": 8042,
  "ಸ": 1294,
  "##ена": 12868,
  "1140": 87649,
  "太": 3199,
  "comptait": 28865,
  "##тах": 40914,
  "reconocida": 96072,
  "種": 5980,
  "##희": 49515,
  "koga": 87818,
  "dor": 33518,
  "Boss": 43860,
  "##phoe": 102273,
  "Così": 63788,
  "##лора": 106863,
  "лютому": 90968,
  "##kun": 49581,
  "##vského": 70845,
  "##niej": 73837,
  "##uk": 13013,
  "##ერა": 97199,
  "餐": 8472,
  "##娘": 113059,
  "Prividna": 58950,
  "archaeological": 24020,
  "Rowe": 100742,
  "##emente": 42846,
  "pelasi": 23777,
  "materiału": 107627,
  "بدون": 32220,
  "##已": 113358,
  "Nicolas": 16443,
  "verkocht": 52810,
  "##tavu": 62924,
  "ゲーム": 42058,
  "того": 12409,
  "построен": 48699,
  "##სი": 41745,
  "Үҙәк": 56543,
  "Actors": 65665,
  "исключительно": 83080,
  "##த்தது": 58815,
  "Padova": 44583,
  "虽": 6959,
  "Conte": 49082,
  "##cilio": 83560,
  "tartották": 95811,
  "consideró": 105971,
  "烙": 5296,
  "##런": 56710,
  "عرض": 42679,
  "vlast": 47367,
  "tin": 21629,
  "americane": 98290,
  "Diretto": 43533,
  "beeinflusst": 84760,
  "veebruaril": 93792,
  "##פונית": 71340,
  "々の": 39896,
  "шоу": 33426,
  "##ฑ": 111417,
  "##院": 117988,
  "##愚": 113675,
  "például": 26786,
  "##手": 113770,
  "בעונה": 74881,
  "##גישה": 61541,
  "Fokker": 69476,
  "##eins": 88764,
  "Ť": 355,
  "bras": 35753,
  "volontà": 77580,
  "Emperador": 78347,
  "##றப்பு": 73692,
  "befindet": 14977,
  "##ützt": 93210,
  "سجل": 106118,
  "perspectives": 105624,
  "##側": 112133,
  "沖": 4913,
  "##痰": 115448,
  "##叢": 112511,
  "##박": 118963,
  "拖": 4069,
  "##钝": 117814,
  "տնտեսական": 67165,
  "curs": 57887,
  "##ligt": 20150,
  "克": 2433,
  "阵": 8201,
  "என்றும்": 46738,
  "indépendante": 95686,
  "##邦": 117569,
  "扎": 4006,
  "conserver": 100910,
  "등의": 28697,
  "ਏ": 1013,
  "ludności": 30426,
  "ostali": 54246,
  "詭": 7204,
  "події": 89940,
  "sposò": 45092,
  "娼": 3305,
  "ferro": 32300,
  "България": 21065,
  "grootste": 23876,
  "##īta": 50709,
  "##лăхĕ": 101871,
  "##שימה": 87005,
  "##בלת": 58906,
  "च": 870,
  "##rière": 57570,
  "##52": 92161,
  "これが": 73864,
  "Francë": 84940,
  "utilizzato": 34530,
  "##chard": 43013,
  "##pti": 94618,
  "##hista": 67174,
  "земји": 104308,
  "Lors": 20955,
  "##quette": 57616,
  "##чествовао": 92432,
  "נכנס": 104497,
  "אותם": 34158,
  "Sanchez": 66007,
  "##畷": 115406,
  "蛊": 6979,
  "oyuncu": 57463,
  "##eton": 102709,
  "vydala": 95037,
  "猛": 5446,
  "##档": 114365,
  "Caribe": 53717,
  "لهم": 53339,
  "digantikan": 93307,
  "##mel": 19390,
  "ζωή": 62054,
  "kuris": 38741,
  "الخاصة": 39876,
  "Dezembro": 67774,
  "XXIV": 97595,
  "##lones": 106782,
  "##ндагы": 53352,
  "##ーラ": 94878,
  "##ält": 97994,
  "encontraba": 46227,
  "lieutenant": 26927,
  "##шим": 19547,
  "##वून": 110108,
  "Индия": 70801,
  "teise": 88371,
  "##through": 90300,
  "che": 10262,
  "Мысалы": 110387,
  "##扫": 113783,
  "मुंबई": 65800,
  "##وق": 28241,
  "materials": 23193,
  "##wisko": 79052,
  "##േക്ക്": 78762,
  "tente": 48122,
  "استعمال": 45096,
  "##erno": 57646,
  "##ढे": 96990,
  "algoritmen": 10767,
  "Единый": 75977,
  "##stendig": 77803,
  "kwanza": 57294,
  "##ਹਿ": 102528,
  "##ुवा": 109165,
  "##йська": 105639,
  "웅": 9610,
  "벵": 9349,
  "representación": 40278,
  "каз": 61195,
  "Tutte": 107382,
  "##ा": 11208,
  "DF": 104143,
  "relazioni": 82664,
  "##ठन": 63869,
  "窿": 6028,
  "##lesa": 80230,
  "##SU": 88592,
  "##argo": 106520,
  "##煌": 115093,
  "Lim": 64200,
  "##tri": 21570,
  "##vode": 51113,
  "248": 24889,
  "meine": 99864,
  "accidents": 87995,
  "鏡": 8019,
  "kamadan": 104572,
  "##ip": 17437,
  "笠": 6059,
  "Sandro": 69187,
  "Chiến": 34422,
  "dada": 42020,
  "Obgruafa": 105615,
  "Bahasa": 25650,
  "behov": 88427,
  "##ério": 47039,
  "myöhemmin": 24424,
  "##щені": 87866,
  "підтримки": 85263,
  "##bayern": 101889,
  "##raj": 45401,
  "Insects": 44118,
  "##போது": 77234,
  "mọi": 39439,
  "1794": 19690,
  "Bauer": 34118,
  "Phase": 36575,
  "##厩": 112486,
  "pohon": 75519,
  "##ektrum": 61882,
  "##abb": 39211,
  "starost": 79780,
  "Elmer": 59519,
  "##蝨": 116795,
  "033": 100402,
  "Wende": 102041,
  "Third": 16788,
  "Sabadell": 98302,
  "மீது": 77301,
  "gościnnie": 90026,
  "##闕": 117923,
  "1669": 43564,
  "hơn": 14789,
  "agence": 84156,
  "##vence": 84454,
  "##tting": 64516,
  "##amt": 24981,
  "##скае": 97282,
  "Methoden": 73700,
  "##ice": 11918,
  "##ender": 27323,
  "z": 194,
  "kemendagri": 54029,
  "##hung": 30095,
  "imáchens": 64697,
  "innings": 48974,
  "Senate": 22294,
  "Nelson": 15962,
  "katolske": 70255,
  "予": 2147,
  "Uniunii": 109357,
  "##rləri": 101418,
  "蔡": 6870,
  "##ক্ত": 54464,
  "kulturális": 86746,
  "classic": 36592,
  "ці": 24899,
  "Ⅳ": 1788,
  "árið": 22891,
  "Categoria": 105780,
  "najbolji": 65973,
  "##ভি": 80045,
  "row": 45006,
  "cricketer": 77192,
  "棹": 4643,
  "##ชาติ": 95809,
  "##ása": 17082,
  "##дардын": 51988,
  "##ियम": 44385,
  "Ճ": 643,
  "##াই": 40102,
  "葺": 6838,
  "de": 10104,
  "citizens": 29812,
  "Орусиянын": 56494,
  "exchange": 27714,
  "terrorism": 96969,
  "Estudió": 80404,
  "##ąż": 53992,
  "undertaken": 92311,
  "Meksiku": 14114,
  "सामने": 100197,
  "##ുള്ള": 72643,
  "kterého": 74263,
  "используются": 61988,
  "##sara": 90565,
  "##atik": 49122,
  "lica": 94642,
  "##쟈": 119203,
  "##নৈতিক": 72930,
  "##麴": 118554,
  "één": 19631,
  "etablert": 56227,
  "##ānas": 93431,
  "Ӏаткъам": 69793,
  "偉": 2360,
  "##gewerkt": 110701,
  "Salerno": 56655,
  "sociali": 65978,
  "##սեց": 109850,
  "sastra": 104298,
  "##岭": 113289,
  "篇": 6108,
  "Sexual": 67747,
  "Farnese": 104359,
  "তাঁকে": 79840,
  "Leonard": 20318,
  "inggih": 44679,
  "जडिबुटी": 67089,
  "Gelo": 87430,
  "recibió": 22515,
  "Holanda": 60528,
  "##аны": 23632,
  "##лана": 27755,
  "##mund": 45793,
  "##鄧": 117615,
  "벚": 9343,
  "پنج": 57559,
  "Athen": 47246,
  "XXI": 23715,
  "representada": 69327,
  "allra": 82408,
  "Messe": 73391,
  "隱": 8259,
  "Danzig": 56002,
  "Witold": 108768,
  "##داری": 29149,
  "##榮": 114458,
  "Burning": 49594,
  "consta": 39128,
  "meses": 17359,
  "##एँ": 59688,
  "##ngan": 15728,
  "##iä": 26251,
  "驅": 8538,
  "##晒": 114159,
  "Берлин": 49009,
  "pol": 16304,
  "吵": 2798,
  "fond": 28834,
  "##дку": 74797,
  "ব্রিটিশ": 80742,
  "##鲽": 118459,
  "##ől": 21197,
  "找": 4028,
  "ausgestellt": 105089,
  "##ratu": 50088,
  "cellule": 57982,
  "Oostenrijk": 68317,
  "##nam": 27019,
  "##께": 118683,
  "ہن": 29240,
  "boven": 30361,
  "ₑ": 1765,
  "##ндар": 109353,
  "##ਟਰੀ": 103360,
  "gigante": 52105,
  "Chatham": 84447,
  "Zeit": 11976,
  "##õi": 76024,
  "гвардейской": 104890,
  "distances": 73936,
  "texto": 27888,
  "sequences": 56549,
  "מאשר": 93536,
  "информацию": 99154,
  "##шить": 61260,
  "железнодорожной": 94953,
  "besuchte": 24280,
  "돋": 9090,
  "菁": 6785,
  "濒": 5218,
  "##file": 85649,
  "Jacob": 16493,
  "Investment": 63254,
  "Exército": 52526,
  "veigan": 64854,
  "オ": 1993,
  "被": 7098,
  "1667": 36824,
  "chẳng": 82202,
  "##蓟": 116627,
  "برنامه": 51912,
  "britiske": 29406,
  "glede": 58405,
  "sub": 13987,
  "Ferreira": 39227,
  "##ूप": 96083,
  "Jawa": 14008,
  "objecte": 94853,
  "venant": 77878,
  "##kauft": 106927,
  "##wizji": 85736,
  "##vond": 93902,
  "теория": 61792,
  "Armata": 58572,
  "naturalista": 84593,
  "edifici": 24442,
  "трёх": 26050,
  "și": 10396,
  "##舊": 116400,
  "趨": 7542,
  "Kolonia": 100984,
  "Когато": 84942,
  "##த்திற்கு": 57502,
  "oudere": 95636,
  "##۸۴": 61817,
  "Freiheit": 54760,
  "##хин": 60373,
  "##Ḫ": 111555,
  "##һендә": 88496,
  "##шка": 21081,
  "##ST": 32995,
  "Veröffentlichung": 50574,
  "pension": 70838,
  "balik": 106837,
  "鄭": 7850,
  "##ämpfen": 75058,
  "##viertel": 88417,
  "蔗": 6868,
  "##ңгеҙ": 105080,
  "এমন": 109477,
  "茲": 6736,
  "נבחר": 49809,
  "##lhas": 99831,
  "##крыта": 87535,
  "millioner": 36138,
  "##stig": 108259,
  "##ká": 15009,
  "Wiesbaden": 38746,
  "Franken": 65617,
  "Glottolog": 76645,
  "voters": 55450,
  "##llo": 13660,
  "劫": 2604,
  "internacionales": 38369,
  "##饑": 118250,
  "叠": 2743,
  "##ční": 16696,
  "osób": 17173,
  "جذب": 103035,
  "##♙": 111750,
  "ശേഷം": 57967,
  "##kel": 14510,
  "Коми": 35904,
  "determine": 37284,
  "réalise": 39813,
  "Роман": 36314,
  "Jugoslavia": 90169,
  "사": 9405,
  "dage": 76679,
  "Franz": 13752,
  "distans": 68323,
  "reservas": 105960,
  "##στής": 40297,
  "##atti": 51545,
  "##इगु": 103901,
  "##70": 48205,
  "蝋": 7020,
  "mégis": 92980,
  "##еч": 46044,
  "رجل": 60300,
  "##bue": 97438,
  "նկատմամբ": 76896,
  "##tetaan": 58923,
  "제": 9672,
  "##hora": 42149,
  "Նրա": 49066,
  "##mern": 74051,
  "##恒": 113601,
  "تر": 54237,
  "##dret": 87882,
  "##laget": 34132,
  "##ườn": 63993,
  "蔑": 6865,
  "Uri": 110086,
  "același": 46011,
  "האחרון": 50055,
  "отырып": 99350,
  "Eigentümer": 100909,
  "Randolph": 55078,
  "oli": 10626,
  "empêcher": 97540,
  "valuable": 69974,
  "comună": 21076,
  "covering": 41810,
  "##стър": 93373,
  "نۆفوس": 19796,
  "misterioso": 106906,
  "Jill": 46171,
  "bestanden": 63767,
  "##quist": 51388,
  "##患": 113633,
  "Coccidae": 76728,
  "Grenzen": 61324,
  "scènes": 54532,
  "##cc": 28044,
  "Île": 22832,
  "aged": 30262,
  "1358": 95270,
  "##veda": 74923,
  "娑": 3292,
  "sementara": 27011,
  "##RD": 84444,
  "趟": 7540,
  "##դեմիայի": 109683,
  "##χε": 44973,
  "road": 15485,
  "##üschen": 97511,
  "Darkness": 45613,
  "##ši": 14912,
  "Kiss": 22280,
  "idea": 14932,
  "##льном": 46149,
  "párt": 107701,
  "##革": 118102,
  "##quina": 62068,
  "##冨": 112254,
  "젊": 9667,
  "poet": 24633,
  "668": 44832,
  "2549": 66046,
  "##vial": 95570,
  "mogą": 36674,
  "dopiero": 48047,
  "##walk": 85004,
  "##shire": 19684,
  "Presbyterian": 72661,
  "##շակութային": 96942,
  "##usion": 41942,
  "Evropi": 73519,
  "##bela": 70767,
  "Ceci": 89451,
  "anvet": 58309,
  "##حصل": 54983,
  "##龐": 118600,
  "Στο": 33245,
  "##טן": 52948,
  "Beier": 73555,
  "вважається": 81750,
  "trùng": 44319,
  "韌": 8358,
  "garçon": 90381,
  "Nacions": 89462,
  "controlling": 101268,
  "##dową": 68723,
  "jild": 28755,
  "Raphael": 58514,
  "##áit": 83908,
  "Stowarzyszenia": 110679,
  "clarinet": 106131,
  "хийцадалар": 95507,
  "##jka": 42978,
  "редакциясын": 78245,
  "##йна": 33018,
  "##ಕೃತ": 90673,
  "措": 4165,
  "Springs": 25343,
  "##欽": 114545,
  "##olución": 83664,
  "evolución": 44043,
  "август": 18023,
  "премії": 64742,
  "genitori": 55847,
  "##ḩ": 111554,
  "##digung": 49392,
  "わり": 43147,
  "masses": 72271,
  "##nstein": 70726,
  "##likuwa": 73097,
  "##endi": 77089,
  "##фов": 96659,
  "عومر": 107524,
  "祓": 5908,
  "cadre": 20537,
  "##鲁": 118443,
  "assume": 46197,
  "arribada": 84952,
  "Bologna": 22615,
  "##魁": 118380,
  "788": 70314,
  "##rania": 90205,
  "##bourne": 75105,
  "зависимости": 54177,
  "Центральной": 81511,
  "Dillon": 60018,
  "##跖": 117317,
  "town": 12221,
  "Bala": 101370,
  "##elige": 50897,
  "Heroes": 30516,
  "##úbliques": 86932,
  "लोग": 51348,
  "##выя": 94342,
  "egon": 70784,
  "powered": 42668,
  "舶": 6654,
  "##kovic": 80743,
  "паводле": 79852,
  "۲۴": 54803,
  "mainly": 20827,
  "ხშირად": 86915,
  "##NA": 36742,
  "nghi": 66094,
  "##خان": 72207,
  "##ुसार": 91755,
  "Brooklyn": 22374,
  "桁": 4584,
  "іноді": 71059,
  "Monika": 68517,
  "顷": 8416,
  "Sinai": 81676,
  "тој": 20746,
  "Thornton": 61806,
  "delavrinningsområde": 58612,
  "žemės": 48982,
  "##ление": 20539,
  "##bye": 87421,
  "义": 2119,
  "##icos": 18984,
  "##рию": 86358,
  "relatie": 79347,
  "Werkstatt": 109871,
  "##けて": 69652,
  "##н": 10267,
  "##撹": 114007,
  "abans": 22612,
  "సిబ్బంది": 52483,
  "##箪": 115865,
  "anual": 27118,
  "##ィ": 67316,
  "Muslimani": 110444,
  "disputó": 63052,
  "কোনো": 77001,
  "penggunaan": 56268,
  "943": 79502,
  "enciklopedijų": 39098,
  "##絃": 115974,
  "##держания": 89665,
  "temploma": 108753,
  "tratamento": 59416,
  "силу": 34145,
  "یاشاییش": 20408,
  "critiques": 45502,
  "멤": 9276,
  "콰": 9820,
  "Tiefe": 96181,
  "هنگام": 56039,
  "##bər": 80709,
  "abside": 85102,
  "Святого": 31394,
  "ž": 372,
  "érkezett": 93553,
  "##lass": 48214,
  "territoris": 88248,
  "ਈ": 1010,
  "##ọng": 80343,
  "遂": 7752,
  "polo": 15069,
  "##펌": 119389,
  "##ycji": 69596,
  "瞧": 5801,
  "Orlando": 25978,
  "lépett": 58834,
  "##ար": 19722,
  "Sürfat": 16537,
  "Гай": 81566,
  "தேசிய": 34291,
  "からの": 20019,
  "##퀸": 119323,
  "##吻": 112568,
  "##jonas": 103467,
  "organisiert": 75834,
  "邹": 7814,
  "##uì": 57815,
  "##爰": 115148,
  "situado": 23469,
  "турніру": 75747,
  "Телефон": 105542,
  "蘋": 6936,
  "placement": 99110,
  "##аць": 51466,
  "jurist": 65327,
  "##føres": 92283,
  "øst": 32988,
  "Premiu": 72176,
  "##穏": 115761,
  "리": 9238,
  "αφού": 56086,
  "莎": 6768,
  "##ہاں": 77506,
  "možno": 58087,
  "##ards": 47133,
  "ણ": 1096,
  "##黻": 118579,
  "Freud": 39632,
  "Consultáu": 13938,
  "Григорьевич": 97792,
  "vem": 59000,
  "professors": 103000,
  "buy": 47715,
  "שאר": 100893,
  "سمت": 42834,
  "满": 5142,
  "##杲": 114273,
  "Steam": 55531,
  "##skim": 16253,
  "##ואר": 105472,
  "##presso": 77202,
  "Originaltitel": 106316,
  "Reform": 42204,
  "Himmel": 61281,
  "Regierungsbezirk": 51992,
  "lleis": 87128,
  "绛": 6344,
  "nganjrek": 36043,
  "##မှ": 35108,
  "##ken": 11062,
  "Kids": 28151,
  "##₹": 111661,
  "fjorden": 79329,
  "##алған": 48154,
  "класу": 47219,
  "Kantoni": 84169,
  "partial": 39474,
  "Quang": 48314,
  "oficer": 88835,
  "controlar": 49647,
  "tym": 12644,
  "##ked": 30511,
  "területen": 92567,
  "französisch": 84592,
  "##覧": 116915,
  "ottenne": 43771,
  "##䲁": 111837,
  "蛋": 6980,
  "##бран": 41558,
  "##舰": 116417,
  "##üüd": 85167,
  "Note": 20231,
  "##žnice": 84000,
  "Fernsehserie": 22339,
  "Kristina": 61902,
  "giorno": 20776,
  "##注": 114715,
  "일반적으로": 79055,
  "κατάφερε": 100147,
  "kai": 27803,
  "збірної": 34076,
  "##식으로": 72687,
  "##ימת": 69007,
  "Hesse": 39904,
  "##రావు": 56786,
  "##zzo": 26417,
  "хозяйств": 68505,
  "##jącą": 52623,
  "Александрович": 39406,
  "Observatory": 41495,
  "temporarily": 69175,
  "##べく": 85697,
  "группы": 16630,
  "1279": 78893,
  "##술": 51945,
  "鐮": 8023,
  "プロデューサー": 48633,
  "считается": 44645,
  "##ルー": 95694,
  "##กาลที่": 109790,
  "гуьйре": 29365,
  "subito": 28497,
  "Soldiers": 83237,
  "##держать": 107031,
  "##لامت": 86832,
  "Hardcore": 72832,
  "πρωτεύουσα": 100057,
  "pessoa": 49504,
  "##nischer": 56636,
  "gora": 103844,
  "گرفته": 32097,
  "##ksa": 42430,
  "##бед": 107813,
  "britannica": 45630,
  "Krieger": 95028,
  "työskenteli": 63235,
  "1021": 30538,
  "3": 124,
  "sito": 33587,
  "ознаката": 83463,
  "Roller": 107587,
  "##সা": 60398,
  "FOX": 77434,
  "##logie": 17060,
  "##澪": 114975,
  "##ראן": 88090,
  "Общая": 77651,
  "舜": 6645,
  "Elateridae": 44300,
  "fahren": 94695,
  "##puesta": 73881,
  "##騨": 118299,
  "matin": 64230,
  "causing": 34705,
  "виды": 67367,
  "گ": 825,
  "##łą": 52311,
  "風": 8445,
  "entrar": 26316,
  "artis": 73509,
  "##ákat": 64583,
  "##raren": 82415,
  "689": 72583,
  "ਬਾਰੇ": 97899,
  "utility": 85410,
  "Hurricane": 44871,
  "##τικούς": 66785,
  "##켓": 119304,
  "johtaa": 110692,
  "الأبيض": 86590,
  "varrella": 110457,
  "brosiectau": 39557,
  "arrivare": 83023,
  "##ničke": 70319,
  "##место": 109471,
  "522": 47305,
  "##tismo": 100033,
  "Debbie": 78808,
  "həyata": 69654,
  "##frir": 104410,
  "Академії": 93981,
  "ایسے": 71386,
  "pochowany": 87045,
  "##bai": 47727,
  "природи": 72259,
  "famosos": 60404,
  "bloaz": 106272,
  "Liber": 50679,
  "น": 1417,
  "Altri": 54523,
  "голямата": 82695,
  "сыном": 79845,
  "Washington": 11586,
  "##нця": 84672,
  "따라서": 52579,
  "##ریکی": 99091,
  "इस्तेमाल": 79614,
  "𩽾": 10102,
  "campagne": 24281,
  "##хав": 60752,
  "翊": 6437,
  "Revolução": 99069,
  "##nata": 25692,
  "##ಗಿ": 40629,
  "늄": 9040,
  "phút": 69180,
  "Sorgiss": 110827,
  "рамках": 26062,
  "syd": 50228,
  "＃": 10057,
  "##ათვის": 96465,
  "Februarii": 105341,
  "##اتي": 104061,
  "ihrer": 13502,
  "destra": 37745,
  "##िनी": 70764,
  "kohti": 77565,
  "أبناء": 97621,
  "סיימה": 83709,
  "##ind": 32524,
  "##링": 80174,
  "articoli": 98647,
  "utgör": 55010,
  "machte": 24607,
  "1623": 41331,
  "##本": 114242,
  "apparaît": 32889,
  "həmin": 45410,
  "Ecuador": 20475,
  "oficjalnie": 94512,
  "figlia": 25567,
  "freie": 79413,
  "##赂": 117271,
  "獲": 5468,
  "蜒": 7003,
  "##zey": 68060,
  "koning": 26416,
  "Կեդրոն": 99563,
  "##tata": 29464,
  "佢": 2263,
  "suburb": 54824,
  "##encia": 24549,
  "##кей": 99832,
  "governing": 75463,
  "krige": 65555,
  "##вестни": 98425,
  "sorgte": 98698,
  "##kova": 61653,
  "cavalleria": 86118,
  "upang": 45877,
  "Data": 12159,
  "addressed": 71121,
  "Novecento": 94733,
  "##tow": 103944,
  "Harald": 25475,
  "tournée": 32420,
  "poolt": 38992,
  "थासय्": 15287,
  "##raße": 96791,
  "##hindi": 102482,
  "刃": 2533,
  "##мий": 93412,
  "ایشان": 102452,
  "classe": 15702,
  "##zio": 15963,
  "聯": 6486,
  "PSP": 62578,
  "Wilton": 107979,
  "pública": 21349,
  "допомогу": 108665,
  "בעולם": 33896,
  "##пление": 95894,
  "##ਾਸ": 45951,
  "##ഭ": 111398,
  "although": 14779,
  "##ोटी": 66426,
  "modernes": 53676,
  "wygrał": 62018,
  "wide": 18064,
  "##ниц": 103100,
  "vuosina": 20601,
  "##czki": 54684,
  "rata": 17672,
  "钱": 8060,
  "##stva": 18052,
  "##रा": 31277,
  "mapi": 61398,
  "##EP": 59742,
  "llawer": 72772,
  "Pulo": 65715,
  "##så": 56562,
  "sailed": 58398,
  "Strings": 99094,
  "Woman": 17630,
  "##현": 30842,
  "##உ": 111297,
  "##éru": 78218,
  "kaominin": 33564,
  "Mémoires": 64377,
  "宪": 3401,
  "##aban": 47441,
  "##يدية": 103249,
  "निर्माण": 32507,
  "##եական": 62015,
  "آیا": 67385,
  "##杭": 114269,
  "##та": 10367,
  "producen": 71234,
  "belakang": 51045,
  "ใน": 46301,
  "књига": 104204,
  "##锋": 117861,
  "अलावा": 61212,
  "##З": 31315,
  "থাকে": 30437,
  "##팬": 119385,
  "دارند": 27052,
  "樞": 4721,
  "মাইলে": 61838,
  "##ς": 10484,
  "##သည်": 15461,
  "Örneğin": 97557,
  "Curry": 84474,
  "##เมื่อวันที่": 106237,
  "##родних": 102985,
  "拉": 4060,
  "##拱": 113856,
  "##ーク": 31564,
  "الجمهورية": 49245,
  "הגמר": 65546,
  "##υμο": 109329,
  "regi": 55483,
  "##ié": 43668,
  "吶": 2799,
  "بعدها": 43935,
  "掀": 4145,
  "avrebbero": 62510,
  "fazer": 26561,
  "##淖": 114806,
  "chỉnh": 79211,
  "Johanna": 29651,
  "ekonomi": 34727,
  "##酋": 117624,
  "جی": 21513,
  "##ั้ม": 99636,
  "escriure": 46431,
  "Afrika": 13171,
  "##챌": 119256,
  "Cristal": 91410,
  "الفن": 107775,
  "##lő": 30937,
  "匣": 2655,
  "##யத்தில்": 96286,
  "vorwiegend": 56387,
  "nykyään": 83781,
  "einnig": 46237,
  "##μική": 42630,
  "måte": 74521,
  "meg": 12121,
  "Landgericht": 109339,
  "##蠡": 116826,
  "Mayor": 19719,
  "vivis": 34399,
  "##eder": 29564,
  "##Ⅰ": 111669,
  "sondern": 16514,
  "teritorinio": 61559,
  "Polk": 80164,
  "##حة": 18364,
  "##suse": 109692,
  "##actie": 104003,
  "##γή": 30358,
  "##죠": 119217,
  "około": 20446,
  "hiểu": 75067,
  "##ρούς": 102416,
  "##jir": 81657,
  "##rvi": 67646,
  "Hauses": 61638,
  "##муна": 90714,
  "známy": 93717,
  "universitet": 35430,
  "жерде": 46070,
  "ゾ": 2013,
  "##nche": 49457,
  "##kret": 46152,
  "sexto": 62040,
  "аголот": 73924,
  "кількості": 66571,
  "Disyembre": 32098,
  "##нк": 52297,
  "সেপ্টেম্বর": 44394,
  "దూరం": 42552,
  "allies": 67675,
  "##ική": 19499,
  "##vier": 31641,
  "Ф": 529,
  "##蜒": 116769,
  "piosenki": 81605,
  "각": 8844,
  "##baki": 79485,
  "swego": 79179,
  "мати": 52262,
  "Kommission": 50894,
  "Comenzó": 103346,
  "sad": 81708,
  "##ensivo": 105439,
  "##قراطية": 87512,
  "Fuel": 103599,
  "professori": 76270,
  "lopen": 85640,
  "rajone": 66862,
  "##στρο": 94564,
  "fowk": 95168,
  "##態": 113686,
  "Svensson": 92501,
  "##يع": 29336,
  "##pravní": 102268,
  "працаваў": 110833,
  "fortsatte": 32723,
  "##tego": 39931,
  "##실을": 83380,
  "잦": 9658,
  "Neo": 43106,
  "##밑": 118962,
  "Leningrad": 41916,
  "##Ѕ": 111060,
  "chính": 12707,
  "тело": 50235,
  "começa": 63698,
  "device": 33091,
  "Wydziale": 65028,
  "##鱲": 118437,
  "սեպտեմբերի": 50652,
  "妄": 3243,
  "Тоді": 79587,
  "僵": 2405,
  "##zijski": 106142,
  "чаклы": 64029,
  "soad": 94663,
  "##kmäler": 94829,
  "toisen": 43641,
  "##ருக்கு": 96530,
  "Nuoroda": 51448,
  "##reiten": 99032,
  "##ведение": 47154,
  "##霸": 118083,
  "##ेंट": 92145,
  "砸": 5842,
  "殇": 4811,
  "##废": 113434,
  "##bc": 71492,
  "islands": 33294,
  "##え": 36685,
  "似": 2240,
  "##ಷ್": 48842,
  "correspond": 42996,
  "developers": 87346,
  "török": 47490,
  "##asan": 32322,
  "рату": 92140,
  "##ёных": 87225,
  "OBE": 88614,
  "เพลง": 55672,
  "fan": 10862,
  "1550": 32907,
  "בארץ": 37318,
  "булған": 35827,
  "नगर": 52851,
  "شرکت": 19451,
  "døydde": 77135,
  "zugeordnet": 55561,
  "Biztanleriak": 33239,
  "متعددة": 99823,
  "##烟": 115064,
  "##٬": 111183,
  "zhruba": 66659,
  "Aga": 103721,
  "Based": 39264,
  "##挫": 113882,
  "撃": 4224,
  "miljoonaa": 49503,
  "Alexandru": 43816,
  "Resolution": 58238,
  "##рода": 45614,
  "popisu": 17459,
  "##ού": 30603,
  "Terra": 16574,
  "訖": 7175,
  "##stisch": 68288,
  "állandó": 86859,
  "dismissed": 59379,
  "にかけて": 40415,
  "##tene": 52423,
  "##िकी": 74163,
  "hills": 46484,
  "##schlag": 51429,
  "鵡": 8728,
  "518": 40317,
  "மக்களவைத்": 55364,
  "općina": 46212,
  "242": 27297,
  "azt": 20494,
  "##痺": 115451,
  "oluşur": 108070,
  "那": 7802,
  "##cował": 107964,
  "리그": 43723,
  "톨": 9876,
  "##сных": 68681,
  "starben": 110693,
  "속": 9449,
  "ว": 1430,
  "##霽": 118085,
  "##zcza": 95100,
  "##тром": 96087,
  "Fisheries": 43660,
  "##瀬": 115013,
  "левом": 83651,
  "অন্য": 92839,
  "##いた": 22006,
  "##ае": 33191,
  "podobne": 75005,
  "##bă": 59904,
  "ظهور": 71575,
  "Istana": 94010,
  "##jący": 20948,
  "μm": 89559,
  "##ت": 10502,
  "grados": 90897,
  "création": 20358,
  "broad": 41848,
  "##nsis": 24701,
  "problemes": 45835,
  "Einwohnerzahl": 69842,
  "noise": 58638,
  "##癖": 115469,
  "灾": 5266,
  "##৭": 19628,
  "##త్": 49184,
  "títulu": 68044,
  "Mechanics": 83170,
  "뿐": 9400,
  "##cked": 72333,
  "definizione": 96628,
  "Popilasyon": 45933,
  "##менти": 83630,
  "العلمية": 68586,
  "хүртэл": 96435,
  "##ণ": 20513,
  "##ẫu": 97684,
  "کندین": 54339,
  "##läufer": 67494,
  "##莹": 116546,
  "الکتروشیمی": 82818,
  "aviat": 79777,
  "##chlecht": 98654,
  "dømes": 86483,
  "##viu": 79044,
  "문서에서": 40267,
  "##ьности": 83163,
  "demande": 24545,
  "பகுதியில்": 69768,
  "pöpinumam": 31992,
  "नई": 94522,
  "Gouden": 110608,
  "Ulysses": 87307,
  "бу": 18261,
  "Norsk": 27733,
  "descubrimiento": 104030,
  "Øst": 104758,
  "sociedade": 43041,
  "Ал": 26657,
  "몫": 9285,
  "##nham": 85812,
  "勢": 2630,
  "Estes": 40170,
  "##nictvím": 108772,
  "Congressional": 88985,
  "compétences": 96476,
  "szereg": 105084,
  "Pública": 48948,
  "Easy": 39878,
  "##gged": 91518,
  "selain": 70614,
  "yer": 15090,
  "ort": 25461,
  "##ologi": 32705,
  "erg": 54806,
  "##илософ": 105043,
  "颐": 8434,
  "##리를": 27852,
  "kurš": 69412,
  "Zgodnie": 107432,
  "Knut": 41307,
  "gathered": 69918,
  "##бин": 80117,
  "Петр": 92683,
  "##éki": 64078,
  "##μους": 83823,
  "aile": 53798,
  "buiten": 43751,
  "##هداف": 47652,
  "bestimmt": 45497,
  "가": 8843,
  "кубка": 81198,
  "Saul": 59543,
  "bọ": 18723,
  "##cent": 25907,
  "Kategori": 70182,
  "baie": 25448,
  "##tatt": 35962,
  "##cebido": 75412,
  "because": 12373,
  "肚": 6506,
  "##nții": 99246,
  "##ئل": 36419,
  "##odik": 80100,
  "žene": 61373,
  "Департамент": 80886,
  "luni": 99819,
  "##води": 45771,
  "domínio": 87555,
  "##邛": 117564,
  "עת": 60710,
  "guns": 31199,
  "##urio": 87614,
  "差": 3590,
  "اعضای": 59883,
  "约": 6308,
  "tomb": 78532,
  "##ærker": 92338,
  "hjelp": 58485,
  "τέσσερις": 104268,
  "V8": 39253,
  "daraufhin": 36595,
  "Monte": 14915,
  "ụ": 1685,
  "народов": 43629,
  "ఒకటి": 26858,
  "flere": 14547,
  "bekam": 40732,
  "##dja": 32032,
  "Když": 48956,
  "probability": 74544,
  "##овья": 98496,
  "хамгийн": 61458,
  "Arrow": 48567,
  "hudby": 73718,
  "##יב": 23449,
  "Winchester": 46637,
  "##נם": 45124,
  "Witwe": 88721,
  "##계를": 54163,
  "כחלק": 64536,
  "namun": 22736,
  "Lectures": 102734,
  "##冯": 112257,
  "곧": 8891,
  "أصبحت": 53652,
  "##繍": 116050,
  "तेलुगु": 57770,
  "ორიგინალიდან": 68555,
  "jelen": 107576,
  "barrskog": 42776,
  "بتاريخ": 14414,
  "##Ố": 111584,
  "središte": 97430,
  "##我": 113742,
  "##穂": 115756,
  "продюсер": 59589,
  "Organic": 39298,
  "vehículos": 59536,
  "təhsil": 52242,
  "uitgevoerd": 60835,
  "##ற்று": 39383,
  "Verder": 48934,
  "##nydd": 59592,
  "کون": 110665,
  "Februarie": 69837,
  "Makoto": 106515,
  "이름은": 78199,
  "孙": 3356,
  "Иоанна": 91151,
  "##nition": 78362,
  "Button": 63753,
  "##據": 114023,
  "jẹ́": 22299,
  "neemt": 69451,
  "वर्तमान": 62761,
  "romerske": 59810,
  "拦": 4083,
  "riportato": 99480,
  "conseguiu": 36781,
  "politiske": 40454,
  "##vang": 43924,
  "Alter": 21969,
  "experience": 20627,
  "thrown": 88590,
  "##зми": 92720,
  "1987": 10581,
  "Atlántico": 66174,
  "Norma": 51247,
  "##лася": 24086,
  "##chos": 37709,
  "Norton": 25924,
  "împotriva": 44160,
  "##崁": 113310,
  "##ों": 11497,
  "布": 3601,
  "##ωνία": 77549,
  "minne": 85687,
  "Ambrose": 71167,
  "великі": 72175,
  "Directeur": 83022,
  "Hepburn": 55615,
  "##ның": 12204,
  "διάρκεια": 29742,
  "vinteren": 92903,
  "##tante": 59093,
  "巴": 3594,
  "każdej": 103831,
  "Система": 77866,
  "##पूर्ण": 49497,
  "Jar": 91531,
  "##ísař": 108778,
  "##ллин": 98185,
  "DL": 27956,
  "Moskova": 108965,
  "pecahan": 57962,
  "Academy": 12578,
  "предприятия": 58884,
  "vermeld": 45656,
  "塩": 3131,
  "Ayiti": 21032,
  "##gjorde": 49703,
  "せず": 51922,
  "Links": 88479,
  "##辰": 117445,
  "΄": 428,
  "betrug": 35495,
  "##யில்": 14049,
  "तो": 21042,
  "писатель": 43124,
  "возможно": 44504,
  "সাল": 64343,
  "skoro": 71891,
  "##uzeo": 86962,
  "Walker": 15432,
  "матери": 63588,
  "kala": 84844,
  "noms": 29903,
  "index": 19776,
  "році": 11475,
  "##taché": 96154,
  "Lorraine": 27075,
  "Cuba": 17226,
  "Скопје": 32933,
  "しい": 18280,
  "##兜": 112210,
  "##傾": 112157,
  "##ਖਿਆ": 78491,
  "##ター": 19054,
  "sans": 13115,
  "Für": 14619,
  "##су": 16417,
  "изучения": 81610,
  "##чиком": 90347,
  "Arad": 71193,
  "##사카": 102890,
  "adalah": 10784,
  "există": 50303,
  "Bundesrepublik": 44216,
  "למשל": 39908,
  "graduation": 63108,
  "##جري": 54711,
  "##φών": 85595,
  "corrent": 80544,
  "tih": 50829,
  "##unga": 89957,
  "Baviera": 33665,
  "濮": 5227,
  "睾": 5792,
  "من": 10289,
  "خود": 13001,
  "Was": 22034,
  "Paramount": 40322,
  "##стю": 28449,
  "imatges": 89391,
  "##mal": 16120,
  "##øster": 89470,
  "えられている": 45387,
  "سوُلاری": 42862,
  "肇": 6500,
  "քաղաքում": 65413,
  "캐": 9792,
  "##aste": 25096,
  "##inate": 78321,
  "Janeiro": 14822,
  "Superliga": 82096,
  "##aic": 80621,
  "Spuren": 88012,
  "##‚": 111617,
  "מאז": 34114,
  "##寿": 113213,
  "##mant": 38837,
  "瞭": 5805,
  "##멈": 118924,
  "uvijek": 49100,
  "Reina": 38657,
  "собі": 61605,
  "però": 12104,
  "##ழ": 106812,
  "posteriores": 38915,
  "ständig": 105250,
  "jednom": 31929,
  "boundary": 42584,
  "խոշոր": 98682,
  "##zet": 17931,
  "ذوي": 82873,
  "##годи": 59168,
  "##iono": 39176,
  "##擋": 114017,
  "##엄": 96090,
  "Diseases": 105919,
  "##ാസ്": 84734,
  "##chnen": 66776,
  "##עמוד": 104324,
  "sauf": 54832,
  "taon": 72997,
  "Sapporo": 77463,
  "骥": 8581,
  "宕": 3384,
  "項": 8375,
  "##prowadzono": 69468,
  "1128": 98313,
  "εν": 58317,
  "менше": 67508,
  "##сё": 87795,
  "Universe": 27558,
  "##των": 39763,
  "##oittanut": 88744,
  "ધ": 1100,
  "причём": 69070,
  "384": 32466,
  "ճ": 686,
  "sida": 49954,
  "##ינג": 80271,
  "Dorfes": 69791,
  "##騎": 118295,
  "Treasure": 66238,
  "епископ": 34370,
  "esquerda": 62973,
  "genome": 99273,
  "##čno": 14850,
  "Studi": 46273,
  "կատարում": 61970,
  "##zzò": 76094,
  "distinct": 35428,
  "femmes": 21560,
  "##榨": 114456,
  "##užbe": 67831,
  "जिसका": 67233,
  "USD": 24868,
  "млрд": 36522,
  "##拏": 113830,
  "барон": 98056,
  "zwar": 24635,
  "evento": 20720,
  "##tjar": 99651,
  "mythology": 101505,
  "salah": 14089,
  "працював": 30330,
  "誘": 7219,
  "құйылысына": 63263,
  "##mét": 93492,
  "##ьную": 44178,
  "##onika": 62858,
  "##ництва": 78701,
  "tip": 25119,
  "##खे": 83911,
  "##chse": 74445,
  "մարմինների": 79404,
  "Ski": 51874,
  "Tim": 15318,
  "##leri": 12538,
  "##tiv": 31559,
  "växer": 12927,
  "##rná": 96965,
  "##从": 111956,
  "Kawasaki": 74270,
  "ྒ": 1489,
  "минималната": 95969,
  "oncle": 56456,
  "##ラル": 91022,
  "renamed": 23401,
  "##栗": 114336,
  "valstybės": 62681,
  "##歷": 114568,
  "##herent": 89329,
  "鷺": 8742,
  "inclou": 73146,
  "Brussels": 41239,
  "voulait": 109443,
  "##دوات": 99377,
  "##σό": 75144,
  "##او": 94119,
  "જેવી": 32065,
  "##果": 114288,
  "tez": 63193,
  "library": 23187,
  "##логи": 80414,
  "Bundes": 88342,
  "##mò": 49713,
  "纬": 6311,
  "##ցած": 35859,
  "蔚": 6869,
  "reliable": 103581,
  "Itali": 45050,
  "maison": 19073,
  "##pr": 52302,
  "comunica": 93268,
  "층": 9778,
  "عبد": 14610,
  "રોજ": 105398,
  "##bauten": 63531,
  "##בעה": 69098,
  "Konstantin": 35225,
  "##vnica": 109726,
  "##סת": 48311,
  "შემადგენლობაში": 77788,
  "розвитку": 31511,
  "marido": 40407,
  "##పాటు": 86374,
  "consequence": 86956,
  "zat": 61569,
  "rood": 104262,
  "altura": 19886,
  "platino": 108156,
  "Borough": 38126,
  "988": 70946,
  "تجاری": 96801,
  "##gerichtet": 66907,
  "mexicana": 40881,
  "Архив": 27454,
  "▭": 1850,
  "Fahrzeuge": 46023,
  "##міст": 92121,
  "##eisen": 99620,
  "##čki": 18578,
  "##ふ": 111800,
  "Dunn": 49498,
  "нових": 46552,
  "##rrega": 91918,
  "hierarchy": 100101,
  "Build": 108452,
  "##邮": 117573,
  "##mä": 44193,
  "ХХ": 59007,
  "鹸": 8774,
  "Ausnahme": 62687,
  "doarp": 100624,
  "##pente": 103115,
  "ظهرت": 85643,
  "##дө": 50349,
  "##ované": 48913,
  "##唄": 112642,
  "Vintage": 101805,
  "##enä": 84483,
  "##ūsdienās": 108998,
  "програм": 68282,
  "##јвећи": 80907,
  "##aty": 55241,
  "KV": 65118,
  "formación": 23501,
  "##üs": 54577,
  "gadsimta": 78629,
  "ಗ್ರಾಮದಲ್ಲಿ": 82180,
  "дав": 95555,
  "dní": 69213,
  "##σου": 58284,
  "академия": 57506,
  "поля": 41235,
  "orașul": 47611,
  "қаласында": 100245,
  "##xton": 98007,
  "miała": 28807,
  "##读": 117126,
  "喵": 2931,
  "legata": 87148,
  "ішкі": 107430,
  "况": 2496,
  "janeiro": 22437,
  "##צרת": 84123,
  "祠": 5917,
  "Николая": 49794,
  "##hain": 39955,
  "projecte": 52452,
  "##lén": 66755,
  "편곡": 109255,
  "així": 21730,
  "##戊": 113736,
  "identify": 51361,
  "Estado": 14359,
  "französischer": 45392,
  "муниципальным": 31967,
  "##ló": 22624,
  "Mires": 42764,
  "soviéticos": 103813,
  "seigneurie": 80688,
  "2014an": 79328,
  "탓": 9851,
  "ende": 47842,
  "##ndering": 77295,
  "каталога": 31791,
  "##ვრები": 109446,
  "##لار": 36164,
  "##餵": 118244,
  "ね": 1945,
  "##炼": 115054,
  "##darmerie": 103094,
  "##警": 117048,
  "##ಾಲಯ": 85768,
  "956": 71019,
  "bil": 13897,
  "Luzern": 84824,
  "masa": 14947,
  "##skryf": 71515,
  "##łek": 80249,
  "万": 2075,
  "oca": 78276,
  "旁": 4338,
  "мәғлүмәте": 27146,
  "흰": 10024,
  "##sivät": 97509,
  "##ògica": 84126,
  "younger": 27461,
  "##rity": 79832,
  "##անի": 27629,
  "lednu": 84611,
  "자신이": 79370,
  "##စု": 80806,
  "Sağlık": 42285,
  "העברית": 53136,
  "##抢": 113811,
  "##ोली": 54317,
  "##传": 111996,
  "sĩ": 18228,
  "Потім": 77275,
  "estació": 87297,
  "Napoleon": 21464,
  "Siege": 42054,
  "Hartford": 58674,
  "Σύμφωνα": 53840,
  "##웅": 119171,
  "##load": 64312,
  "##ьным": 30982,
  "##chromis": 91219,
  "norske": 18470,
  "##薄": 116661,
  "##чины": 88473,
  "fer": 13658,
  "##сию": 76726,
  "Teenage": 74274,
  "Rückkehr": 46958,
  "##யா": 46568,
  "##لقد": 107977,
  "britisk": 50948,
  "Đan": 99418,
  "棕": 4630,
  "##ktionen": 99507,
  "dala": 61038,
  "Cheyenne": 94499,
  "bersama": 18560,
  "楣": 4668,
  "hosting": 81132,
  "壬": 3170,
  "størrelse": 102461,
  "Оценка": 63470,
  "##떨": 118836,
  "Roku": 24522,
  "personaxe": 79482,
  "##邹": 117580,
  "кездеседі": 86767,
  "##Է": 111112,
  "tục": 26454,
  "poleg": 88238,
  "##ી": 14576,
  "toimus": 84582,
  "Diwedd": 41721,
  "Enrique": 14442,
  "らない": 74130,
  "संख्या": 50144,
  "##攫": 114043,
  "##サッカー": 85921,
  "喔": 2917,
  "##蒲": 116614,
  "attivo": 57855,
  "3DS": 85074,
  "arbennig": 71571,
  "Два": 47520,
  "Ruotsissa": 97811,
  "fasi": 90046,
  "##jado": 63850,
  "filhos": 37793,
  "##պի": 68284,
  "המועצות": 53817,
  "başlayır": 102565,
  "##νωση": 85757,
  "затем": 16907,
  "Seat": 102777,
  "egter": 52279,
  "basert": 46131,
  "ア": 1985,
  "##slar": 91981,
  "उनकी": 38159,
  "##दार": 55904,
  "##లయం": 63616,
  "##hil": 53543,
  "1920": 11029,
  "днів": 59939,
  "trasferisce": 78185,
  "informations": 46033,
  "##észeti": 57561,
  "累": 6202,
  "##kna": 46364,
  "druhou": 87936,
  "##ინის": 108503,
  "кои": 16452,
  "##jalna": 101942,
  "##შე": 105759,
  "referir": 86356,
  "demi": 18844,
  "dimensiones": 84099,
  "##럽": 118867,
  "呤": 2821,
  "franc": 63184,
  "##графия": 31798,
  "ball": 20724,
  "娱": 3302,
  "낙": 8983,
  "1976": 10705,
  "bažnyčia": 77697,
  "Ingles": 55142,
  "administracji": 104753,
  "##ঈ": 111222,
  "##麓": 118547,
  "berbahasa": 101188,
  "stammte": 71040,
  "текста": 77572,
  "provinsiyasi": 49335,
  "##cule": 40185,
  "ein": 10290,
  "espoir": 93482,
  "natao": 31175,
  "damals": 21308,
  "##టు": 27977,
  "ind": 30386,
  "הצרפתית": 100518,
  "百": 5716,
  "Suomen": 15759,
  "Patton": 63228,
  "##eak": 43213,
  "##warkan": 85087,
  "chinoise": 90308,
  "Ivoire": 87721,
  "surgery": 44811,
  "oktober": 11808,
  "##jame": 79812,
  "##vidas": 85292,
  "##्रेस": 37463,
  "ректасцензија": 48714,
  "tím": 31200,
  "vaid": 40009,
  "sudeste": 66752,
  "##hauses": 55931,
  "presented": 20027,
  "थनया": 56300,
  "##ония": 88045,
  "Movimento": 79892,
  "##rättades": 96882,
  "pak": 17284,
  "##si": 10449,
  "Helsinki": 18179,
  "Moment": 47027,
  "своему": 58536,
  "βάση": 55334,
  "##ru": 11680,
  "##攬": 114044,
  "##丟": 111861,
  "línguas": 89481,
  "ilikuwa": 56323,
  "Hauts": 31787,
  "##zczony": 78744,
  "అండ్": 29980,
  "jén": 89110,
  "##證": 117042,
  "donat": 73639,
  "##blja": 94572,
  "##刮": 112320,
  "##grad": 34486,
  "##vić": 18692,
  "槙": 4705,
  "повинні": 86918,
  "骂": 8567,
  "##েড": 110759,
  "Magic": 19766,
  "##vings": 97097,
  "Piazza": 39214,
  "##ಂಡು": 101715,
  "kar": 25085,
  "növü": 50921,
  "bello": 99095,
  "feminino": 59231,
  "##nim": 13550,
  "##捷": 113908,
  "nenhum": 68703,
  "の4": 58110,
  "Zone": 18983,
  "##kdən": 108334,
  "député": 35258,
  "掖": 4152,
  "##遐": 117526,
  "päivänä": 83710,
  "##нське": 109713,
  "reptiles": 87725,
  "##予": 111913,
  "##lement": 37587,
  "Kommandeur": 78570,
  "Canterbury": 36058,
  "ritirato": 87155,
  "##搖": 113965,
  "617": 56159,
  "Vecchio": 91358,
  "匆": 2644,
  "élus": 60192,
  "температурасы": 90544,
  "##хисник": 100648,
  "him": 10957,
  "tipicamente": 94691,
  "Primer": 29854,
  "Д": 513,
  "dia": 10671,
  "1367": 99803,
  "algo": 23492,
  "伏": 2220,
  "gemeinsamen": 58090,
  "##ssion": 39897,
  "khoảng": 18706,
  "##σμένη": 64632,
  "##як": 60749,
  "koriste": 46820,
  "##எ": 111299,
  "المعهد": 97774,
  "minggu": 74646,
  "鹊": 8764,
  "Funde": 84570,
  "##수": 15891,
  "Böyük": 53222,
  "##olja": 74882,
  "##bildung": 29344,
  "Erlangen": 73675,
  "имела": 64692,
  "##၅": 32433,
  "##とする": 55013,
  "款": 4780,
  "WSOY": 76104,
  "Référence": 54939,
  "Carlo": 14437,
  "amelyet": 38528,
  "۲۰۱۱": 60371,
  "witness": 82871,
  "gmin": 38085,
  "Bibliotheca": 109338,
  "chat": 69338,
  "##tial": 72416,
  "coal": 39145,
  "##িউ": 99475,
  "ղ": 685,
  "importanza": 49424,
  "pubblicato": 18222,
  "倚": 2340,
  "##筋": 115836,
  "##馳": 118280,
  "járt": 84339,
  "Regular": 82242,
  "425": 33437,
  "##vino": 43830,
  "formerly": 22239,
  "힙": 10029,
  "##ll": 11231,
  "儀": 2408,
  "##ności": 18811,
  "##istischen": 34267,
  "Piccolo": 95889,
  "Dessau": 86665,
  "էստոներեն": 100481,
  "próprio": 34642,
  "阀": 8180,
  "##reden": 72485,
  "делам": 80067,
  "##rko": 71514,
  "muro": 55510,
  "червня": 23712,
  "Sił": 108256,
  "##iło": 107923,
  "쓸": 9513,
  "##IR": 73522,
  "1300": 20968,
  "##nfo": 96176,
  "쏜": 9508,
  "башха": 30726,
  "##리고": 62211,
  "سنوات": 37507,
  "komot": 25663,
  "لبنان": 45920,
  "1561": 49798,
  "Sobre": 35888,
  "##dza": 29958,
  "##barn": 87279,
  "Franciscus": 92591,
  "##ッチ": 54003,
  "016": 78312,
  "Общероссийский": 86056,
  "exécution": 75219,
  "allemandes": 91541,
  "podem": 21584,
  "##war": 29445,
  "##ბრივი": 49656,
  "hiçbir": 86649,
  "722": 63956,
  "##mittel": 64138,
  "знаходиться": 32715,
  "##يوم": 68995,
  "##昱": 114147,
  "гварди": 96741,
  "##ferito": 85798,
  "firms": 84459,
  "##堤": 112877,
  "##년": 10954,
  "##染": 114305,
  "tehát": 69282,
  "features": 15374,
  "цуьнан": 35292,
  "оказалась": 100667,
  "denominado": 40260,
  "##fère": 69773,
  "noire": 47342,
  "Toppen": 13887,
  "##粪": 115921,
  "cannot": 25259,
  "##鹫": 118536,
  "клуба": 22871,
  "lance": 38185,
  "ástẹ́rọ́ìdì": 25560,
  "##relle": 79638,
  "erthygl": 58759,
  "1066": 61740,
  "pouco": 24250,
  "##暂": 114181,
  "XX": 12067,
  "##fall": 16220,
  "##janja": 77189,
  "capita": 18459,
  "##₄": 63431,
  "网": 6397,
  "Pío": 110155,
  "Math": 51322,
  "speel": 100362,
  "ritmo": 50261,
  "##稲": 115748,
  "작사": 78188,
  "Tòa": 91400,
  "britischen": 29598,
  "進": 7745,
  "##潇": 114945,
  "thème": 49682,
  "хуьлу": 12386,
  "Gora": 37973,
  "ની": 80167,
  "interdit": 76833,
  "tháng": 11642,
  "##vci": 50423,
  "sonucu": 58649,
  "Sandoval": 104023,
  "алган": 42233,
  "tamanho": 71691,
  "تا": 13044,
  "챔": 9742,
  "Brewster": 103406,
  "712": 58472,
  "##ђења": 68113,
  "sharp": 77348,
  "##plats": 59702,
  "kpt": 74028,
  "కళాశాల": 15708,
  "##jświętszej": 104989,
  "培": 3098,
  "##аба": 64654,
  "##нског": 88832,
  "Ņ": 332,
  "##阆": 117949,
  "країн": 36762,
  "elk": 45921,
  "Newfoundland": 50670,
  "Hobbs": 71705,
  "##achten": 72145,
  "Opel": 55721,
  "danno": 90468,
  "ma": 10824,
  "slov": 104283,
  "Stücke": 67418,
  "##ciuti": 93314,
  "载": 7651,
  "##lona": 49694,
  "整": 4307,
  "##ahl": 78975,
  "##ánicu": 73446,
  "##ñó": 55168,
  "participat": 69111,
  "احمد": 31269,
  "mistrzem": 85267,
  "seres": 49108,
  "שימוש": 38176,
  "отбор": 55454,
  "engl": 20207,
  "##ապետ": 89002,
  "##lično": 80520,
  "시": 9485,
  "##店": 113429,
  "##꿀": 118696,
  "ఆ": 1189,
  "thuận": 58629,
  "ampy": 99161,
  "construído": 58359,
  "##шийся": 74478,
  "discu": 110076,
  "eleccións": 102060,
  "##området": 97079,
  "##czości": 101610,
  "patent": 45352,
  "보인다": 90923,
  "ракет": 105560,
  "protocol": 69937,
  "##plicitly": 96753,
  "##doras": 61808,
  "Georgetown": 57543,
  "debajo": 52240,
  "которого": 17581,
  "মার্কিন": 45418,
  "бірге": 71735,
  "竿": 6049,
  "##מוזיקה": 85244,
  "혼": 9987,
  "##nau": 22996,
  "Palgrave": 17130,
  "噹": 2977,
  "Milk": 61459,
  "ಇತರ": 48026,
  "虻": 6958,
  "ਂ": 1006,
  "Dominic": 50806,
  "磚": 5885,
  "妆": 3244,
  "ġ": 310,
  "##افق": 51953,
  "##畸": 115407,
  "Српске": 68959,
  "##ocht": 65977,
  "مجله": 103994,
  "##aldo": 41141,
  "##נמצא": 94531,
  "##ے": 12009,
  "jiných": 57168,
  "##者": 116223,
  "owns": 76282,
  "Macau": 59358,
  "поэта": 102753,
  "##mpes": 104475,
  "Chess": 36103,
  "състава": 93524,
  "Austrian": 32201,
  "じて": 35222,
  "##摻": 113989,
  "côtes": 87467,
  "##றை": 40123,
  "##க்கி": 70275,
  "localizada": 23532,
  "نوفوس": 107475,
  "簡": 6123,
  "##שתה": 102561,
  "interference": 103633,
  "Woo": 84270,
  "##גון": 68332,
  "Je": 13796,
  "lớp": 38664,
  "terrorist": 76482,
  "funkcji": 68563,
  "##reven": 84818,
  "##ਂਦਾ": 96323,
  "Catalog": 18709,
  "action": 14204,
  "sò": 21987,
  "Rhine": 66227,
  "##кую": 42688,
  "востоку": 45019,
  "viel": 23596,
  "沛": 4915,
  "##喀": 112674,
  "##льшого": 84318,
  "aiuto": 41491,
  "interview": 21213,
  "##chin": 43849,
  "Italiae": 39940,
  "##措": 113931,
  "mới": 18652,
  "Bukarest": 79147,
  "Spaanse": 44839,
  "있게": 91773,
  "создать": 78224,
  "##bold": 50797,
  "যে": 24288,
  "iria": 92728,
  "Ceará": 70267,
  "همراه": 28528,
  "enzyme": 53138,
  "##цією": 27499,
  "něj": 47377,
  "газети": 101927,
  "##ptasi": 99360,
  "##昏": 114135,
  "籤": 6137,
  "##каз": 41710,
  "270": 18302,
  "గుండా": 48626,
  "文": 4313,
  "этим": 37266,
  "możliwości": 85702,
  "লোক": 19320,
  "بعض": 16845,
  "##مس": 73261,
  "##付": 111964,
  "##ンテ": 92911,
  "nagyobb": 32625,
  "##gieron": 101781,
  "##ík": 23222,
  "bäldot": 32111,
  "চলচ্চিত্র": 45406,
  "##栈": 114328,
  "seng": 52337,
  "##ीन": 68167,
  "##ganza": 93258,
  "할": 9955,
  "genera": 25060,
  "##lao": 55400,
  "religiøse": 96635,
  "##ნები": 54133,
  "023": 84786,
  "tend": 45415,
  "Strecken": 88066,
  "illər": 71969,
  "662": 66942,
  "Verenigde": 23376,
  "##られた": 27624,
  "trilha": 91860,
  "まった": 41851,
  "entamu": 94548,
  "##即": 112463,
  "低": 2247,
  "palabras": 35678,
  "üblich": 81281,
  "Dove": 71718,
  "híres": 82203,
  "##篠": 115878,
  "##zid": 104693,
  "Hal": 21699,
  "##韧": 118128,
  "vivir": 47040,
  "##fice": 37599,
  "貝": 7415,
  "##بطال": 108187,
  "##ott": 15434,
  "##തിനു": 88872,
  "morreu": 40509,
  "##pan": 15119,
  "##welt": 54065,
  "##ave": 23641,
  "##posten": 85134,
  "железнодорожная": 103699,
  "##jer": 17792,
  "##dido": 38482,
  "##žského": 100384,
  "йовха": 14606,
  "А": 509,
  "##mentó": 89801,
  "hawwe": 53163,
  "trovano": 38402,
  "نامیده": 87205,
  "آنها": 16156,
  "##塙": 112893,
  "##亮": 111940,
  "鄴": 7855,
  "thay": 22545,
  "népessége": 60740,
  "מעמד": 96216,
  "Agustus": 27940,
  "teatro": 17796,
  "اسم": 28361,
  "нам": 59221,
  "aktiv": 22275,
  "##отор": 95972,
  "gold": 18128,
  "už": 16392,
  "payments": 99417,
  "הקשר": 87577,
  "坞": 3054,
  "##ография": 50452,
  "Jesús": 21166,
  "##شبه": 88137,
  "אמריקה": 68161,
  "герба": 68838,
  "заснований": 107991,
  "Sieg": 27581,
  "tengah": 30565,
  "ordinary": 64481,
  "Santi": 48887,
  "ryska": 61985,
  "##lavno": 95016,
  "aucun": 30366,
  "##מידע": 85210,
  "๓": 1465,
  "1338": 109069,
  "centered": 78015,
  "9": 130,
  "##ելու": 34470,
  "bijzonder": 88815,
  "##לט": 48828,
  "ACC": 106857,
  "رقبہ": 27076,
  "navigation": 58486,
  "यहां": 62010,
  "okrętu": 106169,
  "а": 541,
  "поки": 106653,
  "堺": 3118,
  "koskaan": 91446,
  "Carolus": 79210,
  "য়্যাম": 87648,
  "realizaron": 77366,
  "##àng": 51579,
  "multiple": 19865,
  "Italiaanse": 43080,
  "عناصر": 75296,
  "سائٹ": 102140,
  "014": 77445,
  "enfants": 18374,
  "##utettiin": 93128,
  "##στή": 52216,
  "D9": 101553,
  "##ദം": 72298,
  "Rothschild": 41440,
  "##吠": 112553,
  "##頸": 118159,
  "缝": 6381,
  "2010년": 19145,
  "áp": 40029,
  "Махкахь": 105328,
  "volver": 45075,
  "cảm": 34514,
  "##ماء": 93122,
  "reise": 104803,
  "##伴": 112002,
  "##schen": 12770,
  "烦": 5300,
  "##Б": 18683,
  "##adas": 16094,
  "##ونت": 80480,
  "Uruguay": 20541,
  "Special": 13690,
  "dyrektorem": 96401,
  "aq": 87487,
  "сельсовет": 47395,
  "جمعية": 78610,
  "##ക്കുന്ന": 31038,
  "##ulated": 37725,
  "mientras": 15808,
  "இங்கு": 54359,
  "gólt": 99369,
  "coordination": 89371,
  "elections": 22054,
  "##jada": 34588,
  "Mikko": 82702,
  "postala": 38222,
  "##viešu": 73204,
  "יימס": 81675,
  "##erdydd": 82455,
  "bërë": 75367,
  "војска": 74638,
  "##ienne": 29434,
  "apărut": 71254,
  "##ಗಳಲ್ಲಿ": 18136,
  "##inada": 92958,
  "педагог": 48249,
  "##odie": 63111,
  "جامعة": 23215,
  "Mey": 42110,
  "恚": 3838,
  "昊": 4366,
  "Amman": 107098,
  "##еговоры": 108140,
  "Anlass": 103186,
  "termen": 73328,
  "##чується": 102241,
  "battalions": 104837,
  "##gret": 97309,
  "##ھیل": 108857,
  "მუნიციპალიტეტში": 106668,
  "撲": 4240,
  "italiensk": 46276,
  "##essä": 41238,
  "##print": 53233,
  "ziren": 10787,
  "##よ": 50508,
  "jeśli": 80661,
  "##assen": 68804,
  "gavs": 100936,
  "##õgi": 95143,
  "##одни": 69687,
  "Ҙ": 596,
  "Dominique": 28256,
  "##vig": 36534,
  "montes": 52716,
  "TU": 94747,
  "##uhan": 25546,
  "backup": 94182,
  "##дун": 48554,
  "vitesse": 32832,
  "Президент": 60093,
  "##ələrin": 87809,
  "##蒜": 116610,
  "dwèt": 49668,
  "Amerikaanse": 17503,
  "junge": 45106,
  "篱": 6118,
  "婉": 3308,
  "impose": 48833,
  "##rėje": 109847,
  "projet": 18769,
  "fällt": 60581,
  "повеќе": 28287,
  "التالية": 67215,
  "##轼": 117416,
  "réalisé": 19488,
  "癒": 5702,
  "##جي": 49170,
  "اصفهان": 66621,
  "##ْ": 51919,
  "##jun": 46329,
  "постаје": 91736,
  "эсвэл": 107012,
  "1815": 15775,
  "Nasser": 98823,
  "##ido": 12306,
  "##շներ": 90449,
  "ici": 42032,
  "拠": 4078,
  "Batang": 100219,
  "principal": 11652,
  "##지에": 84899,
  "1921": 11466,
  "MBC": 20682,
  "Радио": 68212,
  "##వి": 21993,
  "fabrikazioko": 40065,
  "##ζεται": 59346,
  "Musa": 39192,
  "##hì": 91336,
  "description": 26799,
  "##輦": 117388,
  "Harry": 12914,
  "lange": 15547,
  "##mā": 30577,
  "##נשיא": 91483,
  "ത": 1348,
  "Choice": 27844,
  "kahenera": 27884,
  "Blas": 82860,
  "##lerinden": 39757,
  "prantsuse": 103091,
  "Niederlande": 64166,
  "##자와": 89389,
  "khususnya": 79662,
  "##ървото": 79805,
  "gender": 36192,
  "##քներ": 65948,
  "mengenai": 32917,
  "轨": 7639,
  "Volgens": 26950,
  "1207": 93683,
  "848": 75153,
  "呂": 2806,
  "##нително": 109143,
  "##ורג": 55900,
  "dobre": 58005,
  "##deka": 101916,
  "территорияһын": 59721,
  "سان": 60746,
  "equipu": 43267,
  "Pruvìncia": 77791,
  "завжди": 71218,
  "Diploma": 71640,
  "התיכון": 65848,
  "跃": 7546,
  "树": 4567,
  "Tonnen": 57932,
  "##dom": 15561,
  "few": 13824,
  "बार": 44551,
  "##viètica": 93175,
  "tail": 48497,
  "amic": 100779,
  "##jev": 24873,
  "돔": 9092,
  "théâtre": 22864,
  "##ndió": 95244,
  "##osis": 59421,
  "zou": 15853,
  "հանդիպում": 91146,
  "Kultury": 65407,
  "##窗": 115782,
  "նաև": 16468,
  "##mde": 27143,
  "участва": 51315,
  "bataljon": 83315,
  "##letismo": 70724,
  "duy": 38779,
  "Ryder": 71379,
  "##нях": 108876,
  "touring": 54538,
  "Kindern": 46321,
  "##zczono": 94893,
  "carri": 104714,
  "kvart": 96759,
  "viimeinen": 101632,
  "##ナム": 100653,
  "##რებს": 76289,
  "входили": 59399,
  "interaction": 48166,
  "linn": 39758,
  "ἢ": 1703,
  "」": 1891,
  "##掠": 113923,
  "Namnet": 56522,
  "##zial": 53209,
  "11": 10193,
  "##reut": 101633,
  "бастады": 91098,
  "현재": 26565,
  "##槙": 114471,
  "oğlu": 20871,
  "Kunden": 83486,
  "畦": 5631,
  "německy": 69492,
  "مقيمة": 77941,
  "శ": 1231,
  "##ության": 13211,
  "##식": 21155,
  "##Й": 111069,
  "##璁": 115328,
  "Holocaust": 40932,
  "Верховної": 45582,
  "##stych": 94123,
  "Deeds": 18634,
  "typu": 20708,
  "coches": 89416,
  "##ვაში": 73393,
  "ngora": 35217,
  "consacrée": 93557,
  "recibe": 39863,
  "##庶": 113441,
  "jih": 23526,
  "Zahl": 30731,
  "1894": 12925,
  "installer": 76449,
  "sistem": 16144,
  "##cluant": 93328,
  "##奔": 112986,
  "cit": 49409,
  "Ratu": 61305,
  "ms": 92287,
  "vum": 13176,
  "##ricas": 98776,
  "már": 14821,
  "##試": 116967,
  "##ужно": 104636,
  "სხვა": 29405,
  "##ästare": 99365,
  "##نیا": 57401,
  "Leading": 100085,
  "Thorne": 103573,
  "Komponisten": 74886,
  "##াট": 69145,
  "novembril": 95968,
  "##ớt": 100954,
  "orașului": 50413,
  "##gibt": 89732,
  "##čiaus": 84853,
  "стил": 67459,
  "Pest": 53654,
  "yfir": 47398,
  "підвищення": 110333,
  "procento": 71024,
  "##留": 115391,
  "Uvođenje": 58453,
  "##憐": 113707,
  "beetle": 61294,
  "##ienia": 41892,
  "632": 47946,
  "practical": 52940,
  "specific": 19182,
  "линия": 44080,
  "##袞": 116863,
  "Open": 11919,
  "##ровали": 72544,
  "##ecutivo": 87710,
  "pagastā": 87027,
  "particle": 88635,
  "Radar": 65136,
  "jedinjenje": 53609,
  "respecte": 72726,
  "Johansen": 75370,
  "##ич": 18669,
  "piso": 73529,
  "##сти": 12189,
  "##adores": 29837,
  "presence": 25599,
  "sencillo": 33486,
  "##ბდა": 43121,
  "##りの": 54334,
  "Medicine": 20670,
  "##裏": 116871,
  "відомий": 47248,
  "##tup": 32354,
  "Sox": 55687,
  "ला": 21147,
  "##runt": 72908,
  "##mate": 27801,
  "maternal": 75292,
  "##જા": 57916,
  "שני": 18594,
  "Autumn": 63097,
  "পৌরসভাহানর": 75892,
  "Pam": 95101,
  "حسین": 36871,
  "provavelmente": 67694,
  "##mella": 60070,
  "##瞎": 115562,
  "##易": 114136,
  "##illä": 45911,
  "##лази": 65686,
  "##veta": 84379,
  "##برد": 77377,
  "இந்தியா": 87183,
  "igrača": 96472,
  "##נך": 104653,
  "##ивы": 110409,
  "型": 3069,
  "Prozess": 54996,
  "divisiones": 97263,
  "岌": 3509,
  "japonês": 93201,
  "Fuß": 58256,
  "##enna": 60286,
  "ایہہ": 29118,
  "Éireann": 98555,
  "sud": 11660,
  "##기의": 46874,
  "##ščina": 108695,
  "把": 4033,
  "Fleetwood": 98374,
  "poza": 46243,
  "dünyaya": 70683,
  "начиная": 70742,
  "Da": 11818,
  "##sluttet": 64329,
  "maestro": 29193,
  "##lərində": 33405,
  "الأراضي": 77538,
  "arch": 69154,
  "dipakai": 73904,
  "##nár": 87333,
  "feelings": 68478,
  "##茜": 116497,
  "##laag": 70068,
  "sekretarz": 105840,
  "耶": 6469,
  "##quilibrium": 76395,
  "##ষ": 34070,
  "ums": 97615,
  "##אחד": 46165,
  "##syen": 99410,
  "텔": 9869,
  "গাঙেদে": 75561,
  "##pired": 110603,
  "administrativo": 95409,
  "autonomía": 85093,
  "қала": 70440,
  "proprietà": 32797,
  "Becken": 108429,
  "##жной": 37803,
  "##taron": 102662,
  "insan": 40840,
  "##♀": 111747,
  "##янов": 106791,
  "##ോൾ": 64508,
  "##יקים": 81374,
  "貪": 7423,
  "Elections": 69618,
  "epoca": 20663,
  "feat": 17537,
  "اینگیلیسیجه": 85594,
  "élève": 43757,
  "föddes": 103494,
  "##טורניר": 76518,
  "Dalam": 17157,
  "##teti": 66778,
  "魚": 8623,
  "ray": 27212,
  "Visual": 33861,
  "821": 71949,
  "marques": 79889,
  "##∪": 111696,
  "##еке": 58157,
  "##ancia": 85892,
  "##ಸ್": 15406,
  "される": 12531,
  "közt": 74827,
  "##крыт": 97281,
  "##éal": 51584,
  "##му": 11805,
  "##報": 112881,
  "1513": 55986,
  "숫": 9465,
  "濱": 5230,
  "großen": 17318,
  "Болжолдуу": 54378,
  "##immen": 81905,
  "tida": 57072,
  "##羡": 116188,
  "靭": 8337,
  "##穫": 115766,
  "залив": 89592,
  "Bergman": 50391,
  "##銓": 117716,
  "##鉅": 117699,
  "##kilpailussa": 106298,
  "degree": 16455,
  "opportunity": 34468,
  "ਭਾਸ਼ਾ": 81200,
  "##կու": 102163,
  "подацима": 13017,
  "setzen": 85635,
  "coupled": 96523,
  "فوج": 61842,
  "considera": 23718,
  "##gu": 12589,
  "##гын": 60419,
  "析": 4518,
  "reden": 55492,
  "OF": 23240,
  "generación": 57495,
  "##蓼": 116630,
  "##ावा": 81027,
  "##эмы": 66794,
  "##帥": 113381,
  "पास": 52331,
  "emerge": 99467,
  "拮": 4088,
  "menurut": 54205,
  "##нина": 46122,
  "атрымаў": 64919,
  "##rei": 31510,
  "##chnik": 91431,
  "##गल": 109452,
  "tight": 85202,
  "opción": 80381,
  "##રી": 28666,
  "##τήσει": 55197,
  "Крис": 93275,
  "##érant": 59958,
  "##ittää": 68755,
  "##tunut": 51029,
  "yarı": 81880,
  "Maxwell": 32717,
  "곁": 8886,
  "directora": 93154,
  "следующим": 88450,
  "##看": 115531,
  "Wegen": 46053,
  "偵": 2368,
  "Pool": 49579,
  "fabricación": 73118,
  "อังกฤษ": 19743,
  "Bois": 26384,
  "довха": 88152,
  "##ధం": 93467,
  "mulher": 43159,
  "##ustrator": 73101,
  "starting": 21868,
  "اول": 23498,
  "KK": 51071,
  "##egen": 27424,
  "Stahl": 64499,
  "Cichlidae": 89013,
  "supporter": 65169,
  "rapper": 39742,
  "janar": 89661,
  "941": 82944,
  "##īja": 23348,
  "##onsten": 98014,
  "##里": 117672,
  "##櫓": 114527,
  "##owców": 65940,
  "tế": 17105,
  "##arach": 65429,
  "Wszystkie": 89614,
  "председатель": 46120,
  "##ネ": 47155,
  "##మైన": 26312,
  "##ượu": 108774,
  "##리는": 26344,
  "##tants": 52547,
  "##ਤਾ": 33406,
  "##BC": 38964,
  "Reader": 31588,
  "##苛": 116473,
  "telah": 11953,
  "##्यापक": 85831,
  "##bes": 16216,
  "##拣": 113847,
  "##ky": 11445,
  "disebut": 21250,
  "istället": 52300,
  "##稱": 115747,
  "##חברות": 79133,
  "upon": 15378,
  "##纬": 116077,
  "Provinsi": 18667,
  "##рг": 54841,
  "##ğ": 32467,
  "1401": 89976,
  "텐": 9868,
  "##ômico": 98333,
  "precio": 83246,
  "##kleri": 66204,
  "tono": 85221,
  "dată": 44665,
  "##etaria": 95002,
  "Ladislav": 74708,
  "Mengen": 108404,
  "##торов": 77938,
  "taka": 81739,
  "##rieben": 73445,
  "Позже": 48679,
  "궁": 8916,
  "##pital": 55743,
  "##டல்": 43279,
  "stanovnika": 11563,
  "##weise": 23142,
  "body": 14333,
  "Aquí": 82476,
  "──": 98262,
  "490": 32441,
  "##rness": 110208,
  "משה": 42115,
  "märtsil": 87776,
  "##שבה": 84179,
  "Novak": 63458,
  "Platt": 96661,
  "##은": 10892,
  "睨": 5787,
  "Büro": 95786,
  "erhältlich": 98929,
  "creation": 26545,
  "##jeru": 53169,
  "eden": 28423,
  "Emile": 52151,
  "##ns": 10891,
  "##ваюць": 78477,
  "Хуан": 52681,
  "alleen": 21072,
  "Score": 66875,
  "##曠": 114209,
  "Ю": 539,
  "##拋": 113827,
  "Revised": 63697,
  "voksne": 79418,
  "##斟": 114090,
  "FDA": 64431,
  "哥": 2865,
  "Millionen": 20219,
  "ls": 103158,
  "汪": 4893,
  "##ece": 26635,
  "734": 76734,
  "إقليم": 34243,
  "##ций": 16950,
  "##chlag": 69381,
  "Крыма": 90626,
  "##Ş": 110966,
  "Panzer": 33845,
  "跟": 7554,
  "##ciano": 64043,
  "taxonomische": 34019,
  "personagem": 35161,
  "mendapat": 31379,
  "distintas": 36797,
  "агульным": 75781,
  "█": 1846,
  "Лемцюгова": 76382,
  "##baar": 20975,
  "Murcia": 43844,
  "pourquoi": 85539,
  "##έτης": 72562,
  "norte": 12889,
  "のち": 54282,
  "首": 8505,
  "##ives": 24407,
  "##lanze": 97032,
  "étrangers": 67214,
  "##砥": 115602,
  "据": 4140,
  "##숨": 119065,
  "##ित्र": 46312,
  "##ულების": 80066,
  "ل": 787,
  "##fahrt": 25131,
  "##ична": 42406,
  "##햇": 119423,
  "##pea": 76484,
  "ਅਨੁਸਾਰ": 89616,
  "##ärvi": 69674,
  "Morbihan": 83785,
  "Writers": 45574,
  "##속": 43962,
  "Flat": 80038,
  "##谿": 117161,
  "Torino": 19744,
  "Lauf": 57885,
  "窟": 6020,
  "舗": 6642,
  "sarrera": 34815,
  "##灌": 115015,
  "договора": 89622,
  "등으로": 86475,
  "Seit": 14050,
  "Ill": 101288,
  "넘": 9008,
  "pietra": 48840,
  "punteggio": 89756,
  "翱": 6449,
  "##ký": 14094,
  "Ⅰ": 1785,
  "追": 7717,
  "Бәләкәй": 35547,
  "##ంటారు": 79350,
  "##lament": 60838,
  "kvinder": 108498,
  "buna": 68119,
  "##rig": 34294,
  "##있": 119192,
  "genomen": 57922,
  "案": 4589,
  "♥": 1871,
  "珏": 5500,
  "492": 44609,
  "##מצעד": 95677,
  "Frage": 39278,
  "կապված": 74982,
  "ejercicio": 110323,
  "##žky": 52121,
  "xương": 104495,
  "##諾": 117022,
  "tú": 85777,
  "Tercer": 101900,
  "concierto": 60942,
  "casi": 16554,
  "##rrian": 97447,
  "峁": 3528,
  "Duffy": 85837,
  "visoko": 101180,
  "##να": 19491,
  "rapidly": 47489,
  "potrebno": 70409,
  "##营": 116582,
  "##цкая": 50530,
  "halála": 62679,
  "d5": 89385,
  "Advances": 82877,
  "##cciones": 34363,
  "становништва": 21608,
  "Estudis": 103783,
  "Григорий": 57837,
  "mică": 93959,
  "Rin": 63409,
  "fiskalaren": 37352,
  "##myia": 41997,
  "##ਲ": 15423,
  "Somerset": 35434,
  "##nį": 59552,
  "Janez": 110227,
  "懿": 3967,
  "##觉": 116928,
  "##מנות": 31757,
  "Stirling": 60442,
  "Chip": 77872,
  "latina": 44787,
  "Suomessa": 24632,
  "##oeste": 70948,
  "caracteres": 100010,
  "Vorsitzenden": 106550,
  "mitjà": 28992,
  "Savannklimat": 18266,
  "##иться": 56051,
  "##ί": 16853,
  "потому": 46172,
  "nog": 11765,
  "##łęcz": 101713,
  "##ację": 91816,
  "sora": 91181,
  "##排": 113917,
  "訂": 7169,
  "##ọn": 34979,
  "1351": 89250,
  "Daarna": 53560,
  "Martha": 26904,
  "болот": 39835,
  "ланцюга": 74169,
  "Cámara": 47192,
  "Time": 12000,
  "kids": 82808,
  "Into": 33628,
  "##taker": 91188,
  "ਕੋਈ": 84142,
  "##リスト": 60051,
  "##dach": 45948,
  "##icia": 38016,
  "萃": 6806,
  "nepi": 97602,
  "##棧": 114403,
  "蝙": 7026,
  "##ألمانية": 110382,
  "艇": 6658,
  "Вологда": 40599,
  "தொகுதி": 30327,
  "##佃": 112008,
  "éd": 42386,
  "Olimpiade": 86934,
  "논": 9024,
  "##jus": 22822,
  "##ル": 12434,
  "insectos": 73765,
  "##užba": 76681,
  "##masını": 102813,
  "луѓе": 78593,
  "##ു": 18384,
  "##昕": 114138,
  "gynhyrchwyd": 41526,
  "Onun": 43987,
  "Γεννήθηκε": 77524,
  "##פרויקט": 107333,
  "bereiken": 87427,
  "##碘": 115633,
  "espècie": 28196,
  "שונות": 35030,
  "1710": 33397,
  "##гийг": 49542,
  "Landesliga": 100843,
  "##šina": 31373,
  "##DP": 54714,
  "pressi": 45036,
  "Antike": 89146,
  "##蔥": 116638,
  "asumió": 87694,
  "Luck": 75829,
  "##posta": 41656,
  "tee": 77711,
  "##ஸ": 111310,
  "##殼": 114593,
  "Олег": 43360,
  "Profil": 68750,
  "##ñou": 97296,
  "przewodniczącego": 110104,
  "##unque": 63109,
  "Населенные": 29186,
  "cità": 90842,
  "##тін": 33440,
  "##neses": 77687,
  "tay": 30562,
  "details": 29500,
  "##نت": 31898,
  "china": 78069,
  "##ръща": 91142,
  "LepIndex": 18934,
  "hijo": 18611,
  "uniquement": 47217,
  "számos": 31934,
  "##ಕನ್": 110428,
  "Тодор": 103982,
  "denseso": 41763,
  "anunciado": 70610,
  "##عة": 15098,
  "埠": 3092,
  "Fribourg": 94325,
  "没": 4917,
  "místo": 24001,
  "合": 2769,
  "##พ": 39901,
  "obras": 15443,
  "Champagne": 31034,
  "环": 5487,
  "ൂ": 1373,
  "becomes": 23785,
  "##rű": 67976,
  "##ט": 12383,
  "terminó": 36946,
  "miejscu": 19835,
  "Occidentale": 94815,
  "##ranje": 55685,
  "אי": 49153,
  "jogo": 20772,
  "läks": 93177,
  "ّ": 800,
  "廿": 3700,
  "##нську": 89344,
  "muore": 103520,
  "##ové": 14231,
  "##шісі": 71922,
  "kumbang": 13615,
  "bourg": 55427,
  "titulu": 53439,
  "##ತ್ತಾರೆ": 40126,
  "दिए": 103821,
  "мира": 15325,
  "даними": 27236,
  "##əs": 96745,
  "張": 3728,
  "##باز": 83475,
  "gur": 58824,
  "甸": 5616,
  "##kola": 29501,
  "##ברי": 90048,
  "Remix": 17308,
  "##חי": 51158,
  "eil": 91796,
  "1243": 107753,
  "1650": 29117,
  "Taiti": 66412,
  "națională": 110376,
  "Spor": 89269,
  "большая": 65304,
  "infanzia": 100140,
  "##韓": 118125,
  "cassini": 47476,
  "##bahan": 65474,
  "##청": 40311,
  "ဓ": 1510,
  "одиниця": 88462,
  "##képpen": 92472,
  "輿": 7629,
  "antique": 64096,
  "тэрыторыі": 51544,
  "##ρεση": 93967,
  "##杨": 114268,
  "провёл": 34240,
  "округов": 23717,
  "périodes": 108384,
  "まれている": 80049,
  "Tower": 21419,
  "다른": 19709,
  "par": 10248,
  "sık": 108179,
  "తూర్పు": 100185,
  "בעת": 36622,
  "##rats": 40675,
  "##漱": 114938,
  "befolkad": 105988,
  "שירת": 90314,
  "##鯖": 118407,
  "##eral": 49471,
  "##ғының": 97809,
  "##yf": 62026,
  "generoko": 21143,
  "##ходом": 76322,
  "##many": 107437,
  "##捏": 113893,
  "স্কুল": 108342,
  "ingick": 101488,
  "##ظهر": 57761,
  "##珥": 115272,
  "gedung": 99684,
  "jogadores": 57208,
  "MT": 74649,
  "##सत": 80320,
  "König": 17260,
  "汇": 4876,
  "јануара": 74705,
  "some": 11152,
  "ünner": 50745,
  "toca": 90226,
  "##thèse": 106935,
  "групы": 105791,
  "HBO": 38608,
  "滯": 5149,
  "##ələri": 37433,
  "Enligt": 43575,
  "сигнал": 88049,
  "Nobiyembre": 56881,
  "teh": 63164,
  "върху": 38009,
  "cunha": 45909,
  "च्वयातःगु": 62983,
  "Survival": 85982,
  "썬": 9504,
  "##枯": 114297,
  "##тике": 72458,
  "stod": 28952,
  "##nco": 32636,
  "spelled": 107825,
  "##өр": 25291,
  "##漑": 114926,
  "##데": 28911,
  "menjalankan": 105249,
  "##bem": 48894,
  "nguy": 75578,
  "osallistui": 43205,
  "##ellt": 75006,
  "Nachfolger": 27968,
  "studiów": 84719,
  "##Ղ": 111121,
  "鯛": 8643,
  "##sico": 51729,
  "##ání": 17328,
  "الطائرة": 102024,
  "mitä": 82730,
  "淦": 5047,
  "叭": 2754,
  "provincias": 45082,
  "kwadrado": 21106,
  "mokykla": 57702,
  "албума": 78507,
  "HK": 33150,
  "##roja": 103859,
  "xuất": 14930,
  "مغربی": 91245,
  "ᶠ": 1622,
  "##ctica": 71474,
  "##今": 111953,
  "क्षेत्र": 21582,
  "Һидрологик": 31157,
  "Пер": 54247,
  "במידה": 106473,
  "##տան": 58225,
  "später": 12793,
  "##cinae": 77545,
  "rescue": 48022,
  "吠": 2787,
  "Gregorio": 36167,
  "Friday": 30767,
  "թթ": 33017,
  "също": 27181,
  "##ź": 65190,
  "##րով": 82009,
  "##анги": 102851,
  "ընթացքում": 30082,
  "versucht": 46555,
  "##డ": 36008,
  "##tree": 100113,
  "823": 75642,
  "##iger": 20817,
  "##uet": 58054,
  "Wochen": 40224,
  "anschließend": 28319,
  "schwarz": 75194,
  "arranged": 39591,
  "渕": 5072,
  "##ndi": 17938,
  "eboluzioa": 46846,
  "frecuente": 80094,
  "asi": 21744,
  "##simo": 34710,
  "##ерен": 110635,
  "##blished": 69146,
  "##倣": 112109,
  "##schef": 87889,
  "##nii": 25885,
  "##лне": 36689,
  "ইংরেজি": 17699,
  "Cox": 30927,
  "Xalq": 68279,
  "##aufen": 94316,
  "lume": 65911,
  "##তে": 15613,
  "##ыг": 32307,
  "##veur": 83620,
  "â": 256,
  "##fts": 105475,
  "However": 12209,
  "cầu": 19168,
  "##avad": 47965,
  "manyerap": 97657,
  "υπάρχουν": 56254,
  "dirigent": 40274,
  "##migo": 87325,
  "아니라": 45021,
  "dolor": 66800,
  "rámci": 30794,
  "eenheid": 102610,
  "Quảng": 42612,
  "##рук": 100597,
  "##ഛ": 111387,
  "##抛": 113808,
  "anglaise": 51162,
  "такого": 45586,
  "##moni": 67209,
  "Bos": 86792,
  "Gracillariidae": 109176,
  "tekrar": 49152,
  "imao": 26430,
  "tutti": 14905,
  "##调": 117130,
  "##ゼ": 111817,
  "520": 25676,
  "též": 32348,
  "##čný": 29141,
  "##ска": 12184,
  "portugués": 47496,
  "Pentru": 33699,
  "muss": 20195,
  "##叩": 112516,
  "швед": 79274,
  "Natalie": 40318,
  "práce": 36961,
  "##нергії": 84258,
  "##cat": 18209,
  "vas": 41924,
  "luar": 27120,
  "Polis": 82330,
  "vrouwelijke": 106860,
  "Доктор": 52882,
  "1377": 74984,
  "##નું": 23703,
  "##оде": 82562,
  "betreibt": 83765,
  "veido": 103628,
  "ઞ": 1091,
  "fresco": 85500,
  "owa": 84810,
  "Lödanadensit": 28035,
  "conta": 23020,
  "Vi": 31826,
  "Ding": 82566,
  "Swydd": 70018,
  "tā": 25529,
  "fera": 82460,
  "productores": 97633,
  "மாவட்டம்": 38214,
  "Finnmark": 90063,
  "Boat": 53627,
  "نویسنده": 57358,
  "としての": 27824,
  "хаан": 81302,
  "##reste": 69829,
  "##GP": 74450,
  "Wake": 43843,
  "##보를": 91693,
  "exercice": 102740,
  "东": 2092,
  "舒": 6639,
  "Chaco": 96633,
  "##gebouw": 78544,
  "##kia": 23483,
  "##ҳо": 35268,
  "##cían": 92607,
  "##茄": 116491,
  "A5": 81515,
  "##фей": 89168,
  "kulture": 53611,
  "dima": 27301,
  "hadton": 11237,
  "##קפה": 48753,
  "ordained": 80848,
  "泼": 4958,
  "antal": 34948,
  "blot": 77326,
  "风": 8451,
  "جوان": 77622,
  "பெரிய": 57785,
  "dramatic": 60156,
  "Franciaországban": 33290,
  "регіоні": 33010,
  "entschieden": 95548,
  "píseň": 99167,
  "##yskuussa": 83429,
  "Republicans": 93700,
  "##arak": 58555,
  "##ênio": 64497,
  "##脐": 116321,
  "##區": 112431,
  "sentenced": 53365,
  "##⑤": 111719,
  "Jähnig": 108468,
  "##play": 31081,
  "سوف": 95355,
  "##vnik": 48786,
  "098": 82023,
  "Bristol": 24732,
  "##ლეს": 58911,
  "sole": 23140,
  "##सार": 107530,
  "##бами": 106377,
  "ண": 1158,
  "##chall": 79823,
  "huvudsakligen": 13674,
  "momentos": 49021,
  "тощо": 36634,
  "##вская": 102209,
  "seal": 37985,
  "##vā": 52284,
  "##赢": 117288,
  "रोजी": 31236,
  "腎": 6573,
  "##personen": 104616,
  "hija": 26429,
  "##skega": 42522,
  "altas": 47532,
  "զբաղեցնում": 52201,
  "Fl": 29981,
  "srpski": 101979,
  "Yoon": 78581,
  "regiji": 23913,
  "##₆": 111645,
  "##uvad": 67037,
  "##ಯುಕ್ತ": 108691,
  "radical": 31991,
  "係": 2301,
  "olduğundan": 105655,
  "##तन": 81274,
  "##стики": 88331,
  "Breakfast": 105729,
  "இருக்கிறது": 101479,
  "iki": 12322,
  "node": 62584,
  "##عتقد": 75501,
  "anezhañ": 51519,
  "відбулося": 104920,
  "связано": 78320,
  "Waves": 108879,
  "##žu": 22959,
  "##벤": 118979,
  "sejak": 22731,
  "##仔": 111960,
  "direct": 16934,
  "ਆਮ": 88050,
  "terbuka": 83727,
  "##íz": 100273,
  "AllMusic": 62693,
  "millimeter": 10962,
  "##był": 71367,
  "Globe": 26623,
  "##टर": 57134,
  "Bildhauer": 68320,
  "департаментінде": 48976,
  "atom": 39205,
  "##עור": 101261,
  "##fier": 28420,
  "seccion": 41143,
  "##ești": 31565,
  "Robb": 67250,
  "晏": 4392,
  "##мі": 15416,
  "##治": 114696,
  "respektive": 58092,
  "##дства": 58741,
  "이상": 66982,
  "syne": 86624,
  "propose": 30027,
  "ale": 11372,
  "##бын": 106152,
  "Reason": 67683,
  "##货": 117248,
  "ષ": 1113,
  "nascut": 75341,
  "##о": 10316,
  "##副": 112347,
  "##canja": 106978,
  "olema": 104855,
  "đang": 21080,
  "هیئت": 67987,
  "##נון": 36249,
  "Серед": 26000,
  "##ैन": 38174,
  "seco": 96004,
  "benda": 58431,
  "半": 2672,
  "##sjøen": 63741,
  "##۵۷": 80034,
  "শ্রেষ্ঠ": 106446,
  "بالای": 95824,
  "žive": 70515,
  "беларускі": 72892,
  "Stockholms": 41155,
  "laguna": 98897,
  "##villon": 68315,
  "esce": 74382,
  "フジテレビ": 29519,
  "шеран": 14130,
  "сельский": 57341,
  "Palestinian": 56119,
  "elderly": 106226,
  "##كون": 34141,
  "Pune": 107279,
  "членов": 41429,
  "imali": 52488,
  "##fod": 39549,
  "睞": 5782,
  "sexta": 75071,
  "##jda": 95693,
  "برنامج": 47726,
  "##нительно": 91634,
  "عثمانی": 100451,
  "finale": 12239,
  "இக்கோயிலில்": 45474,
  "filter": 80352,
  "##cës": 106669,
  "##tycznego": 98991,
  "Eros": 85196,
  "գտնվում": 27649,
  "написана": 72192,
  "##ർ": 18188,
  "##шня": 70229,
  "Chad": 32148,
  "##водили": 97944,
  "##ражений": 78566,
  "噩": 2971,
  "serta": 17604,
  "paraula": 81195,
  "朱": 4479,
  "extends": 65066,
  "instituto": 57956,
  "τελευταία": 60496,
  "##side": 18103,
  "salute": 72039,
  "κέντρο": 64294,
  "##istent": 52573,
  "##jné": 90299,
  "కొన్ని": 43431,
  "##taa": 19273,
  "롭": 9207,
  "##ується": 29075,
  "る": 1975,
  "częścią": 63315,
  "rainha": 89860,
  "##閤": 117908,
  "stehenden": 101407,
  "##荻": 116528,
  "颱": 8447,
  "##umis": 87602,
  "##楚": 114429,
  "##척": 119259,
  "Londinii": 84878,
  "беше": 31650,
  "##tecte": 104796,
  "gwyddonol": 46662,
  "melynek": 40264,
  "counter": 46298,
  "částí": 69589,
  "vlada": 63545,
  "##änyt": 62775,
  "##썼": 119098,
  "sina": 18595,
  "pachina": 89327,
  "##eritus": 71631,
  "##ئمة": 56568,
  "##tätte": 80863,
  "chef": 15158,
  "鹘": 8766,
  "瘍": 5688,
  "sente": 97705,
  "牌": 5397,
  "CL": 75151,
  "הרביעי": 66442,
  "##သည့်": 44690,
  "מאחר": 92368,
  "Toutefois": 46573,
  "##炫": 115044,
  "regelmatig": 69398,
  "兀": 2424,
  "dveh": 71875,
  "Zde": 86894,
  "燁": 5355,
  "##¥": 110885,
  "TRMM": 18579,
  "##hafen": 89873,
  "Landkreis": 16774,
  "Sandy": 35898,
  "merger": 53860,
  "##ьями": 63361,
  "wynik": 105121,
  "Reichenbach": 92794,
  "boshqa": 37340,
  "გარდაიცვალა": 103180,
  "##ణి": 78576,
  "darrere": 108757,
  "##PS": 46983,
  "aplicar": 73290,
  "contenido": 54352,
  "##rug": 58550,
  "Манчестер": 81485,
  "Milano": 14815,
  "##时": 114122,
  "##mət": 74640,
  "15": 10208,
  "muros": 83156,
  "##勃": 112380,
  "Jakob": 22110,
  "pasaron": 72140,
  "##זם": 36940,
  "einst": 78337,
  "##網": 116005,
  "##щими": 56164,
  "Hrvatskoj": 22149,
  "לאחר": 12514,
  "شرق": 31461,
  "jaarlijks": 97319,
  "Mercy": 52466,
  "saveznih": 41741,
  "현": 9978,
  "請": 7238,
  "##님": 108578,
  "Tato": 46650,
  "Spiel": 21055,
  "employee": 69312,
  "##ρχία": 78707,
  "illness": 56507,
  "devem": 80860,
  "sinh": 14422,
  "##旃": 114105,
  "associations": 40902,
  "##洵": 114741,
  "ಢ": 1275,
  "Uzbekistan": 63172,
  "Hiroshima": 57148,
  "enlace": 68718,
  "##ドイツ": 58611,
  "religión": 71890,
  "##wung": 100602,
  "Антонио": 61241,
  "Pegasus": 87513,
  "##réa": 96600,
  "Factbook": 14571,
  "##entu": 45610,
  "##ају": 63478,
  "解": 7165,
  "Niemiec": 48165,
  "##лис": 76113,
  "Health": 15931,
  "Tabanidae": 64718,
  "pp": 11309,
  "ロ": 2060,
  "##阜": 117957,
  "1774": 24514,
  "Synagoge": 96120,
  "Enigma": 88368,
  "سيدي": 68819,
  "Logo": 42713,
  "##нар": 37235,
  "##鄉": 117606,
  "##ỳ": 111590,
  "碱": 5874,
  "phát": 13803,
  "операції": 76285,
  "schwedischen": 66348,
  "prosa": 63521,
  "successivo": 26958,
  "扁": 4000,
  "##оту": 67982,
  "gade": 82332,
  "Werke": 22776,
  "##בי": 24180,
  "##ーパー": 87210,
  "պատմության": 62114,
  "kjo": 69385,
  "corredor": 93629,
  "Macedonian": 92341,
  "##жда": 38288,
  "##澈": 114967,
  "converted": 30827,
  "##бственной": 109303,
  "ಅದೇ": 97018,
  "妮": 3259,
  "estrenada": 59030,
  "Bez": 63244,
  "təşkil": 32828,
  "##برداری": 82026,
  "##dine": 39973,
  "##nensis": 67487,
  "вещества": 86433,
  "##麤": 118551,
  "head": 13578,
  "chiều": 46086,
  "موسیقی": 29951,
  "##geo": 103665,
  "yanvar": 58825,
  "##schule": 22640,
  "##yje": 32658,
  "업": 9554,
  "##hemmat": 106236,
  "仄": 2183,
  "species": 10542,
  "kinahabogang": 28951,
  "##dant": 36731,
  "bois": 22431,
  "##બ": 43639,
  "Jedno": 75174,
  "կամ": 18917,
  "##둠": 118806,
  "##が": 10898,
  "##멕": 118928,
  "##llan": 73884,
  "ب": 764,
  "биле": 19381,
  "Tales": 25384,
  "Schiffe": 48930,
  "##מיד": 71511,
  "இடம்": 99188,
  "##אפשר": 69194,
  "має": 16933,
  "##हा": 56523,
  "tienda": 104263,
  "##ическую": 70731,
  "околу": 26361,
  "##ikide": 82457,
  "শুরু": 33151,
  "Daphne": 81020,
  "##ματική": 95971,
  "तौर": 67389,
  "##柄": 114300,
  "ಇವರ": 90858,
  "潢": 5188,
  "璁": 5562,
  "##taat": 60720,
  "округе": 55092,
  "##겠": 118632,
  "酿": 7880,
  "Königsberg": 51498,
  "cola": 17801,
  "Валерий": 67335,
  "Hee": 107443,
  "##די": 24284,
  "##۵": 19081,
  "##ഏ": 111377,
  "Vizier": 35294,
  "Deus": 29560,
  "##וניים": 93452,
  "##ૂ": 58751,
  "##ستطيع": 80997,
  "錶": 7988,
  "వ": 1230,
  "Port": 14734,
  "парка": 60778,
  "iddo": 82062,
  "lignende": 81530,
  "Wicidata": 29989,
  "##＝": 119524,
  "##自": 116387,
  "terminando": 78429,
  "یہ": 16152,
  "##రు": 16525,
  "譴": 7287,
  "toimi": 20081,
  "previously": 17477,
  "plass": 25673,
  "només": 20840,
  "Италији": 24901,
  "High": 11956,
  "homme": 15264,
  "##வது": 30227,
  "伶": 2237,
  "루": 9213,
  "##uguró": 109552,
  "ו": 728,
  "Basketball": 25693,
  "##谣": 117148,
  "##karang": 109579,
  "grunnlagt": 65239,
  "##tar": 12819,
  "〈": 1829,
  "봇": 9361,
  "##שיות": 107359,
  "kura": 45991,
  "danes": 58791,
  "##تبر": 75913,
  "##rag": 31351,
  "##quez": 48041,
  "##뇌": 118749,
  "книга": 26587,
  "bisa": 17103,
  "הללו": 91401,
  "creata": 83520,
  "##fana": 109004,
  "##graphe": 53118,
  "umgebaut": 68689,
  "##രങ്ങൾ": 71179,
  "##kolen": 66187,
  "viaje": 41574,
  "réseau": 23623,
  "##सम": 105794,
  "##диний": 100203,
  "ी": 904,
  "Weimar": 31899,
  "був": 12035,
  "##jahan": 95054,
  "##má": 37287,
  "##vedo": 107518,
  "##sori": 92007,
  "domo": 38575,
  "Хотя": 57090,
  "Eihwohna": 73031,
  "dud": 64519,
  "want": 21528,
  "sufrió": 57516,
  "##鵬": 118495,
  "##șterea": 84031,
  "钰": 8059,
  "intentions": 18151,
  "##زراعة": 85565,
  "Leží": 99814,
  "dibina": 74792,
  "Patrol": 65146,
  "##resa": 41604,
  "Bundesliga": 21436,
  "emperor": 52964,
  "Pirate": 94181,
  "careers": 110196,
  "##chea": 94346,
  "with": 10169,
  "##ggs": 71192,
  "##urat": 85918,
  "üçün": 15397,
  "##ότητα": 45119,
  "წლების": 97955,
  "##meti": 109350,
  "нарича": 90771,
  "##اق": 19445,
  "1990": 10420,
  "##鹿": 118544,
  "##øen": 75393,
  "缀": 6368,
  "##儉": 112178,
  "##yang": 20334,
  "entote": 73817,
  "Orléans": 29380,
  "autel": 104384,
  "##ный": 11092,
  "лічыцца": 104618,
  "##ђен": 40072,
  "1917": 11368,
  "##رخ": 51849,
  "렴": 9196,
  "cahaya": 83014,
  "##sels": 47082,
  "勛": 2626,
  "ੌ": 1055,
  "Birth": 59461,
  "##ค์": 60350,
  "markt": 82551,
  "personas": 14888,
  "monet": 79139,
  "discurso": 62110,
  "##执": 113781,
  "##чке": 19347,
  "##इन्छ": 93156,
  "subsequently": 20961,
  "##инский": 60903,
  "##ances": 37276,
  "##lnym": 36283,
  "কর্তৃক": 80192,
  "##ópteros": 96079,
  "##ине": 20563,
  "września": 16489,
  "날": 8985,
  "##ناب": 107116,
  "culto": 33508,
  "emberi": 77142,
  "ఆయన": 39567,
  "slightly": 31603,
  "aquestes": 30367,
  "##daan": 67216,
  "opiskeli": 65749,
  "##区": 112427,
  "王": 5478,
  "##có": 23477,
  "snage": 47557,
  "jedne": 56463,
  "quyết": 27016,
  "##рова": 41662,
  "Numm": 83138,
  "##mospheric": 73205,
  "▪": 1849,
  "##ಿದೆ": 67070,
  "fases": 56815,
  "##了": 111912,
  "##홋": 119443,
  "##מסע": 88345,
  "##कृत": 73928,
  "##czania": 105078,
  "repose": 42997,
  "##reò": 97066,
  "է": 674,
  "##łk": 83254,
  "численности": 41660,
  "составляла": 61049,
  "##্ঞান": 70414,
  "##无": 114112,
  "mindestens": 35435,
  "##्ण": 55719,
  "154": 20481,
  "腊": 6570,
  "##ೆಗಳು": 64990,
  "##冠": 112250,
  "Panthera": 92485,
  "बड़ा": 79783,
  "##sement": 35590,
  "itse": 45461,
  "Namibia": 46670,
  "##iła": 48111,
  "##сту": 51157,
  "咎": 2834,
  "##博": 112450,
  "##škai": 33783,
  "##راح": 105196,
  "##কে": 18243,
  "##אמן": 72357,
  "gedeelte": 38848,
  "屬": 3502,
  "siet": 85749,
  "##едення": 72570,
  "Tuhan": 67555,
  "Seine": 13682,
  "город": 17516,
  "ұ": 607,
  "ば": 1948,
  "områder": 45750,
  "##தால்": 79314,
  "gehörte": 16426,
  "##ńskie": 36435,
  "##gby": 97019,
  "##zal": 32145,
  "помощник": 99144,
  "##eyer": 85128,
  "Referens": 107296,
  "褫": 7128,
  "культури": 32325,
  "spiral": 85496,
  "##biega": 94551,
  "Sgt": 80599,
  "АКШ": 38957,
  "Ritirato": 81652,
  "core": 27362,
  "reparto": 68206,
  "##uvat": 66683,
  "##тву": 46229,
  "##nze": 21314,
  "##蜓": 116770,
  "princesse": 70860,
  "##arri": 71874,
  "##漾": 114942,
  "嚼": 2988,
  "кор": 80062,
  "藉": 6915,
  "##gaven": 87883,
  "Jeunesse": 91532,
  "començar": 28900,
  "Patent": 49706,
  "Фонд": 102152,
  "idi": 19648,
  "##nen": 11216,
  "कथानक": 80151,
  "##пособность": 94131,
  "suis": 49301,
  "ʲ": 407,
  "Marrë": 29607,
  "must": 14982,
  "##ίρισης": 95544,
  "lopulta": 45606,
  "actief": 39172,
  "Tornado": 90121,
  "##鱇": 118429,
  "##familie": 29810,
  "Heinz": 23406,
  "assiste": 97069,
  "Варшава": 94488,
  "##త్రం": 93136,
  "Auge": 72800,
  "##ра": 11079,
  "##പ്": 89291,
  "яе": 36986,
  "Harmony": 62460,
  "władzy": 49264,
  "למשחק": 100157,
  "dizendo": 93284,
  "##dü": 31623,
  "##ոսը": 93984,
  "73": 12545,
  "##piti": 59094,
  "степени": 19133,
  "##érmes": 88831,
  "##巧": 113352,
  "karate": 102342,
  "তৈরি": 61664,
  "Janussen": 72147,
  "##йб": 103029,
  "##sul": 29899,
  "##拝": 113842,
  "necesidad": 56265,
  "रहने": 104045,
  "funcția": 93109,
  "régions": 35903,
  "##嫩": 113102,
  "edá": 71299,
  "⁷": 1746,
  "##meen": 83012,
  "##aggio": 40702,
  "Offizier": 74219,
  "##èo": 50617,
  "wings": 52014,
  "patch": 105741,
  "##ód": 32174,
  "Emmy": 26125,
  "royal": 23954,
  "##ui": 11990,
  "1218": 90099,
  "##riks": 84147,
  "##лĕ": 45745,
  "dare": 45476,
  "sjöprocent": 59277,
  "femme": 17748,
  "##ुख": 87918,
  "dela": 21177,
  "directe": 43752,
  "##سل": 32219,
  "Naked": 65170,
  "geht": 21952,
  "ações": 77302,
  "konte": 65998,
  "tercatat": 49553,
  "տարեկան": 50767,
  "ౌ": 1246,
  "##tion": 10822,
  "карайт": 90693,
  "Surat": 65860,
  "Anthem": 91497,
  "Następnie": 36569,
  "##성이": 53371,
  "correct": 49148,
  "##hilic": 100675,
  "##tował": 71237,
  "##脂": 116313,
  "##owano": 25172,
  "磺": 5890,
  "tildelt": 53612,
  "##ენა": 84947,
  "далі": 84281,
  "Його": 32883,
  "##kland": 100980,
  "الضغط": 104313,
  "Airways": 29791,
  "Năm": 15923,
  "químico": 100780,
  "吕": 2781,
  "σύστημα": 57303,
  "علاقة": 102585,
  "##être": 87028,
  "destrucción": 80137,
  "kurze": 50607,
  "##gku": 88714,
  "Governor": 20462,
  "Ř": 345,
  "Hai": 26329,
  "##лись": 17036,
  "fred": 80580,
  "##аметр": 98569,
  "##шньої": 82646,
  "થયો": 96388,
  "significativo": 74476,
  "Wilayah": 28175,
  "##纓": 116067,
  "##ッポン": 85620,
  "code": 16964,
  "Swift": 30372,
  "XXX": 62885,
  "contratado": 74431,
  "البرلمان": 104178,
  "czerwca": 16983,
  "scriptor": 98902,
  "Група": 88860,
  "pertes": 95297,
  "##ذر": 48920,
  "##بيل": 97999,
  "opens": 70702,
  "##чела": 73606,
  "Burkina": 47542,
  "##лаа": 69510,
  "بو": 40218,
  "##cle": 19478,
  "Early": 18610,
  "Remo": 62030,
  "##肇": 116266,
  "Sotto": 72224,
  "453": 38213,
  "##ρήσεις": 91648,
  "##two": 43921,
  "Jensen": 28663,
  "العالم": 19300,
  "tracks": 17965,
  "PG": 71194,
  "eng": 14716,
  "##عاد": 64250,
  "##ęp": 91496,
  "衆": 7068,
  "моста": 69427,
  "kann": 12382,
  "##촉": 119267,
  "CRC": 62532,
  "##рыва": 84113,
  "մասում": 107793,
  "сериал": 57244,
  "쌍": 9500,
  "ਕੀਤੀ": 31972,
  "egyszerű": 107903,
  "##plex": 40692,
  "DA": 47855,
  "##czeniu": 41460,
  "##soma": 91811,
  "rodzinie": 79778,
  "1980년": 97748,
  "##ագրության": 90597,
  "##ська": 14799,
  "##μβάνουν": 102012,
  "về": 12420,
  "Labem": 75192,
  "Sci": 23359,
  "##maya": 33458,
  "Cook": 21115,
  "##蚁": 116728,
  "##іл": 26205,
  "Tiger": 25899,
  "##send": 61621,
  "adelante": 51933,
  "knows": 75354,
  "Кхузара": 32672,
  "beteiligte": 94704,
  "Prins": 25176,
  "등을": 33727,
  "##敦": 114069,
  "пор": 41436,
  "Zukunft": 54861,
  "##handel": 44702,
  "téléfilm": 56820,
  "командования": 107508,
  "району": 17675,
  "akinek": 83196,
  "Gala": 60231,
  "italienske": 64414,
  "maupun": 41577,
  "PT": 30350,
  "Mérida": 68531,
  "##jl": 44708,
  "кандидат": 52761,
  "Syd": 91519,
  "tableau": 38710,
  "##dné": 65317,
  "цу": 85900,
  "##昭": 114145,
  "האזור": 72822,
  "##്മ": 104612,
  "viser": 33960,
  "荻": 6762,
  "My": 11590,
  "##ριο": 30564,
  "lê": 89435,
  "藜": 6922,
  "esprit": 41245,
  "mentres": 54871,
  "TITAN": 21030,
  "営": 2932,
  "##ritu": 93704,
  "쯔": 9725,
  "рух": 65955,
  "خط": 26729,
  "##пасы": 79538,
  "##ғында": 56776,
  "Eleanor": 43925,
  "ദ": 1350,
  "Florian": 48385,
  "voe": 17647,
  "основана": 46421,
  "compagno": 78858,
  "isan": 48265,
  "территории": 15852,
  "##ковой": 89738,
  "##鏡": 117785,
  "Albany": 41296,
  "##lens": 97681,
  "donated": 49305,
  "##duz": 79546,
  "##uine": 63251,
  "##gical": 60764,
  "ülke": 86690,
  "Johns": 32138,
  "internationaal": 106757,
  "lies": 21998,
  "##रत": 57933,
  "الله": 15764,
  "vorbei": 79865,
  "el": 10125,
  "##äť": 58984,
  "##ціональний": 106627,
  "##bə": 46508,
  "carros": 81844,
  "ὅ": 1708,
  "契": 3219,
  "拾": 4095,
  "##тари": 103932,
  "พฤศจิกายน": 46062,
  "##کار": 21009,
  "##ziger": 102192,
  "##ബ്": 68600,
  "손": 9450,
  "देशों": 83910,
  "##mällä": 86626,
  "##빔": 119003,
  "Hauptrolle": 79008,
  "raok": 60535,
  "##դիր": 65883,
  "##nçà": 110802,
  "Wakefield": 88155,
  "Furthermore": 58392,
  "मलयालम": 61602,
  "##崛": 113318,
  "##جان": 44324,
  "результат": 54162,
  "##ತೆಯ": 93499,
  "##ریک": 68092,
  "Partei": 19315,
  "Bồ": 87958,
  "##zás": 34304,
  "lettre": 43182,
  "Estatal": 68071,
  "forced": 20054,
  "Select": 80859,
  "Elles": 33822,
  "სადაც": 38720,
  "негізгі": 54572,
  "risalente": 107087,
  "##תות": 109672,
  "羥": 6425,
  "preserve": 72551,
  "##მნა": 103173,
  "漑": 5160,
  "して": 11592,
  "##CP": 93242,
  "##тельная": 55701,
  "Herald": 31052,
  "பரம்பரை": 79072,
  "喪": 2925,
  "##噶": 112741,
  "კიდევ": 76622,
  "##zzioni": 54057,
  "Kiinan": 107122,
  "biểu": 26112,
  "围": 3012,
  "##АУ": 89338,
  "##zaren": 102092,
  "##خانه": 49813,
  "##疾": 115432,
  "proyek": 102384,
  "μέλη": 58199,
  "##処": 112282,
  "parti": 14869,
  "argument": 36847,
  "##uks": 75706,
  "қосымша": 108709,
  "##ηση": 71864,
  "négy": 33934,
  "mathematical": 73469,
  "среднем": 67606,
  "##ยา": 54633,
  "Male": 36172,
  "istom": 95737,
  "##cans": 59212,
  "정": 9670,
  "1977": 10722,
  "260": 17948,
  "zsidó": 85414,
  "##ачів": 84262,
  "giấy": 106721,
  "##tā": 34091,
  "поддержки": 88396,
  "闇": 8153,
  "##дөр": 80459,
  "tuvo": 14765,
  "179": 22399,
  "##كة": 29945,
  "государственных": 75027,
  "##小": 113225,
  "unterschiedliche": 58800,
  "особоспоживача": 50817,
  "Egiptu": 101882,
  "##тые": 41600,
  "##mək": 26733,
  "##יס": 29163,
  "##ugatra": 70658,
  "酷": 7878,
  "kiến": 32051,
  "捺": 4143,
  "δύναμη": 104177,
  "##耍": 116226,
  "##ald": 54793,
  "##ارت": 79388,
  "##нскага": 85322,
  "Più": 74616,
  "##անում": 20865,
  "kyrkja": 99266,
  "##帚": 113377,
  "Cathy": 88672,
  "Rubin": 61045,
  "batean": 33081,
  "##jing": 108988,
  "Nakamura": 69800,
  "##tido": 47517,
  "паміж": 47470,
  "1236": 96903,
  "Marije": 98891,
  "##justed": 101762,
  "##nation": 22711,
  "眾": 5777,
  "##禛": 115701,
  "ثلاث": 53070,
  "fuente": 44558,
  "Τ": 455,
  "##літку": 74332,
  "##话": 117104,
  "eni": 51428,
  "##询": 117108,
  "్": 1247,
  "##ů": 11006,
  "اطراف": 71047,
  "##٢": 111176,
  "##ients": 88780,
  "King": 11515,
  "##uano": 95342,
  "##īti": 79307,
  "ever": 17038,
  "1852337520": 49677,
  "ritiene": 105301,
  "Naples": 42516,
  "esposa": 19217,
  "強": 3729,
  "##ٍ": 48406,
  "ավարտել": 86637,
  "٫": 812,
  "אינם": 66009,
  "##itaires": 73407,
  "чыккан": 64400,
  "барлыҡҡа": 92768,
  "улице": 44977,
  "അദ്ദേഹത്തിന്റെ": 67374,
  "omgeving": 64750,
  "##brella": 88807,
  "linia": 49033,
  "产": 2168,
  "##цькі": 99743,
  "Safe": 94072,
  "##nes": 11496,
  "Uganda": 29675,
  "##ಂದ": 38114,
  "authority": 26772,
  "##čkoj": 36659,
  "은": 9632,
  "dürfte": 102879,
  "255": 24024,
  "typy": 96647,
  "##զանի": 99195,
  "##断": 114097,
  "いで": 37995,
  "continuo": 57214,
  "представляют": 92761,
  "Kjell": 89062,
  "dekat": 34836,
  "Пошта": 51791,
  "筑": 6074,
  "ষ": 977,
  "düütsch": 97860,
  "الرغم": 39978,
  "Gilles": 29886,
  "Artur": 41469,
  "tellingen": 48449,
  "rechten": 35320,
  "мөмкин": 109097,
  "##ဝင်": 77145,
  "nunca": 19096,
  "##്യം": 50687,
  "sydvästra": 23988,
  "##菩": 116564,
  "Méditerranée": 77991,
  "zweiten": 17321,
  "##tech": 92615,
  "Food": 24182,
  "RL": 109478,
  "##筏": 115838,
  "écrits": 67685,
  "Almería": 69462,
  "顺": 8418,
  "ය": 1390,
  "musik": 20910,
  "ITIS": 10565,
  "الأرض": 36695,
  "detrás": 45386,
  "политика": 45689,
  "éxitos": 71041,
  "Až": 110806,
  "comércio": 80462,
  "##幾": 113416,
  "پرواز": 106079,
  "864": 70118,
  "##ਲੋਂ": 110329,
  "##奏": 112983,
  "Dörfer": 75424,
  "##хьара": 101976,
  "camping": 106492,
  "##vos": 15404,
  "afleveringen": 84197,
  "Tactical": 79573,
  "##κα": 24767,
  "##terra": 96391,
  "nữ": 23888,
  "הוא": 11103,
  "Beira": 110650,
  "##辅": 117421,
  "##laisen": 35305,
  "##ros": 12333,
  "Ester": 99440,
  "қамтамасыз": 105834,
  "dècada": 49240,
  "ที่": 53470,
  "##ado": 11272,
  "pola": 14151,
  "##viar": 91678,
  "罗": 6400,
  "культур": 74239,
  "##яной": 94543,
  "Frederick": 17132,
  "##வான": 53000,
  "Lisbon": 63290,
  "Viertel": 82339,
  "##莞": 116539,
  "##uses": 25061,
  "Platz": 13271,
  "visiteurs": 100306,
  "часом": 60019,
  "batas": 70733,
  "##programma": 75912,
  "Sommer": 17872,
  "concreto": 85448,
  "十": 2666,
  "slechts": 27614,
  "球": 5513,
  "##فق": 45797,
  "傳": 2387,
  "1499": 60811,
  "الموجودة": 90453,
  "##żną": 93658,
  "emplacement": 60615,
  "언": 9548,
  "prins": 43497,
  "NR": 87261,
  "##諡": 117011,
  "富": 3419,
  "##анд": 27780,
  "natürlichen": 97421,
  "fratelli": 48168,
  "Krebs": 89904,
  "iz": 10793,
  "enfermedades": 91749,
  "##tins": 71313,
  "##Ñ": 110917,
  "##ético": 48092,
  "##posa": 40268,
  "শহর": 30510,
  "##ונים": 23752,
  "יחסי": 96724,
  "кхоллало": 89631,
  "##dah": 30942,
  "##മേ": 102764,
  "##creve": 98078,
  "##есса": 59709,
  "##تي": 26614,
  "Praça": 91819,
  "Bahnstrecke": 47022,
  "photos": 41833,
  "samalla": 50827,
  "##סדר": 74712,
  "##ুত": 98191,
  "##راد": 83859,
  "tha": 108270,
  "مساحت": 26567,
  "##퉁": 119366,
  "במקביל": 60590,
  "Bắc": 18955,
  "##儀": 112174,
  "##wadzenie": 72897,
  "celui": 14872,
  "publikoetatik": 42517,
  "##्ट": 25695,
  "cellules": 80470,
  "Memoria": 91467,
  "bando": 88931,
  "梳": 4621,
  "einschließlich": 57392,
  "##ლში": 39611,
  "Allianz": 99209,
  "##iou": 95752,
  "ocupades": 62826,
  "میلادی": 16360,
  "merasa": 93843,
  "økonomisk": 70206,
  "neden": 71246,
  "уметности": 87646,
  "luvulta": 88411,
  "##뫼": 118942,
  "версія": 81533,
  "marqués": 45280,
  "obliku": 52615,
  "exclusivement": 100874,
  "##rek": 18113,
  "System": 11512,
  "цикл": 74455,
  "blow": 106194,
  "##ου": 15860,
  "besondere": 52509,
  "吁": 2766,
  "##מ": 34694,
  "Àsia": 99579,
  "##蛇": 116743,
  "廠": 3690,
  "ufficiale": 28263,
  "القديمة": 46416,
  "##街": 116839,
  "Magnolia": 68603,
  "##銳": 117724,
  "##ਦ": 23885,
  "##dum": 27983,
  "territoriale": 57007,
  "##пуска": 54288,
  "1136": 78373,
  "yhdessä": 36431,
  "Rune": 87374,
  "mancanza": 81226,
  "##уыр": 107147,
  "cena": 34401,
  "jó": 44098,
  "##鴉": 118481,
  "##циальных": 41264,
  "##bey": 61408,
  "##cede": 46701,
  "gick": 33803,
  "Einsätze": 107671,
  "היישוב": 67937,
  "##sumi": 83161,
  "##ולוגיה": 95423,
  "##nek": 12354,
  "##υσε": 47720,
  "stadio": 62996,
  "##ﷲ": 119482,
  "Hoffnung": 101792,
  "##ûs": 76937,
  "تپه": 72348,
  "Iako": 37147,
  "##новка": 82234,
  "Naast": 53338,
  "selten": 38383,
  "πρώην": 65017,
  "##amental": 50938,
  "##紋": 115951,
  "Parigi": 23943,
  "luôn": 53575,
  "##стонии": 109304,
  "##ャンプ": 77689,
  "##ihin": 25580,
  "дзе": 40705,
  "920": 51197,
  "engelsch": 63053,
  "獸": 5470,
  "dadurch": 34133,
  "##band": 20791,
  "Punta": 23714,
  "##тау": 59503,
  "惠": 3887,
  "螃": 7037,
  "vinte": 60243,
  "ユ": 2053,
  "##споминания": 90688,
  "##遴": 117542,
  "##碉": 115625,
  "الفلسطينية": 101264,
  "##ვის": 20849,
  "hub": 65896,
  "Odeon": 107466,
  "##담": 105462,
  "associate": 46175,
  "Alone": 39960,
  "ོ": 1488,
  "##乱": 111907,
  "בעבר": 53346,
  "நிலை": 87886,
  "Viele": 45973,
  "Midi": 32996,
  "##曼": 114220,
  "իրենց": 35105,
  "Suécia": 95286,
  "##వ": 18892,
  "##чним": 35509,
  "##ssandra": 104585,
  "##urde": 55116,
  "8°": 62889,
  "##颠": 118209,
  "טלוויזיה": 88091,
  "Zweiter": 99303,
  "Чемпион": 52133,
  "شهرلری": 72193,
  "ήταν": 12446,
  "##愉": 113670,
  "sung": 35234,
  "##枢": 114292,
  "Witte": 62255,
  "třídy": 58718,
  "Dy": 89944,
  "##höll": 74272,
  "insbesondere": 20388,
  "klassische": 108530,
  "magnetic": 55026,
  "##꼬": 118686,
  "##agna": 87929,
  "Rhapsody": 93500,
  "ampio": 86441,
  "##حرير": 98157,
  "##ഞ": 111389,
  "Тексерілді": 22998,
  "##νικού": 49321,
  "בתחרות": 73946,
  "##цом": 53819,
  "##mmer": 26944,
  "##ызыл": 61410,
  "##양": 37114,
  "Яков": 105568,
  "মানু": 21685,
  "concepto": 43522,
  "віку": 36529,
  "##haja": 100488,
  "familjen": 10860,
  "Plastic": 92527,
  "tavataan": 98197,
  "냉": 9001,
  "##itti": 34211,
  "##geschrieben": 62445,
  "kò": 40374,
  "##järven": 79727,
  "ʙ": 405,
  "##ازن": 106940,
  "Rostov": 91801,
  "##ständig": 79764,
  "Dr": 11612,
  "##torno": 100921,
  "ดร": 68445,
  "##זכר": 93425,
  "անգլ": 17261,
  "##琏": 115285,
  "başlamıştır": 77370,
  "##shme": 37162,
  "##देव": 94928,
  "##褒": 116890,
  "344": 34107,
  "markets": 42893,
  "nazionali": 52211,
  "іншых": 58946,
  "río": 15048,
  "##硏": 115613,
  "والتي": 20788,
  "Amerikani": 42095,
  "##бло": 78683,
  "Steven": 17569,
  "##లను": 22432,
  "regija": 57352,
  "##вањето": 47213,
  "##ルフ": 62757,
  "naturali": 81617,
  "esetén": 57309,
  "##糞": 115936,
  "nan": 10799,
  "##स्त": 57523,
  "742": 65462,
  "婆": 3307,
  "Kutler": 42954,
  "ചിത്രം": 105039,
  "жас": 38074,
  "agosto": 12018,
  "Chapel": 37569,
  "пункт": 25228,
  "estauxunidense": 73694,
  "##ене": 20516,
  "районында": 39528,
  "cartes": 45328,
  "鴛": 8717,
  "##redi": 110685,
  "Demi": 71326,
  "Asylum": 106709,
  "##ૌ": 111288,
  "lights": 71123,
  "విద్యా": 23442,
  "べ": 1957,
  "tramo": 69292,
  "##nował": 70254,
  "##ettu": 46453,
  "Tamara": 69783,
  "nhiên": 17685,
  "##ysik": 81106,
  "fondi": 107150,
  "ン": 2064,
  "Rod": 30602,
  "práva": 48417,
  "##كاتب": 63621,
  "##اض": 34201,
  "близ": 76606,
  "##rige": 45854,
  "также": 11448,
  "##墀": 112904,
  "##Ã": 110905,
  "漏": 5159,
  "##ելով": 35652,
  "##颱": 118213,
  "##веден": 45195,
  "Match": 26151,
  "ª": 207,
  "futebolista": 46018,
  "刀": 2531,
  "grecque": 81441,
  "Pluto": 61814,
  "##рла": 67449,
  "María": 12760,
  "NHK": 19807,
  "управления": 24735,
  "##íu": 17027,
  "##ಿಸಿ": 60143,
  "##пели": 94519,
  "##ály": 26860,
  "##щал": 58843,
  "000": 10259,
  "chrefft": 102804,
  "##ավորման": 109420,
  "##ordenen": 75666,
  "##jim": 60911,
  "Chiefs": 65113,
  "أوائل": 99571,
  "dytë": 83487,
  "##veze": 101438,
  "##jos": 12459,
  "##캄": 119288,
  "reprezentacji": 31432,
  "##dub": 84274,
  "عليها": 27679,
  "Ислам": 101076,
  "##乓": 111893,
  "##ască": 53456,
  "colori": 58147,
  "colos": 41639,
  "##ži": 17700,
  "hazai": 71889,
  "##живания": 80202,
  "べた": 90745,
  "Mala": 58335,
  "##сход": 68874,
  "##ะแนน": 89099,
  "##AX": 83026,
  "stanza": 67332,
  "##ാത്രം": 102353,
  "##dí": 26530,
  "tyska": 49829,
  "technical": 29914,
  "戈": 3969,
  "堑": 3108,
  "丢": 2097,
  "गरिएको": 68860,
  "##改": 114048,
  "##utore": 97402,
  "##quisición": 86160,
  "龙": 8837,
  "సాగని": 64680,
  "históricos": 52315,
  "reż": 46434,
  "##ven": 11975,
  "Tournament": 29085,
  "##sgol": 48516,
  "Theory": 21271,
  "##ಾಲ": 80305,
  "Definition": 55740,
  "ー": 2069,
  "filed": 45959,
  "круг": 78217,
  "beetles": 88886,
  "στο": 11361,
  "Hernán": 87387,
  "ahead": 35629,
  "뽑": 9397,
  "expertise": 85681,
  "Islanders": 103454,
  "rising": 53816,
  "peyi": 25241,
  "##ั้ง": 78434,
  "caracteriza": 67843,
  "##вав": 18164,
  "egg": 60926,
  "ammunition": 77036,
  "Angaben": 40694,
  "嘟": 2953,
  "##манов": 83878,
  "материала": 105765,
  "##ogh": 74352,
  "##ņēma": 56054,
  "##ije": 15369,
  "##ణ": 24212,
  "##ուրի": 108633,
  "##rzone": 94078,
  "##тельную": 90606,
  "##mbahkan": 96272,
  "##chreven": 80264,
  "##些": 111925,
  "costas": 58654,
  "statue": 26237,
  "Cannon": 59481,
  "Juliana": 69048,
  "诠": 7340,
  "spécialiste": 62607,
  "##iable": 81232,
  "##മായി": 21846,
  "##gda": 88348,
  "##gée": 39267,
  "постоянно": 50518,
  "1965": 10839,
  "##ższym": 79656,
  "##con": 23486,
  "##стка": 87931,
  "##کتے": 104012,
  "##ندية": 67531,
  "##gamit": 68575,
  "##чал": 37322,
  "establece": 79914,
  "Lies": 57440,
  "##ційний": 51689,
  "677": 74531,
  "##lede": 40666,
  "##тов": 16503,
  "Renaud": 74967,
  "##kuntaan": 107065,
  "##áky": 90302,
  "ВВС": 57653,
  "spanyol": 61549,
  "##úry": 70635,
  "presenze": 48361,
  "##hidi": 108047,
  "ошондой": 90812,
  "Halk": 104073,
  "environments": 84084,
  "pelannut": 79288,
  "、": 1881,
  "##各": 112534,
  "dropped": 30241,
  "ژوئن": 29074,
  "descrito": 40687,
  "賴": 7459,
  "অনুযায়ী": 90564,
  "薄": 6895,
  "##aze": 85744,
  "Занимает": 40155,
  "һаны": 24876,
  "1988년": 75991,
  "##門": 117895,
  "muốn": 38858,
  "дзяржаўная": 91021,
  "ginhulagway": 10872,
  "Chí": 55345,
  "тренер": 31470,
  "##庾": 113444,
  "Kopenhagen": 59700,
  "زیادہ": 37006,
  "##گی": 18182,
  "##metric": 96018,
  "##なっている": 37581,
  "##叫": 112518,
  "##kter": 41391,
  "ither": 92636,
  "##ższe": 64466,
  "##lândia": 60518,
  "Nunca": 107709,
  "rektor": 62027,
  "resta": 25929,
  "dalej": 85944,
  "Riders": 80079,
  "##вили": 47890,
  "Cabinet": 49855,
  "Brně": 88414,
  "##ogía": 46694,
  "бахьнехь": 79711,
  "1295": 76860,
  "##if": 13918,
  "##minister": 25957,
  "##gye": 105992,
  "iunie": 36280,
  "doe": 40572,
  "##ənin": 39785,
  "паргӀато": 79944,
  "0": 121,
  "##ക്": 34590,
  "rimane": 46436,
  "bost": 29495,
  "##ini": 11778,
  "כבש": 92426,
  "##ększą": 68729,
  "hir": 58937,
  "образ": 52515,
  "##nienie": 62809,
  "렬": 9195,
  "Lord": 13440,
  "Monkey": 54427,
  "Ancona": 71318,
  "##огу": 67456,
  "##ёс": 102840,
  "Poskod": 47874,
  "偶": 2369,
  "Firenze": 23987,
  "##cota": 93159,
  "bán": 26679,
  "Nordwesten": 43597,
  "следующем": 62783,
  "eran": 13053,
  "İ": 320,
  "[unused40]": 40,
  "éste": 36403,
  "##sprung": 81504,
  "##恿": 113622,
  "kuno": 84377,
  "actually": 24376,
  "comerç": 50454,
  "obci": 20077,
  "Titus": 48489,
  "靺": 8342,
  "Порт": 88622,
  "##нского": 20233,
  "ਜੋ": 27762,
  "Punk": 37776,
  "algunos": 16649,
  "舫": 6649,
  "##gas": 14644,
  "ề": 1664,
  "ộ": 1678,
  "bahari": 105852,
  "##ांना": 102538,
  "##ž": 13208,
  "מועצת": 106885,
  "##筐": 115839,
  "##слова": 106958,
  "првата": 99089,
  "kilometres": 20127,
  "Tito": 32764,
  "mulți": 74292,
  "##jta": 51465,
  "Eyes": 25469,
  "##원에": 108280,
  "##ай": 16481,
  "شهر": 13963,
  "debutto": 62784,
  "Bursa": 62154,
  "esteve": 72409,
  "hung": 68971,
  "MSN": 94238,
  "cutting": 63039,
  "##קשר": 58408,
  "materiale": 24103,
  "முதல்தர": 95844,
  "##蔚": 116635,
  "##촌": 119268,
  "senger": 93518,
  "Commune": 70774,
  "quais": 23585,
  "bandas": 37431,
  "electronics": 97007,
  "individuales": 93239,
  "##tla": 57814,
  "experiments": 56430,
  "##しい": 39862,
  "erfolgreichen": 86123,
  "##WF": 83695,
  "##bagan": 107806,
  "ே": 1180,
  "Aku": 59157,
  "имаат": 51144,
  "uspio": 84781,
  "Дарыянын": 54608,
  "Goch": 60351,
  "贓": 7470,
  "ädabinöl": 32203,
  "##ختلف": 91718,
  "##檗": 114517,
  "##шает": 64425,
  "اصلی": 25140,
  "oso": 37371,
  "hazırda": 102520,
  "ドラマ": 49242,
  "5º": 73993,
  "Počet": 26931,
  "müzik": 44933,
  "có": 10601,
  "режима": 82443,
  "1762": 29396,
  "Girard": 73525,
  "tier": 60704,
  "moment": 14316,
  "memenangi": 74749,
  "waarden": 40791,
  "последнего": 74409,
  "##ಗ": 41664,
  "hired": 35444,
  "##mon": 16278,
  "osztrák": 65913,
  "Professional": 28166,
  "Garcia": 26585,
  "1240": 57802,
  "ունեցող": 73958,
  "##＿": 119537,
  "##拓": 113833,
  "##钊": 117806,
  "tributo": 94892,
  "Bresse": 110339,
  "##еди": 84865,
  "Rogaland": 99190,
  "mic": 84314,
  "Carabidae": 25447,
  "vidas": 79026,
  "Aircraft": 22892,
  "keempat": 85573,
  "##rington": 82194,
  "師": 3618,
  "présenté": 54405,
  "aldı": 27022,
  "kB": 66906,
  "природы": 70678,
  "republice": 69972,
  "##았": 119118,
  "##佗": 112020,
  "الموسيقى": 104508,
  "ઃ": 1069,
  "أفراد": 54412,
  "##nés": 31597,
  "##erbit": 97725,
  "##תמודד": 101345,
  "##leistung": 73003,
  "##cet": 47065,
  "بازیگر": 48863,
  "données": 22352,
  "雞": 8286,
  "lists": 44644,
  "##زياء": 87187,
  "##ع": 11693,
  "смерці": 106931,
  "##šnih": 106981,
  "Stanach": 38579,
  "##latz": 86255,
  "Funeral": 105951,
  "Pic": 46100,
  "Fabrizio": 64451,
  "##步": 114559,
  "Fifth": 47412,
  "##惑": 113647,
  "##迁": 117455,
  "##ưới": 73532,
  "限": 8215,
  "Kaisar": 74487,
  "##ētu": 49110,
  "Fort": 14326,
  "espaces": 84355,
  "Aiken": 38162,
  "##軽": 117375,
  "##uleur": 91712,
  "muchos": 19188,
  "Luciano": 35491,
  "##ကြသည်": 42777,
  "Grêmio": 108044,
  "Maire": 72141,
  "##ंगा": 103792,
  "giftet": 81082,
  "Atomic": 55225,
  "gestione": 54504,
  "##лось": 20243,
  "##plar": 60064,
  "##dige": 29905,
  "hii": 55155,
  "##ditions": 91936,
  "plemena": 57984,
  "##곱": 118643,
  "fenomen": 77152,
  "cilat": 62520,
  "Nestor": 78424,
  "Αυτή": 94995,
  "dovette": 71601,
  "##ивную": 110638,
  "##chor": 50197,
  "##تحرير": 88809,
  "городах": 71614,
  "ૈ": 1124,
  "鳎": 8701,
  "отношении": 57144,
  "référénsina": 36112,
  "奨": 3230,
  "仇": 2186,
  "ਬਾਅਦ": 44427,
  "##賡": 117218,
  "##తా": 54511,
  "##wizja": 82252,
  "##laması": 97398,
  "stanowisku": 87993,
  "##anon": 93342,
  "முதலில்": 100652,
  "##娛": 113060,
  "Spesies": 13018,
  "berubah": 35785,
  "##אנשים": 95438,
  "##טית": 32248,
  "##ticos": 33167,
  "##iad": 23243,
  "итеп": 40728,
  "滲": 5150,
  "stones": 77650,
  "leaves": 24516,
  "intervient": 109731,
  "çdo": 85086,
  "##ॲ": 111218,
  "stake": 90081,
  "ואת": 34735,
  "PSOE": 45855,
  "draagt": 67427,
  "niego": 32835,
  "йәшәй": 96543,
  "##毎": 114601,
  "##ldu": 55300,
  "##99": 88657,
  "Inhalt": 103264,
  "##瀨": 115012,
  "methods": 27413,
  "ٹ": 816,
  "Coca": 48908,
  "картины": 66490,
  "##뻐": 119013,
  "లైన్": 38918,
  "##dzi": 45637,
  "Throughout": 56302,
  "couverture": 79554,
  "##stö": 85607,
  "ME": 47430,
  "Wer": 70061,
  "##サス": 109354,
  "Alpes": 15829,
  "bisherigen": 68784,
  "olim": 46737,
  "##čas": 87798,
  "##edia": 51373,
  "##هان": 49428,
  "finde": 98572,
  "##ھر": 63764,
  "##უს": 42382,
  "uniform": 51135,
  "Toten": 76368,
  "##corre": 46968,
  "##caster": 74934,
  "394": 37847,
  "ಉತ್ತಮ": 93729,
  "郧": 7830,
  "cosas": 45632,
  "##樑": 114484,
  "लिया": 37444,
  "##ياه": 78316,
  "##※": 111631,
  "situated": 26529,
  "averaged": 101932,
  "ethnic": 34216,
  "Circuit": 28418,
  "Việc": 67123,
  "##陥": 117991,
  "##sma": 24188,
  "##аман": 110372,
  "##嗟": 112706,
  "##rijke": 80266,
  "kilomètres": 22308,
  "##സ്റ്റ്": 42820,
  "Hof": 25958,
  "Ben": 13304,
  "##辽": 117452,
  "болезни": 77698,
  "##toarele": 96226,
  "está": 11559,
  "##vari": 53951,
  "иностранных": 53813,
  "##iée": 93612,
  "##辖": 117430,
  "##dinate": 104169,
  "Mussolini": 39019,
  "##genoot": 73237,
  "銜": 7954,
  "court": 14866,
  "##anc": 82531,
  "delivery": 55626,
  "सिंह": 46415,
  "璽": 5577,
  "##ropa": 52530,
  "Парижа": 32559,
  "تاریخی": 30246,
  "责": 7478,
  "##ües": 56907,
  "Vai": 98978,
  "##usé": 87638,
  "Executive": 23612,
  "карты": 73985,
  "##нася": 87280,
  "##larla": 49739,
  "елгасына": 64213,
  "leden": 32887,
  "끌": 8973,
  "##տ": 15733,
  "##mint": 97522,
  "鶏": 8734,
  "rough": 87656,
  "educação": 68821,
  "煙": 5331,
  "##HI": 108880,
  "##셋": 119048,
  "المرحلة": 77751,
  "deeply": 78846,
  "Степан": 80968,
  "kế": 23216,
  "##quila": 110214,
  "##shing": 74062,
  "##парат": 41895,
  "##tila": 49999,
  "Anniversary": 42061,
  "##ewski": 64363,
  "réforme": 66741,
  "##ons": 13326,
  "ganhou": 41492,
  "както": 25884,
  "반": 9321,
  "частиною": 70455,
  "策": 6077,
  "وأربعون": 78187,
  "Mei": 18087,
  "##ارد": 62689,
  "простире": 88573,
  "1210": 74866,
  "##do": 10317,
  "eventual": 57231,
  "##HA": 58132,
  "səh": 33788,
  "抚": 4041,
  "quý": 73809,
  "脳": 6564,
  "башында": 95392,
  "篮": 6117,
  "дочь": 36086,
  "Llano": 105297,
  "##рст": 96255,
  "##varo": 77640,
  "##eeka": 103548,
  "##nisme": 94282,
  "##يں": 96588,
  "##бежать": 109586,
  "##onii": 104305,
  "Geographische": 97021,
  "मार्चं": 67525,
  "pobresa": 61297,
  "##akov": 106573,
  "brevet": 108497,
  "blessé": 80567,
  "Тие": 96752,
  "##嬅": 113104,
  "##ッシュ": 48588,
  "鉑": 7936,
  "##iede": 92711,
  "Beau": 85867,
  "nyingi": 73444,
  "philosophical": 96693,
  "Festung": 64625,
  "Chennai": 55303,
  "динамикасы": 25138,
  "Steele": 56813,
  "##ীর": 27608,
  "sehen": 24709,
  "kongelige": 109203,
  "##шихся": 64828,
  "誥": 7225,
  "##ற்கான": 75026,
  "##klubb": 104088,
  "##júsági": 105351,
  "##셈": 119046,
  "##ikk": 64907,
  "fiind": 18199,
  "chú": 52344,
  "##鱨": 118436,
  "אנג": 86774,
  "##hio": 64224,
  "resistência": 103465,
  "##ո": 17946,
  "##酒": 117629,
  "##سلة": 109121,
  "бывший": 50272,
  "##هور": 73875,
  "Kantons": 99472,
  "1318": 89599,
  "of": 10108,
  "##zało": 100717,
  "##용할": 72187,
  "жери": 82433,
  "afirmando": 107552,
  "Fabricius": 45488,
  "восстания": 77627,
  "referència": 63319,
  "вельмі": 91135,
  "##kott": 94858,
  "чемпіон": 104774,
  "central": 12397,
  "##sive": 37413,
  "Artikel": 27331,
  "radiación": 103342,
  "voli": 98237,
  "Italiako": 83524,
  "##חרות": 58516,
  "ամբողջ": 68904,
  "Anugerah": 73438,
  "something": 26133,
  "rođen": 62156,
  "##駿": 118294,
  "ჯ": 1595,
  "##்க": 97027,
  "ucciso": 48577,
  "##aði": 104198,
  "McGraw": 44790,
  "∼": 1814,
  "পুরুষ": 89766,
  "##ერთი": 76909,
  "ogni": 16273,
  "quiere": 68448,
  "Albrecht": 27417,
  "##גע": 36672,
  "##vie": 23966,
  "армии": 17808,
  "egészben": 49629,
  "Facebook": 22329,
  "##拚": 113839,
  "ல்": 90037,
  "tuig": 18241,
  "##wandt": 96887,
  "kulturní": 76154,
  "stopień": 67846,
  "Tweede": 24298,
  "Certains": 47161,
  "Regia": 65556,
  "##ób": 97286,
  "##rf": 22260,
  "davall": 67138,
  "Caetano": 106963,
  "ہوتی": 62823,
  "περιλαμβάνει": 89621,
  "Threatened": 20117,
  "Sousa": 46459,
  "1945": 10670,
  "##廠": 113456,
  "##зного": 93560,
  "##çı": 29587,
  "##nko": 38967,
  "##ўнага": 74511,
  "##spis": 107511,
  "شكل": 45852,
  "##њем": 31963,
  "trang": 25283,
  "##ändern": 102197,
  "##ה": 10416,
  "##edo": 32435,
  "##posição": 93754,
  "##viet": 88445,
  "鎂": 7999,
  "stop": 20517,
  "##σης": 27851,
  "##landse": 53381,
  "œuvre": 18523,
  "vehicles": 27237,
  "streaming": 75231,
  "plassert": 86672,
  "##найти": 106811,
  "##ются": 17601,
  "bordered": 104441,
  "Йочанийн": 94861,
  "##ėnų": 83982,
  "##шев": 60229,
  "▼": 1854,
  "portrayed": 47968,
  "lake": 24923,
  "##حداث": 108325,
  "享": 2171,
  "varandra": 91650,
  "Yu": 19387,
  "गाटे": 44953,
  "##зова": 78130,
  "linea": 19327,
  "Al": 10883,
  "##אד": 82757,
  "285": 27485,
  "##ത്ത": 59956,
  "澡": 5206,
  "##ться": 14133,
  "tacatat": 46632,
  "Knox": 47325,
  "菅": 6786,
  "##treden": 105581,
  "##逍": 117492,
  "##재한다": 104569,
  "##iple": 102491,
  "obszarze": 51043,
  "##kerk": 46746,
  "##濫": 114991,
  "besonders": 22192,
  "Расположен": 108719,
  "葬": 6833,
  "によって": 14986,
  "##ега": 48372,
  "##елан": 80977,
  "姥": 3278,
  "перейшов": 66278,
  "version": 11674,
  "cilj": 87846,
  "배": 9330,
  "Labs": 100849,
  "##орка": 77797,
  "##خصصة": 99429,
  "Arxivləşdirilib": 67509,
  "ثابت": 53090,
  "諺": 7255,
  "call": 20575,
  "kilpailun": 103348,
  "припаѓа": 82953,
  "##nicznych": 93648,
  "##tották": 47089,
  "McLean": 79206,
  "##嵊": 113324,
  "##舉": 116399,
  "Porifera": 22042,
  "Spojené": 91940,
  "esse": 18305,
  "phụ": 28422,
  "футбол": 53226,
  "##μής": 65516,
  "ésta": 47055,
  "STAR": 103737,
  "##養": 118236,
  "##sling": 81637,
  "##ונית": 31404,
  "##kseen": 25608,
  "Abitur": 46611,
  "लिपा": 23965,
  "##ன்": 14171,
  "Qui": 35921,
  "roster": 65334,
  "foren": 33613,
  "meeste": 29031,
  "##菜": 116561,
  "##慚": 113692,
  "jovem": 45490,
  "objekt": 56733,
  "##觐": 116929,
  "amerikanischen": 25110,
  "Une": 13509,
  "Talbot": 47728,
  "##itzar": 70595,
  "NT": 49942,
  "مسیر": 72560,
  "##затор": 107423,
  "førte": 30674,
  "έτος": 75298,
  "##영": 30858,
  "##amer": 105529,
  "зіграв": 67781,
  "эшләй": 85472,
  "Během": 38256,
  "Former": 42355,
  "##ವು": 16015,
  "arriva": 43277,
  "ädabinoms": 20294,
  "##guruan": 95033,
  "##dni": 29019,
  "澄": 5199,
  "悄": 3857,
  "##ک": 11711,
  "You": 11065,
  "##нить": 61540,
  "Шулай": 99553,
  "##denkmal": 71211,
  "dificultades": 95761,
  "warfare": 74393,
  "responsible": 21586,
  "attacco": 36451,
  "##усу": 105876,
  "neighboring": 73756,
  "##седі": 79926,
  "##硅": 115612,
  "sm": 39709,
  "yaşadığı": 106713,
  "##kee": 49721,
  "##phantes": 88837,
  "Preto": 66897,
  "barrel": 93397,
  "квітні": 84363,
  "Vosges": 52137,
  "##ária": 19075,
  "اهمیت": 103555,
  "##телни": 66234,
  "GS": 70069,
  "twelve": 34581,
  "呐": 2813,
  "When": 12242,
  "899": 79933,
  "kes": 21388,
  "peab": 77705,
  "etichetta": 66406,
  "industrielle": 57911,
  "ਨਾਲ": 18649,
  "Name": 15729,
  "司": 2763,
  "##нны": 91322,
  "化": 2649,
  "##λος": 25162,
  "involved": 16247,
  "##kong": 48523,
  "Léopold": 82316,
  "taget": 72410,
  "Лиги": 83447,
  "##алась": 69445,
  "##չություն": 101662,
  "给": 6342,
  "Théodore": 75869,
  "मंदिर": 43799,
  "##քին": 54034,
  "жизни": 17237,
  "##cote": 93245,
  "دل": 58726,
  "Britannian": 73176,
  "१३": 65814,
  "##ерно": 73810,
  "उनी": 71937,
  "ottelua": 55690,
  "##yası": 34464,
  "زنان": 51203,
  "ਜਿਸ": 38314,
  "##eae": 79469,
  "abil": 86766,
  "Been": 63604,
  "Services": 20228,
  "inkább": 54420,
  "##צפון": 44491,
  "##گاری": 106257,
  "Orquesta": 77467,
  "tipo": 13113,
  "##στούν": 108796,
  "##ქმის": 96991,
  "##шени": 109991,
  "##sından": 98878,
  "998": 77378,
  "الحصول": 80065,
  "##喚": 112686,
  "resigned": 34784,
  "dî": 37953,
  "expansão": 102730,
  "##алася": 50820,
  "csoport": 75636,
  "sk": 66998,
  "strany": 28183,
  "definida": 72575,
  "व्यक्ति": 53025,
  "##ستور": 101722,
  "hranice": 77127,
  "Honolulu": 56348,
  "帜": 3613,
  "flooding": 91565,
  "1404": 75670,
  "##žné": 63232,
  "На": 10778,
  "azul": 30821,
  "nordlige": 47175,
  "питань": 58179,
  "亀": 2144,
  "hiri": 55356,
  "geiht": 105140,
  "##眶": 115538,
  "6º": 96782,
  "##укції": 92086,
  "болады": 24976,
  "##iston": 94229,
  "##gst": 65278,
  "המועדון": 89843,
  "##ק": 12510,
  "##貼": 117200,
  "então": 17650,
  "##恂": 113595,
  "قانونی": 106985,
  "os": 10427,
  "ntâ": 58958,
  "##رزش": 73478,
  "Seguridad": 92605,
  "##מוד": 36310,
  "##тім": 89750,
  "Osaka": 30703,
  "1930": 11028,
  "procedures": 70176,
  "Mons": 37870,
  "sentrum": 57549,
  "##્ડ": 48139,
  "##рыв": 77851,
  "Jagger": 82710,
  "##髄": 118354,
  "Հայաստանի": 22802,
  "verildi": 85992,
  "музыку": 69278,
  "Җ": 594,
  "##暴": 114199,
  "Центрального": 85420,
  "Joana": 89215,
  "publication": 16877,
  "passagers": 93925,
  "1751": 34295,
  "teiste": 74251,
  "##脈": 116317,
  "سکھ": 104284,
  "##ژ": 52173,
  "२०१५": 92418,
  "ě": 307,
  "##cé": 23932,
  "Санкт": 17570,
  "daha": 13878,
  "الأخيرة": 68631,
  "Baru": 34015,
  "сериале": 100134,
  "Herzog": 27831,
  "شیخ": 46592,
  "##ales": 18174,
  "daværende": 95684,
  "##dek": 26811,
  "Polydor": 81491,
  "##rzy": 27828,
  "หรือ": 21113,
  "##县": 112491,
  "##ظر": 34353,
  "##메": 118927,
  "külas": 81953,
  "[unused57]": 57,
  "Chúa": 89726,
  "##carpus": 84235,
  "کردند": 30140,
  "##斜": 114089,
  "hết": 33493,
  "##мәт": 75436,
  "Spielen": 27375,
  "trenta": 61041,
  "oblik": 55795,
  "урынлашҡан": 25465,
  "1995": 10436,
  "##leis": 48463,
  "Database": 11311,
  "础": 5845,
  "##очки": 88959,
  "##سکو": 98488,
  "convertir": 29235,
  "##ард": 35038,
  "fréquence": 103575,
  "##éri": 71377,
  "típico": 88812,
  "incendie": 76609,
  "молодой": 96917,
  "ઉત્તર": 70505,
  "अन्तिम": 69119,
  "##ләрне": 67842,
  "广": 3651,
  "##professor": 102224,
  "Greenland": 87801,
  "##позиции": 98156,
  "vrijeme": 19434,
  "Quand": 38561,
  "Aussage": 86330,
  "could": 12174,
  "ਹੋਣ": 69375,
  "functional": 55550,
  "##ול": 17345,
  "##dente": 49015,
  "ganska": 13402,
  "Pier": 41941,
  "##diği": 63110,
  "regno": 33343,
  "item": 48438,
  "寇": 3418,
  "Opening": 76064,
  "vallée": 29772,
  "landsbyen": 75909,
  "##ြ": 111504,
  "[unused67]": 67,
  "siitä": 31455,
  "##Base": 50947,
  "widely": 24300,
  "kalas": 27585,
  "Nye": 92913,
  "Frantsa": 29135,
  "Aldo": 43265,
  "##ündən": 98470,
  "liệt": 78384,
  "വ": 1364,
  "intentar": 55707,
  "Ober": 76351,
  "瀧": 5245,
  "蒔": 6842,
  "##biorze": 107985,
  "Trophée": 90633,
  "子": 3350,
  "Broad": 86606,
  "situazione": 39498,
  "druhy": 52634,
  "661": 58876,
  "##דגם": 98900,
  "mája": 95364,
  "ترتیب": 54862,
  "piràmide": 61135,
  "춘": 9767,
  "зэрэг": 56050,
  "##rite": 39077,
  "München": 13300,
  "Աստերոիդի": 100912,
  "##بل": 35487,
  "していた": 14595,
  "tuần": 37716,
  "έκδοση": 69231,
  "Essai": 97068,
  "earth": 39189,
  "##ління": 99652,
  "##sl": 50659,
  "dolara": 93389,
  "##ησε": 78423,
  "Codex": 44869,
  "##uing": 94213,
  "Nafarroako": 68893,
  "##戯": 113753,
  "Gardiner": 83085,
  "contenu": 78937,
  "Unabhängigkeit": 83601,
  "későbbi": 63041,
  "Penguins": 89359,
  "effects": 21274,
  "##楞": 114430,
  "Teatro": 16799,
  "share": 23867,
  "##դը": 48484,
  "##yre": 31993,
  "##раган": 94960,
  "##holm": 35673,
  "баландии": 60222,
  "Murray": 17917,
  "verão": 99468,
  "##oco": 58165,
  "kishi": 19815,
  "internationella": 101149,
  "##র্ক": 63490,
  "èxit": 45305,
  "Tema": 29643,
  "و": 791,
  "##истана": 93062,
  "Kommunen": 27848,
  "##viat": 110172,
  "בסופו": 82768,
  "blancos": 36462,
  "陶": 8233,
  "##tay": 47134,
  "##往": 113528,
  "B2": 36137,
  "tradicionales": 61555,
  "##őt": 86574,
  "Шевченко": 69031,
  "mjeseci": 103692,
  "##ging": 13808,
  "defend": 60041,
  "##łych": 39855,
  "kanthi": 28063,
  "birkaç": 62928,
  "##요일": 82888,
  "gadhah": 79004,
  "kịch": 61117,
  "Jumlah": 85990,
  "háború": 45450,
  "Dad": 95885,
  "牙": 5399,
  "offenen": 80978,
  "迷": 7714,
  "##wag": 69460,
  "durata": 54375,
  "1438": 83381,
  "Launch": 95501,
  "२९": 97536,
  "##فض": 81032,
  "悩": 3870,
  "##闾": 117945,
  "Min": 28291,
  "##asje": 50597,
  "денес": 77759,
  "Packers": 95050,
  "leurs": 14258,
  "nördlich": 28253,
  "Königs": 49987,
  "資": 7442,
  "deve": 19847,
  "##рово": 55048,
  "##喊": 112681,
  "##ería": 31321,
  "腻": 6589,
  "帝": 3614,
  "колькасць": 89308,
  "##ורי": 50473,
  "هوایی": 69511,
  "##혐": 119434,
  "##narodowej": 83679,
  "алды": 69672,
  "Sovyet": 82207,
  "##rdí": 94760,
  "Sega": 42795,
  "##மாக": 22093,
  "daugiausia": 100967,
  "##秤": 115725,
  "Finally": 51857,
  "avientu": 28429,
  "##misel": 46010,
  "penting": 34162,
  "##sot": 102326,
  "ಪ್ರಶಸ್ತಿ": 67312,
  "##｜": 119538,
  "##緹": 116028,
  "schied": 60211,
  "##ровка": 80255,
  "Península": 60348,
  "һуң": 57158,
  "вулиці": 44516,
  "Restoration": 107214,
  "##쭉": 119242,
  "##ప్": 50445,
  "Buddha": 32530,
  "##gor": 28025,
  "Речной": 85623,
  "Programming": 72797,
  "##كس": 32388,
  "##čar": 40329,
  "десяти": 86798,
  "Ольга": 52827,
  "față": 42785,
  "##wesen": 43727,
  "Percy": 33969,
  "Rützler": 71070,
  "Petru": 81223,
  "withdraw": 100987,
  "lluita": 80984,
  "setor": 101363,
  "##zvan": 91205,
  "ose": 29995,
  "##čního": 60787,
  "Samme": 110636,
  "Filmen": 26128,
  "##ēts": 44289,
  "##zuma": 82876,
  "鎚": 8006,
  "КОАТУУ": 95448,
  "ಹೆಸರು": 74989,
  "##pende": 67475,
  "[unused75]": 75,
  "muut": 69298,
  "fils": 15017,
  "Leslie": 25944,
  "cinque": 24581,
  "vaut": 88691,
  "passé": 32468,
  "##ekli": 63507,
  "derrotado": 58989,
  "이때": 86838,
  "鎗": 8005,
  "##forma": 44010,
  "##ನ್ಸ್": 81222,
  "य": 890,
  "བ": 1480,
  "Darling": 59597,
  "##icija": 94494,
  "##舵": 116419,
  "##haber": 67034,
  "##дық": 24629,
  "Second": 14181,
  "nomination": 30807,
  "##pter": 38384,
  "##ਰਤੀ": 90359,
  "幫": 3639,
  "prenant": 88003,
  "킬": 9841,
  "Carolina": 14329,
  "##έρι": 102587,
  "golden": 52477,
  "##ouer": 84777,
  "rhai": 78520,
  "Kromě": 65748,
  "Schwerin": 56955,
  "space": 16199,
  "##tona": 48247,
  "teria": 48362,
  "канцы": 95483,
  "氧": 4861,
  "##lijas": 99632,
  "##ًا": 13633,
  "##берт": 57289,
  "##గి": 79272,
  "профессором": 90760,
  "##ან": 32626,
  "##bník": 106977,
  "##ferred": 101162,
  "앨": 9535,
  "弑": 3711,
  "##تلال": 102306,
  "osales": 91380,
  "Contest": 31807,
  "거": 8863,
  "##ченные": 106314,
  "##ே": 18827,
  "##kene": 60735,
  "幅": 3630,
  "номером": 69782,
  "cult": 58212,
  "##EE": 95825,
  "седиште": 101197,
  "archipel": 90732,
  "agents": 32124,
  "##坛": 112817,
  "##іў": 45361,
  "薑": 6899,
  "##弱": 113493,
  "##not": 32514,
  "baino": 19545,
  "##áľa": 106376,
  "##лив": 54926,
  "衍": 7070,
  "dagens": 46998,
  "##glen": 97550,
  "akt": 98610,
  "##lland": 102474,
  "##閩": 117911,
  "Innovation": 60565,
  "uscire": 108770,
  "diocesi": 36588,
  "zostać": 76073,
  "##ндегі": 92589,
  "##oidea": 84254,
  "##bollsspelare": 104677,
  "##zyny": 108611,
  "##涟": 114785,
  "BirdLife": 34832,
  "преимущественно": 52008,
  "albedo": 63271,
  "করার": 33202,
  "prinsip": 110819,
  "chiến": 14463,
  "photography": 46747,
  "basket": 47178,
  "Frankrig": 61223,
  "aceste": 52823,
  "башчысы": 60283,
  "##柔": 114306,
  "Edwards": 17263,
  "hänet": 24856,
  "≥": 1819,
  "辺": 7683,
  "##एका": 50877,
  "鎬": 8009,
  "mãos": 86011,
  "시즌": 45742,
  "Saw": 74666,
  "징": 9713,
  "结": 6339,
  "##dió": 35747,
  "Zadar": 110680,
  "američki": 52146,
  "399": 37911,
  "##nă": 23181,
  "başına": 71277,
  "##čkog": 26223,
  "##erų": 92938,
  "Országos": 75440,
  "comparative": 101258,
  "##ленных": 52944,
  "interni": 81321,
  "Juno": 70560,
  "という": 13806,
  "أفريقيا": 60853,
  "jamais": 22168,
  "##ечи": 94218,
  "專": 3453,
  "Eternal": 66670,
  "##貓": 117179,
  "Bogdan": 68194,
  "atuou": 80469,
  "##λητής": 109000,
  "मण्डलवार": 44954,
  "классификатор": 57978,
  "##驊": 118305,
  "##nn": 13538,
  "Wood": 18315,
  "צבאי": 96891,
  "##ваш": 77306,
  "possa": 47343,
  "sitten": 46146,
  "##lz": 48275,
  "##ný": 12417,
  "##dice": 29092,
  "definition": 35431,
  "tecnico": 53087,
  "##膝": 116363,
  "barrios": 70257,
  "华": 2674,
  "otti": 61379,
  "восьми": 100815,
  "línia": 38909,
  "assunto": 66154,
  "##яття": 95343,
  "rappresentazione": 96484,
  "Gornja": 95082,
  "arbeidet": 38555,
  "यहाँ": 37582,
  "##促": 112068,
  "##שונות": 100385,
  "vond": 35401,
  "trasporto": 60466,
  "##aulio": 102798,
  "fonts": 63629,
  "##مثل": 50326,
  "ઠ": 1093,
  "derby": 95083,
  "亚": 2158,
  "##wskiego": 23156,
  "می": 29869,
  "Indigenous": 101178,
  "beweging": 67630,
  "installe": 53096,
  "##臼": 116393,
  "##очий": 92365,
  "dini": 51974,
  "趴": 7544,
  "##덜": 118783,
  "солдат": 37728,
  "##utama": 108363,
  "##ங்கிய": 95742,
  "##ેલા": 105172,
  "kolme": 25888,
  "частей": 54017,
  "osan": 73095,
  "##淞": 114810,
  "##colhido": 106494,
  "NE": 86607,
  "##perator": 85639,
  "##ация": 38878,
  "developments": 74475,
  "數": 4310,
  "فصيلة": 94462,
  "Johnny": 15551,
  "##øger": 89148,
  "##tiven": 99665,
  "lucru": 66152,
  "##Ε": 60290,
  "##сада": 91003,
  "كتابه": 95940,
  "RK": 105546,
  "syn": 14379,
  "физической": 96686,
  "洁": 4961,
  "Astrid": 62696,
  "شاہ": 47889,
  "Ա": 625,
  "Parallel": 70913,
  "otros": 12525,
  "հին": 63979,
  "Bau": 18727,
  "продукції": 108852,
  "ایشلدنلری": 15150,
  "voiced": 59900,
  "Jamaica": 32699,
  "042": 97672,
  "‡": 1728,
  "构": 4514,
  "##Ă": 110930,
  "##jå": 69851,
  "##ערבית": 70479,
  "高": 8595,
  "畔": 5624,
  "##gang": 13755,
  "pianist": 44891,
  "сина": 39275,
  "მარტი": 99787,
  "пунктаў": 38257,
  "devenit": 34134,
  "Infinite": 89903,
  "##μβάνει": 98414,
  "Até": 71935,
  "##കി": 92571,
  "芯": 6690,
  "χρόνο": 55342,
  "ella": 15121,
  "lính": 64713,
  "Congresso": 51126,
  "esercizio": 104945,
  "##שתמש": 86086,
  "5°": 58239,
  "mind": 21133,
  "dianggap": 34126,
  "सनातन": 89986,
  "Με": 30694,
  "Emirates": 66967,
  "##八": 112217,
  "##များ": 26705,
  "честь": 19754,
  "##ガー": 69091,
  "округ": 25224,
  "妙": 3252,
  "##zaj": 84269,
  "даже": 21769,
  "##જી": 53310,
  "劾": 2611,
  "##榆": 114447,
  "Trata": 69608,
  "##棄": 114391,
  "Graham": 16928,
  "##닉": 118766,
  "價": 2406,
  "##skab": 55551,
  "螺": 7044,
  "ספרו": 94426,
  "##魏": 118387,
  "élite": 60184,
  "Boyko": 68913,
  "القرى": 97875,
  "##rit": 16598,
  "приводит": 73578,
  "1427": 82765,
  "עוד": 29787,
  "scales": 81817,
  "##앤": 119123,
  "##舺": 116423,
  "##τουργία": 110338,
  "##27": 90861,
  "Ukończył": 83806,
  "##ేషన్": 76164,
  "ฯ": 1438,
  "##мым": 80128,
  "Engelstalige": 72939,
  "##eti": 16490,
  "leit": 59982,
  "դրությամբ": 39317,
  "начинается": 63106,
  "##ikat": 49295,
  "##ніка": 54190,
  "##gico": 63977,
  "霽": 8319,
  "##рын": 21568,
  "Euphorbia": 55666,
  "அல்லது": 19952,
  "ander": 23336,
  "##군을": 107598,
  "Bomb": 63141,
  "Approach": 89783,
  "准": 2503,
  "foi": 10448,
  "долчу": 78236,
  "##ища": 46449,
  "##âr": 99591,
  "ont": 11378,
  "szóló": 74320,
  "##geld": 74226,
  "Պետական": 39305,
  "svojoj": 49939,
  "grevskapet": 68669,
  "Laufe": 42179,
  "αποτελούν": 103880,
  "nového": 67677,
  "kościół": 33819,
  "Armand": 38428,
  "Organisation": 22223,
  "##ær": 19210,
  "integrante": 70387,
  "##훌": 119450,
  "অবস্থিত": 38173,
  "##arum": 64337,
  "med": 10172,
  "زادهٔ": 28051,
  "腺": 6588,
  "Mondiale": 73672,
  "Ursprünglich": 72843,
  "spesie": 83773,
  "鳍": 8700,
  "perte": 72220,
  "##јбољи": 103791,
  "genellikle": 59847,
  "duquel": 95956,
  "powierzchni": 26140,
  "##ворити": 104963,
  "मूल": 57206,
  "gravadora": 87223,
  "metode": 44544,
  "salir": 54972,
  "tạo": 17783,
  "britannico": 35255,
  "Later": 16397,
  "淅": 5035,
  "##ధి": 73848,
  "##álu": 42091,
  "##ेद": 82813,
  "mõisa": 88828,
  "##্যে": 47914,
  "##ську": 21782,
  "נשק": 99516,
  "荫": 6759,
  "tais": 43625,
  "Pio": 42712,
  "ಅವರ": 26106,
  "Имеет": 109132,
  "##gence": 40078,
  "##۸۳": 70269,
  "Congreso": 30480,
  "##dud": 82967,
  "commitment": 75010,
  "##凤": 112281,
  "verbindet": 66580,
  "##কালীন": 79512,
  "Аьхка": 61812,
  "##煥": 115101,
  "перепись": 31022,
  "lunga": 35825,
  "##gree": 91479,
  "##овый": 43206,
  "inspiration": 40699,
  "##zeko": 23462,
  "滑": 5133,
  "##화를": 56999,
  "##姻": 113051,
  "JB": 69437,
  "##тски": 37387,
  "##tus": 12280,
  "##mmat": 70485,
  "દેશના": 30851,
  "##ренц": 97747,
  "åpnet": 63887,
  "Brunner": 66870,
  "пункты": 22593,
  "##znego": 41881,
  "stone": 23905,
  "Resident": 57129,
  "##знание": 101495,
  "##ئس": 92721,
  "பக்": 58872,
  "##ačno": 95777,
  "姨": 3280,
  "Films": 19532,
  "##кор": 83322,
  "倣": 2343,
  "дворов": 48513,
  "abad": 22371,
  "thiếu": 54594,
  "##разу": 43333,
  "augmenter": 97897,
  "ave": 47145,
  "țări": 95935,
  "##лый": 48276,
  "கட்டுப்பாட்டில்": 62336,
  "๋": 1460,
  "##ೀನ": 92151,
  "lá": 26142,
  "Langue": 75591,
  "zostaje": 63527,
  "йыл": 39729,
  "moyens": 49832,
  "##滞": 114907,
  "肄": 6497,
  "1478": 67956,
  "##אף": 107924,
  "پی": 38672,
  "##riko": 60543,
  "##женер": 95211,
  "junta": 67656,
  "##ی": 10278,
  "quand": 20795,
  "##逞": 117504,
  "譽": 7289,
  "##tą": 27282,
  "Paz": 23236,
  "АССР": 39257,
  "pracował": 34127,
  "##臨": 116386,
  "##mins": 94795,
  "остров": 34392,
  "Kemudian": 52362,
  "০": 993,
  "##πιπλέον": 84405,
  "Regatul": 103080,
  "njihove": 60250,
  "histórica": 36818,
  "distinguish": 98291,
  "##urm": 88970,
  "##gato": 45445,
  "Aleksandar": 68633,
  "##üllen": 88226,
  "##वाल": 94597,
  "وكانت": 19238,
  "Toinen": 92285,
  "揽": 4194,
  "##пта": 64322,
  "משפחתו": 81196,
  "亢": 2164,
  "##аи": 35912,
  "ознакама": 93241,
  "廂": 3680,
  "##yed": 68159,
  "einige": 16704,
  "##옹": 119159,
  "##逕": 117498,
  "Fiesta": 60688,
  "##メン": 95397,
  "tahta": 109570,
  "commercially": 102076,
  "##рква": 105493,
  "##洗": 114731,
  "loin": 39153,
  "傕": 2378,
  "afirmar": 96639,
  "##ਧ": 100583,
  "Dva": 89587,
  "yeren": 52855,
  "##始": 113034,
  "##Ì": 110913,
  "PD": 65535,
  "Mandat": 94422,
  "Mailand": 67452,
  "Freiburg": 29283,
  "##ਣਾ": 36943,
  "psychological": 74927,
  "##埤": 112860,
  "canons": 56023,
  "##neaux": 79390,
  "剃": 2563,
  "##镕": 117886,
  "拟": 4077,
  "##ოლის": 82557,
  "చ": 1205,
  "##ájában": 81791,
  "##식의": 106589,
  "المياه": 55828,
  "饑": 8484,
  "##essur": 104738,
  "##ână": 48452,
  "којих": 51338,
  "##olata": 78126,
  "diterima": 84571,
  "ריצ": 101897,
  "Dimitri": 73589,
  "possiede": 75537,
  "Laurel": 60078,
  "խավարածրի": 100270,
  "##щание": 96316,
  "Fußball": 34716,
  "dessen": 14113,
  "Tam": 27324,
  "癫": 5706,
  "##বস্থা": 106676,
  "Universitario": 85471,
  "アルバム": 39316,
  "##질": 48599,
  "institutas": 48034,
  "erretiraturik": 33402,
  "##zielił": 108287,
  "big": 22185,
  "armies": 84773,
  "##gore": 103004,
  "E1": 105481,
  "##דק": 109780,
  "##gné": 85203,
  "##клад": 43067,
  "##full": 102045,
  "сам": 19654,
  "Barney": 54262,
  "tem": 12900,
  "Claude": 14318,
  "Krüger": 98677,
  "takže": 63013,
  "τρεις": 48752,
  "##iones": 21140,
  "##vin": 15478,
  "##שחקנים": 109587,
  "BiH": 36955,
  "EUA": 35887,
  "偃": 2357,
  "##áhl": 86004,
  "##iente": 22847,
  "тăрăхĕ": 85725,
  "篠": 6112,
  "##орно": 96528,
  "##yard": 29629,
  "1574": 50149,
  "хотел": 83441,
  "ordini": 82231,
  "hora": 24301,
  "Countess": 101133,
  "##睡": 115549,
  "الأخرى": 31426,
  "Закон": 48061,
  "##லைவர்": 109172,
  "opération": 43873,
  "##esi": 17582,
  "britànic": 94609,
  "scuola": 27739,
  "mariajita": 75450,
  "sezonunda": 53861,
  "Suecia": 45931,
  "##aff": 100399,
  "查": 4547,
  "##sheim": 50565,
  "##었으며": 52476,
  "##၄": 37024,
  "kent": 29856,
  "della": 10286,
  "##reate": 104379,
  "реестріндегі": 41814,
  "speler": 56217,
  "##тия": 33221,
  "either": 16106,
  "mündet": 60759,
  "##ерс": 62408,
  "ciel": 40229,
  "דן": 101760,
  "گرفت": 27416,
  "##taires": 82861,
  "缨": 6384,
  "Olof": 54687,
  "ингл": 71456,
  "##َّ": 45366,
  "অংশ": 47687,
  "utilisé": 23271,
  "##繼": 116063,
  "##icije": 101018,
  "nécessaire": 49672,
  "Gereformeerde": 66186,
  "manter": 55991,
  "诵": 7355,
  "بیولوژی": 81190,
  "##混": 114821,
  "##nç": 57393,
  "guidance": 78112,
  "##tuje": 73968,
  "##issant": 71905,
  "počinje": 59082,
  "dobila": 52141,
  "ι": 473,
  "##టలు": 55842,
  "##äre": 29048,
  "cinéma": 26552,
  "Lion": 27148,
  "##۸۹": 58204,
  "IUE": 29668,
  "שיר": 66996,
  "##ар": 12766,
  "viac": 52801,
  "estrelles": 76097,
  "##atu": 19003,
  "тұрғындарының": 20121,
  "Infrared": 84250,
  "nautical": 106425,
  "változatának": 79106,
  "##vora": 31334,
  "aufgeteilt": 100261,
  "糎": 6165,
  "Somalia": 44803,
  "##жээ": 41873,
  "##ینده": 50041,
  "##ікі": 46031,
  "comuni": 31088,
  "praia": 103505,
  "##еним": 84602,
  "##stätten": 89594,
  "вдалося": 70665,
  "톤": 9875,
  "##kk": 20024,
  "낸": 8997,
  "Fishes": 28838,
  "Први": 63846,
  "всяка": 95186,
  "##袒": 116860,
  "##pukan": 107342,
  "పట్టణమైన": 42443,
  "others": 14633,
  "possuem": 69569,
  "##빚": 119006,
  "وہ": 21035,
  "##niki": 25654,
  "kon": 18840,
  "teil": 21185,
  "having": 13677,
  "đạn": 60711,
  "водохозяйственный": 88760,
  "metod": 81203,
  "##getragen": 75550,
  "manier": 50074,
  "terdapat": 21343,
  "ինստիտուտի": 81495,
  "##елей": 35242,
  "揆": 4178,
  "##羟": 116187,
  "bombs": 94510,
  "Limoges": 71026,
  "SED": 80273,
  "corona": 31206,
  "पी": 85166,
  "Galicia": 20447,
  "წინააღმდეგ": 80025,
  "occupied": 28634,
  "kanskje": 84867,
  "##дається": 80254,
  "светског": 67445,
  "позиции": 37714,
  "городом": 79762,
  "##wki": 85872,
  "théologie": 109204,
  "##šky": 45051,
  "##창": 100420,
  "##fire": 38990,
  "沂": 4902,
  "##teurs": 32726,
  "►": 1853,
  "殊": 4813,
  "##ющее": 54912,
  "##edu": 102305,
  "leèl": 70378,
  "##ava": 15181,
  "パリ": 109640,
  "Walden": 109980,
  "##нює": 57628,
  "##rrell": 68122,
  "##rane": 27275,
  "Leclerc": 108929,
  "cursa": 94961,
  "擒": 4254,
  "##임": 36240,
  "##였다": 34776,
  "part": 10668,
  "Horne": 94258,
  "यह": 13525,
  "##esca": 58412,
  "##ნული": 42643,
  "бассейны": 12503,
  "parlare": 90238,
  "##90": 61400,
  "##ίδες": 72719,
  "relativamente": 32004,
  "goude": 54692,
  "##szakban": 93619,
  "дни": 41133,
  "ഃ": 1320,
  "wszedł": 86769,
  "Париз": 103071,
  "فئة": 51925,
  "સૌરાષ્ટ્ર": 107050,
  "##šnjeg": 93475,
  "Süden": 19028,
  "Ël": 39906,
  "##اح": 20609,
  "Яна": 57829,
  "forman": 41830,
  "##ição": 24733,
  "gaur": 64021,
  "Comes": 46254,
  "vjerojatno": 91534,
  "działania": 52308,
  "##lərlə": 70886,
  "Train": 29595,
  "Песня": 70839,
  "##brochen": 89130,
  "埗": 3089,
  "##룽": 118894,
  "##ze": 10870,
  "٬": 813,
  "991": 80351,
  "العرب": 45842,
  "##鯛": 118409,
  "##оби": 48390,
  "بالقرب": 85290,
  "默": 8805,
  "Sono": 32916,
  "האימפריה": 47457,
  "cómo": 39649,
  "##ติ": 80275,
  "##ičių": 106049,
  "滨": 5146,
  "Cyril": 49915,
  "ZWG": 60130,
  "倘": 2338,
  "##ията": 54840,
  "##亀": 111910,
  "ஒன்றாகும்": 107370,
  "948": 80118,
  "##جنس": 109014,
  "Palestina": 34357,
  "##neri": 54839,
  "##ònia": 32967,
  "##rament": 59823,
  "Większość": 94951,
  "##фія": 83422,
  "uspjeh": 95447,
  "##册": 112240,
  "Pacifico": 110400,
  "##ворения": 87792,
  "##滬": 114914,
  "##ლებული": 90435,
  "lisäksi": 24614,
  "##lgar": 62273,
  "так": 12123,
  "##リ": 21612,
  "Strike": 47256,
  "post": 11841,
  "Menengah": 38292,
  "Shandong": 100293,
  "Felip": 92270,
  "##萃": 116572,
  "##ového": 31186,
  "חודשים": 65104,
  "##कर": 19444,
  "##알": 119113,
  "禅": 5930,
  "##edt": 45160,
  "##zien": 85942,
  "Berichte": 96242,
  "tala": 100707,
  "տվյալներով": 24065,
  "##ծման": 76052,
  "寨": 3433,
  "מערכות": 67287,
  "##شرف": 70256,
  "cd": 42076,
  "##aniu": 60742,
  "##ử": 66499,
  "rendszer": 62095,
  "Fever": 60534,
  "kraji": 46387,
  "โดย": 69517,
  "俪": 2320,
  "köydür": 64410,
  "##iça": 107795,
  "museet": 96141,
  "weiteres": 49078,
  "##르": 31401,
  "侨": 2293,
  "ہوتا": 40615,
  "##ցել": 35515,
  "¬": 209,
  "chỗ": 71535,
  "##墩": 112917,
  "陽": 8237,
  "##øre": 59579,
  "##asy": 93789,
  "fecha": 24283,
  "##wels": 67103,
  "##痢": 115444,
  "câștigat": 72366,
  "lebih": 13394,
  "acht": 19802,
  "iii": 109680,
  "嫁": 3327,
  "螳": 7043,
  "##veno": 59226,
  "distancia": 25952,
  "Lộc": 95255,
  "veto": 104017,
  "##korea": 71414,
  "##苴": 116483,
  "üzvü": 74354,
  "breit": 51449,
  "округіне": 73254,
  "possono": 20313,
  "##绣": 116116,
  "creator": 69137,
  "wydanie": 101364,
  "Hannibal": 61325,
  "탱": 9860,
  "kromě": 75002,
  "חמישה": 98002,
  "##ępowania": 103684,
  "##迈": 117460,
  "##czyło": 98317,
  "##つつ": 96307,
  "Albumi": 91079,
  "##вление": 78068,
  "##ложен": 99187,
  "budovy": 66405,
  "drums": 22061,
  "##logi": 25504,
  "marked": 26981,
  "pense": 77184,
  "Sylvie": 91991,
  "вдоль": 62741,
  "Murdoch": 98283,
  "Cel": 82804,
  "ada": 15290,
  "##تون": 27278,
  "présidence": 68439,
  "pagal": 39342,
  "##φής": 105848,
  "##ала": 15522,
  "antichi": 65765,
  "##ائف": 97627,
  "Márquez": 76570,
  "מטר": 28067,
  "##drat": 92659,
  "##కి": 17456,
  "##gām": 96502,
  "曳": 4448,
  "Michał": 48571,
  "##悠": 113632,
  "convoy": 86733,
  "reprann": 49786,
  "Ν": 449,
  "fila": 86644,
  "ধ": 966,
  "##љен": 42119,
  "gelten": 53332,
  "59": 11867,
  "##akas": 92034,
  "##ёд": 66828,
  "##ಸಬಹುದು": 88845,
  "nových": 69629,
  "Հայոց": 85406,
  "Charles": 10925,
  "Bavarian": 83553,
  "feeding": 87713,
  "##全": 112214,
  "dito": 47827,
  "##ویش": 72102,
  "##wear": 100629,
  "химии": 93701,
  "##sna": 45981,
  "##ėmė": 78732,
  "انعام": 93751,
  "##קאי": 107059,
  "##聡": 116250,
  "travaille": 36485,
  "fandt": 76851,
  "ytan": 53528,
  "Израиля": 93030,
  "##czony": 32884,
  "Krankenhaus": 69033,
  "##خ": 16498,
  "cuales": 21093,
  "##ぃ": 111788,
  "Sint": 20160,
  "escolas": 63174,
  "kallaste": 10936,
  "welcher": 37564,
  "vasitəsilə": 61791,
  "volgen": 107175,
  "##ficata": 47903,
  "և": 706,
  "Species": 10300,
  "设": 7318,
  "##寬": 113202,
  "rummut": 64103,
  "Սփրինգեր": 97780,
  "##уни": 57435,
  "##ニア": 25068,
  "Session": 61278,
  "versehen": 58712,
  "oro": 16002,
  "左": 3585,
  "получила": 30860,
  "ಯಾವುದೇ": 57657,
  "杼": 4510,
  "передач": 96043,
  "Польшчы": 93823,
  "れている": 64173,
  "##ање": 32678,
  "승": 9484,
  "##చారు": 95172,
  "dopuniti": 29356,
  "fuselage": 104515,
  "鸥": 8750,
  "Jesse": 27213,
  "участвовали": 101005,
  "ons": 54242,
  "##ത്": 17676,
  "activation": 91554,
  "泻": 4957,
  "Again": 21837,
  "##ानी": 53271,
  "братом": 70022,
  "Ze": 15536,
  "והן": 57801,
  "##ullit": 60219,
  "replacement": 41636,
  "Rocky": 31015,
  "##jken": 57238,
  "estrellas": 60340,
  "pieno": 71778,
  "Garten": 59515,
  "##ンリー": 109505,
  "488": 45400,
  "Armed": 51383,
  "নামক": 79540,
  "##ਈ": 28704,
  "##racht": 56946,
  "cursos": 42828,
  "दक्ले": 69682,
  "tamén": 18483,
  "местных": 63211,
  "toegevoegd": 87494,
  "minori": 65411,
  "直": 5759,
  "##anischen": 76347,
  "ocupar": 37828,
  "оқу": 91759,
  "##ҙең": 59522,
  "##뢰": 118887,
  "鬍": 8606,
  "##acteur": 102400,
  "always": 19540,
  "##rj": 106186,
  "Riccardo": 44596,
  "##دت": 32962,
  "നു": 94201,
  "sukces": 85524,
  "##zje": 48726,
  "##önt": 83741,
  "älödons": 31969,
  "谐": 7372,
  "##ویز": 71222,
  "ketiga": 39047,
  "##슘": 119076,
  "##four": 69986,
  "##racia": 73348,
  "reaction": 35723,
  "##களுக்கு": 34432,
  "PKK": 105298,
  "Pembangunan": 93777,
  "menciptakan": 110296,
  "chó": 78129,
  "Cent": 52013,
  "##त्ति": 102910,
  "avea": 20214,
  "prodotta": 67995,
  "вели": 75844,
  "歐": 4786,
  "만": 9248,
  "Да": 30417,
  "Möglichkeit": 39986,
  "1718": 36703,
  "##itation": 41372,
  "##בון": 90650,
  "finner": 75838,
  "##нікаў": 70598,
  "##inador": 64687,
  "lagos": 108557,
  "helyet": 64626,
  "##ня": 12751,
  "edição": 26898,
  "##ísla": 102949,
  "##zowe": 74426,
  "936": 70167,
  "indipendenza": 73841,
  "##ndër": 104394,
  "##can": 24154,
  "bâtiments": 39754,
  "##bile": 15642,
  "##wall": 33743,
  "համարվում": 55025,
  "勳": 2634,
  "ہویا": 57529,
  "##изация": 86382,
  "managed": 22391,
  "撞": 4232,
  "回": 2999,
  "Thompson": 13288,
  "templos": 91661,
  "蚤": 6971,
  "驗": 8543,
  "Experiment": 55862,
  "##jából": 62352,
  "##cay": 69218,
  "Had": 66434,
  "##zky": 46575,
  "##bito": 48000,
  "dur": 28959,
  "534": 43177,
  "aparte": 60917,
  "##唯": 112651,
  "俘": 2310,
  "##μων": 47587,
  "##nta": 14732,
  "##zə": 43588,
  "687": 64549,
  "Лудвиг": 100364,
  "ümumi": 83089,
  "dùng": 22344,
  "civils": 69289,
  "Depression": 63287,
  "##橈": 114502,
  "caput": 88664,
  "凜": 2511,
  "##område": 61307,
  "##بس": 76081,
  "##talen": 87163,
  "##暨": 114195,
  "súng": 50585,
  "Amerikan": 31598,
  "##zala": 110592,
  "##ák": 12951,
  "received": 12296,
  "Parte": 49879,
  "##caret": 98397,
  "##poli": 29378,
  "GDP": 47832,
  "1400": 20425,
  "ubi": 75459,
  "Tyrone": 103280,
  "άρχισε": 71224,
  "newspapers": 48473,
  "탤": 9857,
  "##ząc": 70618,
  "чейин": 40127,
  "##vested": 83099,
  "##blick": 51456,
  "embora": 33697,
  "##ï": 27514,
  "그러나": 21890,
  "scontro": 66472,
  "Lise": 81930,
  "##ąd": 34965,
  "．": 10066,
  "Turner": 18339,
  "ก": 1395,
  "Supercopa": 74348,
  "happy": 54214,
  "paint": 72700,
  "Riding": 79593,
  "FIFA": 13707,
  "Ким": 98384,
  "茛": 6730,
  "estende": 62429,
  "taux": 31323,
  "banda": 12274,
  "##hique": 108433,
  "состоит": 34902,
  "Никола": 39482,
  "凯": 2520,
  "Работал": 71654,
  "críticos": 47138,
  "naseljenosti": 48555,
  "##jumā": 86386,
  "##rição": 105333,
  "toku": 50019,
  "##られている": 45176,
  "sénateur": 95554,
  "soutenir": 106517,
  "жана": 12315,
  "##Ș": 110987,
  "##돋": 118793,
  "hutan": 51220,
  "Nhà": 30617,
  "difusi": 60991,
  "ა": 1564,
  "##zadores": 96896,
  "##tenberg": 97080,
  "pusat": 31069,
  "##롭": 118884,
  "картина": 76805,
  "##引": 113481,
  "##吏": 112542,
  "##σμός": 63139,
  "конфликта": 109760,
  "kasutatakse": 49149,
  "compris": 33497,
  "原": 2715,
  "عبر": 34223,
  "strings": 76060,
  "##üei": 94898,
  "##מלחמה": 68677,
  "屯": 3503,
  "теорії": 72646,
  "鎏": 8002,
  "##ässä": 27010,
  "詩": 7202,
  "משרד": 55724,
  "Сад": 103629,
  "##бург": 20928,
  "cámara": 49368,
  "##opp": 91251,
  "⑤": 1835,
  "##itische": 48520,
  "##ou": 11010,
  "蘄": 6932,
  "առանց": 90649,
  "Sheridan": 57434,
  "瓯": 5590,
  "Current": 37293,
  "##cih": 95603,
  "##dapat": 75546,
  "1601": 45979,
  "##गढ": 103198,
  "catholique": 35141,
  "ludzi": 40868,
  "317": 30986,
  "周": 2822,
  "##čaj": 62215,
  "visitantes": 70735,
  "nimetatakse": 81118,
  "después": 12884,
  "##סן": 76608,
  "fewer": 74139,
  "##ency": 87415,
  "##odas": 87496,
  "##онг": 95349,
  "##韮": 118132,
  "禹": 5942,
  "##манской": 99005,
  "Denemarken": 102649,
  "##sisch": 103248,
  "##宕": 113150,
  "interpreted": 87134,
  "##cratie": 65207,
  "##ಸಿದ": 30142,
  "stran": 74536,
  "##уа": 37804,
  "##oof": 57212,
  "##莓": 116536,
  "televisió": 69877,
  "##mmet": 77068,
  "##ər": 16540,
  "##हिक": 89318,
  "waarvoor": 109622,
  "razão": 82287,
  "dzięki": 33758,
  "Чулман": 59978,
  "##絡": 115981,
  "##திகள்": 83314,
  "girdi": 82965,
  "##jor": 100248,
  "ಗೆ": 86961,
  "دانش": 82920,
  "##čelo": 92061,
  "vẫn": 22666,
  "הבריטי": 46721,
  "செயலகம்": 107766,
  "##古": 112513,
  "##埼": 112866,
  "Astronomicae": 77012,
  "##σ": 111053,
  "##énero": 88221,
  "beschrieben": 44577,
  "##腌": 116338,
  "emissions": 88126,
  "##連": 117508,
  "##roux": 65971,
  "##kio": 54823,
  "raccoglie": 76161,
  "fuerces": 99985,
  "ḥ": 1628,
  "##تج": 51731,
  "##隨": 118023,
  "##иње": 81965,
  "Luz": 45492,
  "##巷": 113361,
  "objetivo": 23518,
  "القلب": 76703,
  "гибели": 109480,
  "Đài": 49509,
  "தமிழ்": 19850,
  "formou": 59778,
  "再": 2475,
  "##zesa": 96227,
  "##ply": 59146,
  "XVIII": 13058,
  "županija": 48216,
  "ஒ": 1149,
  "##бру": 64971,
  "闍": 8155,
  "##езд": 58468,
  "##nadi": 56293,
  "叟": 2742,
  "##ッグ": 63479,
  "Sanremo": 71345,
  "駒": 8521,
  "##kha": 77639,
  "documentary": 27838,
  "##льским": 82909,
  "##wimmer": 87608,
  "##meren": 63703,
  "凳": 2523,
  "igra": 53697,
  "##tiska": 62398,
  "##草": 116511,
  "користат": 97114,
  "##eun": 69488,
  "##mäßig": 48392,
  "##cursions": 88228,
  "theartofpainting": 103194,
  "##ほか": 35576,
  "podle": 20744,
  "operação": 91567,
  "##변": 118985,
  "##kua": 64076,
  "începe": 104227,
  "##зи": 14894,
  "##哇": 112623,
  "##лор": 57851,
  "mainland": 70083,
  "##абель": 103005,
  "चिकुला": 51828,
  "ohne": 15032,
  "jól": 53124,
  "##латы": 45927,
  "primul": 35000,
  "movemento": 106960,
  "##颖": 118203,
  "##ళ": 46549,
  "ganado": 54140,
  "challenge": 36040,
  "##öse": 48282,
  "##펑": 119390,
  "OR": 69308,
  "సామాజిక": 18620,
  "##hrax": 100600,
  "##uco": 52893,
  "観": 7152,
  "края": 18032,
  "##τερες": 56730,
  "##իայի": 83226,
  "Faust": 48730,
  "källa": 59607,
  "##iples": 103705,
  "##ены": 22589,
  "высокого": 106197,
  "Kato": 92698,
  "ciudades": 29584,
  "Temporada": 84955,
  "Motion": 32041,
  "Umfang": 93377,
  "##lain": 50280,
  "Đại": 17404,
  "Польше": 98247,
  "繇": 6281,
  "##gati": 58766,
  "Gulf": 28239,
  "##riidae": 58683,
  "것": 8870,
  "Часть": 61509,
  "##presidente": 83029,
  "liée": 85219,
  "##żona": 97399,
  "exèrcit": 38206,
  "##enko": 56204,
  "##вие": 55763,
  "WR": 109006,
  "##еті": 51989,
  "מספר": 17187,
  "kinadak": 80828,
  "##rology": 82286,
  "##ويات": 83249,
  "البلاد": 43462,
  "##გო": 73723,
  "##ెట్": 78820,
  "Downs": 86064,
  "纤": 6306,
  "##燈": 115123,
  "##uwen": 41434,
  "##ছিল": 50537,
  "česky": 81789,
  "rút": 53735,
  "Historia": 15727,
  "startade": 95815,
  "##見": 116909,
  "ausgestattet": 57862,
  "##rų": 52791,
  "็": 1456,
  "##叶": 112527,
  "estudis": 42458,
  "Orsini": 97517,
  "##wm": 60708,
  "纮": 6312,
  "995": 66164,
  "##茴": 116503,
  "♭": 1874,
  "##递": 117495,
  "Ora": 73591,
  "##खने": 60166,
  "##اتها": 87676,
  "##یلان": 100344,
  "võivad": 71166,
  "cü": 18358,
  "##irea": 60330,
  "She": 11149,
  "komplett": 54976,
  "lenta": 81137,
  "счётом": 63571,
  "佩": 2267,
  "eskola": 35190,
  "planted": 97444,
  "descobrir": 80262,
  "научной": 60133,
  "##әбе": 48659,
  "umana": 67201,
  "##зију": 105718,
  "##teau": 89685,
  "##øk": 69469,
  "Catalina": 44877,
  "##ował": 15618,
  "atti": 77985,
  "ᵈ": 1608,
  "##蔑": 116631,
  "creating": 29132,
  "##광": 118649,
  "##уй": 110247,
  "##личаются": 109170,
  "announcement": 76557,
  "麥": 8786,
  "Ричард": 54950,
  "##าน": 44121,
  "gatunków": 50027,
  "Ο": 451,
  "wishes": 103832,
  "顎": 8400,
  "##侨": 112059,
  "ʼ": 412,
  "##amerika": 45398,
  "храму": 86927,
  "##عمل": 36828,
  "ਖੇਤਰ": 94416,
  "##무라": 108669,
  "Besitz": 28322,
  "##вил": 39678,
  "皱": 5729,
  "Ιανουαρίου": 62236,
  "щодо": 31295,
  "ゞ": 1983,
  "##叱": 112524,
  "Я": 540,
  "##ED": 33809,
  "##хоз": 71169,
  "clínica": 108120,
  "sand": 45989,
  "##tinto": 97490,
  "##ὡ": 111603,
  "présence": 25945,
  "##ajo": 44543,
  "footballer": 24445,
  "Courage": 93426,
  "palco": 75243,
  "существуют": 110257,
  "##幼": 113414,
  "choroby": 82949,
  "alrededor": 25289,
  "##hyngwladol": 108920,
  "##宦": 113166,
  "粛": 6150,
  "فراهم": 94931,
  "உள்ளனர்": 53681,
  "Jing": 94154,
  "海": 5005,
  "caballo": 90933,
  "Kasnije": 83372,
  "Испании": 41988,
  "Monza": 61788,
  "789": 78596,
  "הקיבוץ": 103235,
  "##ND": 58521,
  "##هی": 50158,
  "##歳": 114566,
  "Record": 18814,
  "cá": 23664,
  "Chang": 28545,
  "##ønt": 99755,
  "##ología": 30413,
  "##ً": 16275,
  "Président": 53475,
  "Պ": 650,
  "Étoile": 81872,
  "##раїнського": 85316,
  "espíritu": 77787,
  "steeds": 23418,
  "##til": 19156,
  "Марк": 33307,
  "##rik": 15914,
  "##monte": 84065,
  "Genoa": 63362,
  "##pienia": 94432,
  "##nisch": 40420,
  "jsem": 108918,
  "柿": 4557,
  "DOS": 36442,
  "##朽": 114249,
  "каталогу": 41214,
  "##vout": 100046,
  "Commentary": 107919,
  "mesma": 18404,
  "એક": 16361,
  "esemplari": 48597,
  "представлява": 97084,
  "##綱": 116004,
  "##gy": 17113,
  "##ooni": 69006,
  "entrenador": 38170,
  "услуги": 83532,
  "Cramer": 91562,
  "Méndez": 77095,
  "Ah": 56695,
  "vorbitori": 41901,
  "Grècia": 99343,
  "##萧": 116583,
  "꼈": 8953,
  "односу": 90385,
  "##ਕ": 14673,
  "##條": 114377,
  "##映": 114141,
  "وادي": 60108,
  "槃": 4696,
  "druge": 23556,
  "rozwój": 78571,
  "##щите": 44476,
  "Giro": 27962,
  "мајка": 96454,
  "Ricky": 40486,
  "圪": 3033,
  "Quintus": 98502,
  "Stig": 84588,
  "##્ટ": 57776,
  "##лися": 27880,
  "vastgesteld": 55784,
  "##court": 40496,
  "Eades": 32563,
  "ਨੂੰ": 13816,
  "Each": 23223,
  "##או": 23554,
  "##itě": 102239,
  "##ầm": 31985,
  "##улярных": 101166,
  "shoot": 53839,
  "nennt": 60584,
  "934": 81765,
  "##шлі": 85235,
  "creando": 61683,
  "עדיין": 56801,
  "фильме": 33865,
  "Впервые": 58190,
  "Rookie": 58301,
  "##滓": 114900,
  "poesia": 37966,
  "租": 5957,
  "assembled": 84376,
  "##ട": 42870,
  "keadaan": 50740,
  "drawn": 34788,
  "Belgische": 31619,
  "ҡ": 601,
  "##ырым": 91966,
  "texts": 44707,
  "##ток": 20422,
  "सं": 28466,
  "consisting": 34343,
  "##בה": 17205,
  "##víziós": 87998,
  "##tence": 77379,
  "benoemd": 48459,
  "Bezirk": 29527,
  "##め": 37133,
  "zeeniveau": 89591,
  "##絨": 115984,
  "##蠱": 116829,
  "##чився": 98062,
  "Mystic": 110760,
  "##०": 17646,
  "##גבול": 79521,
  "Bassa": 88370,
  "須": 8377,
  "##قدس": 109752,
  "неё": 35370,
  "manuscrits": 95774,
  "najmniej": 91687,
  "##น์": 39015,
  "##πικό": 85393,
  "影": 3756,
  "Dorothea": 60891,
  "somme": 55487,
  "diende": 100011,
  "Direktor": 34757,
  "##iata": 42902,
  "function": 19367,
  "већи": 109981,
  "Ilha": 56951,
  "##雑": 118045,
  "tailed": 100599,
  "brands": 95810,
  "ಒಬ್ಬ": 85793,
  "הנבחרת": 97592,
  "raka": 95533,
  "##äufer": 83783,
  "భారత": 22869,
  "Oise": 31864,
  "##rike": 30941,
  "##惶": 113665,
  "##∗": 111688,
  "##ਅਰ": 83041,
  "Simon": 12237,
  "put": 14499,
  "gizonak": 34458,
  "kiri": 86279,
  "aldaar": 44337,
  "Μια": 76166,
  "اوستانی": 94184,
  "claim": 27445,
  "Legal": 43109,
  "attempting": 63494,
  "waaronder": 31139,
  "##qdan": 89658,
  "często": 32010,
  "##儘": 112181,
  "fri": 35350,
  "تي": 96615,
  "รับบทเป็น": 35707,
  "##يل": 15951,
  "##elik": 51408,
  "Shoes": 100676,
  "ampliar": 91506,
  "##szeit": 37116,
  "##ام": 13367,
  "kor": 33705,
  "apart": 43084,
  "##lidos": 98708,
  "##jára": 59621,
  "Мінскай": 81731,
  "según": 16029,
  "##וי": 23264,
  "##灶": 115028,
  "toto": 47834,
  "##mete": 46765,
  "##gi": 11210,
  "##шчу": 99132,
  "roi": 15681,
  "Masoandro": 38813,
  "##薮": 116676,
  "##йны": 69657,
  "sát": 25133,
  "##ャ": 69395,
  "Roca": 58384,
  "Blau": 78296,
  "##ിച്ച": 47250,
  "seluruh": 26522,
  "##festo": 61594,
  "##rnek": 99882,
  "##őr": 84530,
  "##واره": 74260,
  "Rings": 71324,
  "##射": 113216,
  "긴": 8933,
  "द": 882,
  "населенных": 32666,
  "##kau": 62119,
  "fundit": 70198,
  "##ք": 15232,
  "lag": 14587,
  "Goose": 106354,
  "##മാർ": 83701,
  "##bě": 28928,
  "formaron": 97230,
  "Eric": 14057,
  "nº": 28630,
  "##lko": 89878,
  "##geschoss": 87654,
  "##ют": 13714,
  "##ğe": 59542,
  "##putados": 76194,
  "ومع": 45518,
  "##ಓ": 111353,
  "schepen": 60849,
  "##влялась": 96123,
  "蒙": 6843,
  "##莲": 116544,
  "entidades": 63240,
  "чијашто": 99551,
  "Sivas": 104362,
  "##狮": 115203,
  "enquanto": 22516,
  "ash": 83244,
  "Haut": 28358,
  "##šta": 21943,
  "##ത്തിൽ": 16832,
  "dar": 12923,
  "дороге": 69948,
  "mana": 18970,
  "##nické": 60850,
  "beyond": 28569,
  "города": 13805,
  "##йського": 58065,
  "Hy": 16986,
  "Boyd": 46088,
  "заводу": 77817,
  "Montréal": 24554,
  "минут": 46920,
  "##ровался": 100083,
  "doors": 56390,
  "##規": 116910,
  "472": 39919,
  "Miranda": 25841,
  "##rle": 43539,
  "грав": 57187,
  "criação": 39619,
  "##咆": 112597,
  "andata": 52730,
  "##ibile": 47300,
  "conduite": 78487,
  "##itt": 25249,
  "##cieli": 48857,
  "Aida": 93337,
  "eat": 69110,
  "Blanche": 39928,
  "肛": 6507,
  "##ऐ": 111198,
  "write": 28685,
  "稳": 5983,
  "匪": 2656,
  "##ज्ञ": 80452,
  "ליצור": 75899,
  "участия": 56574,
  "powers": 32043,
  "##賊": 117210,
  "publiceerde": 101406,
  "仪": 2205,
  "Grupo": 22129,
  "##もので": 56169,
  "##еше": 108654,
  "##ïs": 84066,
  "مثال": 46065,
  "formes": 25049,
  "hvilket": 31639,
  "##מקרים": 67608,
  "##pat": 18115,
  "amihanang": 90051,
  "##死": 114571,
  "estruturas": 81501,
  "parents": 17293,
  "serata": 110393,
  "##蚕": 116733,
  "KGB": 68294,
  "1613": 45261,
  "disponible": 27526,
  "##ственное": 57160,
  "резултат": 39366,
  "Dirección": 51187,
  "hair": 40830,
  "Danish": 29876,
  "dead": 23457,
  "##್ಯದ": 88030,
  "PS": 21290,
  "##юється": 50515,
  "jaanuaril": 86003,
  "vom": 11036,
  "benywaidd": 67971,
  "##éronse": 88277,
  "##চনা": 58914,
  "##τία": 50086,
  "##扶": 113791,
  "Segura": 95857,
  "##inisch": 99546,
  "##swahlen": 98700,
  "tätig": 18615,
  "##דל": 97449,
  "##тин": 25111,
  "##kán": 86449,
  "2017": 10302,
  "##व्या": 88196,
  "riječ": 103786,
  "##ഷ്": 66985,
  "Them": 33353,
  "##cedo": 109445,
  "##lley": 109054,
  "##رمز": 74835,
  "इन": 30114,
  "uur": 43722,
  "##שדה": 79910,
  "surrendered": 104330,
  "Cependant": 24312,
  "##twie": 41396,
  "##ची": 25597,
  "飛": 8456,
  "珩": 5507,
  "throw": 73696,
  "##livá": 108976,
  "##შა": 79194,
  "яшчэ": 73941,
  "drama": 15344,
  "##೪": 70161,
  "чыгарылышы": 26677,
  "##एर": 76131,
  "nisu": 24184,
  "##ilo": 21785,
  "برای": 11835,
  "##улсан": 72328,
  "above": 16038,
  "شیمی": 24802,
  "Congo": 20633,
  "Uniwersytetu": 34630,
  "##sıyla": 51194,
  "License": 89511,
  "##lovaquie": 93430,
  "Lyman": 93672,
  "potrebe": 74825,
  "##逾": 117516,
  "bestuurslaag": 40245,
  "##اج": 24728,
  "zerbitzu": 19477,
  "expositions": 88326,
  "##chtigt": 93474,
  "##ficu": 62103,
  "الرئيسية": 60416,
  "##sungen": 86822,
  "##anen": 70924,
  "苗": 6706,
  "##kä": 61256,
  "Appeals": 108553,
  "##vise": 36540,
  "mampiasa": 31942,
  "##որդ": 37976,
  "##娟": 113062,
  "Reuter": 109223,
  "conventions": 98703,
  "limit": 34316,
  "##זוג": 66509,
  "##ммә": 89910,
  "##컫": 119298,
  "##ыу": 43038,
  "##uela": 40679,
  "полі": 98799,
  "وار": 21822,
  "##udou": 68835,
  "fjerde": 67500,
  "##hých": 64745,
  "Flora": 20607,
  "selected": 19546,
  "prononciation": 100012,
  "##源": 114876,
  "reside": 76481,
  "sijaitseva": 68929,
  "ف": 784,
  "Pape": 16420,
  "Reino": 16619,
  "誇": 7212,
  "kristne": 67962,
  ".": 119,
  "kezdve": 79221,
  "лістапада": 60498,
  "kasama": 96968,
  "Crime": 31305,
  "##ஜ்": 94370,
  "والد": 81365,
  "##contra": 102522,
  "##gesetz": 96408,
  "γύρω": 57858,
  "alebo": 17769,
  "surge": 69824,
  "##նը": 45573,
  "ocurrió": 106251,
  "stilling": 73619,
  "komunë": 62954,
  "títol": 25114,
  "vi": 13956,
  "##ゲ": 111816,
  "萨": 6818,
  "##ikacji": 95064,
  "##နောက်": 71761,
  "##blommiga": 97697,
  "રાજ્યના": 30717,
  "другого": 44655,
  "publiées": 50973,
  "приходится": 87392,
  "##্রিক": 89992,
  "spazio": 35972,
  "##mals": 42488,
  "Núñez": 64482,
  "##ิต": 60625,
  "##lige": 14425,
  "Pinus": 53523,
  "megfelelően": 103580,
  "璋": 5566,
  "orbitalium": 78113,
  "##eme": 36947,
  "##sz": 17272,
  "盯": 5756,
  "formant": 47209,
  "посту": 94797,
  "született": 26822,
  "##غان": 53774,
  "mestre": 41322,
  "Ģ": 311,
  "blog": 31907,
  "assistant": 20999,
  "diferencia": 28204,
  "trener": 37474,
  "ਇਹ": 19427,
  "##적을": 80416,
  "Neon": 95948,
  "##aani": 88586,
  "##johanan": 95546,
  "Arena": 17951,
  "##áveis": 37780,
  "earthquake": 63406,
  "##міі": 109840,
  "verrà": 62880,
  "1999년": 47810,
  "Mu": 49056,
  "notably": 36900,
  "církve": 104757,
  "##össä": 70036,
  "organisée": 68612,
  "Dash": 86020,
  "##頃": 118140,
  "##нік": 34996,
  "депо": 96623,
  "Wessex": 89648,
  "grottor": 65694,
  "##انہ": 84648,
  "langsam": 94336,
  "undergraduate": 66719,
  "этой": 18079,
  "Burmese": 106296,
  "órganos": 88702,
  "internet": 18938,
  "zaludnienia": 43825,
  "культура": 50449,
  "楢": 4667,
  "permitted": 63505,
  "##nių": 23260,
  "Ilay": 32449,
  "##жную": 56934,
  "220": 15817,
  "год": 11974,
  "##ровала": 101703,
  "##zane": 54848,
  "##ãn": 73332,
  "indicar": 58187,
  "capacità": 39550,
  "諧": 7247,
  "##лната": 45323,
  "##柝": 114310,
  "艘": 6662,
  "núi": 32361,
  "栗": 4570,
  "Bir": 19319,
  "имел": 35918,
  "demands": 64886,
  "##埔": 112853,
  "##剌": 112333,
  "handle": 58208,
  "Septiyembre": 56005,
  "웹": 9618,
  "##geon": 58763,
  "kwamba": 76479,
  "elementary": 61235,
  "imperial": 28613,
  "mưu": 72656,
  "##بنية": 100138,
  "alabak": 22065,
  "Moskau": 41389,
  "Plains": 58908,
  "##婿": 113086,
  "Denis": 18454,
  "krievu": 65493,
  "##samlingen": 83149,
  "##ブル": 82554,
  "##реда": 61146,
  "Planetary": 57880,
  "gestión": 56918,
  "Championship": 12341,
  "cités": 108966,
  "##városi": 66235,
  "adran": 66228,
  "Wadi": 80963,
  "胆": 6528,
  "gets": 30811,
  "##song": 76724,
  "##ικά": 22117,
  "Марија": 79448,
  "eligibility": 105225,
  "pisos": 64913,
  "établissements": 25982,
  "##ums": 24379,
  "marcar": 75125,
  "##rto": 36396,
  "Linné": 54904,
  "##izza": 57496,
  "##onnée": 100348,
  "##撮": 114004,
  "1825": 17282,
  "totalt": 32301,
  "банка": 59492,
  "Roberta": 42793,
  "1915": 11682,
  "3ª": 52915,
  "뒤": 9109,
  "ezen": 31294,
  "##nborg": 103840,
  "rencontrent": 108345,
  "Mona": 47894,
  "brûkt": 88209,
  "##вської": 76687,
  "Slavia": 93454,
  "##бу": 19590,
  "arrives": 69631,
  "Bradley": 29308,
  "垦": 3078,
  "Known": 88819,
  "ֆր": 57199,
  "##軻": 117373,
  "palibot": 12124,
  "случаях": 71619,
  "##rales": 64945,
  "##生": 115366,
  "##구를": 97371,
  "##nja": 12582,
  "Владимир": 18501,
  "objectes": 90910,
  "Latvijā": 56693,
  "##ķu": 78503,
  "##镁": 117881,
  "Noch": 40488,
  "##lichen": 12924,
  "##唁": 112641,
  "##ätä": 93295,
  "mikä": 39497,
  "##ﯿ": 119479,
  "guerre": 14158,
  "Korpusu": 104687,
  "Ά": 429,
  "##ბების": 71903,
  "پانی": 50587,
  "unica": 28434,
  "Etter": 17966,
  "##瑠": 115316,
  "babak": 74317,
  "##tenu": 91007,
  "Seri": 48939,
  "dabar": 100655,
  "acute": 75730,
  "##బాద్": 80466,
  "##adku": 93450,
  "Από": 28076,
  "fehér": 59428,
  "##mert": 99057,
  "teljesen": 46546,
  "మ": 1224,
  "Попов": 83840,
  "##писан": 36868,
  "Legend": 25268,
  "##번째": 48506,
  "अलग": 45236,
  "##guila": 79793,
  "מהווה": 80995,
  "nomenat": 36332,
  "##узов": 60649,
  "唆": 2877,
  "Urgell": 92473,
  "mutat": 92198,
  "regulations": 56729,
  "Kandidaten": 84494,
  "исеме": 70578,
  "gks": 49003,
  "1699": 38831,
  "aurait": 23209,
  "##ndro": 78908,
  "##dku": 108031,
  "Entfernung": 76016,
  "conspiracy": 103896,
  "##gbo": 100468,
  "##斛": 114088,
  "του": 10356,
  "Björk": 109281,
  "##ביה": 38891,
  "##碕": 115631,
  "Scooby": 78019,
  "Languedoc": 43992,
  "##鉢": 117706,
  "Артур": 64150,
  "##oses": 43672,
  "recommended": 48864,
  "المادة": 83459,
  "1739": 37219,
  "Itália": 39191,
  "praticamente": 65048,
  "نیو": 72137,
  "##幽": 113415,
  "Jaén": 82537,
  "Blade": 44718,
  "##ама": 35648,
  "Nasional": 32409,
  "##entaire": 106895,
  "Galaxy": 29723,
  "##جهة": 103382,
  "##жната": 85893,
  "Sheriff": 49406,
  "François": 12992,
  "hac": 91196,
  "##薇": 116662,
  "மிகவும்": 49904,
  "verband": 52204,
  "wife": 14384,
  "forts": 63847,
  "interval": 72331,
  "successivamente": 26781,
  "##านี": 83744,
  "##ડા": 59312,
  "##虞": 116716,
  "woorden": 98664,
  "##iában": 34801,
  "१२": 48788,
  "##ésére": 80542,
  "##anese": 81480,
  "##ാല": 79591,
  "Best": 11730,
  "##critti": 68118,
  "##градской": 69533,
  "Representatives": 37774,
  "##йшла": 59310,
  "iwwer": 47769,
  "natural": 13409,
  "##вания": 22617,
  "##үү": 20032,
  "sila": 50031,
  "##чными": 79997,
  "素": 6195,
  "裕": 7107,
  "millî": 51597,
  "##pata": 64639,
  "materiales": 45223,
  "Allgemeinen": 74689,
  "fekete": 65341,
  "Generalitat": 51581,
  "薈": 6897,
  "Store": 21812,
  "##nismo": 55068,
  "Þar": 98601,
  "Иако": 49613,
  "##õna": 90599,
  "好": 3240,
  "Později": 64204,
  "##ḷ": 111557,
  "volkstelling": 19384,
  "##ының": 18650,
  "Mário": 77435,
  "##loch": 99692,
  "kregen": 45061,
  "怜": 3819,
  "AVN": 53811,
  "Icarus": 78132,
  "овие": 52193,
  "##cího": 109277,
  "##шем": 44236,
  "##ništvo": 94235,
  "главной": 61327,
  "khác": 14393,
  "название": 19184,
  "蜢": 7011,
  "1543": 50783,
  "၀": 1548,
  "##иль": 75595,
  "岔": 3512,
  "咀": 2828,
  "vinyl": 64859,
  "##lık": 18422,
  "##pôts": 86203,
  "znajduje": 19189,
  "##acions": 62392,
  "がある": 14103,
  "rappresenta": 50125,
  "##LM": 78399,
  "форма": 29300,
  "Münchner": 58162,
  "##斋": 114081,
  "##zlik": 86836,
  "تخت": 80235,
  "декабрь": 31411,
  "##ongen": 58320,
  "advertising": 49828,
  "marec": 73674,
  "##כבי": 75558,
  "##yczna": 78903,
  "##chischen": 93876,
  "vijfde": 69893,
  "##隘": 118016,
  "zumindest": 69723,
  "Lot": 34837,
  "##JR": 89195,
  "馨": 8509,
  "鸢": 8748,
  "[unused42]": 42,
  "रही": 57203,
  "equally": 85509,
  "##ball": 19805,
  "##ёт": 17186,
  "laatste": 19323,
  "##דת": 26722,
  "##gados": 47897,
  "общего": 51626,
  "ході": 84727,
  "Turki": 37978,
  "##вых": 24416,
  "الجزء": 45678,
  "ferched": 81400,
  "##歧": 114561,
  "##ymuned": 56891,
  "notar": 92370,
  "الشمال": 62803,
  "отримати": 108676,
  "emberek": 72634,
  "Andrews": 29583,
  "giản": 72477,
  "neidr": 58182,
  "Colombo": 40367,
  "##pol": 28924,
  "algumas": 26456,
  "##рили": 89777,
  "##ivos": 26700,
  "°F": 34706,
  "fare": 23252,
  "खँग्वयागु": 30377,
  "допомогою": 34734,
  "fill": 20241,
  "writer": 17556,
  "##ях": 22828,
  "звезды": 99797,
  "боях": 40174,
  "##antes": 25819,
  "Quarter": 75820,
  "##шения": 27711,
  "fusion": 34125,
  "komunitas": 106951,
  "##olus": 61447,
  "Cornelia": 83804,
  "##Χ": 111049,
  "##nah": 53907,
  "##яства": 109090,
  "Duncan": 27964,
  "lasciare": 70875,
  "están": 16037,
  "Alto": 18897,
  "pipe": 82153,
  "##isi": 14553,
  "諷": 7253,
  "வரலாறு": 97759,
  "sokkal": 60730,
  "##イダー": 90657,
  "それぞれ": 99641,
  "медал": 103983,
  "rivals": 71908,
  "Arnhem": 76323,
  "кхуьйлина": 88167,
  "Depuis": 21363,
  "##इड": 104013,
  "opprettet": 52406,
  "آل": 35335,
  "##ják": 20068,
  "Димитър": 58744,
  "sieu": 75417,
  "##боратории": 100442,
  "Scale": 54191,
  "untersucht": 92989,
  "##壹": 112945,
  "7°": 94082,
  "composizione": 63985,
  "凋": 2505,
  "Form": 16927,
  "Ingenieur": 85748,
  "maith": 97315,
  "worker": 64840,
  "libertad": 45348,
  "##פס": 39840,
  "letter": 19310,
  "Оңтүстік": 68268,
  "stellt": 25442,
  "جمع": 43867,
  "##잃": 119190,
  "violin": 44722,
  "##افة": 51212,
  "голо": 92178,
  "##אמנות": 88399,
  "##eks": 27502,
  "##losen": 73013,
  "एका": 80937,
  "##rma": 25248,
  "связи": 18940,
  "Đây": 34563,
  "##чного": 18088,
  "666": 38593,
  "Fiction": 25634,
  "τον": 11099,
  "esis": 12643,
  "辗": 7665,
  "篆": 6107,
  "організацій": 108975,
  "τα": 11698,
  "钚": 8045,
  "kalan": 64906,
  "##lls": 22881,
  "118": 17515,
  "##го": 10990,
  "##öster": 87179,
  "депутатів": 57446,
  "768": 57498,
  "維": 6237,
  "championships": 47211,
  "##ंगु": 93591,
  "Marie": 11834,
  "##닿": 118777,
  "1523": 52502,
  "##кот": 52601,
  "Fredrikstad": 109181,
  "части": 14559,
  "filmes": 31774,
  "喘": 2918,
  "疵": 5661,
  "##itus": 27130,
  "##хід": 37814,
  "##lax": 90001,
  "##crive": 89731,
  "##溺": 114889,
  "##馀": 118266,
  "olika": 22417,
  "Technik": 41279,
  "它": 3374,
  "##դում": 58435,
  "##売": 112941,
  "##נדי": 59626,
  "##тр": 46672,
  "Кеп": 14621,
  "Hrvatski": 78453,
  "##сэн": 28225,
  "549": 53713,
  "##トリック": 93769,
  "T1": 94459,
  "##膚": 116360,
  "промышленности": 45960,
  "opět": 40948,
  "药": 6760,
  "Mort": 56027,
  "Trondheim": 37356,
  "##다는": 82034,
  "errichtete": 52978,
  "##νταν": 61253,
  "addirittura": 81660,
  "информация": 55407,
  "Inoltre": 31046,
  "##თში": 56043,
  "##걸": 118624,
  "Salix": 74617,
  "nghĩ": 98583,
  "tuvieron": 36374,
  "Herrscher": 97496,
  "neo": 50071,
  "##ᵒ": 111538,
  "televisieserie": 69585,
  "垛": 3073,
  "##дан": 15196,
  "컸": 9805,
  "გ": 1566,
  "482": 46810,
  "Júnior": 82222,
  "პოლიტიკური": 97954,
  "##рен": 27332,
  "##شی": 20916,
  "##dhi": 46689,
  "##远": 117468,
  "##iske": 16521,
  "##وند": 33571,
  "145": 17862,
  "aquel": 27599,
  "이유로": 89184,
  "##anna": 41528,
  "عرب": 51552,
  "Hartley": 82206,
  "وعشرون": 75178,
  "prácticas": 97377,
  "ერთი": 24691,
  "osob": 93183,
  "Turkey": 22519,
  "асфалт": 94602,
  "siegte": 98662,
  "##ელთა": 79046,
  "##cción": 18854,
  "grutste": 98731,
  "##kaupunki": 94014,
  "1837": 16168,
  "##laufen": 67972,
  "רבי": 30808,
  "##α": 13140,
  "oppose": 53037,
  "##vania": 40207,
  "Oscara": 97180,
  "Carsten": 109175,
  "摺": 4222,
  "kuri": 39745,
  "##tiva": 17403,
  "齐": 8823,
  "##섯": 103906,
  "nejlepší": 67879,
  "##änge": 47287,
  "Wétan": 59789,
  "##minence": 99194,
  "##褻": 116897,
  "##rni": 21941,
  "wol": 45825,
  "塹": 3136,
  "ధ": 1218,
  "##dele": 48985,
  "##erina": 90643,
  "させた": 37532,
  "##蟠": 116816,
  "siempres": 83308,
  "##izzate": 84093,
  "##oond": 65393,
  "dunia": 18554,
  "燼": 5371,
  "מי": 49929,
  "eğitim": 59754,
  "połowy": 68597,
  "##vodnju": 110669,
  "##许": 117079,
  "##rías": 90291,
  "Annelida": 72618,
  "החדשה": 55489,
  "##sette": 64324,
  "##懶": 113728,
  "geweiht": 71925,
  "puisse": 85458,
  "Tschechoslowakei": 105773,
  "την": 10649,
  "ורק": 103086,
  "Administrasi": 46442,
  "Великобритании": 40959,
  "##鸣": 118515,
  "misi": 73419,
  "胴": 6542,
  "առավելագույնը": 94736,
  "celého": 82166,
  "片": 5395,
  "慢": 3928,
  "364": 37033,
  "##zán": 46166,
  "##ному": 15575,
  "##раз": 34556,
  "granica": 81826,
  "##avu": 79227,
  "لهذه": 82672,
  "##ซี": 102293,
  "coalition": 41028,
  "배우": 84703,
  "kde": 14065,
  "更": 4449,
  "##塌": 112888,
  "##scheiden": 43446,
  "##嗣": 112707,
  "##נו": 13637,
  "##sområdet": 97510,
  "##ắng": 55628,
  "蝇": 7018,
  "따른": 110463,
  "##سون": 29422,
  "##ెం": 100179,
  "wydana": 83913,
  "##lades": 62564,
  "phí": 70031,
  "Sword": 49872,
  "između": 17642,
  "Dupont": 104674,
  "##வர்கள்": 54974,
  "حاضر": 49766,
  "Chwiliwch": 71587,
  "##zowy": 88318,
  "plánẹ́tì": 25548,
  "агып": 94855,
  "##Ћ": 111064,
  "Secretario": 78145,
  "##ಕ್ಕೆ": 17778,
  "##ਣੀ": 72887,
  "⟨": 1878,
  "##yada": 52282,
  "minas": 85152,
  "ั": 1440,
  "##ഡ": 111391,
  "##ienza": 68314,
  "weitere": 15133,
  "இல்லை": 92265,
  "##시대": 110670,
  "stedet": 30563,
  "rifle": 59116,
  "##gninger": 94127,
  "##긴": 70221,
  "person": 15042,
  "mitten": 63099,
  "Македонија": 22714,
  "##ekommer": 109657,
  "habitesis": 74690,
  "##γράφος": 80872,
  "##צטדיון": 103541,
  "##طلب": 33852,
  "পৌরসভা": 27231,
  "##duksi": 86919,
  "Sophie": 21380,
  "ಾ": 1296,
  "Methode": 66855,
  "గృహాల": 52251,
  "鯱": 8648,
  "MAC": 71008,
  "##ónia": 61440,
  "##ън": 22404,
  "va": 10321,
  "##няється": 100750,
  "sinds": 22965,
  "##bres": 24863,
  "##بناء": 58627,
  "悅": 3858,
  "battu": 82792,
  "предприятий": 77176,
  "campeão": 35908,
  "gebruiken": 64797,
  "##瘧": 115461,
  "Название": 56908,
  "##епублици": 106907,
  "寛": 3424,
  "trọng": 22728,
  "##弯": 113492,
  "1567": 47085,
  "Rchb": 83341,
  "##arono": 89520,
  "##ڭ": 111186,
  "ฮ": 1437,
  "##ბმა": 78413,
  "##tab": 33051,
  "Kan": 57528,
  "##enomena": 102523,
  "##۴۸": 99222,
  "किमी": 77159,
  "उडिया": 78087,
  "kandidat": 69580,
  "ಣ": 1276,
  "##ഥ": 48698,
  "მაისი": 77249,
  "Æ": 231,
  "desember": 21520,
  "information": 12929,
  "##额": 118208,
  "实": 3392,
  "##аршы": 100342,
  "силами": 56485,
  "João": 17350,
  "griegos": 93808,
  "##藺": 116695,
  "Sol": 19655,
  "Girl": 14524,
  "항": 9959,
  "衙": 7074,
  "τρία": 74585,
  "##าย": 39376,
  "kg": 11895,
  "розных": 96822,
  "scene": 18167,
  "программ": 84515,
  "kiçik": 62547,
  "##fel": 22086,
  "исторический": 96547,
  "##կան": 31057,
  "##sequently": 70117,
  "##യുള്ള": 54323,
  "Compton": 62865,
  "formally": 43082,
  "основным": 84175,
  "勻": 2638,
  "اوْیونچو": 45287,
  "בכל": 23583,
  "Tenerife": 48482,
  "agency": 34649,
  "赴": 7530,
  "Nalika": 93153,
  "##ibu": 91610,
  "obyektlari": 52172,
  "dovrà": 102135,
  "##تين": 34707,
  "扔": 4010,
  "##レンジ": 109047,
  "workers": 23829,
  "##reda": 53693,
  "かつ": 61819,
  "phán": 108481,
  "откриен": 77690,
  "Cats": 67805,
  "këtë": 32376,
  "Godzilla": 87452,
  "##rieg": 91271,
  "骏": 8574,
  "##억": 91837,
  "lait": 109115,
  "##lue": 75483,
  "ATM": 92233,
  "Singer": 29842,
  "именно": 32870,
  "victim": 62585,
  "##ყენება": 100382,
  "扬": 4018,
  "minuta": 25395,
  "jaren": 16484,
  "jüdische": 72837,
  "derrière": 39071,
  "Apart": 70792,
  "لئی": 26818,
  "hela": 34599,
  "韬": 8364,
  "grupy": 23311,
  "J": 147,
  "##äus": 98675,
  "##ato": 12720,
  "cont": 60146,
  "الوطنية": 25106,
  "貨": 7421,
  "赳": 7529,
  "柞": 4545,
  "getal": 59797,
  "отделение": 51320,
  "Anatolia": 67458,
  "##조의": 95372,
  "kjent": 19896,
  "##痍": 115436,
  "##sidae": 110450,
  "拭": 4087,
  "##матика": 104172,
  "sec": 37913,
  "##ród": 48950,
  "établie": 106990,
  "ห": 1434,
  "yao": 89029,
  "##ñez": 72714,
  "Это": 18596,
  "ikut": 82996,
  "organizacija": 64017,
  "##али": 15710,
  "##素": 115961,
  "##ισε": 68882,
  "##ownika": 91176,
  "##ஔ": 111304,
  "##miş": 21580,
  "##zzazioni": 106613,
  "یونانی": 75594,
  "##امية": 77433,
  "煕": 5330,
  "##zji": 33504,
  "Bush": 21145,
  "##ాల": 26056,
  "##갚": 118616,
  "went": 13446,
  "մարդահամարի": 41823,
  "莊": 6767,
  "##awn": 80766,
  "певица": 81940,
  "Hersteller": 61226,
  "skončila": 107756,
  "Museu": 27208,
  "##ương": 31170,
  "Shot": 57812,
  "calibre": 98755,
  "Tra": 21469,
  "jelenleg": 69174,
  "Rim": 57620,
  "##圧": 112796,
  "bestuur": 64755,
  "EPA": 92296,
  "מתוך": 33134,
  "##olver": 66403,
  "attualmente": 52295,
  "搶": 4205,
  "##forts": 88707,
  "Europameisterschaft": 61574,
  "החדש": 56822,
  "europeas": 109580,
  "辻": 7684,
  "Zach": 81345,
  "##开": 113467,
  "atween": 110691,
  "xạ": 91011,
  "storage": 38112,
  "prayer": 82012,
  "222": 22717,
  "Tout": 25679,
  "હતી": 26443,
  "Croatia": 34993,
  "Korn": 96287,
  "enabled": 74661,
  "sporting": 89476,
  "entspricht": 43044,
  "als": 10223,
  "56": 11628,
  "##ופה": 74577,
  "##t": 10123,
  "velikog": 87287,
  "筏": 6072,
  "vendas": 85481,
  "першої": 65313,
  "##喻": 112700,
  "valasotik": 35408,
  "##х": 10353,
  "##ட்டம்": 31563,
  "Англии": 42926,
  "folklore": 74718,
  "Rebellion": 69995,
  "decisão": 62867,
  "##ak": 10710,
  "##ложение": 95706,
  "모두": 29414,
  "##ällde": 105592,
  "semula": 45910,
  "922": 72446,
  "##чился": 91263,
  "pehintaniny": 34890,
  "##ilità": 83236,
  "Cortina": 103257,
  "જિલ્લામાં": 36982,
  "bot": 41960,
  "golongan": 68811,
  "##蓀": 116619,
  "Помер": 81211,
  "##redni": 100136,
  "##àn": 22039,
  "muga": 48553,
  "bare": 21766,
  "televisiva": 26305,
  "##בו": 27488,
  "bajnok": 64991,
  "혈": 9979,
  "##پر": 49045,
  "spilte": 30775,
  "945": 67997,
  "##дия": 20742,
  "##הי": 71095,
  "##гин": 60516,
  "viu": 39606,
  "جورج": 70717,
  "ą": 291,
  "vuelos": 98523,
  "geen": 15210,
  "##choeira": 106362,
  "##霄": 118068,
  "##ంత": 39592,
  "negocio": 88980,
  "Guerre": 19022,
  "册": 2474,
  "король": 35382,
  "Bungtod": 76915,
  "Indias": 80998,
  "##llning": 91227,
  "występujący": 62239,
  "obertures": 101489,
  "Indo": 31499,
  "##éket": 88792,
  "ث": 767,
  "comporte": 45263,
  "##测": 114754,
  "##શ": 47662,
  "##ª": 17407,
  "Pocket": 52774,
  "horiek": 46903,
  "##换": 113901,
  "##vende": 82093,
  "呉": 2809,
  "benefits": 48297,
  "renuncia": 107363,
  "casou": 54433,
  "בעזרת": 65209,
  "##竜": 115803,
  "##izzare": 102062,
  "Jenderal": 71957,
  "Toda": 74443,
  "離": 8287,
  "##mpi": 35407,
  "biri": 20263,
  "hands": 27925,
  "4a": 73436,
  "२": 924,
  "1744": 36238,
  "##ért": 22506,
  "麻": 8792,
  "##verkehr": 30468,
  "##ficare": 77276,
  "##北": 112416,
  "铠": 8076,
  "称": 5964,
  "egen": 23161,
  "##vissä": 103746,
  "vencer": 60344,
  "৯": 1002,
  "1704": 38591,
  "współpracy": 71574,
  "##şan": 53647,
  "Silk": 93401,
  "joylashgan": 14452,
  "заявил": 51633,
  "Kuhn": 82567,
  "##iselt": 70453,
  "##ijos": 18463,
  "italià": 37365,
  "wi": 23040,
  "Beverly": 36644,
  "##λικής": 54857,
  "##繋": 116049,
  "##ppur": 102401,
  "##bury": 19218,
  "##koak": 69419,
  "Sally": 33636,
  "Odewahn": 49678,
  "июне": 41546,
  "31일": 56047,
  "Entretanto": 72768,
  "##putati": 95514,
  "ollut": 18966,
  "##isemmin": 110008,
  "Orrell": 10600,
  "Emerson": 43604,
  "##fusa": 100200,
  "koos": 30344,
  "##授": 113913,
  "alakult": 56626,
  "##chu": 22882,
  "##曰": 114212,
  "##рое": 76688,
  "炱": 5283,
  "##zały": 90117,
  "Jakov": 74388,
  "групиран": 102437,
  "##ждена": 69216,
  "прошёл": 62284,
  "##бування": 106418,
  "Medici": 38823,
  "הייתה": 14827,
  "бассейн": 20680,
  "##陨": 117992,
  "##gono": 24967,
  "thriller": 45768,
  "zitten": 93568,
  "বিভাগ": 83703,
  "дом": 21487,
  "Iorque": 69054,
  "br": 33989,
  "означает": 68567,
  "Rae": 83525,
  "phi": 36500,
  "align": 70308,
  "уның": 47885,
  "##ussen": 73471,
  "här": 10744,
  "Flere": 79171,
  "etxek": 13793,
  "командир": 27706,
  "薪": 6907,
  "##ρων": 31660,
  "Unix": 49451,
  "Flores": 27959,
  "##ущество": 106692,
  "статусы": 107578,
  "ဖ": 1513,
  "అతని": 62522,
  "zviježđu": 86713,
  "##дай": 46195,
  "وآخرون": 52740,
  "productes": 53322,
  "##缆": 116136,
  "##დე": 94559,
  "société": 18590,
  "Korea": 14096,
  "##wei": 61512,
  "##öll": 53737,
  "##净": 112267,
  "靳": 8339,
  "﹕": 10045,
  "Vocals": 61369,
  "végén": 35780,
  "ეროვნული": 35925,
  "экономики": 54097,
  "0821419161": 29777,
  "樵": 4729,
  "##hende": 96304,
  "##മായിരുന്നു": 101926,
  "هم": 16079,
  "##רגום": 80613,
  "отец": 34606,
  "萧": 6817,
  "##16": 37301,
  "##妳": 113027,
  "steep": 102718,
  "##رو": 25683,
  "##単": 112449,
  "recognition": 31477,
  "##ighed": 100791,
  "არიან": 90961,
  "##بائية": 110795,
  "شود": 22985,
  "жа": 73899,
  "đích": 63842,
  "Rote": 72512,
  "colaboración": 44287,
  "slowly": 63088,
  "##είς": 56778,
  "##ikka": 95056,
  "العمرية": 74206,
  "##iere": 22565,
  "لأن": 52516,
  "교": 8907,
  "religie": 91149,
  "也": 2135,
  "##ו": 10481,
  "może": 20974,
  "兌": 2434,
  "Syrian": 44152,
  "楡": 4666,
  "Gießen": 80610,
  "historiques": 31155,
  "##假": 112124,
  "##ятно": 101339,
  "##嘧": 112721,
  "##ύτερη": 76025,
  "שהוא": 24724,
  "सफल": 81277,
  "Ως": 78195,
  "Auswahl": 52837,
  "き": 1913,
  "##heer": 60470,
  "Lajos": 33142,
  "без": 13012,
  "Orne": 59934,
  "red": 10680,
  "suivre": 69452,
  "soviética": 97913,
  "##∈": 111686,
  "dần": 64389,
  "господарства": 68034,
  "##w": 10874,
  "verticale": 85513,
  "giới": 15814,
  "Usa": 48561,
  "Collège": 56843,
  "##љује": 100367,
  "钧": 8055,
  "##ét": 13837,
  "Indus": 89095,
  "giảm": 39140,
  "Soleil": 57322,
  "الصغيرة": 80876,
  "قهرمانی": 68494,
  "Aufgabe": 37841,
  "夯": 3203,
  "##gekomen": 85049,
  "##攤": 114041,
  "##团": 112767,
  "Delgado": 52715,
  "nennen": 90984,
  "##rens": 74111,
  "özel": 48239,
  "##rsk": 82957,
  "##dida": 42286,
  "##ੰਦ": 72320,
  "salió": 54866,
  "Congrès": 50598,
  "##orme": 54576,
  "容": 3410,
  "##dha": 40501,
  "Муниципалитеттин": 92804,
  "دنیز": 27403,
  "Medaille": 52890,
  "##ній": 14291,
  "##्होंने": 75590,
  "##ФК": 100016,
  "##േ": 29400,
  "nimi": 23499,
  "##דום": 57394,
  "幾": 3650,
  "##ecken": 88132,
  "鏟": 8018,
  "fun": 41807,
  "Coelho": 108249,
  "Bains": 53064,
  "二": 2150,
  "җанисәп": 24980,
  "##tí": 18619,
  "jezera": 49982,
  "Gegensatz": 33013,
  "האלבום": 39384,
  "478": 47107,
  "थाय्यात": 35202,
  "##hringen": 86302,
  "anteriormente": 34480,
  "IQ": 83109,
  "layers": 84480,
  "##ি": 12235,
  "##窃": 115775,
  "##ifu": 109747,
  "đĩa": 54064,
  "exposed": 53305,
  "Ulla": 108942,
  "Sand": 35071,
  "volledige": 95593,
  "##遊": 117521,
  "unterhalb": 54688,
  "játékos": 98123,
  "焘": 5314,
  "dinamakan": 83234,
  "##дили": 109295,
  "習": 6440,
  "##邢": 117567,
  "sailkaturik": 33411,
  "##crito": 110438,
  "솔": 9451,
  "##гляду": 69021,
  "滚": 5139,
  "passion": 53946,
  "inside": 22978,
  "۸": 846,
  "sitä": 25450,
  "Edizioni": 68102,
  "nema": 42221,
  "##肯": 116282,
  "##nęła": 87401,
  "Unite": 38347,
  "हुने": 70317,
  "thái": 39431,
  "##mí": 78607,
  "##lkich": 96332,
  "##पन": 68053,
  "नाम": 21645,
  "聰": 6487,
  "##jama": 52647,
  "##reko": 53107,
  "politico": 20247,
  "ашқан": 87090,
  "##herë": 80186,
  "##rab": 55645,
  "##渔": 114837,
  "peste": 28222,
  "##모토": 80565,
  "##يدي": 63385,
  "##ali": 13133,
  "##ash": 73491,
  "##oge": 32241,
  "talde": 67020,
  "ಸಂಗೀತ": 83514,
  "seseorang": 66843,
  "ceety": 36539,
  "##گیری": 28915,
  "treaty": 56353,
  "##ленные": 52045,
  "בתקופה": 51287,
  "kəndi": 89803,
  "##гата": 77329,
  "##ساء": 56779,
  "##упа": 78702,
  "тем": 19710,
  "ḍ": 1623,
  "SNAC": 108882,
  "보존된": 30766,
  "##eção": 74344,
  "##чивает": 68235,
  "##た": 20058,
  "Aphididae": 81699,
  "聆": 6475,
  "##žil": 21393,
  "##ད": 111455,
  "##장의": 83685,
  "π": 480,
  "Бас": 37727,
  "nat": 55592,
  "##ωσαν": 97933,
  "экология": 16731,
  "stanu": 35550,
  "shqiptar": 76152,
  "tenue": 73453,
  "훌": 10005,
  "##ीक्षण": 106650,
  "светот": 76356,
  "##笏": 115819,
  "HM": 109234,
  "liście": 65673,
  "##夠": 112960,
  "粒": 6146,
  "##们": 111972,
  "׳": 750,
  "noche": 29190,
  "##owment": 107958,
  "δεκαετία": 76823,
  "Tekst": 105227,
  "కానివి": 74978,
  "nơi": 21670,
  "##ńską": 63661,
  "כדור": 84021,
  "##сау": 106762,
  "##璞": 115336,
  "radu": 83177,
  "##흐": 119460,
  "contexte": 62856,
  "vācu": 48707,
  "Gornji": 79740,
  "Joseph": 11379,
  "녹": 9023,
  "##ండ్": 55326,
  "الثامن": 100271,
  "##جيل": 71625,
  "droit": 18509,
  "Llwyd": 30453,
  "treinta": 82432,
  "##mail": 85505,
  "##חל": 66385,
  "##zego": 48914,
  "genannten": 43782,
  "què": 27163,
  "諾": 7256,
  "##明": 114134,
  "ਸ": 1044,
  "守": 3377,
  "armée": 17412,
  "因": 3000,
  "##್ರ": 35768,
  "Arezzo": 97304,
  "##сама": 65280,
  "округында": 20752,
  "mji": 45272,
  "##揮": 113956,
  "Mato": 46866,
  "##inus": 34983,
  "##щето": 93057,
  "bizilekua": 32871,
  "##மது": 76077,
  "േ": 1376,
  "ás": 29844,
  "##ище": 33695,
  "wir": 33963,
  "##كم": 82225,
  "universidades": 64635,
  "##스터": 58823,
  "ngựa": 53786,
  "taste": 84298,
  "BA": 39999,
  "Palace": 22015,
  "##訳": 116952,
  "Manny": 105032,
  "##ारी": 41510,
  "##որհրդային": 75641,
  "predvsem": 49746,
  "заступник": 66074,
  "燮": 5369,
  "薙": 6902,
  "##üt": 41559,
  "##arus": 85376,
  "##ians": 34615,
  "thật": 61334,
  "##ホ": 111827,
  "subtropiskt": 37831,
  "##zła": 59726,
  "##ización": 20786,
  "rechte": 90382,
  "Arch": 54770,
  "##guse": 75159,
  "##tyje": 90944,
  "varios": 15518,
  "Ticino": 105938,
  "peamiselt": 72776,
  "Parra": 95966,
  "экономика": 54185,
  "##dsel": 89928,
  "##ssis": 80443,
  "erfolgten": 85546,
  "##графія": 98258,
  "##icom": 99426,
  "хьолахь": 73136,
  "verhaal": 40854,
  "##č": 12617,
  "platforms": 51325,
  "##bón": 63467,
  "tardi": 44165,
  "gällande": 26081,
  "##迦": 117473,
  "酚": 7866,
  "chair": 40006,
  "engagé": 88601,
  "Орусиялык": 108657,
  "ː": 416,
  "Václava": 102174,
  "שמואל": 79958,
  "gefärbt": 109937,
  "##taan": 20022,
  "걀": 8862,
  "##šných": 103647,
  "Guardian": 20206,
  "Giorgio": 21003,
  "многие": 31264,
  "##噌": 112732,
  "frei": 42109,
  "높은": 55600,
  "aeroporto": 46455,
  "Libri": 96259,
  "Zoologie": 100260,
  "Condado": 27910,
  "números": 34003,
  "Mau": 103722,
  "##櫃": 114526,
  "killer": 61976,
  "のように": 30760,
  "започва": 28903,
  "##три": 101863,
  "Maine": 20614,
  "राष्ट्रिय": 65300,
  "##ījies": 98045,
  "khúc": 46729,
  "shopping": 53147,
  "##jiem": 46509,
  "##סיבוב": 96529,
  "##åra": 83968,
  "##âtre": 64168,
  "nebula": 14675,
  "dreams": 101990,
  "##duduk": 107145,
  "Arquitectura": 89100,
  "##شتن": 84950,
  "の3": 36044,
  "##nele": 106261,
  "##دق": 89739,
  "##तील": 42476,
  "屍": 3491,
  "##خم": 74908,
  "alih": 95872,
  "transfer": 21110,
  "幀": 3628,
  "advokat": 109957,
  "குறிப்பு": 30611,
  "europäische": 93038,
  "sista": 44974,
  "Oltre": 47400,
  "##итет": 63590,
  "##tändnis": 88950,
  "provinciale": 53085,
  "citato": 95378,
  "##炸": 115051,
  "физико": 102733,
  "USAF": 77718,
  "##ொண்டார்": 98111,
  "##itats": 60657,
  "##嚼": 112754,
  "tavaliselt": 77308,
  "##վեց": 19831,
  "أبو": 24279,
  "##續": 116065,
  "topon": 14837,
  "Ortes": 48469,
  "##dua": 47463,
  "Một": 21255,
  "luglio": 15889,
  "빚": 9386,
  "erhielten": 48830,
  "teraka": 25409,
  "##mų": 36542,
  "miaka": 59014,
  "Zwitserland": 94748,
  "##恩": 113610,
  "بؤلگهسینین": 110200,
  "##osta": 26986,
  "Збройних": 90869,
  "ॅ": 909,
  "Newsletter": 110190,
  "بحيث": 75037,
  "تفسیر": 110776,
  "latviešu": 43374,
  "##খতে": 109967,
  "##қи": 55411,
  "##шов": 58451,
  "conquest": 17841,
  "lipca": 17311,
  "##metro": 55651,
  "ulan": 13982,
  "##ických": 50967,
  "##奇": 112978,
  "耕": 6463,
  "vraiment": 102095,
  "##desche": 110597,
  "Ville": 24772,
  "basal": 77637,
  "##mire": 103774,
  "行": 7069,
  "απογραφή": 91901,
  "##യുടെ": 18816,
  "Европы": 23618,
  "кн": 47779,
  "##etta": 19521,
  "1331": 94360,
  "classification": 15075,
  "##ць": 12893,
  "indigenous": 49226,
  "뷰": 9375,
  "##нском": 33007,
  "awam": 95923,
  "восточнее": 102375,
  "##ווי": 85847,
  "inni": 81854,
  "fotbalový": 91963,
  "##олу": 68473,
  "##cision": 42485,
  "##ristiani": 109161,
  "évig": 70364,
  "##еу": 89021,
  "##雄": 118036,
  "Գերմանիա": 76167,
  "também": 11961,
  "##यु": 69083,
  "##달": 89851,
  "##gdom": 99880,
  "sydd": 28648,
  "##zik": 19502,
  "##chium": 107269,
  "##pei": 76050,
  "ボ": 2043,
  "##erman": 66744,
  "Fernsehfilm": 50874,
  "poderosa": 91423,
  "##artu": 70178,
  "dekul": 54778,
  "##אי": 16495,
  "##cją": 20717,
  "##пео": 106606,
  "级": 6309,
  "радиацин": 84148,
  "acuerdo": 23208,
  "bro": 93742,
  "retrouve": 27859,
  "foguèron": 99673,
  "##lischen": 48799,
  "Siedlungen": 103334,
  "OLAC": 89619,
  "minime": 64186,
  "ちを": 92470,
  "Malmö": 30012,
  "##àfich": 109392,
  "Österreichs": 89491,
  "Filipina": 54093,
  "##攻": 114049,
  "求": 4875,
  "extérieur": 45114,
  "попередніх": 93231,
  "day": 11940,
  "##انے": 80805,
  "Arnold": 17733,
[...]
