{"encontrados": 77685, "diretamente": 83926, "##老": 116221, "already": 19034, "Major": 14988, "##chtigen": 89776, "formée": 108328, "##тән": 52589, "##ïne": 67660, "##чає": 69482, "campeón": 30817, "377": 38605, "颐": 8434, "##euse": 28629, "آب": 24971, "drummer": 43675, "zeigen": 40259, "##рическая": 100343, "##eerde": 43602, "ခုနှစ်တွင်": 32741, "rajono": 25527, "conté": 73910, "Fernandez": 71566, "##лекләр": 109316, "##lução": 67771, "##féle": 50605, "มิถุนายน": 45838, "Korea": 14096, "Birinchi": 28871, "rechtvleugelig": 67734, "bu": 11499, "##bau": 15871, "național": 86432, "##ну": 11752, "Zusammenarbeit": 36470, "脹": 6567, "Kuba": 42455, "##Թ": 111114, "##何": 112019, "Із": 101485, "Almería": 69462, "##蝕": 116790, "1910": 11585, "součástí": 37772, "Södra": 48758, "составила": 83788, "理": 5515, "manyerap": 97657, "еще": 72284, "полка": 27047, "областа": 104032, "##φορία": 92119, "đàn": 51582, "târziu": 46135, "لیے": 20920, "##vą": 62533, "##ened": 27867, "1517": 48557, "memilih": 61181, "卓": 2678, "tách": 70952, "蛯": 6990, "Ֆ": 662, "monet": 79139, "dẫn": 26093, "##pia": 17837, "##험": 86834, "懒": 3959, "##۸۹": 58204, "thậm": 109690, "matag": 18584, "jin": 75863, "##unicaciones": 107906, "haciendo": 44037, "Olivia": 38137, "##鐳": 117790, "Республикаһының": 77063, "蕾": 6894, "daftar": 102714, "##ോ": 27921, "എസ്": 28123, "الأحداث": 104529, "владу": 81099, "截": 3985, "М": 521, "bë": 88082, "Յ": 645, "##τουργία": 110338, "##нную": 55739, "##佟": 112027, "رسمی": 43643, "offentleg": 63301, "닮": 9063, "##豚": 117170, "Államok": 88189, "legalább": 109214, "odnosu": 58278, "绝": 6346, "##lej": 61346, "คน": 25915, "Fighters": 68208, "##ester": 39807, "segretario": 81254, "##rij": 32964, "##卿": 112469, "trade": 18908, "route": 13933, "##かる": 77610, "##痕": 115439, "##ունը": 103868, "klart": 58294, "钺": 8064, "##ш": 11148, "##fnið": 97833, "##pore": 62758, "2nd": 14105, "tableau": 38710, "##ಸು": 64643, "錫": 7982, "casi": 16554, "crucial": 63113, "##ämpfen": 75058, "поліпептидного": 78871, "verstärkt": 79063, "Nepal": 22276, "##噹": 112743, "##çim": 90338, "709": 67432, "##regnum": 110314, "##тические": 65446, "станица": 104906, "უკვე": 89258, "##磷": 115655, "Inwahners": 36131, "Jiménez": 41022, "##వచ్చు": 52223, "查": 4547, "##ан": 11240, "boje": 48770, "ജില്ലയിലെ": 76871, "##오는": 82823, "##awa": 27593, "армию": 64421, "##תנהגות": 109370, "reproduction": 74572, "Paddy": 108368, "##ვილი": 61279, "##bilitat": 62298, "Weltmeister": 75874, "##nuo": 73382, "списку": 75942, "##mler": 80903, "interpretando": 67180, "楔": 4661, "early": 11732, "visszatért": 87948, "duties": 40266, "##resta": 84038, "##封": 113214, "Vilaine": 74256, "AL": 47271, "##斃": 114078, "erbyn": 91110, "banen": 69953, "##жны": 101870, "##১": 23538, "##اون": 67996, "##द्वारा": 96838, "姬": 3283, "##gora": 67036, "силно": 80837, "wead": 107517, "nyelvű": 71402, "своїй": 68661, "##ארצות": 86603, "1611": 43282, "Vlaams": 77480, "notika": 61781, "लिए": 13182, "військовий": 88457, "葵": 6837, "첸": 9753, "differenti": 65114, "entró": 49750, "udalerria": 26067, "астрономы": 103978, "Judicial": 101283, "##ವರಿ": 74200, "##كة": 29945, "1469": 66192, "geometry": 87825, "##ギー": 97888, "##獺": 115237, "maschi": 55679, "##壳": 112942, "specifically": 33228, "Studia": 72565, "рядом": 40103, "КСРО": 84594, "##יל": 20797, "暱": 4432, "꼽": 8958, "Ludowej": 64302, "##辈": 117423, "Folgen": 29038, "Chevrolet": 45226, "##櫟": 114530, "턱": 9862, "##úc": 42596, "әл": 90637, "##bilité": 42509, "##bí": 39622, "##ији": 31848, "ave": 47145, "拦": 4083, "##泌": 114705, "insgesamt": 20072, "##δρα": 97044, "ৱ": 1004, "##渝": 114842, "薇": 6896, "閲": 8149, "aura": 43731, "銳": 7958, "斉": 4314, "Jalisco": 57395, "##ياء": 100852, "Wikipedia": 13997, "currency": 83759, "##често": 102608, "januar": 15825, "capitaine": 34834, "Ryszard": 84076, "##yendo": 61528, "espíritu": 77787, "##έμβριο": 60001, "##dic": 55170, "Вікісховішчы": 26496, "tavataan": 98197, "उपलब्ध": 37920, "##వారు": 63096, "##edes": 39791, "恭": 3847, "dniem": 60553, "##id": 11249, "działalności": 51928, "##ूप": 96083, "పాటు": 22095, "uses": 19873, "אוניברסיטת": 64429, "されている": 12309, "##膩": 116368, "رمز": 107904, "Mapquest": 35486, "##őbb": 76989, "##रे": 28546, "Белоруссии": 62242, "linha": 31174, "גבוהה": 67143, "elk": 45921, "自": 6621, "formată": 53815, "##ಮಿ": 77898, "Jornal": 107925, "armée": 17412, "##aina": 77262, "הופעות": 71016, "رنگ": 42040, "Ba": 21333, "##ęg": 101567, "##른다": 66346, "fortan": 81507, "##ийг": 35995, "##薦": 116670, "deceased": 96002, "kaum": 23121, "László": 23836, "##ミー": 73045, "##拾": 113861, "##ühl": 48288, "questo": 12866, "Étienne": 24266, "Vicente": 21089, "clinical": 43463, "construida": 67297, "׳": 750, "摘": 4215, "##ந்தை": 58394, "##趁": 117300, "samhället": 110138, "käigus": 90374, "##থ": 39414, "##som": 32081, "révolte": 99424, "##芽": 116463, "懐": 3958, "律": 3769, "تلویزیون": 92187, "Einsätze": 107671, "##恒": 113601, "Veränderungen": 80540, "климатан": 19274, "##bello": 89751, "Cowboy": 67558, "хозяйств": 68505, "##wear": 100629, "Ginklasipika": 36123, "τρία": 74585, "耍": 6460, "##ött": 22938, "##zioro": 78882, "羟": 6421, "##тання": 39979, "نہیں": 21735, "aller": 17851, "##ует": 43699, "Gaston": 36369, "##ninga": 68155, "##šem": 66714, "囗": 2996, "estatistik": 100903, "##løp": 77573, "карьеру": 36246, "##ாய்": 51997, "Nije": 99763, "Arabic": 26571, "centrocampista": 58589, "שכן": 61852, "##verzeichnis": 89445, "rest": 17333, "больше": 26368, "辿": 7688, "Basa": 52276, "##겨": 89045, "崗": 3550, "##ויר": 75846, "carretera": 30414, "##TF": 68380, "##பி": 52481, "##睨": 115553, "Այդ": 36078, "##cée": 41657, "toda": 15650, "1711": 37108, "Aude": 55665, "Мәскәү": 34562, "##тты": 55402, "靚": 8329, "##ъм": 48477, "לשחק": 82891, "Военно": 62374, "Comando": 77351, "宜": 3390, "##ais": 12985, "##рная": 98497, "##ాలకు": 107142, "церкви": 18822, "gegründet": 18294, "tuo": 38645, "јануара": 74705, "Solaris": 86608, "palavras": 71397, "afroamericanos": 61991, "##demi": 108986, "curta": 51738, "##ഖ": 111382, "564": 61846, "##捜": 113897, "##্জ": 106203, "seu": 10617, "##أغنية": 96967, "některé": 54729, "##ლიის": 55854, "своєї": 42690, "براساس": 27371, "Ciutat": 78163, "Astana": 72877, "Superintendent": 95771, "痩": 5680, "McCarthy": 42816, "니": 9049, "hulle": 22672, "鮟": 8632, "Cuvier": 90466, "Cerambycidae": 12374, "υ": 485, "modellen": 67663, "Also": 20593, "Turquía": 65273, "председник": 88290, "manca": 68135, "##бник": 65358, "拡": 4079, "õpetaja": 101468, "##puso": 42312, "##ტის": 26084, "korrik": 103416, "Membre": 63102, "##зда": 45076, "Bills": 99051, "##もと": 76267, "équipage": 82031, "##่อ": 98455, "ജ": 1341, "barzh": 56132, "##térő": 107941, "##艇": 116424, "ganadería": 106404, "##ոն": 17922, "酷": 7878, "costruire": 68104, "бути": 23006, "Gemeng": 44071, "##sgericht": 55494, "##maya": 33458, "189": 23535, "čak": 41477, "reducir": 92404, "Abgeordneter": 59932, "##рә": 96403, "##گذاری": 53465, "іншых": 58946, "acres": 26043, "founding": 30704, "उच्च": 51292, "trafic": 71720, "##orus": 101295, "##श": 21835, "شيء": 75960, "##憂": 113704, "1253": 87159, "songar": 87652, "##髷": 118368, "joga": 100844, "##ութիւն": 74253, "Geological": 24928, "闵": 8172, "##herr": 75171, "##ා": 111411, "##أم": 80358, "##ற்கான": 75026, "होती": 20549, "artist": 16410, "##솔": 119054, "czasem": 54407, "##ggal": 108827, "Steaten": 98401, "pressure": 23460, "##ístico": 28228, "temporal": 45846, "##हार": 42263, "##ང": 111453, "##учу": 76397, "##蛻": 116761, "Міністерства": 105077, "vaikka": 52287, "զարգացման": 63130, "Но": 19732, "Smithsonian": 33830, "##oce": 45596, "Éditions": 22018, "##ð": 12332, "Iranian": 41768, "اوستانینین": 59179, "##ats": 16883, "development": 13405, "difficile": 30228, "##овый": 43206, "teritorinio": 61559, "##иро": 72252, "##kių": 66848, "##ρα": 17762, "gitár": 91316, "##мка": 63861, "الدراسات": 66375, "##leistung": 73003, "CDs": 71180, "zweiten": 17321, "Другог": 86829, "integra": 81570, "uscire": 108770, "anômalia": 80655, "与": 2081, "Large": 44373, "##εση": 105500, "##ирани": 68381, "ఇతర": 21963, "##die": 19995, "Ibrani": 92169, "##bieta": 80725, "এছাড়া": 95892, "входит": 25370, "##닦": 118771, "compte": 16677, "##ин": 12029, "erauzte": 86017, "reactor": 84326, "##дува": 93692, "BMG": 57126, "##βαν": 103524, "ganador": 56972, "##Ｂ": 119529, "##czka": 53837, "运": 7696, "попал": 69438, "intended": 24071, "کراچی": 101190, "##柩": 114314, "##صوص": 75835, "פנים": 103701, "##鯛": 118409, "##督": 115551, "贷": 7496, "##jeto": 80030, "##cie": 12097, "הנוער": 74070, "ronda": 32260, "##否": 112555, "##蹲": 117347, "씨": 9516, "##ற்கு": 47296, "させて": 110224, "##況": 114701, "##zlar": 67692, "##郯": 117599, "##दन": 49978, "##弁": 113468, "##гляд": 41824, "礬": 5897, "티": 9895, "欧": 4776, "francese": 16137, "##վում": 15439, "냐": 9002, "צבאי": 96891, "##朗": 114233, "##ვრები": 109446, "##erat": 52264, "##ਿਲ": 64812, "##vogel": 93862, "##ψε": 60602, "##ıyla": 59190, "Hansa": 77740, "suroeste": 55136, "Ô": 244, "consegue": 74319, "Duca": 86883, "##ലി": 55007, "NET": 41645, "##蓟": 116627, "বিভাগ": 83703, "Campionati": 51291, "##rih": 92614, "##宠": 113160, "##fortable": 81587, "Sia": 88468, "峁": 3528, "Energie": 44554, "膠": 6598, "輕": 7617, "##щают": 102007, "شاه": 30465, "##mns": 86638, "รับบทเป็น": 35707, "##կայի": 43728, "Kina": 20078, "borbe": 93219, "여": 9565, "##ధిక": 73140, "ului": 110736, "##貘": 117180, "intermédiaire": 78358, "fred": 80580, "Oscara": 97180, "##ødt": 71098, "xunetu": 27478, "##מטוס": 80854, "##piel": 48715, "Lois": 52811, "##ciar": 45944, "##ရ": 48081, "##دخل": 55789, "পাওয়া": 58347, "Lithuanian": 75907, "Imperi": 57062, "towards": 18095, "##legt": 60514, "ص": 777, "Liguria": 79641, "庆": 3655, "ετών": 47969, "říjnu": 103195, "jsem": 108918, "##нував": 71369, "卧": 2692, "##とう": 103305, "певец": 103496, "##ούν": 92114, "##朦": 114237, "hemiboreala": 17983, "szerepet": 63932, "Ah": 56695, "timber": 55447, "zapravo": 79269, "CH₂": 93654, "##yjne": 100558, "Madeleine": 36521, "Count": 32000, "Seri": 48939, "տվյալների": 34655, "пол": 23750, "Bereich": 19158, "##ટર": 104637, "##rør": 93664, "##Ó": 110919, "##੍ਹਾ": 97254, "cave": 53309, "Repräsentantenhaus": 65517, "##oured": 73499, "##лары": 15276, "##ಾಗುತ್ತದೆ": 65696, "kans": 81212, "##ᴰ": 111529, "updated": 13973, "13th": 33937, "##тті": 40144, "broers": 102215, "##iac": 46917, "##κος": 87241, "槇": 4697, "摹": 4221, "345": 30287, "Kirkwood": 18717, "보다": 106154, "am": 10392, "緹": 6262, "糯": 6174, "##დი": 23551, "##bija": 47399, "轄": 7630, "Baker": 16865, "##ницата": 98499, "المسجد": 80531, "відбувається": 49920, "##瓊": 115345, "József": 25443, "clasificación": 30840, "衿": 7088, "Rt": 81344, "lugha": 22127, "にその": 92999, "##uria": 53162, "廬": 3693, "##бно": 40671, "naturally": 91799, "慰": 3933, "##tats": 30758, "##괄": 118647, "Schülern": 107948, "##逗": 117499, "##uck": 31746, "##ьная": 26760, "Roche": 38580, "##귄": 118662, "##ằn": 77344, "Muitos": 108127, "stato": 11412, "Yong": 70171, "창": 9736, "Белград": 86039, "##жал": 29483, "1588": 44854, "##siones": 73789, "которую": 30956, "density": 23370, "##需": 118067, "커": 9798, "mendirikan": 66169, "##青": 118091, "prueba": 34303, "morì": 39805, "##σαν": 17568, "Reed": 24858, "уровень": 60586, "##ئب": 52054, "Duchy": 107489, "##stadion": 88220, "Associació": 96589, "ekipa": 93993, "펼": 9925, "উপজেলা": 80924, "पिहांवगु": 56337, "objekt": 56733, "دست": 21246, "politiku": 90505, "##电": 115380, "zastępca": 88156, "##ლებში": 88942, "conquistar": 80782, "દ": 1099, "ನ": 1281, "##физ": 99049, "##presión": 48451, "##kých": 16234, "Atenas": 54693, "vocalista": 51381, "intense": 48195, "Materials": 65053, "##ếc": 106639, "##吃": 112533, "Nursing": 108326, "##র্ম": 94686, "##жки": 34436, "gen": 15331, "[unused68]": 68, "##urg": 51932, "##رج": 38764, "menjadi": 11999, "continuó": 55261, "إحصاء": 57351, "##्स": 18869, "##謨": 117037, "##iv": 13883, "##embre": 94449, "IFK": 68861, "halde": 98466, "phía": 15564, "Zwischen": 24338, "Mayr": 89588, "Gdy": 59074, "##cestors": 105144, "##גרום": 96781, "properly": 83438, "##mé": 18298, "spędził": 97042, "##ismo": 13689, "titulada": 64031, "咋": 2832, "баспасы": 44264, "MPO": 71940, "##zień": 70133, "Armstrong": 24472, "Standard": 17861, "ध": 883, "1752": 35026, "búsqueda": 69157, "##jylland": 93104, "बड़े": 64537, "##화가": 110817, "cuanto": 39898, "##doni": 92211, "雨": 8289, "Dominicana": 70513, "峴": 3540, "##uza": 54781, "##ioi": 92569, "##ặ": 111580, "##淳": 114819, "ун": 68725, "##relle": 79638, "##teka": 74990, "篝": 6111, "##Ҙ": 111088, "Bernard": 14450, "Carroll": 33435, "visu": 82211, "association": 18061, "destination": 46144, "##К": 14736, "anaa": 14697, "ныне": 26541, "musicians": 36637, "Australii": 75695, "噬": 2973, "##زون": 88478, "131": 18372, "##ahe": 71859, "##呉": 112575, "##ष्ट्रीय": 69410, "##ҷ": 111096, "мов": 91104, "थुकियात": 95069, "Ethics": 74460, "highway": 31729, "辈": 7657, "Rothman": 40895, "##寞": 113192, "Ο": 451, "仍": 2189, "mester": 63660, "菫": 6799, "##ć": 11484, "Akt": 95545, "משפט": 80389, "boss": 48246, "##渴": 114854, "Au": 13209, "customers": 49260, "Wir": 51732, "noblesse": 80233, "денес": 77759, "Lugano": 73726, "учёный": 83371, "##﹔": 119487, "favorite": 55768, "##сны": 56464, "##奉": 112980, "##مو": 54037, "temps": 12358, "##gent": 22500, "##ेम्बर": 81047, "Werner": 12646, "##詰": 116972, "##וא": 73148, "##zione": 11115, "##شأ": 72227, "chuyến": 67384, "traditions": 41048, "##插": 113948, "exécution": 75219, "##rului": 68300, "Desde": 16570, "၉": 1557, "Melville": 72309, "سوم": 42866, "озера": 37482, "witnesses": 109898, "##arias": 56590, "##♣": 111753, "СПб": 19169, "##يعة": 40467, "biskop": 51914, "Associate": 60972, "##höhe": 85865, "semua": 23367, "림": 9242, "key": 18444, "Cardiff": 39136, "Alte": 42077, "##gach": 84545, "২০১৬": 34228, "ehk": 27287, "rêu": 65322, "##ђ": 111077, "##هداف": 47652, "##hörige": 68743, "##劣": 112366, "Kings": 21989, "მარტი": 99787, "Республики": 14940, "##бурга": 99800, "Szwajcarii": 102337, "##择": 113851, "kinadul": 28090, "##cephalus": 59336, "تمام": 27559, "##еді": 33476, "תהליך": 66779, "ktorý": 18252, "nên": 19114, "##efficient": 98366, "था": 13794, "Follow": 85099, "##ենք": 89263, "Ljouwert": 88513, "##xamen": 70320, "Herriko": 92009, "Cromwell": 54127, "bertsioa": 41782, "##ugen": 46340, "ماه": 32683, "Christy": 103414, "##hrlich": 52936, "Akbar": 78025, "Joaquim": 47686, "Moore": 15373, "thinking": 56294, "teclados": 97907, "Moreira": 80136, "##텐": 119353, "##cist": 80092, "αγώνες": 60147, "outre": 26501, "##jå": 69851, "entities": 105878, "##ծական": 89007, "natomiast": 21968, "Mostra": 96862, "تحدث": 102533, "##жил": 29189, "東": 4506, "##اعي": 66248, "होना": 103673, "новый": 30994, "الأولمبية": 78922, "Americii": 99657, "bahía": 93388, "qualcosa": 92020, "betyder": 53926, "##iği": 35265, "첫": 9750, "represents": 36648, "sovrano": 75672, "Chwiliwch": 71587, "تصل": 93329, "shut": 70323, "嵋": 3559, "رواية": 79412, "##alta": 36930, "##沦": 114686, "Arne": 38932, "##че": 13873, "##ärke": 81609, "Stella": 34319, "##тари": 103932, "prim": 65122, "חיים": 26016, "##ästi": 57747, "setzt": 41187, "coupe": 38614, "丧": 2101, "Cơ": 66378, "##ス": 12230, "##rna": 13471, "##俊": 112070, "suuri": 51241, "נחשב": 58100, "Guinness": 49760, "naroda": 50677, "##lek": 26776, "##ъв": 40917, "mennesker": 38398, "puestos": 60587, "strijd": 66275, "##сни": 40543, "癒": 5702, "U21": 82215, "##րությունը": 46139, "##еник": 93254, "##iti": 13903, "ena": 55766, "##kään": 62108, "##请": 117122, "تقریباً": 60836, "elan": 105004, "涝": 5018, "##년에는": 95215, "##eke": 30596, "շուրջ": 50118, "##nkin": 60508, "穂": 5990, "##יניים": 87470, "##jú": 17269, "滲": 5150, "##banen": 43801, "Used": 92361, "##zono": 35259, "endorsed": 108417, "1ᵉʳ": 15571, "possibly": 33370, "##vas": 14139, "##czone": 36104, "karriere": 55252, "蛇": 6977, "##өсү": 108539, "##ное": 12621, "8D": 107168, "##namento": 76544, "##வியல்": 78807, "Angry": 104834, "##ニー": 24532, "gelijk": 77333, "bude": 26605, "##発": 115478, "שבה": 44537, "1370": 57183, "sündis": 87626, "##GA": 39061, "##ourg": 87112, "##җ": 111087, "Bürger": 47473, "Ню": 83378, "##대": 14423, "##िय": 71382, "בסיס": 62035, "sailkaturik": 33411, "रुपे": 74516, "الشمس": 67071, "##ಫ": 111363, "##▭": 111733, "vidas": 79026, "bianchi": 106041, "suo": 11315, "coalición": 75261, "##тнам": 89743, "##щик": 37105, "##徙": 113543, "##ecken": 88132, "Schließlich": 70535, "##ящих": 56062, "##乖": 111895, "ин": 27796, "闫": 8165, "##азе": 71124, "өтөт": 82219, "khảo": 82261, "##ിട്ടുണ്ട്": 46981, "##sabb": 90541, "etwas": 23942, "##nând": 92563, "agricultura": 31578, "Kelvin": 104542, "B5": 74820, "534": 43177, "핵": 9961, "diễn": 17300, "electronics": 97007, "##ковић": 65931, "Longchamp": 45585, "ani": 15444, "имеют": 31567, "##xton": 98007, "##疗": 115417, "##姬": 113049, "##ων": 16099, "medale": 90504, "njegova": 29764, "##चे": 19030, "ς": 482, "溴": 5121, "аны": 68690, "Siena": 38952, "Jensen": 28663, "among": 13328, "Sherman": 16265, "distribuição": 74799, "羣": 6423, "##ак": 16448, "Површина": 76414, "##üket": 86785, "dates": 27722, "dimensioni": 36926, "эки": 64955, "##ПУ": 64809, "##ession": 78843, "##cuando": 107635, "##cello": 45654, "##ები": 15197, "##〝": 111785, "따라": 22799, "gener": 26963, "##貽": 117201, "חיפה": 66180, "live": 12962, "##רך": 65095, "NA": 56586, "めた": 16386, "##вола": 102751, "##룩": 118889, "##net": 12978, "handen": 51977, "Йорк": 30812, "اتے": 16332, "##hance": 100586, "Hero": 26550, "##ää": 18534, "還": 7789, "Galicia": 20447, "##دههای": 99520, "Правда": 101693, "हालांकि": 57615, "офицер": 63768, "##乩": 111905, "綱": 6238, "slag": 32072, "##lament": 60838, "##ரில்": 36597, "tiền": 28851, "##گ": 15570, "##izza": 57496, "abil": 86766, "enterrado": 93112, "ఆర్ట్స్": 38966, "Chocolate": 81255, "仄": 2183, "##вник": 55161, "składa": 70013, "reducing": 62915, "##로는": 70186, "trouvé": 73900, "##Ў": 111066, "[unused79]": 79, "इसमें": 53744, "Gallimard": 40695, "簾": 6130, "##θοποιός": 108279, "রান": 98898, "participants": 35675, "nghiên": 32692, "##koro": 74199, "Kladogram": 32104, "revela": 63119, "##endi": 77089, "##顗": 118171, "И": 517, "Печора": 24881, "##ceso": 74831, "์": 1461, "##ндар": 109353, "##부": 14646, "дебютировал": 43199, "##obě": 94732, "mid": 15607, "11일": 46986, "##콧": 119311, "##ختار": 68853, "отца": 37700, "##grafo": 74336, "##meter": 27481, "Brazylii": 88656, "擬": 4262, "##äre": 29048, "##isieren": 99547, "뮬": 9307, "Муттаҳидаи": 68278, "bloc": 65360, "浪": 5001, "##পুর": 31947, "Tunnel": 41338, "##цию": 16191, "ℝ": 1780, "##édia": 76224, "pairt": 77614, "월드컵": 98519, "##دلة": 104897, "##korea": 71414, "绍": 6334, "##जे": 77285, "ZDA": 54621, "550": 20676, "asiáticos": 55857, "ﮐ": 10031, "любой": 74132, "liiga": 101100, "struktur": 40212, "##瀝": 115008, "##穿": 115773, "##järde": 108907, "##ầm": 31985, "##⁸": 111640, "##ári": 57799, "黒": 8803, "Kraj": 98619, "clip": 48545, "ا": 763, "kapital": 93920, "綽": 6244, "derzeit": 63105, "##媚": 113088, "særlig": 35312, "KK": 51071, "##oom": 49243, "Timberlake": 75646, "##формы": 96116, "tất": 31734, "672": 50776, "檢": 4753, "čovjeka": 100363, "파": 9901, "##hra": 36274, "##sivät": 97509, "проект": 24494, "胞": 6534, "##рано": 61568, "刁": 2532, "saiu": 106290, "##lmer": 78075, "monastery": 56113, "vallen": 80675, "Want": 26538, "##篁": 115871, "##顫": 118177, "놀": 9025, "##虛": 116714, "##рана": 20842, "numbered": 69087, "driving": 37897, "serija": 71804, "##iver": 37884, "##aches": 106461, "##ĕ": 13765, "apartenența": 69541, "ὺ": 1716, "Grenzen": 61324, "##筋": 115836, "міністр": 75407, "Manche": 41877, "##اوي": 74022, "ఏడాది": 32660, "used": 11031, "##蜱": 116779, "Криму": 106175, "Chính": 31352, "fakultet": 97191, "##トリア": 109651, "##鹫": 118536, "136": 18820, "romanas": 98948, "Také": 95352, "댄": 9070, "##ющими": 79938, "dünya": 41096, "##ick": 20898, "Policía": 84688, "##繭": 116059, "areal": 35733, "##rman": 26226, "偉": 2360, "##σμένα": 90980, "##rsus": 83119, "Николай": 20040, "沒": 4910, "Lampung": 81845, "عليها": 27679, "indie": 55706, "Branca": 96839, "12일": 46026, "хилар": 60729, "projecte": 52452, "##轎": 117400, "елемент": 88024, "ढ": 878, "reti": 36849, "Audi": 36397, "tòa": 62766, "Ensimmäisen": 100435, "Fisher": 24907, "##鹤": 118534, "používa": 109373, "ژوئن": 29074, "##ják": 20068, "##전을": 54918, "##사에": 86580, "yüksek": 35578, "##νά": 44715, "left": 12153, "entlassen": 65270, "nchini": 31460, "принца": 95202, "singolo": 23572, "pracoval": 50022, "##kampf": 61090, "distinctive": 62791, "xénero": 87738, "##하였고": 36251, "sari": 76450, "востоке": 38860, "Bulgarie": 102518, "##ивным": 101930, "Scoble": 18871, "dense": 70020, "##్లో": 103670, "##cial": 32939, "##ੁਣ": 95317, "فصيلة": 94462, "##gű": 94022, "ірі": 66987, "narodowej": 60347, "bulunur": 43152, "Pál": 44738, "##lager": 50265, "Hrvata": 74728, "martial": 65187, "Forst": 83400, "##tern": 26999, "stuk": 61593, "##ं": 14018, "##δες": 37827, "bears": 77911, "suure": 108685, "##ello": 24829, "##vía": 32693, "##στικό": 39512, "presença": 50757, "much": 13172, "##锰": 117876, "destaque": 70268, "##浄": 114749, "##ələri": 37433, "formando": 35810, "##кција": 81073, "##hya": 83211, "localidades": 35021, "##咯": 112613, "toile": 63131, "586": 53461, "##лэх": 47793, "blir": 14672, "simply": 26097, "ബി": 37277, "##zně": 110535, "المواد": 62369, "##רוסיה": 104670, "##զու": 99883, "Happiness": 86458, "##kset": 42214, "fransés": 55998, "schrijven": 87476, "##燃": 115122, "##яйственного": 104183, "Hee": 107443, "##ース": 25071, "ừ": 1690, "zichzelf": 64461, "mjr": 88938, "britànic": 94609, "##க்கான": 59889, "窟": 6020, "##њу": 17179, "sind": 10762, "##stlustel": 109638, "##ouer": 84777, "overseas": 59391, "пенсіонерами": 44840, "Tunisia": 51173, "floden": 68759, "##roda": 56021, "Премьер": 83464, "Insee": 25191, "pecahan": 57962, "窦": 6022, "mira": 51259, "préfet": 90563, "##re": 10246, "школы": 22842, "琿": 5537, "##vador": 104728, "costituzione": 107301, "utzi": 80082, "Мартин": 46295, "暠": 4425, "##節": 115870, "Roberto": 14948, "egg": 60926, "Asian": 16900, "##持": 113863, "##bourg": 24067, "collega": 51269, "csatlakozott": 101724, "Sander": 90461, "##ίους": 105883, "عمومی": 43545, "светска": 94708, "عاد": 85436, "##فه": 46413, "##佛": 112024, "کرن": 55700, "tych": 23453, "##tno": 30028, "##džių": 78644, "BiH": 36955, "వృత్తి": 38377, "##ef": 16822, "##chreiben": 82089, "##弹": 113496, "##ಟ್ಟಿ": 83301, "Walker": 15432, "##orum": 28048, "Arabia": 27860, "##ленный": 64240, "indicado": 105730, "##tende": 58503, "鹘": 8766, "##帰": 113388, "BR": 49351, "Красный": 72370, "Oberösterreich": 105040, "seating": 109746, "ocağı": 45774, "##ørte": 77177, "superando": 92865, "anschließenden": 103543, "אל": 16451, "informe": 51733, "井": 2156, "ਂ": 1006, "سپس": 37982, "предложение": 87803, "handball": 89557, "##ости": 26990, "অ": 937, "##voorbeeld": 96482, "Templo": 85095, "##顶": 118181, "caractéristiques": 39989, "##ve": 10612, "caballo": 90933, "##նայած": 72081, "distribuzione": 66821, "Königreich": 34435, "##ũ": 47093, "troben": 51549, "ORF": 94620, "##cate": 26054, "terá": 105567, "توسعه": 50045, "современной": 50590, "##ukan": 30728, "毕": 4840, "##thetic": 64899, "혜": 9984, "##ரின்": 40779, "ঘটে": 82897, "敎": 4290, "##嘿": 112729, "##amma": 84371, "joué": 39273, "estil": 42121, "1970s": 21844, "Cantabria": 72196, "##輌": 117379, "##eil": 41420, "Hestoria": 77266, "nici": 60716, "蝨": 7029, "doveva": 55996, "##澍": 114968, "칭": 9785, "guztiak": 85113, "##li": 10390, "m²": 15534, "cit": 49409, "مکمل": 82379, "謂": 7259, "appearing": 44349, "∧": 1809, "районам": 96350, "Myanmar": 32252, "výroby": 101681, "தொடர்பு": 59485, "##鶉": 118499, "ETA": 80559, "##peli": 77558, "癢": 5705, "##তা": 19668, "cantidades": 103729, "##хів": 80243, "καθώς": 21561, "Köye": 75622, "diámetro": 66073, "tusken": 54362, "sorella": 47617, "##רום": 88294, "ebbe": 21900, "описание": 88967, "##matidae": 90160, "roka": 35363, "##морского": 105068, "##艶": 116438, "тұрақты": 39293, "##ಷ್ಟ": 53170, "solución": 64197, "##ակից": 66181, "##ради": 76561, "designed": 15513, "imperio": 60234, "édition": 19244, "##và": 79873, "##icios": 84119, "geeft": 39207, "##鸞": 118510, "##廻": 113464, "##orul": 102223, "##索": 115963, "##obu": 57873, "##اع": 21337, "ANC": 90561, "##ська": 14799, "NED": 78916, "рух": 65955, "הישראלית": 69211, "expertise": 85681, "جانب": 38793, "bansang": 44675, "Wirkung": 49340, "запад": 35822, "僧": 2400, "tribal": 65227, "живе": 83317, "следует": 53300, "##kretær": 105136, "##īgs": 78046, "acceptance": 103024, "##hiza": 107864, "##слан": 91008, "migration": 63512, "старшего": 99794, "Vo": 59482, "##strado": 49332, "##sprung": 81504, "##リア": 21530, "##ästare": 99365, "släktet": 10926, "karierę": 41006, "písně": 105488, "Auseinandersetzungen": 107322, "##szak": 82686, "더욱": 99958, "formed": 14629, "Live": 12065, "Ballad": 88577, "##뭇": 118948, "وقال": 56213, "Powell": 25440, "Movimiento": 73072, "вредност": 86318, "newspapers": 48473, "γ": 467, "##ане": 30201, "##քն": 59435, "##ंची": 49835, "بيانات": 64522, "Duncan": 27964, "대한민국": 26168, "##льда": 103262, "##ъд": 76475, "##yth": 96362, "zamieszkiwały": 108759, "875": 45949, "##었으나": 56480, "bitter": 97737, "Japó": 73014, "スペイン": 63897, "TOUR": 86526, "##亏": 111918, "廟": 3689, "##筍": 115837, "##프리카": 108032, "fest": 34519, "##ranja": 68193, "砦": 5837, "odešel": 86176, "##γει": 57521, "loopkevers": 47139, "eso": 36584, "##ing": 10230, "##టు": 27977, "Mérida": 68531, "چاپ": 44639, "fondamentale": 63397, "concepto": 43522, "суда": 41923, "tắt": 104787, "埕": 3088, "##亡": 111929, "хана": 90845, "qualità": 41825, "##jam": 36887, "nördlich": 28253, "##ално": 85879, "##蘆": 116699, "Gavin": 57112, "nekaterih": 106019, "##μη": 23788, "##ewing": 106691, "élevé": 51363, "##ҡа": 42648, "Martini": 57866, "함": 9956, "##ugo": 108074, "Ladislav": 74708, "target": 28564, "##шньої": 82646, "##צעו": 79231, "##tec": 64764, "##erades": 67807, "##cimentos": 101890, "の2": 29829, "##lone": 32840, "קיימים": 92012, "无": 4346, "Površina": 74499, "Miami": 17626, "##랑": 62200, "؟": 756, "середине": 39258, "geni": 107282, "『": 1892, "##rida": 26331, "הוא": 11103, "##ίωμα": 93878, "conte": 26777, "荟": 6754, "αυτός": 75479, "115": 15680, "##lc": 93656, "ziet": 88224, "الجنوبية": 56521, "ліпеня": 51207, "##beth": 104371, "وادي": 60108, "kompleks": 42921, "##jk": 26960, "Ի": 635, "Rural": 23952, "birlikte": 22144, "районах": 55712, "جریان": 49789, "##ಾರಿ": 40409, "solares": 110020, "##齦": 118594, "здания": 44282, "조": 9678, "めている": 46380, "представників": 70708, "игре": 35813, "##rtier": 74085, "videojuego": 94915, "الجمعية": 73819, "panjang": 15907, "##腦": 116346, "헝": 9972, "##೪": 70161, "Beaux": 51453, "##rumu": 77542, "Santiago": 12336, "поэтому": 33910, "##瞪": 115569, "##ವ": 21136, "##anon": 93342, "##orat": 99124, "fondatore": 78235, "##rospective": 110686, "##kı": 28270, "##ībām": 88231, "niemieckiej": 66083, "tradicional": 21752, "303": 27167, "##睦": 115552, "##バス": 46468, "1422": 77768, "View": 30789, "##ਕਤ": 93865, "báo": 24276, "umgeben": 73557, "آمریکا": 14167, "##скі": 20552, "лиц": 59849, "dotter": 56032, "੍": 1056, "कार्यक्रम": 75736, "женщина": 83010, "##vraagd": 109943, "Uniwersytet": 98152, "充": 2428, "##stvu": 45008, "έχουν": 24282, "##ระมาณ": 68883, "Põhja": 64830, "##stair": 96772, "##နောက်": 71761, "Fribourg": 94325, "##fors": 61668, "свого": 28894, "##ION": 52980, "actúa": 109268, "companies": 18866, "Triều": 56476, "##avan": 53587, "990": 55291, "##štva": 47425, "##hku": 93869, "художественный": 90661, "##ทร์": 79232, "##걀": 118621, "Humberto": 83570, "葳": 6836, "Gene": 22787, "iline": 57828, "successi": 83564, "overwinning": 83884, "نال": 20224, "筒": 6075, "جزء": 49454, "сентябрехь": 92462, "##duti": 110098, "とされている": 106700, "##વ": 41903, "Ford": 14255, "चिकित्सा": 107745, "编": 6377, "父": 5386, "dessus": 29272, "##reck": 80442, "##hand": 41137, "wäre": 41750, "déning": 31258, "especializada": 81632, "disabuik": 27269, "Crash": 49790, "##വി": 54885, "sitios": 68432, "##sedou": 88593, "##esc": 43694, "kiselina": 98737, "جمعية": 78610, "##очки": 88959, "Campeão": 93597, "##סרט": 80228, "joten": 56063, "Participó": 82598, "باشگاه": 39962, "З": 516, "लेखक": 58227, "도시": 101660, "frente": 16259, "لینڈ": 75505, "xuntu": 67880, "tujuan": 45615, "##cei": 91199, "proceedings": 93399, "settembre": 15585, "ketiga": 39047, "##ává": 30309, "etxeak": 37175, "##лию": 82267, "Edith": 37646, "##iegel": 87875, "##tend": 57477, "##tead": 55099, "##터": 21876, "छगूलि": 104663, "தொகுதி": 30327, "propose": 30027, "LGBT": 39585, "بعضی": 64624, "арасындағы": 104009, "gains": 92193, "degli": 11665, "有": 4461, "적": 9664, "##ोल": 51140, "渤": 5080, "驶": 8559, "##пки": 46953, "בתור": 65189, "##钧": 117821, "##lisch": 107374, "самостоятельно": 109603, "ぇ": 1908, "이탈리아": 73668, "Soviet": 15277, "##тай": 25987, "##عدام": 80809, "comunità": 30791, "อังกฤษ": 19743, "шул": 63522, "činnosti": 59796, "Christiane": 72365, "##۷۶": 76273, "Judy": 41274, "Oberliga": 42592, "##łączono": 72069, "##hère": 98330, "abilities": 72873, "raio": 53267, "asi": 21744, "1111": 41119, "НАТО": 55014, "편": 9924, "άρχισε": 71224, "##ഭിച്ചു": 87062, "క": 1201, "##템": 108366, "Stettin": 81742, "##stande": 98386, "KPD": 87973, "##편": 50450, "ontstaat": 109103, "##wami": 105097, "##좀": 119212, "disorders": 71958, "kati": 46488, "##illas": 78834, "##ange": 50152, "##槇": 114463, "risale": 65093, "conexión": 90398, "поправени": 90265, "нийса": 13019, "喜": 2921, "##hotep": 106155, "gabe": 73336, "##лиці": 109280, "匕": 2648, "XIXᵉ": 24775, "##rildi": 73091, "Quo": 84718, "瘀": 5686, "tajā": 90487, "resumed": 68655, "федераци": 45117, "側": 2367, "beendete": 37895, "Frangjisht": 87029, "editor": 16595, "##讞": 117063, "##сль": 99044, "##晦": 114170, "##kori": 39276, "##epe": 60875, "##itar": 36111, "옵": 9587, "soviétique": 44819, "cuadrados": 64970, "##פעות": 82851, "pekerja": 102836, "Həmin": 79496, "##gazdasági": 90243, "##wusst": 91754, "exactly": 62136, "##eurs": 17824, "##נסקי": 96944, "Carabidae": 25447, "Collège": 56843, "1986년": 85485, "experiments": 56430, "Its": 14864, "Fowler": 49890, "Atlantis": 47921, "storici": 61101, "##atorio": 94828, "Davide": 60792, "Senator": 30397, "Molina": 40718, "哼": 2874, "##ந்தி": 96431, "##anda": 41971, "##ipo": 67083, "##ights": 103437, "území": 19551, "fehiben": 62974, "##丼": 111878, "##йский": 31730, "##पूर": 56046, "머신": 105511, "الکتروشیمی": 82818, "ベース": 106310, "kitra": 36604, "##ezte": 75134, "##שים": 22132, "تكن": 106024, "##йма": 88215, "köszönhetően": 80189, "prou": 93484, "股": 6510, "авиона": 74888, "##ری": 15436, "oppdaget": 98124, "##შ": 111517, "##یر": 15747, "##되고": 29208, "棒": 4629, "Toronto": 15256, "##冲": 112259, "ձեռք": 107656, "DM": 48096, "үчүн": 31337, "男": 5615, "##wad": 87051, "wong": 49653, "Medieval": 35379, "##elte": 61350, "elég": 107787, "Qualificato": 72853, "Championships": 17264, "Kebanyakan": 80058, "010": 49470, "okrętów": 83401, "ゝ": 1982, "##亲": 111941, "drug": 20998, "Jedná": 64555, "##νός": 52322, "##쯔": 119243, "[unused62]": 62, "##નાં": 86273, "##요": 48549, "##альну": 100923, "dela": 21177, "ギター": 71213, "Markus": 32568, "aeronave": 85078, "Nil": 66163, "##ंचा": 50436, "Antônio": 38354, "Cork": 42049, "##nate": 36884, "składzie": 54754, "##line": 12953, "##hm": 29389, "##觉": 116928, "##fjord": 62073, "actos": 50628, "##炫": 115044, "stake": 90081, "##תנגדות": 88453, "ూ": 1239, "鉴": 7943, "##νους": 88727, "##কের": 44020, "##kling": 56886, "##ciuta": 91787, "urbano": 38225, "عربی": 31817, "184": 22662, "##mediata": 95134, "1280": 60957, "speel": 100362, "Grosser": 86368, "##xeno": 98308, "Private": 26867, "##ковых": 68668, "deres": 17610, "ಅವುಗಳ": 109508, "coneguts": 102631, "possédait": 108943, "especiales": 58293, "##դա": 88963, "##رش": 67151, "Vilniaus": 30062, "ragione": 87264, "##ård": 55203, "comunicació": 71065, "eni": 51428, "纷": 6319, "memakai": 96565, "ammunition": 77036, "daarin": 93980, "negativo": 86528, "вище": 71459, "fina": 79420, "31id": 55798, "##હે": 84471, "1748": 33533, "##ṭ": 111565, "punkten": 11860, "consecuencia": 41259, "1359": 94838, "جميع": 23136, "బావులు": 32506, "##gola": 67658, "Seis": 93807, "##sford": 62198, "壌": 3158, "##vezett": 93972, "AFL": 61984, "сиха": 23335, "儋": 2413, "Fact": 85245, "##१८": 99013, "marec": 73674, "##טוס": 81206, "França": 16679, "игры": 22910, "##рч": 85763, "खण्डय्": 75404, "саны": 13555, "##resi": 65699, "##utettiin": 93128, "##чением": 58560, "##檐": 114515, "莎": 6768, "Ioannes": 65018, "Lévy": 110278, "Computational": 71462, "##షన్": 73950, "physics": 44939, "##谜": 117145, "Migration": 105260, "251": 26123, "粋": 6145, "##ДР": 100337, "أفريقيا": 60853, "##ర్": 15695, "##etre": 66416, "尙": 3465, "által": 23017, "##zam": 40556, "caught": 39797, "##魷": 118393, "آر": 89651, "oncle": 56456, "##ían": 15978, "나는": 100585, "壳": 3176, "엔": 9561, "prises": 70053, "##دمة": 102723, "מיני": 108332, "##ayan": 78410, "935": 67713, "پور": 84801, "##søgte": 101988, "smrt": 53232, "##meti": 109350, "##Т": 20411, "##нны": 91322, "Megachile": 85424, "зала": 95346, "дейност": 88850, "##江": 114654, "##خته": 63579, "##eping": 79654, "##цк": 82648, "Средний": 74559, "##奔": 112986, "##●": 111742, "##μο": 20736, "##dox": 73630, "##ган": 14814, "dortigen": 60904, "##кцій": 72871, "##łość": 47150, "Eli": 51243, "peristiwa": 68319, "##жняя": 94596, "##рико": 87553, "##埡": 112859, "##onał": 68064, "##戮": 113752, "народів": 108745, "коју": 40650, "092917": 19039, "##ра": 11079, "##이다": 11925, "##氟": 114623, "Zeichen": 55194, "したため": 42262, "kulit": 59938, "providing": 26099, "fête": 49981, "stal": 17844, "çıxış": 90965, "##秃": 115716, "##rush": 60796, "##snym": 73912, "##.": 110864, "Schriften": 42411, "##کار": 21009, "الأعمال": 54545, "boten": 69320, "##lské": 87270, "Berlusconi": 99654, "Dent": 100355, "својим": 57406, "God": 14015, "vanaf": 18175, "殊": 4813, "ಇವು": 88008, "2050": 110044, "##անվում": 90057, "titik": 57073, "##ĕнчи": 61361, "##ention": 90372, "##รียกว่า": 92526, "##賦": 117222, "##قان": 82085, "##østen": 64960, "##ਾਰਾ": 88964, "nyaéta": 17509, "Illes": 95839, "dimensione": 94986, "Nürnberg": 30551, "hrvatski": 34233, "init": 78754, "troupe": 68545, "##əm": 71481, "ispirato": 91185, "Brooklyn": 22374, "齦": 8828, "##mbuatan": 109721, "珈": 5496, "لیا": 46541, "##شرف": 70256, "دواوير": 98595, "Италиядағы": 103388, "##gía": 59370, "stoletja": 39787, "Keys": 52286, "vigueur": 100427, "##nisme": 94282, "مهمترین": 69133, "errors": 76269, "realizzata": 62677, "##явление": 63049, "зданий": 87460, "热": 5304, "##вол": 110687, "##쓸": 119105, "Way": 15661, "short": 13716, "##מור": 45578, "میگیرد": 44564, "technology": 19765, "##컴": 119299, "##উ": 89362, "##НР": 80107, "কারণে": 64558, "巳": 3593, "zákon": 89487, "藉": 6915, "étoiles": 57320, "엮": 9567, "алган": 42233, "перемогу": 109481, "##矫": 115586, "геоинформация": 60577, "kalla": 29334, "musulmanes": 78663, "tätig": 18615, "##ात": 15919, "शहरयागु": 65772, "kW": 17411, "Dixon": 39647, "Sien": 100637, "linguagem": 93836, "##еде": 87097, "Secretaria": 90297, "增": 3148, "mainland": 70083, "##lës": 110655, "near": 12883, "##нено": 61051, "engineers": 75222, "lade": 110045, "##נץ": 73767, "tradiciones": 107287, "inițial": 96426, "opprettet": 52406, "##šli": 31318, "##iol": 35493, "##ton": 11183, "Lane": 20845, "##ænge": 105758, "fragments": 55401, "玩": 5484, "સૌથી": 62637, "inscrits": 79408, "●": 1859, "##ваш": 77306, "fifteen": 58305, "oddziału": 96518, "##υνολικά": 85155, "θ": 472, "チーム": 70679, "2": 123, "Lorsque": 49349, "Whitney": 33464, "оборони": 71901, "البريطانية": 65933, "##žiaus": 63795, "##ธ": 103641, "nouveaux": 27356, "Gros": 81577, "vicepresidente": 65460, "##ಯಾದ": 77883, "chegada": 70657, "澧": 5208, "##nês": 80640, "السابقة": 90675, "strain": 110158, "##異": 115400, "successor": 33095, "娇": 3291, "##sto": 15340, "弄": 3705, "梯": 4618, "屁": 3484, "钻": 8065, "##laşması": 97339, "##ське": 27707, "##ą": 10621, "simplemente": 54746, "diabetes": 69025, "зерттеу": 91309, "नेपामि": 67291, "##ائر": 50141, "Zuvor": 105698, "NF": 89829, "##בח": 87736, "программа": 66893, "##äässä": 75708, "banorë": 44547, "ringkasnya": 72314, "##лора": 106863, "गरी": 81994, "##jul": 40093, "##zation": 27048, "##äiden": 68183, "ਹਨ": 16154, "sted": 31788, "Plantae": 80359, "הכפר": 90488, "##Ľ": 110952, "732": 62267, "goal": 16586, "mio": 34860, "Piacenza": 75951, "gold": 18128, "##ument": 58079, "estimées": 66134, "ဖ": 1513, "##庐": 113425, "төп": 30799, "##azi": 28059, "phụ": 28422, "粽": 6161, "##укова": 110787, "##maat": 60453, "są": 13130, "[unused93]": 93, "своими": 51657, "Hiệp": 49483, "##зды": 56301, "військових": 72754, "Athletics": 46800, "Gardens": 36258, "formalmente": 66040, "Accessed": 62299, "Знак": 75050, "теми": 79746, "medikal": 48159, "##橄": 114500, "蟻": 7054, "administrativ": 31800, "politic": 72520, "##ší": 15685, "##đene": 58740, "која": 13118, "Pasar": 95606, "##ർ": 18188, "##šské": 82128, "##ہڑا": 108588, "behaviour": 68628, "выпущен": 62918, "##이었다": 58926, "##泳": 114719, "pilote": 46215, "vier": 12725, "annak": 24105, "merger": 53860, "誇": 7212, "##כתוב": 90112, "종": 9684, "##ी": 10914, "##вати": 19354, "Schmid": 74213, "pad": 34709, "##give": 106088, "##递": 117495, "##schule": 22640, "socialistes": 108045, "##۷۷": 79820, "भूमि": 90775, "gros": 46505, "Gobernador": 86237, "2012년": 18851, "##ійською": 70527, "Э": 538, "Frozen": 104752, "knockout": 104754, "뽑": 9397, "ნაწილი": 55817, "##nın": 13153, "quần": 50489, "perform": 28840, "##going": 92037, "##rrell": 68122, "##膀": 116358, "الوسطى": 83658, "Knight": 19848, "hafi": 67447, "##ращение": 50087, "표": 9934, "##iyada": 99437, "##ϊκή": 60789, "proposta": 37259, "##ítő": 52394, "membunuh": 76111, "gizonak": 34458, "나": 8982, "տղամարդ": 69138, "آهنگ": 91522, "##কে": 18243, "##ск": 14958, "chịu": 47945, "war": 10338, "##એ": 39751, "Hera": 106786, "##န": 111488, "Kongelige": 103201, "laulu": 40371, "##lost": 47081, "##舘": 116409, "Deutsche": 15389, "일본어": 30819, "垣": 3077, "Prussia": 58710, "##ایز": 103458, "کشورهای": 54023, "##ciaciones": 109118, "österreichischen": 42317, "koncert": 46220, "##zzati": 56495, "厝": 2714, "##倻": 112120, "##tnik": 50727, "islla": 98661, "##וצא": 106101, "##плення": 69414, "terus": 37605, "publiés": 57769, "##énie": 79723, "вилояти": 23097, "presión": 41606, "Sky": 13842, "asks": 54031, "Romani": 49174, "##zka": 23573, "reter": 108783, "##racji": 65491, "meilleurs": 47884, "##ûte": 61919, "##vána": 39350, "Apache": 44488, "գալիս": 65320, "##ientes": 36765, "Allianz": 99209, "Out": 14504, "contexte": 62856, "##jās": 50335, "снаге": 85070, "##מלי": 67019, "始": 3268, "##σον": 49244, "laws": 28160, "оној": 80823, "végzett": 47691, "##arki": 105707, "continued": 14278, "##vnega": 91707, "завършва": 50977, "##ਨੇ": 87697, "Reports": 41669, "Bet": 61828, "binon": 12106, "చేసిన": 58635, "##ンナ": 107878, "पुणे": 69985, "área": 13487, "##skeho": 101037, "昧": 4377, "##세는": 93770, "risorse": 100040, "Sem": 62825, "##ktig": 51984, "s": 187, "##рая": 91538, "Morro": 67540, "Schreiber": 108995, "osan": 73095, "Becker": 27534, "##Վ": 111132, "##ырым": 91966, "sale": 15488, "##uise": 100976, "1063": 92842, "success": 17001, "bataillon": 61004, "##羰": 116196, "##πει": 77492, "##戚": 113746, "sailing": 86952, "宴": 3406, "Poet": 103461, "આવેલું": 28888, "روسجا": 83280, "##反": 112499, "##יקש": 110281, "##טים": 22838, "##ографии": 93117, "malaltia": 100768, "provisions": 67623, "Religion": 24169, "ailleurs": 21824, "итал": 22373, "템": 9870, "Factory": 35231, "формат": 110241, "##ոյություն": 105411, "survey": 35035, "##О": 18002, "Голова": 60265, "estrellas": 60340, "selu": 94783, "沾": 4933, "##عتمد": 53367, "thổ": 50546, "ਕਰਨ": 36745, "Ҙ": 596, "asfalt": 46642, "##匙": 112417, "servizi": 50011, "##bných": 107972, "##kot": 42287, "##ская": 11980, "obali": 70940, "iu": 101826, "牙": 5399, "integrated": 47833, "Djebel": 58994, "##ậ": 111575, "uscito": 64404, "##јам": 79751, "Stamm": 94971, "später": 12793, "##دين": 44316, "##taine": 64273, "nagrody": 81613, "verwenden": 103643, "##вестно": 68140, "artistes": 25372, "өөрийн": 101017, "deniz": 97777, "ご": 1920, "أعلى": 53278, "napsal": 84125, "знаходзіцца": 57771, "Chicken": 82928, "hovedsakelig": 79594, "##ogy": 37652, "##orkest": 88104, "Domino": 81432, "headed": 33336, "Bro": 32470, "Азербайджана": 61219, "##нику": 44646, "Oпштина": 73187, "##ixen": 25645, "##vertreter": 90409, "Unlimited": 94890, "##rüstung": 103395, "##أثر": 97351, "##̲": 111022, "##နိုင်ငံ": 58812, "atualmente": 38991, "##кі": 12975, "Puig": 65244, "Julian": 23154, "令": 2203, "dividido": 63448, "##uha": 93349, "varierer": 109924, "##өв": 62638, "Soares": 67784, "##herren": 104962, "蔭": 6875, "verksamhet": 96428, "##勻": 112404, "##ницей": 74076, "Гапоненка": 60775, "عين": 55309, "következtében": 81805, "heads": 42399, ".": 119, "якога": 76695, "pulang": 107874, "旌": 4342, "##tě": 31841, "##팅": 100329, "##샤": 119035, "cinq": 15864, "537": 49980, "##vika": 92931, "Civilization": 65782, "##ství": 20364, "století": 15956, "##燕": 115128, "Joan": 15199, "##friend": 97856, "vars": 69855, "montagne": 38814, "謚": 7266, "##ісу": 75893, "rolle": 34547, "Vom": 30741, "##תקשורת": 91242, "же": 11815, "architecture": 20783, "1194": 93460, "investigate": 78189, "榕": 4686, "##plosion": 101903, "nessuno": 83883, "donne": 17717, "##чити": 49211, "είδος": 90167, "dienten": 101290, "##ровал": 37533, "div": 76486, "##萎": 116578, "##sari": 66291, "စ": 1497, "בן": 18279, "peab": 77705, "Чемпион": 52133, "creation": 26545, "अधीनय्": 32853, "kävi": 82118, "దూరంలోనూ": 45787, "Alger": 33688, "guitarist": 38169, "溫": 5119, "撲": 4240, "Социалистического": 75615, "ordeni": 106626, "##髻": 118369, "успех": 40626, "կողմից": 18525, "##כות": 20669, "mẹ": 42118, "冉": 2472, "##ьнік": 106702, "znanstvenih": 90954, "Vest": 39669, "誤": 7224, "TIGR": 68302, "Germán": 97866, "##憧": 113711, "该": 7344, "couronne": 78676, "dytë": 83487, "Rio": 12109, "彬": 3753, "##ส": 28767, "dì": 84651, "##твуют": 98984, "##brio": 75815, "হারি": 31540, "партии": 22915, "##ovac": 84627, "bahasa": 14545, "ῖ": 1719, "##ußischer": 102979, "##itch": 87976, "璧": 5573, "##ästa": 88541, "общего": 51626, "##encia": 24549, "##hyllum": 95705, "Años": 104697, "мест": 40592, "##גל": 22359, "Jing": 94154, "artistique": 40008, "esto": 18278, "religions": 64757, "Reunion": 97632, "hafta": 102768, "##dito": 45045, "##峁": 113294, "liderada": 107172, "##ரான": 66171, "tewas": 99373, "получения": 67760, "##姗": 113040, "Nominierung": 64627, "Үрге": 49784, "केली": 42240, "皆": 5719, "陪": 8228, "郴": 7834, "##verk": 23771, "##rius": 21461, "##应": 113427, "16일": 44978, "الفصيلة": 80900, "##ದೇ": 46056, "vjerojatno": 91534, "##حال": 55394, "[unused32]": 32, "faren": 96850, "##例": 112046, "##zzare": 55306, "amihang": 55653, "Patricia": 26751, "佈": 2245, "Pläne": 80591, "Outro": 76352, "##미": 22458, "##ళ": 46549, "##ത്തിന്": 52833, "Raj": 56510, "694": 72834, "animated": 50728, "##품": 52951, "dynol": 99512, "namen": 44052, "Jess": 97052, "##noy": 89158, "болып": 19524, "Qatar": 34933, "##snici": 99438, "##рце": 100688, "##אור": 53464, "##zut": 62521, "Участвовал": 86724, "##руков": 105561, "であることを": 93356, "Bande": 80717, "寥": 3430, "##AC": 30340, "ὲ": 1712, "##ības": 15886, "1950": 10811, "##眶": 115538, "姓": 3272, "آلان": 41985, "আন্তর্জাতিক": 56781, "затем": 16907, "частка": 62280, "marié": 81296, "##리는": 26344, "##órica": 65356, "Александрович": 39406, "##县": 112491, "##嵊": 113324, "switched": 66795, "রাজা": 102081, "кн": 47779, "kluba": 46782, "antes": 12847, "encuentran": 23849, "1988년": 75991, "##běh": 89031, "##лгі": 107618, "##ített": 37638, "Sprint": 44565, "doch": 21131, "##erbach": 100530, "##чную": 35876, "##iot": 69325, "점": 9668, "permiten": 78934, "profondità": 101706, "##ời": 51228, "immediately": 24029, "Одним": 73016, "##谳": 117158, "gesetzt": 60606, "theater": 33462, "##보다": 80001, "##ולים": 57624, "discu": 110076, "Lancashire": 48487, "قائد": 83534, "ensembles": 93736, "##іга": 91997, "entfernt": 31329, "##ூர்": 27734, "##دارد": 79798, "várias": 25346, "cal": 25923, "##Џ": 111067, "прави": 36574, "##ці": 12167, "##錮": 117750, "magas": 50999, "domina": 90399, "җәй": 100685, "stessi": 50093, "苫": 6713, "Zanzibar": 93402, "Например": 48689, "Links": 88479, "lingkungan": 64383, "##áva": 48103, "##ловакия": 102772, "שדה": 84739, "##ন্ট": 67366, "##버": 41605, "millones": 18304, "尭": 3471, "##quest": 93877, "Drago": 98650, "njim": 74958, "##uese": 110424, "##winden": 108940, "##ü": 12369, "Chrome": 85237, "##ļā": 97168, "攜": 4272, "##屬": 113268, "suhu": 84390, "сите": 31996, "külső": 83039, "Clare": 50678, "专": 2084, "Montage": 56189, "бас": 24896, "Inge": 74143, "##ová": 16409, "##름": 49543, "בחלק": 97343, "략": 9174, "ra": 11859, "خالد": 59282, "njihov": 69008, "riva": 97165, "معركة": 66157, "맛": 9254, "març": 26303, "Wilfried": 107652, "##raren": 82415, "倒": 2336, "##illa": 14250, "##ับ": 102269, "ૉ": 1125, "потужністю": 106705, "##шим": 19547, "cabeza": 26497, "Underfamilien": 89582, "##δος": 40711, "Kūh": 14031, "Stones": 33936, "##菅": 116552, "балалар": 91255, "filmova": 93403, "način": 28667, "asosan": 84768, "##ופה": 74577, "##並": 111866, "Prevention": 81166, "淪": 5049, "boxes": 88530, "送": 7719, "including": 11198, "##char": 39142, "Tex": 109048, "##фікації": 66222, "##邠": 117566, "èsser": 44752, "called": 11552, "Cristal": 91410, "Creu": 94008, "sekali": 46233, "yerini": 107398, "construido": 46544, "Ant": 40328, "丟": 2095, "convencional": 98000, "##trykk": 88467, "##৫": 19351, "Haltung": 102973, "Bangkok": 34793, "##쓴": 119104, "##xicu": 87432, "##кха": 70852, "shall": 36216, "##쑤": 119102, "батальона": 67472, "##бинской": 99107, "argues": 74302, "besitzt": 29363, "Friuli": 62389, "##влен": 78309, "##cendo": 42933, "##妍": 113014, "menjalankan": 105249, "ఇక్కడ": 66443, "dj": 71150, "Íslandi": 77106, "##gais": 102153, "##gå": 69987, "bench": 86696, "városban": 99685, "जाकी": 79155, "摯": 4219, "##బడింది": 76498, "религии": 96254, "endine": 107483, "Conseil": 22775, "פרופסור": 101992, "##ия": 11502, "собор": 61068, "##岗": 113280, "フランス": 30422, "Nuova": 37393, "battaglia": 24925, "##گل": 101736, "ऽ": 901, "##cud": 95177, "എന്നാണ്": 71871, "##SF": 46378, "spread": 25609, "предприятий": 77176, "biz": 94912, "Ș": 383, "Butte": 105527, "##plice": 62631, "##밥": 118969, "grosso": 97898, "मे": 40265, "Monica": 29242, "objetos": 36205, "##γραφική": 109829, "śmierć": 82924, "influential": 43626, "##вшими": 104657, "hồi": 53270, "##ī": 15288, "##뱅": 118974, "Bravo": 38032, "##ーカー": 77147, "##tõttu": 66361, "##zów": 41201, "fiind": 18199, "ümber": 77969, "першої": 65313, "Расіі": 71521, "嫁": 3327, "哺": 2873, "##owań": 82367, "靂": 8321, "Kosova": 76448, "привело": 70433, "##슷": 119082, "逐": 7728, "字": 3354, "199": 23366, "منزل": 99941, "skal": 17183, "Kopp": 100537, "Grey": 24054, "Volkszählung": 57748, "##قاب": 94196, "око": 18792, "1779": 27333, "##くら": 94608, "Instruments": 83543, "##žu": 22959, "##anın": 57152, "爬": 5380, "##народный": 110579, "##lieu": 105404, "##rkvi": 57614, "##거": 41521, "##ま": 27058, "洗": 4965, "родился": 23939, "pied": 36602, "для": 10520, "divisione": 40034, "والے": 38332, "濒": 5218, "등이": 36322, "##땃": 118829, "правила": 53805, "##oksen": 50885, "##dry": 51532, "võitis": 73379, "seds": 48572, "擂": 4246, "##şlar": 81769, "##ливі": 78433, "estaciones": 62935, "##hing": 30809, "gefertigt": 98369, "##tur": 15698, "Nordrhein": 44651, "Německu": 93255, "worm": 51879, "целом": 47936, "construire": 46891, "ega": 45192, "ખાતે": 83769, "##asă": 66141, "##istic": 29025, "##μένων": 36677, "chiusura": 90990, "För": 35169, "##ičine": 65223, "##اسي": 48767, "##ware": 27444, "ὡ": 1710, "##ptic": 82842, "##kładzie": 93416, "##爽": 115158, "Cliff": 42593, "ilay": 23891, "##哗": 112629, "卉": 2671, "##gru": 92603, "##bnosti": 76168, "##azo": 91931, "thủ": 18755, "hinter": 26022, "berita": 84836, "喬": 2927, "##բան": 92597, "##мей": 91201, "rắn": 98475, "fortune": 55458, "publics": 48475, "attraction": 57642, "##rzone": 94078, "##rstw": 104575, "리그": 43723, "##μβάνει": 98414, "##aka": 18529, "ciudat": 61404, "daardoor": 76641, "παραγωγή": 78138, "unidade": 54278, "##ndig": 99363, "Parry": 81320, "##უმი": 98850, "Станислав": 106771, "mirip": 96675, "##rigen": 64075, "##xico": 61105, "123": 16968, "oynanan": 108263, "fiskal": 36379, "Australasian": 52039, "##ധി": 102743, "##체": 29683, "ջրային": 39562, "##ತ್ತವೆ": 58525, "旃": 4339, "usada": 37143, "723": 70486, "nombor": 97813, "tegen": 15639, "##naniu": 107480, "királyi": 49948, "нет": 31428, "##تگاه": 108324, "declarou": 89634, "##ங்கிய": 95742, "##vings": 97097, "payments": 99417, "##owników": 68965, "Família": 63198, "쏟": 9509, "##虔": 116711, "Tanzania": 22580, "paix": 41795, "##ž": 13208, "##ственности": 67106, "Mouse": 48936, "##岛": 113284, "賈": 7443, "##jaus": 90333, "鯡": 8644, "##örer": 62987, "árabes": 64660, "célèbre": 33594, "##графии": 45454, "444": 40984, "mittels": 48370, "известна": 55897, "suficiente": 45508, "без": 13012, "vuxna": 82592, "##ไทย": 41362, "exhibits": 95713, "периода": 26773, "Zeppelin": 44184, "gelingt": 106453, "##譲": 117052, "##叙": 112506, "sociais": 55167, "##antum": 105671, "##yni": 60965, "història": 29640, "##сі": 16383, "##愤": 113678, "ועל": 36299, "veku": 91077, "पूरी": 96597, "944": 72096, "أبريل": 27336, "鋰": 7968, "睫": 5789, "Vox": 105696, "Hahn": 47225, "Kiadó": 58810, "##ನಿಕ": 50487, "売": 3175, "##mps": 38868, "##isela": 108703, "により": 13411, "oyuncu": 57463, "detective": 57127, "##har": 18387, "ce": 10794, "##χνη": 98399, "##ılar": 65859, "turbine": 78995, "operating": 24210, "##pita": 55207, "uranium": 87937, "##널": 49881, "##ждение": 32450, "##dua": 47463, "##рви": 93162, "Nelson": 15962, "méně": 80801, "végül": 37169, "theatre": 28016, "##ھ": 25908, "stemmen": 83663, "洪": 4971, "platforms": 51325, "Jacob": 16493, "geçti": 86778, "##museum": 29016, "Aldo": 43265, "##handlung": 52044, "##с": 10513, "After": 11301, "layanan": 92363, "heat": 33955, "Aziz": 46563, "existència": 97868, "Ashes": 93442, "šaha": 40039, "M3": 73909, "comença": 71743, "работата": 105650, "volgen": 107175, "##閩": 117911, "autoridad": 56458, "##내": 31605, "伺": 2239, "##parazione": 92251, "cahaya": 83014, "пространства": 97773, "##llään": 105145, "奉": 3214, "контролю": 99877, "отделения": 50684, "##neiden": 89816, "闘": 8159, "આવેલા": 16817, "probablemente": 38015, "يوجد": 34906, "Filipinas": 63295, "ոչ": 25379, "##пат": 70588, "bevor": 31300, "celf": 94515, "##syon": 42729, "začel": 78086, "##pila": 87814, "Вологдан": 66582, "##tja": 23696, "konfliktu": 102195, "карьеры": 70580, "znajdował": 100684, "Springer": 17854, "ఒ": 1198, "веществ": 103040, "緣": 6256, "##орія": 94243, "##GB": 32469, "dimensional": 59254, "##kull": 78772, "##्रह": 62379, "ฺ": 1449, "蟆": 7046, "##зна": 45572, "senón": 103001, "symptoms": 62319, "1930s": 35010, "dituzten": 20945, "##ట్": 20147, "##երի": 13965, "##ивні": 96369, "##сновано": 102606, "performances": 22744, "Plecoptera": 93453, "##ონში": 81884, "##談": 117003, "bis": 10467, "grants": 73931, "każdego": 102596, "勲": 2633, "##イギリス": 81836, "##ğında": 76693, "Argos": 108294, "Mammals": 49054, "dubbed": 76902, "##к": 10510, "Mimo": 49578, "##tari": 30814, "envoyé": 61614, "Walt": 24108, "##cura": 47703, "قبل": 14020, "##mesa": 66573, "Huang": 41909, "Ezra": 77046, "##телями": 53724, "സി": 38449, "##览": 116927, "skladatel": 93743, "増": 3144, "##ió": 12343, "##чему": 96506, "polos": 20883, "##учи": 83856, "##şti": 87141, "##əsini": 97153, "bleiben": 53485, "##謡": 117036, "І": 500, "Estatística": 60008, "们": 2206, "donna": 22423, "Fulham": 84725, "##æste": 95769, "##nului": 95920, "specialmente": 89457, "России": 12152, "волості": 88713, "103": 15553, "Pologne": 27872, "côte": 43184, "آنجا": 48528, "016": 78312, "##ьями": 63361, "##brities": 110079, "1175": 109880, "النفس": 107748, "लेकर": 83473, "##qan": 84903, "vegades": 35532, "Palace": 22015, "réforme": 66741, "##ntó": 59684, "nı": 94429, "##нутренний": 102141, "Access": 40315, "431": 36191, "##eszkańcy": 105302, "collective": 49417, "schließt": 77772, "caccia": 51968, "valeur": 31874, "పరపతి": 42107, "##رتبط": 74778, "voormalig": 51339, "sentir": 65834, "##waris": 59861, "##upi": 90695, "waarbij": 23353, "seguintes": 28804, "対": 3446, "であると": 50356, "##ակվել": 76751, "Oakland": 38340, "##werpen": 76491, "##žne": 30457, "##оде": 82562, "quarter": 28330, "američki": 52146, "##גרת": 66586, "отец": 34606, "Bahá": 69799, "الحكم": 51904, "Samen": 49023, "##icher": 73976, "означена": 95484, "##ығы": 82548, "vliv": 97765, "##పాడు": 78933, "Xi": 59876, "##inou": 49900, "Астана": 84831, "##ajana": 86577, "剂": 2562, "juu": 49077, "##kce": 56756, "鸠": 8746, "stopnia": 47744, "seua": 50377, "##潭": 114957, "##δοχή": 108949, "##ˈ": 111013, "საყოველთაო": 100186, "Engl": 61202, "넛": 9009, "grande": 11439, "##yt": 20246, "##rmática": 96680, "bakarrik": 20097, "saluran": 29466, "##chtung": 41966, "ampla": 82964, "amb": 10559, "habitantaro": 21231, "Ngày": 23362, "basso": 21365, "targeted": 79837, "сингл": 42825, "##boy": 40825, "رسیده": 44926, "Rohan": 72149, "##ьского": 58441, "faritany": 44312, "##ricu": 83696, "##реть": 101312, "Azerbaycan": 97545, "oben": 39651, "Северна": 43853, "##ἀ": 111591, "1726": 41106, "tekanan": 93131, "due": 10850, "figlio": 18441, "μέλος": 49414, "aufgenommen": 25919, "Translation": 58804, "organisiert": 75834, "328": 31815, "榄": 4680, "Velika": 46029, "इस": 14265, "air": 12566, "##cluída": 104708, "szerepel": 52395, "cables": 105024, "हाल": 99586, "accessed": 44887, "tahta": 109570, "discipline": 38022, "##牠": 115169, "đáp": 96387, "ホ": 2042, "женщины": 42403, "kêr": 73505, "Її": 79866, "##德": 113555, "骚": 8577, "##蟻": 116820, "Новая": 42525, "##olja": 74882, "steep": 102718, "Тя": 44561, "Qi": 88454, "NGC": 10865, "##افر": 108682, "déroule": 50552, "mandate": 106424, "праз": 59784, "##álta": 44947, "##告": 112576, "empleados": 99415, "金": 7911, "formas": 23189, "磐": 5883, "##있": 119192, "##ърво": 83909, "перше": 102641, "##lich": 11666, "motores": 46148, "dollar": 34807, "叻": 2765, "##теля": 24066, "نشان": 29847, "##sium": 75767, "Oostenrijkse": 108895, "стороны": 23167, "##zak": 24374, "وقتی": 68900, "##anche": 60679, "Papua": 28949, "Zelda": 72980, "##load": 64312, "olup": 23064, "##овое": 62531, "ಸ": 1294, "##áxia": 105213, "##пасти": 106179, "##oria": 25584, "##驭": 118318, "##ે": 15246, "Companhia": 68688, "##道": 117527, "##ोज": 72850, "Журнал": 60066, "##瘍": 115454, "##sinə": 44669, "##इल": 84237, "vertrieben": 94692, "傀": 2373, "bidang": 30680, "##県": 115532, "تبدیل": 40485, "##鬼": 118379, "titre": 13777, "kilometers": 15077, "##狐": 115193, "названы": 107365, "barrutian": 47191, "鐵": 8025, "raça": 104882, "##ಧಿ": 59675, "##歲": 114565, "¶": 216, "##adors": 51190, "χώρα": 51969, "##nza": 13371, "##онастир": 94267, "helmikuuta": 36109, "ഐ": 1330, "钥": 8053, "corona": 31206, "berlangsung": 65397, "##ตร": 86082, "фр": 15350, "Nederlanden": 79331, "##ਿਆਂ": 38621, "##剎": 112335, "##father": 90089, "##blem": 76419, "Díaz": 26701, "mực": 55101, "overtok": 85962, "##麥": 118552, "irmãos": 71996, "النقل": 53240, "##ಥ": 49660, "winner": 20826, "उदाहरण": 77170, "##্যান": 110742, "империи": 28425, "lik": 29694, "##ходил": 82005, "Cantón": 94035, "##mnik": 63908, "začiatku": 99647, "фестивале": 99933, "khắp": 77649, "##್ಯದ": 88030, "膽": 6606, "Priester": 68334, "دفع": 101035, "Magallanes": 91851, "brûkt": 88209, "##tynyt": 74530, "##യായി": 69558, "ֹ": 717, "##lgare": 95339, "觉": 7162, "##ldo": 44750, "politicians": 75284, "כפר": 108885, "##fos": 99341, "##oking": 81502, "##rig": 34294, "##颚": 118206, "logic": 64988, "掳": 4168, "ぼ": 1960, "karya": 27270, "наш": 79590, "##ואים": 100109, "KBS2": 57779, "prêtre": 63539, "##ivano": 85254, "927": 74760, "##grave": 54349, "literacy": 70909, "Richie": 52250, "櫓": 4761, "Fate": 49955, "загрузіць": 37541, "voter": 101309, "vivis": 34399, "##ода": 24369, "Recent": 45459, "##ది": 19541, "##émique": 101685, "##לט": 48828, "র": 974, "##典": 112228, "لے": 55304, "##ora": 14945, "舖": 6641, "flag": 31773, "familias": 39698, "srednjoj": 92852, "địch": 35385, "Coming": 39107, "##enuta": 70550, "त्वते": 67515, "##eth": 18237, "scenario": 58496, "Tipo": 84083, "Belə": 87334, "vorhanden": 40649, "1401": 89976, "##礪": 115661, "República": 13857, "##rej": 88895, "eyaletinde": 88891, "##譜": 117047, "ارتباط": 61012, "輝": 7620, "##તી": 34283, "##zaam": 53214, "858": 78390, "reserva": 44967, "##nalla": 71075, "гӀоролаш": 69844, "Soccerway": 96498, "Oulun": 95475, "Haag": 30724, "##tures": 49185, "సేవా": 39052, "śpiew": 79462, "EV": 109821, "capacity": 23095, "焊": 5311, "ataques": 37525, "##暗": 114190, "Місто": 99740, "Feat": 98112, "1257": 103858, "evangelische": 81952, "ساله": 83961, "Quartet": 41982, "худро": 85347, "plural": 54283, "toimus": 84582, "##ked": 30511, "##rně": 67010, "unions": 76841, "communications": 42919, "bred": 57795, "команд": 33162, "reed": 69161, "Planets": 42501, "##薙": 116668, "禰": 5940, "汐": 4879, "Were": 45650, "ky": 87147, "楢": 4667, "緊": 6247, "místní": 59986, "##զմը": 93304, "##fand": 75897, "Copeland": 81956, "〔": 1897, "pretty": 108361, "aastatel": 33720, "##ấu": 35823, "особоспоживача": 50817, "esterna": 109739, "##istique": 52619, "drei": 12335, "##גלים": 62660, "##ponía": 101103, "Neste": 49022, "Bolivia": 22381, "旼": 4360, "##nove": 80521, "##uds": 83828, "##aha": 51427, "##geht": 77926, "Ingelesez": 20385, "Touring": 82121, "Diva": 102270, "construcció": 27325, "##kaupunki": 94014, "##مہ": 68513, "powieści": 66142, "ಅದೇ": 97018, "pequeno": 43732, "##جبل": 92821, "hess": 19567, "Hôtel": 48401, "Asteroidul": 98831, "##trag": 50325, "##艦": 116431, "multiple": 19865, "болса": 71025, "##ист": 24142, "schnell": 40105, "القاطنين": 44260, "Neuvostoliiton": 74679, "##قسام": 84924, "championship": 20755, "##щено": 39826, "synem": 52998, "1798": 20099, "картол": 33831, "##ंथ": 106891, "##шению": 82195, "##dote": 102231, "##watan": 93540, "species": 10542, "##vul": 107812, "##аци": 98255, "Kindheit": 97086, "سطح": 14823, "##bách": 84544, "早": 4352, "egész": 38073, "protection": 20344, "trovano": 38402, "臆": 6610, "##rios": 18068, "##товых": 83466, "materia": 31033, "リーグ": 57732, "anspråk": 89466, "semifinales": 96253, "ぬ": 1944, "obliki": 102947, "могли": 31100, "poles": 48407, "##ttore": 59016, "##iunea": 74457, "boxer": 103152, "##par": 22786, "Deel": 36665, "tàn": 100735, "điểm": 15509, "Nga": 23694, "##ьбы": 71407, "electrons": 100751, "##ltad": 92608, "inşa": 49516, "##mbawa": 85339, "nr": 13798, "zweier": 86455, "##铮": 117846, "utworzono": 62462, "##ck": 11263, "xəritəsi": 96294, "dugo": 88722, "##轶": 117413, "##zać": 91047, "##ライン": 80789, "##őben": 109083, "भिन्न": 97252, "дадзеных": 66380, "##륨": 118900, "Krzysztof": 43295, "McKay": 90418, "锰": 8110, "素": 6195, "##скай": 19661, "##tał": 96617, "##ياس": 106202, "eds": 12780, "mưu": 72656, "Genf": 87821, "ових": 96451, "##ruzione": 56885, "Vivis": 84449, "отново": 48501, "##しまう": 39229, "Okzitaniako": 102924, "##альном": 70307, "莺": 6781, "和": 2833, "##šila": 62494, "меттиган": 26599, "propuesta": 58450, "##笋": 115818, "Lasse": 77034, "إليها": 63449, "##massa": 50079, "Federico": 20809, "francesi": 44889, "ചിത്രം": 105039, "madh": 66304, "parlamento": 51833, "##細": 115969, "NSDAP": 38895, "##rial": 34108, "району": 17675, "před": 21754, "##팍": 119377, "mengetahui": 94058, "##sday": 80341, "امام": 38740, "volkstelling": 19384, "##рест": 47274, "enkelt": 54791, "##ંગ": 68907, "комплекс": 30592, "ponovno": 37400, "##երել": 89325, "पृ": 104891, "##škega": 49685, "rendimiento": 103282, "##hmän": 92250, "negru": 98861, "##sbereich": 68440, "gdy": 23774, "colocar": 101058, "afirma": 38439, "ნოემბერი": 58927, "ြ": 1544, "罩": 6404, "##soni": 91802, "ครั้งที่": 79017, "атаулары": 67579, "комиссии": 53515, "##ーン": 24793, "##شود": 76239, "##ahkan": 40862, "kelompok": 36774, "morreu": 40509, "耆": 6458, "##资": 117273, "##às": 62118, "##чинається": 91049, "901": 70732, "##צ": 21013, "Bandar": 33031, "Updated": 18118, "добио": 62707, "0001": 62053, "훔": 10006, "##із": 40624, "##aid": 39522, "##scription": 55785, "metriä": 32754, "##పాటు": 86374, "##ori": 14336, "途": 7731, "Hindu": 22090, "mesmo": 13544, "##удио": 105950, "Meer": 35522, "1318": 89599, "##ভি": 80045, "##ระเทศไทย": 100996, "##ционалната": 99219, "kaya": 35473, "donnée": 71107, "горе": 103196, "##епублици": 106907, "##ПА": 86987, "##ntara": 88072, "ചെയ്തു": 34230, "KBS": 21456, "诹": 7358, "1956": 10975, "##agen": 37667, "samlede": 107119, "##ush": 37026, "Ferner": 79922, "純": 6189, "अपनी": 29271, "cũ": 52994, "##裁": 116868, "##cà": 78668, "##indən": 106386, "되고": 66674, "##pani": 78005, "##ебе": 100320, "ehemalige": 28820, "##।": 111215, "##дений": 59624, "Internacional": 15111, "##dział": 110206, "##யா": 46568, "modèle": 30332, "Kinder": 18056, "568": 54879, "cố": 37452, "##ставки": 88188, "##தாவது": 97970, "zituen": 14292, "SNCF": 61711, "म्हणून": 44526, "светског": 67445, "oktyabr": 70569, "##kali": 36414, "その": 11332, "getrennt": 62857, "رفت": 50960, "otres": 37191, "##end": 19342, "ङ": 869, "Erzählungen": 76651, "counties": 41199, "ik": 47458, "벡": 9345, "诛": 7337, "având": 44238, "absorbed": 89660, "##かな": 82904, "##ppt": 80265, "annunciato": 81285, "propi": 69575, "##heden": 23018, "расмий": 67627, "##pson": 58828, "Giuseppe": 15679, "Bizans": 83368, "หรือ": 21113, "május": 28544, "賡": 7452, "Theo": 20851, "intent": 58692, "орынбасары": 109406, "Strong": 40940, "##änen": 55498, "##ั้ม": 99636, "##konnas": 45889, "chồng": 88652, "Gade": 44386, "##いない": 39040, "שני": 18594, "частей": 54017, "##土": 112794, "##ത്രത്തിൽ": 90807, "رہے": 35541, "##疤": 115421, "##logiske": 103472, "##રે": 49615, "##면": 14867, "##lasi": 44826, "##екен": 87588, "күрә": 104044, "劭": 2605, "επαρχία": 105293, "Simon": 12237, "##ництва": 78701, "туралы": 39670, "##ób": 97286, "ۀ": 828, "preliminary": 68097, "بیشتری": 98627, "thiệu": 105176, "##ಗಳ": 14252, "##ҙәре": 79842, "lank": 79240, "##稲": 115748, "Mientres": 42711, "##iese": 30709, "##ミナル": 106421, "категорії": 101049, "##קס": 30450, "##खा": 45319, "effets": 52597, "અથવા": 53101, "Delta": 21198, "दिन": 34578, "corresponding": 60579, "prestazioni": 91416, "Spin": 62393, "továbbá": 83432, "meerderheid": 107189, "dret": 52234, "поселение": 38863, "nebyl": 72685, "##제를": 53726, "l": 180, "ჩ": 1589, "xe": 28174, "economía": 33086, "deutsche": 17486, "##ecké": 48043, "##쏘": 119099, "##tz": 13695, "##idad": 13811, "##ρίζεται": 49599, "۲۰۰۶": 70353, "easily": 35024, "##puls": 96898, "ferro": 32300, "touchdowns": 70677, "egykori": 64020, "条": 4499, "Zu": 16229, "düütsch": 97860, "치": 9779, "##腻": 116355, "kostela": 54549, "birdlife": 97752, "σημαντική": 109742, "##wald": 20672, "शास्त्रीय": 100872, "kad": 14753, "niektórych": 52525, "##吊": 112537, "աստերոիդը": 82140, "##قطع": 58689, "##팜": 119379, "##чка": 15116, "##രും": 56613, "##忒": 113564, "bývá": 80248, "##ულების": 80066, "velika": 53016, "soort": 11196, "şehirdir": 98981, "GHz": 58836, "Congo": 20633, "##buk": 58074, "Arti": 90841, "##onsa": 89400, "отказался": 78213, "dagli": 21228, "樱": 4728, "аралык": 100063, "fiskalaren": 37352, "##tavad": 104727, "এখানে": 60788, "Latvian": 103031, "##లా": 46565, "##蛸": 116758, "##肱": 116283, "##iglia": 49397, "सामने": 100197, "livello": 22158, "энцыклапедыя": 56366, "##ಾಗದ": 104458, "1250": 38725, "Є": 498, "Nm": 106275, "##اسية": 54887, "vairāk": 63093, "##taka": 76369, "##ęcie": 73372, "##ndan": 18285, "Prayer": 62399, "quod": 40856, "##урт": 86418, "##ישיבה": 92877, "کانادا": 69318, "erbaute": 105248, "towns": 26656, "Inventari": 96672, "##样": 114343, "Помер": 81211, "##akademie": 67933, "Berne": 108670, "Karen": 24560, "tái": 58419, "##citar": 95015, "##жання": 61438, "##سد": 61102, "##ање": 32678, "##itat": 16313, "Sturm": 53079, "##ٛ": 111173, "составляла": 61049, "asegurar": 105909, "##ments": 14542, "##きなかった": 102157, "1960": 10699, "méi": 46885, "##潇": 114945, "숨": 9464, "проводились": 109270, "Scarabaeidae": 24492, "Latreille": 36626, "##遏": 117525, "centrale": 16524, "[unused55]": 55, "##istics": 108477, "булып": 19186, "##冠": 112250, "##nations": 105708, "##ਕਾਰ": 38586, "10th": 31004, "망": 9255, "Drugog": 76250, "##菊": 116555, "##渦": 114848, "película": 14970, "όλων": 105446, "His": 11597, "протягом": 34143, "##så": 56562, "##lii": 53874, "##нском": 33007, "##اری": 20515, "1780": 21830, "##boek": 43916, "ৈ": 988, "曙": 4440, "##槐": 114468, "ゲーム": 42058, "##շրջանի": 93515, "##վան": 63190, "japanischen": 58670, "seule": 24351, "ਊ": 1012, "descripción": 62334, "##graphs": 70516, "##ล้ว": 92529, "hadsereg": 78961, "Cape": 18642, "##verfahren": 64234, "##одных": 103287, "##зни": 68070, "భూములు": 71849, "CO": 32992, "ာ": 1531, "##իա": 55404, "##usia": 54300, "expansão": 102730, "Αθηνών": 64600, "higiezinen": 42533, "animale": 50437, "входят": 57335, "##한다": 14102, "##чів": 72158, "হয়": 12711, "تنها": 29134, "pistas": 77907, "##finder": 59853, "##قارب": 101528, "##rijos": 56198, "nghi": 66094, "²": 213, "fini": 59222, "Sotto": 72224, "##ช่อง": 77343, "орденами": 66769, "##講": 117033, "1656": 41400, "##爸": 115154, "dotata": 84041, "Михаила": 59059, "करती": 50129, "XML": 44999, "spiral": 85496, "variedades": 84289, "##gil": 32837, "ugovor": 105264, "##פונית": 71340, "##鸽": 118523, "மட்டுமே": 74170, "퉁": 9885, "للسكان": 26197, "蘚": 6938, "##舟": 116413, "彗": 3742, "imam": 77591, "국가": 93222, "рослин": 67777, "парка": 60778, "Websäit": 71836, "##sée": 28165, "Jar": 91531, "##ఇ": 111318, "##gium": 56257, "چند": 25971, "佼": 2274, "##flower": 108821, "projeto": 31718, "اختلاف": 83694, "##שאר": 51553, "enden": 97373, "##АО": 69630, "مالی": 65839, "молоді": 92142, "##draget": 75733, "αποτελείται": 103583, "siirrettiin": 65008, "entries": 89780, "terme": 15830, "##తో": 19637, "situação": 59362, "operazioni": 59276, "Smile": 56928, "باشد": 20369, "##klimat": 71519, "##hat": 19180, "Ruiz": 27963, "לשמש": 106666, "донишномаи": 93750, "##され": 40048, "##ներու": 81141, "danger": 45882, "residiendo": 55224, "##չական": 86854, "Aires": 13960, "##bird": 37398, "ursprünglichen": 57647, "Armenian": 33905, "##ਇਆ": 41658, "眾": 5777, "ویلے": 79537, "tota": 30146, "messe": 94536, "Profesor": 57592, "公": 2452, "706": 63683, "##ھا": 57522, "##тах": 40914, "##cki": 18768, "##嵋": 113325, "Варна": 90247, "essas": 83959, "kregen": 45061, "##fonia": 87550, "鹿": 8778, "מכל": 65472, "##зованы": 109926, "metais": 26738, "##歷": 114568, "orientalis": 53836, "Lijst": 95561, "##rke": 30581, "拶": 4092, "руководитель": 63731, "गुजराती": 64313, "##lab": 41284, "##死": 114571, "##必": 113559, "приток": 60208, "##laan": 43618, "Fundação": 84610, "##scus": 99644, "##ex": 28580, "ga": 11887, "##遂": 117518, "ejemplos": 98031, "hennes": 25225, "##ates": 26171, "working": 14616, "##ografía": 46796, "##벨": 118980, "hạt": 39369, "蚵": 6975, "##க்கப்பட்டு": 109233, "##dis": 17442, "##鯱": 118414, "russisk": 39030, "Christian": 11757, "creata": 83520, "Alphonse": 48006, "която": 18818, "##ǫ": 110985, "##၅": 32433, "couvre": 88107, "##нее": 26346, "পালন": 83749, "Видливиот": 93287, "ostatní": 77758, "algoritmo": 14381, "##דום": 57394, "續": 6299, "终": 6332, "##ोर": 41937, "麽": 8794, "##ын": 12119, "former": 11775, "##kamah": 88957, "##ames": 55497, "##турі": 82725, "Independence": 36834, "##tae": 54625, "kondisi": 90582, "##סקר": 101755, "myötä": 59698, "谊": 7367, "甚": 5598, "жилийн": 93347, "Fonda": 96841, "##чился": 91263, "##ificación": 41596, "##tke": 61877, "它": 3374, "geographical": 14449, "郷": 7836, "imposible": 92266, "##ဲ့": 89114, "##psilon": 100968, "oficer": 88835, "##ptisé": 96730, "saison": 13606, "դերասան": 105659, "полностью": 29305, "mori": 70895, "نيويورك": 63701, "کینیڈا": 106013, "##రో": 77277, "ngôn": 49720, "üyesi": 77122, "cold": 41626, "pracę": 44137, "hjelpe": 37090, "অক্টোবর": 41345, "Hải": 24964, "definizione": 96628, "##عين": 34163, "kullanılır": 70408, "hagyományos": 88347, "जल": 80619, "pertes": 95297, "bija": 14832, "strip": 44445, "##撇": 113991, "1298": 97527, "filed": 45959, "Fletcher": 38933, "權": 4769, "части": 14559, "organisierte": 102180, "América": 14798, "Laser": 74351, "Veliko": 76067, "##痍": 115436, "created": 13745, "footage": 67953, "সর্বোচ্চ": 109003, "掸": 4171, "##ioù": 27816, "международных": 54312, "इसके": 23801, "ր": 699, "destacando": 80881, "##imon": 98584, "شرایط": 70370, "১৯৯১": 55196, "##өйөк": 110495, "Lorca": 86679, "옮": 9584, "##鬍": 118372, "banyak": 15175, "##കർ": 94330, "బ": 1222, "##čín": 61401, "Saga": 38021, "gøre": 89468, "##altet": 63669, "стран": 32619, "emphasis": 60848, "donation": 93008, "##naden": 70446, "곁": 8886, "##neet": 35852, "americká": 94990, "##рде": 108516, "fil": 40503, "CEO": 24556, "缇": 6371, "##霽": 118085, "##fällig": 78270, "follow": 28086, "dobila": 52141, "##皓": 115491, "crea": 41217, "petit": 17154, "##貰": 117193, "augusti": 11837, "competir": 58072, "##blick": 51456, "鼠": 8817, "##錆": 117739, "verbonden": 63259, "##овья": 98496, "##כלי": 57420, "pave": 102731, "marrë": 99163, "##тных": 31443, "Graves": 52982, "perangkat": 103378, "##нології": 107886, "##áv": 53524, "##ringe": 98557, "azok": 66736, "##усь": 82040, "hall": 21007, "##ั้ง": 78434, "Roedd": 38786, "tuttora": 84161, "två": 12768, "ресурстары": 21186, "scientifique": 37567, "1836": 16593, "##vlak": 80608, "debate": 29632, "забив": 72396, "modos": 107762, "建": 3697, "##sade": 51707, "nuovo": 16305, "##ادي": 50823, "##ינג": 80271, "##оружённых": 70817, "Sten": 98777, "zeitweise": 66224, "##ьва": 106099, "##π": 29223, "годов": 18148, "2556": 69814, "庚": 3665, "##قاء": 49632, "Tech": 34265, "ARN": 82353, "##chte": 20530, "##нө": 76461, "##「": 111773, "ciertas": 88047, "xác": 30058, "فوتبال": 21193, "##rdia": 45157, "Herder": 100536, "##ઑ": 111277, "legt": 79693, "modu": 107803, "##eros": 32518, "##řil": 38287, "廢": 3691, "Nico": 44557, "pasaulio": 53834, "者": 6457, "falleció": 66969, "foron": 30206, "113": 16990, "##üde": 93916, "физик": 93839, "##ría": 15792, "##yó": 29831, "campañas": 100677, "1658": 40482, "RCA": 31777, "története": 68786, "Roach": 92346, "##menu": 65361, "##ლობა": 42277, "тамағынан": 37096, "leèl": 70378, "institutas": 48034, "##abel": 85208, "##ेको": 91601, "##計": 116937, "většina": 86986, "kompanii": 81627, "proposto": 97338, "krievu": 65493, "העתיקה": 88628, "##بية": 22937, "Pavia": 54620, "conduit": 46217, "叮": 2755, "اللجنة": 81045, "goals": 18173, "hivatalos": 45743, "呛": 2817, "##중": 41693, "##邀": 117551, "Montfort": 75971, "орыс": 42520, "##煮": 115106, "Russ": 83758, "Fellowship": 51842, "ฌ": 1404, "Transformation": 93234, "Leafs": 102701, "Cara": 52143, "##ermann": 93381, "experiencia": 46779, "కేంద్రాలు": 40027, "奸": 3238, "颜": 8441, "Obgruafa": 105615, "settlers": 54709, "tăng": 21740, "繰": 6294, "დროს": 35494, "##שות": 24801, "##dlich": 45181, "뚝": 9147, "UU": 43856, "Belgrade": 48084, "##ーラ": 94878, "jährigen": 83257, "Guido": 28177, "俚": 2311, "cestu": 86618, "Dalton": 45220, "CC": 25294, "Нацыянальны": 73621, "sant": 42183, "žen": 107042, "მისი": 19857, "Irán": 74507, "料": 4321, "##ньо": 88187, "Linha": 85861, "comunei": 39428, "entstehen": 64365, "术": 4478, "Tentera": 58130, "##mara": 41244, "##طعام": 106075, "94": 12749, "##čelo": 92061, "மேற்கு": 102184, "geprüft": 103878, "півдні": 88754, "temsil": 69817, "белгілі": 57323, "莹": 6780, "Macau": 59358, "##äng": 99592, "uzyskał": 37906, "##젊": 119204, "całą": 104604, "принять": 85425, "##воде": 84871, "Alex": 14728, "Botswana": 41424, "##戶": 113759, "##용할": 72187, "阗": 8189, "##构": 114280, "fame": 51930, "Wonderland": 81333, "##entes": 24023, "äfomons": 35388, "reise": 104803, "dispositivo": 55040, "##ведення": 107974, "фурудгоҳҳои": 55061, "నది": 102089, "##氏": 114615, "programu": 33209, "divise": 92595, "tratados": 101052, "remise": 88122, "controlar": 49647, "нефть": 102023, "本": 4476, "terras": 45612, "legislatura": 63044, "большое": 49691, "Федерации": 15383, "آغاز": 26716, "और": 10977, "Restoration": 107214, "##istant": 90986, "##iusz": 99677, "##융": 119184, "romani": 66915, "kereskedelmi": 97703, "##yau": 108273, "terbesar": 35746, "Bredden": 19664, "셸": 9447, "بیرلشمیش": 59389, "CR": 44912, "##ektrum": 61882, "Beatrice": 48681, "##潜": 114951, "kang": 15086, "한편": 53519, "Finn": 37051, "האחרונות": 94187, "##bno": 48853, "ಢ": 1275, "##றாக": 92897, "##啤": 112666, "dvärgstritar": 86609, "##cación": 34545, "##ёна": 78310, "portale": 90153, "##женных": 94826, "##чә": 89571, "팡": 9908, "venta": 40109, "Μαΐου": 58505, "jednym": 27600, "##्भ": 90218, "##red": 15711, "Birds": 25420, "Clube": 28905, "香": 8507, "##zała": 81463, "##yclone": 64765, "Lok": 63998, "##σίου": 91886, "Edit": 35789, "Pak": 48465, "جسم": 80942, "city": 11584, "circunstancias": 109050, "instalaciones": 53722, "szerb": 91847, "##scope": 42562, "Lamborghini": 109070, "Czechoslovakia": 107586, "##isija": 64613, "אחרת": 69399, "##ಂದು": 45063, "dominated": 49365, "Дар": 29037, "##ølgende": 87759, "##逅": 117488, "välillä": 44606, "إسبانيا": 58596, "carte": 31225, "Sparks": 81733, "πληθυσμό": 82530, "pueblo": 18843, "##큘": 119325, "Channel": 16558, "facilmente": 53715, "feito": 27462, "##sidae": 110450, "Pizarro": 91826, "класа": 82069, "##bruch": 32593, "címet": 70682, "##dams": 101367, "nguồn": 31489, "##ീറ്റർ": 82224, "笥": 6060, "ваҡытта": 95594, "intorno": 38438, "sviluppato": 65708, "##ledge": 100803, "##ійсько": 103338, "прве": 98639, "##nahme": 26413, "एउटा": 74100, "мың": 65932, "##стом": 54853, "##潘": 114949, "PBS": 58082, "866": 73437, "##リン": 32623, "##nay": 30771, "propósito": 57247, "##ฺ": 111430, "##odia": 69796, "Syndrome": 108257, "Weise": 34375, "长": 8128, "аб": 17816, "轩": 7640, "##kao": 107105, "##襪": 116901, "책": 9739, "Lexington": 62359, "solutions": 44901, "kaominin": 33564, "箐": 6093, "话": 7338, "蓀": 6853, "keretében": 88834, "możliwości": 85702, "##يرية": 89174, "artylerii": 76698, "aguas": 38577, "##铀": 117833, "##쩌": 119239, "управление": 34020, "highly": 22625, "resulta": 42779, "##taw": 108659, "хастоьмаш": 33836, "vitamin": 71223, "vēl": 75013, "##oidea": 84254, "gedeeltelijk": 47743, "呼": 2826, "##rito": 35713, "visite": 46770, "často": 25411, "Thought": 57246, "Дмитриевич": 101807, "ие": 55015, "natten": 94729, "##spring": 91584, "##−": 111687, "lungul": 81662, "საიტი": 62227, "masyarakat": 24587, "##dha": 40501, "##존": 79718, "versant": 89695, "##itaire": 34503, "##xas": 65887, "denominado": 40260, "##্ধ": 66199, "школа": 18528, "Juventus": 33176, "##rija": 28027, "Đà": 95699, "цим": 68783, "##dték": 100693, "##զմի": 73814, "κέρδισε": 82161, "##verso": 66005, "derecha": 40175, "##ppa": 33729, "passeggeri": 99312, "##rle": 43539, "Bosch": 41109, "##鑿": 117803, "Odonata": 39363, "##κός": 71331, "steun": 82461, "russe": 25057, "Bogen": 91383, "Қазақ": 18653, "lucru": 66152, "쥰": 9699, "##рус": 39401, "severe": 34844, "##çenin": 105454, "1781": 24956, "被": 7098, "Tekst": 105227, "založen": 101435, "1278": 95572, "Another": 17101, "yari": 14588, "vijfde": 69893, "##rieb": 48603, "##잠": 119198, "##کھا": 58609, "##阯": 117962, "Hogan": 51586, "Sólo": 101911, "##sey": 25253, "##uía": 67410, "Видът": 43720, "cunha": 45909, "הגדולים": 93080, "##ән": 19592, "##пер": 29633, "##న": 13179, "##eści": 96297, "##żenia": 34857, "Collins": 16949, "zahraničí": 104544, "##metre": 46556, "encuentro": 52995, "Josefa": 51682, "jasno": 96500, "garis": 60337, "Senators": 75075, "mọi": 39439, "parairan": 44215, "##änkischen": 102809, "ходе": 26222, "##lati": 45891, "##vida": 35192, "pierde": 85801, "##懐": 113724, "Léopold": 82316, "rencontrent": 108345, "чине": 74672, "interference": 103633, "elleni": 52017, "##ləri": 13941, "ukończeniu": 97477, "##煕": 115096, "jugando": 93045, "##ticu": 62493, "доме": 44838, "薩": 6906, "##ownika": 91176, "##тве": 35795, "##กับ": 47260, "##부는": 58904, "הבריטית": 83092, "penelitian": 103368, "कूल": 43107, "##лган": 21368, "Қайта": 61513, "població": 13422, "##tycznych": 95557, "Vaticano": 67919, "##nard": 69486, "ప్రస్తుతం": 97542, "##cedent": 104101, "عندما": 23012, "魔": 8622, "Literatur": 25713, "participant": 61986, "##lasti": 83320, "##arsi": 64156, "gminie": 24117, "пред": 23807, "##्ने": 32786, "##위로": 92454, "hiệp": 66866, "letter": 19310, "双": 2732, "##änä": 73387, "##นั้น": 39713, "sentro": 30080, "##زيع": 91800, "##ხა": 55144, "този": 26658, "відповідає": 104557, "Республикаһы": 47772, "بأنه": 63581, "július": 29035, "dins": 13553, "##غي": 85043, "Vietnamese": 59078, "Így": 71932, "insect": 18612, "##祇": 115670, "Beethoven": 30117, "划": 2541, "仑": 2192, "hide": 96935, "jejím": 68444, "##вио": 71244, "components": 34378, "حالة": 40288, "##חל": 66385, "absolut": 95230, "melanjutkan": 94043, "՚": 663, "(": 113, "Besar": 38138, "жанр": 109534, "replacing": 45857, "Α": 437, "antiguo": 27298, "##znej": 31676, "##ённые": 90110, "##чит": 70377, "##ur": 10546, "Lucien": 35521, "伽": 2241, "États": 13263, "роли": 28709, "##०६": 108169, "##ृंखला": 105777, "##tość": 73350, "Jamaica": 32699, "##헨": 119430, "المياه": 55828, "Lili": 87043, "Irene": 31906, "ASCII": 79458, "##Millan": 78249, "Software": 21176, "##ിരുന്നു": 48745, "brigade": 26928, "там": 18805, "шелонаш": 100672, "##വാർഡ്": 103728, "##ейн": 46574, "##bni": 63226, "##嚎": 112748, "Platte": 83517, "##голем": 93611, "solcher": 82383, "##علی": 69124, "Marea": 54955, "##ォード": 89643, "최": 9764, "mètode": 108114, "язані": 83654, "##凤": 112281, "##では": 24869, "پس": 15326, "signs": 45033, "opery": 110619, "##옹": 119159, "aktiboetatik": 33776, "ditu": 15507, "лютого": 25909, "anima": 72432, "##しい": 39862, "Chúng": 27315, "##να": 19491, "regele": 99781, "Concilio": 96424, "##驶": 118325, "釈": 7902, "Papa": 17429, "Please": 47464, "##螂": 116802, "Bulletin": 19225, "##唾": 112654, "nobili": 95370, "huấn": 72170, "Hamm": 51324, "##álny": 98267, "ऍन": 79621, "കേരള": 56326, "foreign": 20796, "##ће": 26107, "##ख": 27841, "stellen": 30354, "burua": 109201, "Mittelpunkt": 93516, "##тоги": 94383, "generalment": 82508, "##pienia": 94432, "轮": 7643, "##երան": 93564, "##윽": 119186, "##ਹੇ": 58125, "##álka": 94755, "なし": 66681, "##jach": 93542, "##्ष": 76979, "##כויות": 79717, "##енные": 34485, "belli": 78183, "Warschau": 72545, "##ih": 13187, "##áz": 38440, "##ાસ": 48003, "Bonnie": 45059, "पुरुष": 77386, "##స్ట్": 107897, "##mala": 45026, "уҡ": 42345, "##å": 16343, "##ği": 16054, "孫": 3367, "##jden": 67041, "kraje": 71186, "##quía": 64662, "piezas": 51303, "بأنها": 90209, "programmi": 68956, "ഘ": 1337, "##صورة": 53497, "状": 5422, "##丑": 111849, "##овому": 67936, "района": 14259, "scuole": 68354, "##lov": 26511, "ei": 10805, "##锢": 117868, "##oggia": 65116, "finner": 75838, "瑭": 5555, "5e": 83890, "Adana": 85989, "Forster": 49135, "religioso": 37732, "высокой": 72963, "πρώτα": 71952, "##GP": 74450, "##বর্তন": 99870, "neighboring": 73756, "##욕": 109971, "медал": 103983, "elevado": 64670, "Walter": 12506, "##객": 118617, "##ألف": 96293, "槍": 4700, "##z": 10305, "vil": 13319, "Verlag": 12919, "régime": 38414, "##ското": 21373, "hiri": 55356, "Poe": 52544, "۴": 842, "##nyata": 110657, "##鷲": 118506, "##ás": 12299, "##とき": 53234, "##üz": 35185, "##kilometer": 103243, "##øya": 42924, "petite": 22321, "##耽": 116238, "##heit": 15543, "osvojio": 50343, "innymi": 32313, "##meo": 84914, "biri": 20263, "최대": 99405, "##志": 113565, "##lla": 11083, "mộ": 75755, "sketch": 83413, "##渲": 114853, "##лийн": 33548, "entschieden": 95548, "рабочий": 102732, "##uis": 31466, "##zje": 48726, "##րական": 27645, "Artur": 41469, "##ecciones": 65419, "principessa": 88275, "##ёные": 87912, "##uze": 33302, "##поминает": 85451, "986": 64105, "đôi": 46395, "##ələrində": 101861, "politisk": 41575, "##ყენება": 100382, "۷": 845, "employés": 89814, "##анага": 100479, "certa": 36140, "Baltimore": 21413, "##reat": 91824, "ibn": 18259, "Feeling": 68306, "kimi": 17007, "##ětí": 71053, "nalaze": 42728, "cantons": 58564, "томунун": 109571, "##dente": 49015, "##cidá": 105008, "禕": 5934, "Everest": 67928, "##oden": 56546, "##ữa": 77237, "##ăх": 82601, "##촛": 119269, "Riviera": 97092, "settimana": 51362, "մեկը": 41359, "穿": 6007, "কম": 37289, "Fortaleza": 70521, "۲۰۱۸تاریخینده": 105233, "##汙": 114648, "##дама": 73497, "应": 3661, "remembered": 73338, "ప్రత్యామ్నాయ": 40134, "821": 71949, "honneur": 24226, "campione": 44409, "##ivation": 88341, "##ieme": 109389, "##ांक": 102030, "CA": 24707, "##ערות": 96470, "faites": 109740, "аймағына": 36368, "##ൃ": 111401, "##谈": 117132, "##్ర": 52798, "ון": 41773, "##эмы": 66794, "rätt": 102390, "indivíduos": 91067, "##den": 10633, "perioadă": 61724, "##rena": 37816, "闊": 8154, "##iție": 78825, "##tía": 106313, "##эл": 23146, "##ئط": 109673, "緒": 6251, "##諦": 117012, "Seitz": 70903, "##कि": 66943, "##valent": 74598, "##ół": 57731, "畳": 5636, "Название": 56908, "Superioris": 85035, "##ace": 19929, "1942": 11017, "gone": 45041, "##ბენ": 60592, "toi": 53994, "になって": 100775, "##dau": 42241, "membru": 43890, "##nhaltet": 110713, "##گہ": 107392, "huyện": 15222, "50": 10462, "Miejscowość": 97612, "이라": 109864, "Marine": 12425, "pouvaient": 103709, "resta": 25929, "ம": 1163, "##온": 37093, "##리": 12692, "21일": 45966, "##蓮": 116629, "ق": 785, "Docteur": 66729, "Edwin": 26259, "률": 9227, "##ciós": 65576, "Idris": 96982, "sor": 56011, "Wesentlichen": 80781, "Conference": 16424, "##ente": 13177, "individuals": 20143, "armata": 42598, "##եցնում": 77582, "ห": 1434, "Institute": 12031, "##뮌": 118952, "##gn": 19962, "cinese": 54732, "ஊராட்சித்": 73742, "##titel": 31973, "##koa": 24521, "Casas": 58067, "##minente": 103515, "산": 9407, "##owały": 56504, "նույն": 76379, "coa": 21753, "혹은": 61259, "##lisert": 110730, "voz": 19650, "болгон": 24525, "##ழ்": 58214, "пор": 41436, "Honor": 26354, "##cm": 27528, "chyfrannwch": 71594, "população": 17857, "##mmel": 79968, "##حسين": 56274, "serà": 80223, "##lagt": 23547, "ਰ": 1041, "lakaet": 83882, "##핀": 119415, "##ದು": 25445, "Mundial": 14169, "##٫": 111182, "菖": 6793, "alla": 10512, "##幺": 113412, "662": 66942, "ా": 1235, "bài": 23935, "##unun": 37889, "イタリア": 47350, "##mányi": 60097, "Bywiadur": 71351, "acclaim": 95547, "olmuşdur": 24658, "Tin": 48800, "budowy": 54440, "##уют": 43570, "##tiska": 62398, "population": 11077, "관한": 42300, "##堪": 112878, "1757": 31880, "##כה": 17638, "##্ণ": 107843, "という": 13806, "Officer": 25467, "Knox": 47325, "разных": 37850, "Noruwega": 67086, "하나이다": 86736, "Spanje": 43600, "Limit": 99034, "##役": 113524, "муниципальным": 31967, "Chantal": 94204, "preparar": 74013, "袜": 7096, "##ündnis": 99950, "invented": 74569, "председателя": 53154, "##ciones": 11822, "Tanz": 98321, "##υμο": 109329, "##alaisen": 67910, "##lne": 19494, "##LD": 62943, "##יא": 57060, "Завод": 88057, "шудааст": 37338, "Bucharest": 100824, "projects": 22846, "##иятия": 96793, "4x100": 84531, "musulmans": 56611, "sieglo": 68630, "להצלחה": 92735, "బంజరు": 26481, "varia": 47645, "丑": 2083, "Limited": 20474, "##CL": 100886, "árið": 22891, "sicasí": 78419, "징": 9713, "bilang": 21807, "beaux": 47813, "aeropòrt": 91220, "##істів": 89339, "##ちゃん": 90230, "##тив": 37921, "##ρξη": 96941, "##FF": 82678, "##нил": 54115, "Towarzystwo": 95404, "Nasionale": 93496, "Bauer": 34118, "##eschäfte": 102082, "1954": 11032, "získal": 23561, "regnes": 53227, "Seleção": 52135, "Argentina": 12853, "##ходу": 30866, "הרכב": 107000, "##انے": 80805, "##otus": 48933, "##ës": 13516, "##궐": 118659, "##ಾಗ": 34740, "المجموعة": 67756, "##рии": 23502, "H₂O": 35404, "հունիսի": 57746, "Estado": 14359, "##٤": 111178, "##ствующих": 89241, "##орі": 74134, "períodos": 73207, "##čátkem": 80113, "stå": 81644, "נגד": 25747, "##סך": 100117, "##これを": 79531, "mehr": 12471, "1516": 49393, "presentan": 55757, "əsrdə": 105185, "võib": 27822, "##歹": 114570, "capacidad": 31279, "команды": 22936, "Estland": 54536, "moartea": 78212, "bowling": 97228, "które": 15259, "משנת": 33582, "발": 9323, "##ovou": 30635, "Rolling": 19374, "diangkat": 83925, "Гора": 64787, "##derd": 60135, "##髒": 118358, "##geon": 58763, "الحديثة": 71865, "##دور": 45005, "zgodnie": 78359, "Myth": 79585, "कला": 73413, "##arshi": 101626, "consent": 84278, "##ותף": 75569, "##banyakan": 79214, "Evropi": 73519, "iniciativa": 43637, "##niti": 62648, "једног": 76474, "##ästä": 38859, "boja": 91061, "##ról": 25373, "Allí": 58142, "잠": 9655, "##θνικό": 99694, "##cusión": 81270, "##ц": 12181, "Protected": 38927, "decidir": 46045, "##живал": 65714, "##ంటారు": 79350, "amount": 24074, "début": 15214, "Mitte": 18080, "Frank": 11872, "consisted": 31465, "##ізації": 92062, "##iau": 29311, "啟": 2898, "##tisme": 91108, "aż": 40068, "Old": 13773, "##記": 116943, "蒙": 6843, "aquel": 27599, "tvoří": 42722, "बुया": 75433, "##ønland": 110465, "enkelte": 44661, "##يف": 20884, "##inia": 56665, "commedia": 70890, "Agustus": 27940, "européens": 73022, "Glas": 69761, "Bryozoa": 59369, "##ও": 18262, "##personen": 104616, "1876": 13654, "επίσης": 20864, "恼": 3854, "seçildi": 94094, "##жности": 54251, "##живания": 80202, "plantas": 23177, "##ць": 12893, "Ogni": 67309, "##부의": 43875, "##wahili": 102874, "##бӣ": 75475, "chiếm": 26929, "##ranta": 56643, "Slim": 66852, "##ạ": 48880, "##فته": 64579, "difusión": 82466, "թվում": 76190, "Riccardo": 44596, "##орию": 105875, "сөз": 66544, "##ход": 23089, "##nzia": 77424, "ੜ": 1057, "錮": 7984, "accusa": 106888, "MP": 27211, "##₈": 111647, "##焔": 115078, "מן": 23162, "##toare": 49432, "零": 8296, "vojni": 53571, "##äden": 83877, "Skopje": 54454, "##諸": 117020, "##сън": 75873, "playa": 85462, "yngre": 54143, "##льний": 31645, "cam": 88406, "辽": 7686, "çулта": 48283, "გამო": 54742, "硝": 5850, "gevonden": 49925, "##ラジオ": 50549, "CPU": 39139, "пачхьалкхан": 73753, "##신": 25387, "35": 10803, "ਹੁੰਦੀ": 70152, "Nevada": 24646, "[unused40]": 40, "##ओं": 18906, "నీరు": 22499, "لهم": 53339, "Action": 21208, "gode": 44340, "##водство": 98028, "نیز": 14150, "proprio": 17191, "##وز": 21679, "【": 1894, "linguaggio": 84100, "喝": 2922, "Huerta": 105482, "1334": 99796, "депутатів": 57446, "lähes": 44107, "FIDE": 49383, "##앓": 119114, "##أحد": 92260, "##冢": 112251, "favorables": 90974, "málo": 88334, "##alari": 84452, "Werkstatt": 109871, "佐": 2249, "Yamamoto": 78020, "376": 36906, "berpindah": 107996, "באפריל": 36607, "chiede": 63468, "##lag": 14954, "دن": 50790, "смерти": 21809, "Astrophysics": 80529, "##üldü": 74299, "##aben": 74510, "ہ": 829, "produced": 13433, "Soul": 19723, "##ζα": 65526, "1536": 40844, "alcun": 70601, "2010": 10175, "##çи": 94225, "পরিসংখ্যান": 66516, "gisa": 26071, "##裤": 116880, "sikre": 84994, "##lj": 58254, "Distribution": 43689, "##ade": 12930, "涟": 5019, "##რზე": 75535, "##til": 19156, "appellantur": 88247, "stood": 39320, "Sunset": 54432, "малко": 51913, "##هة": 45663, "##tér": 61329, "Landesamt": 39288, "##扯": 113787, "Hancock": 43552, "##έρας": 84629, "歸": 4803, "##邰": 117575, "##գ": 19679, "冬": 2490, "godini": 40947, "wist": 46061, "##worth": 17929, "akcji": 67224, "தனது": 41326, "##peler": 74911, "consensus": 72049, "flowing": 109769, "Clinical": 47206, "landmark": 91993, "сайтра": 70690, "προς": 23383, "sådan": 70066, "ইলতাই": 29220, "ी": 904, "maa": 49123, "##nyerte": 81704, "##rindeligt": 92273, "##hti": 31270, "norma": 44007, "##áter": 79499, "##ерта": 104294, "SH": 38702, "##нительно": 91634, "##рыла": 56792, "##畵": 115404, "##ומא": 83621, "Zeitpunkt": 34007, "sodass": 42319, "метро": 60678, "烙": 5296, "##kraft": 52753, "seurasi": 99722, "trouvent": 47660, "homme": 15264, "Intézet": 92261, "matoari": 18880, "##трат": 109135, "1357": 101552, "vloaz": 110331, "cải": 45105, "##йственного": 104182, "timoun": 48062, "##lë": 73364, "march": 78466, "##忱": 113573, "惕": 3882, "##°C": 28585, "##ność": 19846, "stojí": 61177, "觐": 7163, "##itra": 77541, "##舌": 116401, "роману": 79787, "martie": 34739, "Arias": 62790, "##ալի": 58003, "देते": 87371, "булған": 35827, "urmă": 59211, "##હેર": 101741, "rozwój": 78571, "commerciali": 96674, "класификација": 74408, "Петар": 85561, "профессор": 21686, "єкт": 59397, "missione": 50145, "bedrijf": 39223, "##rating": 45527, "##λικά": 53419, "##στηκε": 72472, "蔔": 6867, "##pir": 50193, "prava": 38323, "detalles": 81694, "Agromyzidae": 80277, "饭": 8489, "Francois": 93684, "أمريكا": 64143, "banlieue": 106900, "##ఫ్": 56478, "##岐": 113276, "appunto": 73480, "##goed": 52102, "##繹": 116062, "besar": 15096, "castell": 42781, "UCLA": 57998, "##lehnung": 91999, "戻": 3996, "kích": 28901, "##dige": 29905, "intelligence": 30151, "##colare": 80538, "Франција": 98540, "##heiro": 40180, "studeerde": 43411, "##onna": 76667, "##бру": 64971, "瑤": 5552, "1893": 12960, "##sessa": 42334, "чыганагыннан": 56551, "##president": 71231, "Known": 88819, "##cti": 76344, "##برد": 77377, "来": 4501, "##ֱ": 111150, "commande": 57867, "##plätze": 63902, "##旭": 114120, "haqqında": 30588, "##斉": 114080, "寧": 3432, "##krieg": 43028, "##ək": 28708, "Ռուսաստանում": 90938, "אולם": 25036, "академик": 67901, "star": 16624, "follows": 23698, "халыҡ": 22490, "письмо": 85614, "bazen": 89606, "conflicte": 82906, "setembro": 18150, "future": 16711, "##šlo": 48149, "##פנה": 76579, "##哉": 112625, "paesi": 42586, "annuelle": 45576, "dövründə": 77664, "##ТС": 82004, "سیاه": 74969, "##တာ": 60674, "causando": 69550, "Stars": 17897, "NHL": 18149, "위하여": 68010, "ilmestyi": 73540, "##ології": 52378, "jim": 40879, "##滲": 114916, "өмір": 88102, "##isko": 44256, "暹": 4434, "##saur": 106807, "##ارا": 57980, "διάστημα": 77465, "Phelps": 97041, "##臂": 116375, "##დე": 94559, "Noruega": 38030, "##يطالي": 81177, "Vanessa": 39422, "Arco": 71637, "##more": 19594, "##щини": 33698, "Buch": 20661, "##ационного": 109375, "##еў": 68684, "ഃ": 1320, "愈": 3903, "gut": 23639, "湮": 5101, "##ndas": 51400, "##logi": 25504, "अंग्रेज़ी": 62297, "языка": 26693, "koor": 70926, "##орот": 71434, "##tenimento": 105065, "Liberec": 94042, "3a": 62992, "initialement": 64452, "##лена": 23339, "汉": 4877, "ける": 23660, "sosyal": 98117, "оригінальному": 89795, "##ест": 28547, "##ებულია": 42535, "アルバム": 39316, "##TA": 24951, "spisak": 36301, "položaj": 67480, "командир": 27706, "##టన్": 107543, "populer": 88675, "қатар": 63320, "өлкәһе": 31892, "usa": 15610, "llingües": 75246, "McKamey": 85373, "##瓏": 115347, "##brik": 54666, "lac": 23455, "titel": 22455, "trasferito": 96282, "##그램": 101472, "principală": 36212, "##dres": 49695, "teha": 109516, "Hardy": 26712, "##宰": 113170, "din": 10595, "оборону": 90720, "سردار": 103815, "##盧": 115519, "##umbres": 107481, "##బు": 103793, "閃": 8130, "##stendig": 77803, "谎": 7370, "##策": 115843, "ਗਿਆ": 25600, "钓": 8042, "Puccini": 79237, "Acosta": 98668, "strutture": 60438, "##novna": 100786, "##цата": 62102, "뻐": 9393, "Без": 76511, "Schulz": 57033, "릇": 9235, "preventing": 102324, "مثل": 15593, "Red": 11641, "Hopkins": 26326, "사건": 97435, "चित्रपट": 89720, "##писаний": 93881, "##ieve": 38666, "辛": 7667, "Opel": 55721, "##ovnih": 65378, "Der": 10445, "##羨": 116193, "מאת": 43952, "##綢": 115999, "Schrift": 58549, "##jenigen": 96248, "DNK": 90690, "ὰ": 1711, "Dub": 51536, "Già": 97138, "##λους": 63633, "##tream": 90047, "##gazione": 76401, "##šieho": 101828, "##काल": 82780, "##ть": 11258, "Comedy": 29403, "##лно": 22789, "جان": 29228, "##噌": 112732, "##礙": 115659, "##cida": 17483, "##lley": 109054, "##语": 117115, "##cche": 83106, "кратер": 98012, "Dachau": 82974, "Francogallice": 110385, "Song": 13180, "##锟": 117866, "瀬": 5247, "మంచినీటి": 58288, "כחלק": 64536, "##誅": 116977, "##nsko": 40411, "烽": 5309, "##ma": 10369, "##уле": 63602, "בסמוך": 105417, "vom": 11036, "måte": 74521, "път": 31021, "##ime": 19151, "21st": 38408, "faire": 14131, "##das": 11205, "##creen": 101409, "задач": 76947, "##paa": 57915, "geral": 31266, "грудня": 20553, "##禰": 115706, "##骸": 118352, "субъектов": 97716, "##éxime": 96055, "藐": 6918, "##踵": 117338, "##ване": 23901, "##pek": 48093, "pasi": 83736, "##نصف": 80491, "##тури": 47927, "transmissão": 104331, "imprenditore": 100978, "Hall": 11763, "##sätze": 70411, "wirkte": 38802, "##viada": 83578, "deal": 19918, "სხვა": 29405, "陥": 8225, "1199": 100535, "##柳": 114318, "##oren": 35510, "كانوا": 38633, "графиня": 92099, "##ules": 29081, "##운": 21614, "Malaysian": 72413, "votes": 24659, "المجموع": 73180, "relativement": 55715, "##анні": 56451, "##frir": 104410, "secolului": 55934, "##档": 114365, "##ացման": 64863, "verticale": 85513, "статтю": 41716, "##diska": 103231, "సమయంలో": 70954, "##etin": 77553, "épreuves": 77669, "##噬": 112739, "détaillé": 62447, "ડ": 1094, "loved": 82321, "##渗": 114839, "##ected": 73711, "Bộ": 23158, "##ыны": 92514, "##世": 111853, "ಬಿ": 83750, "##דע": 69401, "geniş": 37325, "feita": 46579, "göç": 104415, "constantes": 88783, "##ивни": 107542, "Beitrag": 50785, "Nikon": 102347, "670": 37059, "hybrid": 70741, "Buckingham": 70680, "političke": 107303, "Phasmida": 98971, "Watkins": 74430, "##tů": 61974, "conflict": 24620, "##EE": 95825, "##佶": 112039, "glass": 32362, "essential": 50399, "##oiden": 110230, "##دم": 53595, "##strata": 102666, "##ьний": 26517, "##άντα": 74924, "##ände": 28511, "##ಟನ್": 89773, "##าย": 39376, "اطلع": 14825, "Муниципалитеттің": 55199, "Asti": 74137, "##रिया": 93856, "##ticos": 33167, "##đenje": 52937, "loạn": 73360, "svém": 53961, "ciudades": 29584, "nomi": 39661, "##沮": 114691, "備": 2380, "églises": 79191, "médaille": 35719, "##лося": 44619, "##ակության": 88405, "##jek": 34300, "daran": 54122, "吁": 2766, "Wikang": 83171, "هذه": 13159, "##ғып": 100571, "몸": 9288, "Europejskiej": 105647, "началась": 61123, "হার": 47570, "escribe": 91174, "көп": 28792, "йолуш": 48656, "Lionel": 34685, "kiếm": 61889, "##۶۲": 97259, "gela": 32187, "lié": 86593, "колонии": 106164, "take": 13574, "光": 2432, "Batalha": 75088, "##starší": 110422, "##ևմտյան": 104006, "##רוץ": 58539, "##鞍": 118114, "Afonso": 44807, "starred": 35987, "##ினும்": 89071, "Olímpics": 72388, "##ೂ": 20649, "majú": 64484, "##鉄": 117698, "##ahun": 108702, "Pain": 44170, "leitet": 68733, "Zusammenhang": 36566, "Муниципалитеттин": 92804, "##II": 30025, "##րդի": 58919, "оқу": 91759, "רוסיה": 68087, "Architektur": 53891, "julija": 109202, "Editions": 43836, "画": 5618, "淸": 5056, "##噸": 112742, "##mde": 27143, "##ஷ": 111309, "золотой": 76373, "Ausbruch": 101456, "মুঙেদে": 77896, "##펴": 119396, "Часть": 61509, "茅": 6726, "Spencer": 22052, "##忠": 113569, "##لعاب": 87108, "acquired": 21011, "vastaan": 22780, "茵": 6738, "U": 158, "өлкәсенең": 58566, "##კოსი": 96168, "頃": 8374, "Parizu": 96193, "Почта": 26365, "оказался": 63165, "##τικούς": 66785, "584": 48322, "##க்காரர்": 110538, "##området": 97079, "Fourier": 78272, "##стве": 18746, "蜕": 7005, "##ğı": 15756, "##تين": 34707, "realtà": 28214, "芹": 6695, "털": 9864, "##போது": 77234, "都": 7838, "történő": 96748, "##נועה": 64628, "Joana": 89215, "##ஃப்": 97391, "Thái": 20985, "##ritt": 39056, "thù": 88007, "には": 11151, "राजस्थान": 102399, "讫": 7304, "største": 18831, "薈": 6897, "唔": 2881, "##إ": 111171, "##倩": 112112, "Bożej": 77873, "##ductor": 74145, "бойынша": 12652, "từ": 11840, "##AX": 83026, "##फा": 89761, "стены": 98573, "323": 28550, "Weiler": 75279, "wer": 48315, "ਬਾਅਦ": 44427, "##êre": 42625, "معه": 73643, "鲱": 8689, "způsobem": 93523, "язку": 34499, "##頓": 118149, "##عوة": 95783, "很": 3767, "runners": 70719, "##auta": 52134, "##иця": 90605, "oltre": 16833, "##pulan": 103394, "1513": 55986, "లోపు": 19017, "られる": 22809, "038": 84618, "Clermont": 41393, "psi": 96825, "몫": 9285, "##꽤": 118692, "##sole": 99131, "kraji": 46387, "Deportiva": 102706, "078": 107573, "罗": 6400, "ידי": 12734, "换": 4135, "bestemt": 77168, "##ומים": 48574, "##nha": 36925, "ಉತ್ತರ": 65846, "##ссия": 53063, "oraz": 11221, "貓": 7413, "##dko": 96857, "కేంద్రం": 12856, "##eiden": 44937, "Դ": 628, "مراد": 82130, "kolem": 38098, "pesquisa": 62566, "ּ": 718, "elettrica": 69925, "##uth": 66365, "##tande": 56203, "줌": 9693, "қамтамасыз": 105834, "Generation": 23408, "tsunami": 86670, "المدينة": 20272, "victoire": 24225, "##מיות": 53728, "Luciano": 35491, "##윈": 119178, "##赖": 117283, "described": 13010, "##నం": 30250, "たした": 51621, "میرزا": 64155, "CONCACAF": 54222, "vermutlich": 34681, "bí": 57696, "##64": 51658, "մարդ": 16447, "##mila": 35634, "947": 81188, "Всероссийской": 38890, "скончался": 70923, "중국어": 90594, "bordered": 104441, "maydonidir": 50354, "دادن": 66391, "##zoa": 45152, "جمہوریہ": 91032, "陋": 8212, "تجاری": 96801, "##ಮಾಣದ": 99945, "Andre": 25188, "Closer": 96764, "##ngi": 31681, "input": 44870, "bilder": 91947, "##弾": 113499, "##ece": 26635, "##хин": 60373, "трети": 109117, "##keista": 106141, "Ancient": 19588, "##borar": 72621, "##ulator": 82444, "首": 8505, "sirve": 71465, "својата": 49753, "Organisms": 75954, "indique": 48700, "nguyên": 22862, "ҡалаһы": 104921, "rejoint": 27280, "##ضع": 46397, "quien": 14037, "##ρημα": 107933, "Keynes": 77583, "326": 32558, "Filipina": 54093, "##ա": 12740, "yeren": 52855, "Anura": 72742, "##돌": 118794, "aparèixer": 92782, "informasi": 65584, "kaksi": 19996, "менш": 57461, "##nero": 62878, "##ai": 11542, "##導": 113224, "##γα": 43140, "parhaan": 105727, "confluence": 76348, "Rīgas": 29915, "##тичні": 64005, "##秒": 115721, "hokeja": 102697, "marketed": 106652, "##рым": 37545, "##чення": 29687, "##лығы": 35784, "##ടി": 30585, "##ninkas": 90315, "ฐ": 1408, "עליו": 41433, "##نیا": 57401, "666": 38593, "鳚": 8705, "鳎": 8701, "società": 20543, "昕": 4372, "##jub": 100187, "##골": 118641, "##莲": 116544, "העל": 80127, "##иње": 81965, "mindestens": 35435, "территориясын": 41696, "Tower": 21419, "radios": 86275, "صنایع": 102833, "Lose": 96091, "195": 21825, "20970519": 107611, "##ämä": 46427, "##kent": 48238, "##笹": 115830, "##ως": 20573, "##』": 111776, "intervenir": 82210, "Tournament": 29085, "comic": 31761, "teško": 89504, "Bruselas": 93468, "##غة": 59446, "##祈": 115671, "##דון": 80431, "conservative": 50202, "‿": 1739, "ژئوشیمی": 83093, "false": 37155, "擄": 4247, "념": 9019, "Exploration": 42931, "Minneapolis": 43614, "##藉": 116681, "埗": 3089, "resten": 37326, "ಕಾಲ": 93539, "##utat": 102208, "##膦": 116366, "##კურ": 52563, "স্থান": 90738, "Botanical": 41230, "郢": 7828, "popis": 45483, "Oxfordshire": 72976, "should": 14819, "##ェ": 67221, "menschlichen": 90303, "traffic": 26482, "risulta": 54656, "##mpen": 86536, "hrad": 71732, "culturali": 91172, "##ать": 18235, "هستند": 19624, "2x": 80988, "والا": 60424, "درمیان": 104301, "משפחה": 86058, "936": 70167, "##pul": 36748, "газеты": 46396, "##꼭": 118687, "corresponia": 65090, "##匈": 112411, "##tuvas": 110036, "##pus": 14713, "desarrollado": 61034, "čine": 63841, "altri": 13699, "[unused59]": 59, "autonoma": 52596, "쁘": 9402, "gaat": 25397, "##ನೆಯನ್ನು": 89597, "舱": 6652, "перших": 56768, "##óre": 80758, "##负": 117241, "livre": 18807, "گسترش": 77706, "1968": 10698, "przeniósł": 67234, "gitt": 41893, "void": 65099, "feliz": 100898, "calciatore": 17485, "grupę": 82882, "##emon": 87964, "որտեղ": 28948, "unterstützte": 77819, "Dabei": 19734, "информации": 29254, "indican": 94880, "izendatu": 93312, "شائع": 88624, "1274": 83467, "##언": 48036, "hätte": 43667, "probably": 23282, "двох": 26498, "Patrimoni": 69976, "えない": 85569, "胚": 6532, "Boletín": 94074, "##ಋ": 111348, "historiques": 31155, "##ilmiş": 62056, "ಣ": 1276, "##vola": 72702, "فی": 67908, "بـ": 20496, "Resolution": 58238, "##uf": 21598, "corresponde": 48601, "recibe": 39863, "##ути": 54330, "弔": 3714, "##hibición": 71592, "ramienia": 110272, "羥": 6425, "1786": 23465, "Rotten": 31549, "Στον": 83067, "飞": 8457, "##رو": 25683, "jungen": 41855, "1900": 11568, "చెందిన": 28034, "Luxemburg": 30542, "ಆರ್ಥಿಕ": 94020, "Bug": 80272, "pembangunan": 52469, "Truck": 89563, "Mil": 75311, "Поради": 69193, "사용하는": 94794, "1405": 74741, "疋": 5647, "##उने": 65261, "##精": 115928, "influência": 56698, "toy": 99584, "संस्थान": 103027, "Министерство": 75700, "सम्भाव्यता": 67517, "##τία": 50086, "##럭": 118864, "Esporte": 94455, "##oise": 47140, "electric": 25031, "höjdkurva": 19703, "jugó": 39006, "Nedovršeni": 29383, "composição": 81279, "établie": 106990, "##醛": 117655, "##那": 117568, "##րեր": 100309, "##nich": 41749, "svolge": 70517, "##앗": 119117, "ഡി": 49705, "##łowego": 90987, "привидни": 102651, "měly": 74514, "稍": 5970, "семье": 25352, "Jobs": 83007, "изменения": 51436, "##TE": 29833, "##باني": 53326, "serien": 25390, "##σουν": 27543, "beyond": 28569, "stock": 20511, "Unii": 65966, "##혀": 80579, "историко": 89194, "відділу": 71285, "んでいた": 68000, "##lar": 10774, "##yslu": 83100, "Lillehammer": 81616, "killed": 15875, "##nii": 25885, "relatif": 82081, "груп": 86413, "##డ్": 24487, "##դին": 85457, "الجسم": 70007, "##רשה": 93596, "##índo": 85817, "kvinnor": 54360, "great": 14772, "१०": 33285, "##əmli": 108014, "脯": 6562, "##aa": 17394, "##жной": 37803, "సాగునీరు": 47900, "##gste": 60656, "den": 10140, "陣": 8223, "##凱": 112288, "##甕": 115362, "εκτός": 57428, "apie": 20456, "##길": 118666, "письма": 87431, "##шина": 46727, "номинации": 69978, "wala": 26592, "espaces": 84355, "альбома": 29928, "##timate": 80021, "européen": 43118, "atlas": 92753, "Српска": 107473, "##לב": 41057, "Maka": 103960, "荐": 6748, "##rekt": 86291, "##var": 16648, "##жна": 26771, "##磨": 115653, "एकिकरण": 66420, "Arhivirano": 79435, "победитель": 107335, "Västerås": 106571, "##咕": 112604, "utan": 21818, "獾": 5474, "##דל": 97449, "Peso": 88497, "orbită": 82349, "##rkwi": 110748, "기원전": 60465, "wichtigste": 86317, "317": 30986, "しい": 18280, "##нително": 109143, "grain": 69132, "##מחה": 76828, "piste": 41754, "##ęli": 58814, "अन्तर्गत": 39970, "##vención": 44149, "##egna": 96326, "##ício": 53387, "##맷": 118918, "かれた": 39545, "naval": 25922, "तपोभूमि": 74856, "designs": 37032, "next": 13451, "##efeld": 103565, "##ంగ్": 30164, "départementale": 83123, "MD": 32112, "حساب": 62964, "praefecturae": 16669, "исемендәге": 66489, "spanning": 86311, "ಹಾಗು": 40436, "##unum": 86411, "##béry": 104168, "##ивные": 83683, "##範": 115872, "burung": 66724, "##เมตร": 61309, "##جاب": 98415, "brasileira": 34023, "Maio": 48413, "smaller": 23309, "##栖": 114335, "Av": 33799, "jorden": 13164, "følger": 59898, "##łych": 39855, "驯": 8554, "Até": 71935, "jeszcze": 28684, "##unud": 60355, "##隴": 118026, "þá": 35193, "alianza": 64878, "politics": 25674, "instituto": 57956, "##jskom": 87294, "##ⁿ": 93791, "##نا": 14695, "своим": 28365, "6667": 56364, "რუსეთის": 60202, "militaires": 37600, "związkowym": 84382, "芍": 6678, "Rees": 83214, "##niji": 46153, "numerous": 19083, "mear": 48870, "produkcji": 42662, "##لاح": 77456, "पुचःया": 66448, "corrente": 44122, "proviene": 65250, "competición": 43666, "saj": 20899, "laatste": 19323, "avvenne": 76729, "artillería": 94769, "thú": 76044, "Vries": 84668, "incontra": 76710, "das": 10242, "##yid": 83954, "獼": 5473, "Towers": 80133, "waarvan": 24010, "##玩": 115250, "##zyk": 47335, "wenn": 16082, "##chiff": 106171, "##կային": 58809, "jejich": 19916, "##ಕ್ಷ": 73893, "##듣": 118814, "##razione": 24796, "checklist": 54997, "quinto": 30014, "##dze": 40098, "Troisième": 108496, "your": 20442, "##ా": 15735, "##nsan": 85667, "##雷": 118063, "167": 20905, "عمر": 23838, "##diviso": 98949, "##مده": 110606, "Heaven": 22960, "Ճ": 643, "##عم": 41507, "prima": 11328, "rivoluzione": 93121, "##менении": 97848, "##uaren": 51696, "Agricultura": 75895, "Sudáfrica": 85731, "dedicada": 37809, "##utt": 66117, "באירופה": 74734, "ઐ": 1079, "517": 49494, "tomando": 71290, "##انو": 84138, "Republican": 21776, "##andia": 93004, "##àlisi": 109604, "鸫": 8752, "Today": 17160, "номерĕ": 44686, "1437": 81995, "##猗": 115211, "頤": 8389, "மற்றும்": 12584, "##rust": 56657, "##꺼": 118679, "耘": 6465, "##asure": 88667, "laget": 25640, "længere": 76818, "incloent": 58748, "##ოდა": 51452, "нових": 46552, "##بون": 85722, "đây": 20502, "granite": 95549, "##сечна": 99716, "lekarz": 96015, "##stras": 104092, "Pyrénées": 24007, "expedition": 41425, "##િયા": 57512, "##sées": 62985, "реестрі": 41700, "##熊": 115110, "юни": 37518, "hectare": 69129, "##צע": 31542, "стати": 89035, "Suid": 22119, "##זיה": 55408, "لهذا": 55634, "##skop": 67959, "痒": 5671, "##이고": 54355, "પર": 25966, "##ρικού": 81126, "jarri": 101746, "突": 6008, "medieval": 22424, "अधिक": 23586, "chronic": 91347, "מאיר": 78974, "estas": 17958, "стоьмаш": 33770, "##πας": 88027, "Витебскан": 81766, "ای": 29413, "랫": 9170, "redan": 49751, "##kok": 48349, "##lərinin": 25310, "latin": 19610, "疼": 5664, "beginning": 17967, "scientist": 59248, "図": 3011, "Britt": 107169, "##лних": 89343, "wall": 26699, "##sk": 11478, "первым": 29627, "嘛": 2952, "##gales": 61013, "dalam": 10663, "##чает": 52928, "牆": 5394, "اعظم": 85963, "##pune": 82963, "##扩": 113782, "Mei": 18087, "##iled": 79257, "ancestry": 96425, "ḑ": 1626, "estilu": 85145, "oan": 17023, "ー": 2069, "##▼": 111737, "בעל": 29379, "católicos": 79648, "##обно": 93249, "斡": 4325, "někdy": 53899, "Bin": 50754, "zij": 18075, "necessità": 72188, "##龍": 118599, "の5": 90870, "##туру": 46359, "##lined": 75066, "##rks": 76982, "Polska": 31716, "##стичної": 104028, "##け": 27849, "violon": 78385, "Archives": 29374, "##rater": 57172, "plates": 53778, "##змом": 106287, "##hodu": 48875, "yaygın": 110312, "دنبال": 83906, "##۶۵": 91206, "1760": 25883, "##侯": 112062, "##ెట్": 78820, "parar": 100867, "룩": 9214, "nämlich": 71484, "虧": 6953, "bylo": 14322, "##ирован": 79483, "seconda": 15458, "only": 10893, "##at": 10526, "##fang": 68781, "favor": 19122, "Hübner": 80071, "minut": 44156, "raccolta": 42888, "##лаў": 66690, "qualsiasi": 55802, "Anwendung": 53671, "αρχή": 98942, "1327": 77811, "invasione": 89900, "##ub": 20664, "Оценка": 63470, "##קבע": 74781, "##є": 12283, "룡": 9212, "penisola": 107710, "nói": 22072, "##പ്പെട്ടു": 54182, "咐": 2836, "##țiuni": 63837, "Laguna": 28827, "Windows": 12905, "laut": 17989, "##დ": 14975, "##铎": 117839, "имају": 55274, "##éna": 72705, "##dro": 26252, "саме": 38527, "薫": 6908, "##mental": 51761, "##رض": 30193, "##istor": 97858, "##ñen": 82821, "##ично": 28845, "̥": 424, "пры": 29979, "bancos": 81450, "##еля": 26149, "lignende": 81530, "##తారు": 82980, "##۹۴": 54669, "Vuodesta": 98901, "##uve": 42412, "frontière": 41522, "##ميل": 79618, "##벚": 118977, "##cü": 64443, "الخلايا": 73440, "team": 11121, "Речной": 85623, "##dę": 35779, "##DB": 51327, "1997년": 52682, "##skými": 101634, "##帖": 113375, "kampung": 22920, "否": 2789, "fisk": 96070, "##jsku": 91480, "##daniem": 67521, "recién": 53438, "##emba": 82633, "Было": 101673, "Trial": 53112, "##ngga": 85182, "霜": 8312, "Whitaker": 92819, "Aladin": 47031, "svojho": 70388, "嵯": 3564, "##理": 115281, "2022": 75632, "##ックス": 28316, "территорию": 68574, "1843": 16436, "took": 12149, "楓": 4660, "grote": 16671, "wapatao": 89205, "##fing": 105111, "Silvia": 44205, "での": 15604, "happened": 44936, "pez": 89764, "strips": 107913, "##hama": 96143, "340": 22405, "sasuatu": 23710, "##ικά": 22117, "märtsil": 87776, "Acest": 65041, "Ulla": 108942, "Eugene": 26831, "##oond": 65393, "săn": 81376, "훌": 10005, "Nachdem": 19009, "avuto": 27409, "Holocaust": 40932, "womit": 80234, "##್ಯೂ": 84828, "సంక్షేమ": 40191, "##갓": 118612, "experts": 47306, "##nzas": 71154, "es": 10196, "##ნში": 81245, "régionale": 66633, "picture": 36761, "эту": 39971, "departemente": 26731, "Schritt": 90514, "##tenu": 91007, "warga": 49006, "##いく": 54670, "leaving": 21005, "##ылган": 78557, "Ted": 22970, "##rire": 53460, "проте": 39635, "挽": 4120, "Свети": 37274, "corrida": 78233, "نظیر": 106621, "agentes": 68737, "która": 17677, "broadcasts": 72129, "##లోకి": 105457, "##פו": 19747, "Ardenne": 62633, "##琬": 115294, "artillery": 46524, "հեռավորությունը": 91598, "##vikling": 78835, "mentions": 70953, "##вала": 18046, "##rådet": 77767, "닌": 9051, "Bahamas": 64534, "Cao": 25187, "##ήσει": 56180, "179": 22399, "fajiry": 86299, "##้า": 43102, "locaux": 48589, "először": 29513, "jedini": 81648, "ਟ": 1025, "##gor": 28025, "Berlin": 11193, "distintos": 27705, "##畝": 115393, "অনুযায়ী": 90564, "interessante": 78313, "##öä": 56754, "áp": 40029, "کتاب": 19015, "##ймае": 109518, "##went": 89835, "Balzac": 105148, "繚": 6287, "##dean": 64779, "Springs": 25343, "novels": 41116, "சிறிய": 93589, "метара": 32367, "邝": 7799, "Scots": 39163, "pachina": 89327, "lahir": 18930, "##üll": 75418, "सन्": 16701, "ní": 16020, "##nggu": 49443, "1566": 44920, "Slot": 109479, "黴": 8812, "zajmował": 77199, "##ilité": 63394, "##точната": 109411, "頼": 8396, "Henriette": 60784, "##の": 10634, "##ította": 27369, "##谨": 117152, "Марія": 68289, "##麼": 118559, "##銜": 117720, "PWI": 92235, "crosses": 64517, "milliards": 66177, "##sluttet": 64329, "deem": 78407, "означава": 85360, "##īvo": 78580, "滎": 5132, "Ελλάδος": 100214, "##ケ": 57743, "##ạp": 62495, "##крыл": 89038, "##ടെ": 27215, "communauté": 23024, "##tumia": 106156, "##तः": 41206, "финал": 75587, "薦": 6904, "honors": 62501, "##ేదు": 80991, "Algebra": 106094, "Herren": 38644, "colegio": 87492, "##una": 14212, "ven": 26044, "formação": 42561, "##rony": 76766, "##鄰": 117618, "##rição": 105333, "##vertrag": 58831, "state": 11388, "##柵": 114320, "蓉": 6856, "jeziku": 42758, "naukowych": 93435, "Београд": 31068, "##rag": 31351, "##don": 15081, "##žní": 52857, "कुमार": 98441, "##낡": 118715, "aangrenzende": 46778, "us": 19626, "##ξει": 47220, "##社": 115666, "partecipare": 72518, "##ਏ": 54304, "plate": 35932, "bairro": 41837, "##rência": 70816, "##ulos": 65502, "##贩": 117250, "술": 9463, "bezañ": 66233, "Mariah": 86348, "aplicada": 92393, "厩": 2720, "locali": 39236, "##ิ": 28220, "таксама": 22152, "herhangi": 81695, "##ದ್ದು": 50531, "##uși": 73356, "vol": 12714, "усіх": 44599, "nieuwe": 16604, "##кото": 39692, "Địa": 89565, "##omba": 106844, "бірге": 71735, "inaktibo": 33391, "##icap": 73130, "escudo": 44760, "含": 2793, "1995년": 54735, "képes": 64864, "##cute": 103411, "##δ": 84236, "Aufl": 72425, "1975": 10665, "##िका": 34028, "ideig": 86661, "individuelle": 66347, "Bronze": 28923, "Був": 57668, "窿": 6028, "Ned": 48299, "push": 68052, "доля": 102812, "എന്നീ": 40408, "##το": 17420, "##droj": 75402, "Артур": 64150, "pes": 59411, "naturalista": 84593, "henta": 98336, "inmediatamente": 73353, "reciente": 94498, "##ји": 16779, "prensa": 40838, "##əni": 54708, "##ähän": 56389, "Freak": 103085, "##ället": 88458, "##ぁ": 111786, "##šen": 31872, "قرية": 29076, "##릉": 118904, "autor": 14391, "##酔": 117630, "Seus": 76772, "##věty": 107462, "sujets": 69430, "##ဿ": 111506, "##łyta": 86634, "##shme": 37162, "manor": 90681, "##ાન": 40401, "pages": 20255, "filha": 33087, "ezeket": 106842, "Tyler": 25627, "Fellow": 30846, "##zin": 19325, "##急": 113589, "##淄": 114800, "##hée": 87551, "Jessica": 25675, "Caballero": 62946, "disciplina": 40104, "Pariz": 67983, "Амрико": 65939, "##τορα": 88036, "جهاز": 95234, "##riba": 70276, "##ённым": 86035, "Mᵐᵉ": 83638, "##ાળ": 97352, "campanile": 110416, "##ekben": 78105, "novembrī": 81461, "сега": 86656, "##ání": 17328, "abbastanza": 72235, "dobil": 107237, "負": 7417, "Halifax": 49933, "##nské": 53111, "##wedstrijden": 76654, "Urbana": 82208, "tunnettu": 74166, "##账": 117247, "##buri": 62911, "##വം": 58098, "señor": 47599, "híres": 82203, "1365": 61911, "seines": 16970, "1625": 38707, "##nakan": 98933, "Desarrollo": 65607, "жылдан": 24386, "##tropical": 83021, "debuteerde": 82832, "ß": 253, "##рчу": 102373, "100m": 101820, "##элхийн": 69134, "Zuschauer": 68570, "##脛": 116325, "slottet": 98476, "Eddy": 46893, "فرض": 95311, "між": 17994, "##sões": 69389, "zeuden": 11468, "ქალაქი": 44391, "##užbeno": 99469, "зараз": 81313, "狐": 5427, "toa": 64782, "vývoj": 25664, "##λό": 59783, "##átých": 65830, "##empatan": 82188, "července": 32850, "раді": 71342, "##chod": 62184, "Ren": 52712, "##laus": 50220, "pound": 99233, "fjell": 61081, "많은": 25685, "##ಡ": 51516, "##hold": 21671, "faisait": 45446, "Parti": 19644, "բարձր": 63737, "##ðist": 79129, "extrait": 106459, "犧": 5419, "gelegenen": 49083, "out": 10950, "##kai": 18511, "备": 3183, "##nele": 106261, "ràpidament": 110746, "оны": 18673, "Està": 50351, "latinos": 45692, "桦": 4601, "##口": 112512, "Voz": 46868, "扫": 4017, "יהיה": 63532, "##ाना": 47544, "octubre": 14082, "##ിരിക്കുന്നു": 104503, "советы": 54436, "##giers": 92894, "##mele": 81612, "Strauss": 34352, "тоҷик": 78813, "Einaudi": 94292, "фотографска": 94644, "грек": 84973, "##радиционно": 105767, "##urée": 75263, "##ціальних": 80779, "##merk": 78472, "okruhu": 90843, "Pasadena": 92375, "##suchen": 80522, "genérico": 108340, "##๙": 111449, "##шний": 56417, "##mse": 71799, "##દી": 49914, "erhält": 55767, "##үштүк": 94358, "##kanie": 95361, "##Ή": 111026, "1223": 96107, "diretto": 22063, "RM": 61778, "destroy": 59792, "environment": 26069, "##kautta": 108304, "Fox": 14880, "##ีน": 63709, "услуги": 83532, "##ụy": 83585, "derives": 109129, "votik": 31662, "훈": 10004, "##ebe": 64084, "矩": 5819, "ในปี": 24836, "Sürfat": 16537, "##haidh": 97233, "Núñez": 64482, "administrativa": 25655, "##ierte": 15524, "definido": 86166, "##yek": 73713, "force": 15031, "##тная": 59612, "assessment": 62492, "毀": 4829, "耸": 6470, "##欲": 114543, "Emiliano": 94635, "Fujiwara": 87396, "##gift": 91880, "##תן": 50465, "##竺": 115814, "Galway": 75415, "une": 10231, "##мі": 15416, "Лука": 84579, "exterior": 22531, "Besitzer": 63355, "42": 11276, "amerykańskiej": 109928, "##zője": 104694, "వరి": 49195, "##ווי": 85847, "bukan": 34743, "##۴۲": 103322, "tydens": 66423, "##광역시": 61534, "lès": 27511, "Outre": 74815, "##мий": 93412, "NS": 37314, "مقابل": 35120, "##tente": 96284, "##騒": 118296, "декември": 25144, "হওয়ার": 96347, "##urii": 74172, "Questa": 23357, "mianowany": 68027, "Fondazione": 105331, "歇": 4782, "white": 15263, "##栃": 114324, "novelist": 81448, "##dba": 57237, "udde": 35990, "##瞭": 115571, "##izacji": 51669, "##厚": 112479, "anders": 41087, "Алексей": 30484, "heilige": 68653, "تے": 13930, "##genommen": 29789, "produksjon": 99305, "##ಂಕ್": 106205, "gewann": 16158, "particles": 75593, "##ദേശം": 57386, "muzyki": 66867, "časopisu": 85171, "histoires": 95151, "##gnen": 94517, "derselben": 89859, "effet": 18224, "أكتوبر": 22686, "##keeper": 98767, "their": 10455, "##핸": 119421, "fuga": 42590, "Junction": 39573, "definito": 72947, "samana": 86248, "##捗": 113896, "Ara": 54789, "ali": 12134, "cylinder": 56473, "##cesis": 83776, "Uganda": 29675, "##rooms": 65218, "Daisy": 55098, "##ρας": 58736, "##uka": 24078, "##lichkeit": 31242, "##緣": 116022, "##putation": 99848, "dà": 55962, "##selle": 85227, "##dola": 82961, "剪": 2580, "##⁰": 111634, "uwagę": 85957, "1841": 16623, "##ատ": 29159, "##გ": 44970, "జాతీయ": 31651, "Похоронен": 67225, "Kleine": 47710, "##einander": 28463, "Кăларăм": 45543, "ย": 1426, "앓": 9525, "##ευση": 75759, "dose": 67802, "زندگی": 23780, "Gibson": 25132, "Sole": 67478, "посёлке": 83271, "##فاعل": 64568, "साथ": 16208, "##жне": 63620, "靶": 8341, "명의": 82875, "撃": 4224, "Ini": 25336, "##érieure": 105362, "KGB": 68294, "և": 706, "橿": 4745, "mare": 14790, "Төньяк": 43679, "姪": 3281, "Speech": 78033, "Marvel": 21180, "janeiro": 22437, "से": 11072, "effectués": 54649, "##服": 114229, "משום": 57638, "##æder": 87688, "regardless": 83674, "Each": 23223, "språket": 88585, "healthy": 89601, "Extension": 102441, "En": 10243, "##leva": 72623, "##력을": 33975, "##ρους": 48090, "阿": 8204, "ٛ": 803, "Ober": 76351, "భూ": 36207, "##UF": 103104, "KV": 65118, "شامل": 20707, "Ninh": 44783, "سی": 14043, "##姥": 113044, "могат": 46268, "##좌": 119215, "okoli": 46728, "##isted": 85442, "瘫": 5696, "##fal": 57291, "639": 27028, "##刃": 112299, "мовы": 73127, "Teenage": 74274, "poden": 18207, "##во": 15275, "ideologia": 107522, "frères": 39487, "鈷": 7927, "##leten": 98743, "##쯤": 119244, "ة": 765, "nganti": 68324, "##ādu": 90306, "withdrew": 56226, "יהודי": 38834, "##tésével": 110253, "##inat": 79073, "organisms": 97778, "advice": 53426, "##lse": 14433, "weit": 29931, "##יקני": 94089, "Initially": 56714, "kurie": 44438, "instruktør": 96427, "Косово": 90698, "במספר": 58383, "錠": 7978, "##loed": 74495, "Männchen": 74586, "##rtus": 71216, "##۶۳": 96872, "couvent": 88979, "invitation": 77674, "##іг": 46678, "colori": 58147, "##cisión": 78418, "##hār": 91671, "Daniel": 11792, "totalmente": 28965, "cesarza": 96209, "Januari": 19417, "negre": 71835, "##laze": 39824, "نظام": 23157, "прошли": 76304, "Audrey": 56437, "contoh": 65012, "vieler": 104527, "перейшов": 66278, "##acho": 63988, "copies": 26102, "обеспечения": 65424, "粥": 6153, "##μενες": 102357, "spille": 53855, "планината": 88763, "bažnyčia": 77697, "objects": 32804, "Padre": 34958, "bisbe": 49367, "světové": 36144, "Gatunek": 107658, "כזה": 108980, "леса": 81710, "gələn": 96310, "##amp": 53692, "کیا": 17651, "##шиеся": 78152, "##룬": 118890, "Sings": 106910, "##ماع": 99614, "##uban": 105807, "來": 2278, "utgjør": 100107, "conquête": 94293, "##饥": 118253, "többször": 93099, "dee": 49462, "##أمين": 75372, "##论": 117081, "Escocia": 60252, "##보를": 91693, "2014년": 18670, "Erzählung": 87204, "Wohnhaus": 90856, "##ケットボール": 110842, "ufficio": 82900, "uue": 102891, "DL": 27956, "Salisbury": 55933, "ஆம்": 18482, "மையம்": 61331, "mãe": 36937, "ジョン": 44188, "talents": 77869, "али": 18366, "royale": 38103, "##枋": 114283, "ذوي": 82873, "похоронен": 89749, "comunale": 48330, "fifty": 65389, "stellten": 88934, "Nachfolger": 27968, "##wright": 103120, "않고": 45593, "mục": 23013, "слово": 42638, "NK": 34982, "Sheridan": 57434, "аудандастыру": 41185, "ֲ": 711, "##háza": 103419, "priest": 40981, "J": 147, "##ಾದ": 23558, "ledde": 65427, "##hver": 104630, "Љ": 503, "২০১৪": 30068, "締": 6255, "Marrë": 29607, "ఉండే": 108746, "camí": 68486, "##ти": 10960, "Ginger": 90623, "##трий": 88015, "тези": 36366, "##र्ड": 52905, "##קונגרס": 108730, "##sprache": 60247, "##ylar": 82350, "liczby": 34440, "Gestapo": 53188, "##srecht": 80024, "Ramos": 34471, "HTC": 90437, "##ásban": 81340, "solve": 100679, "##öli": 110359, "amerykańskiego": 108112, "##owości": 109789, "##manje": 109949, "kontakt": 42706, "precise": 89165, "funkcije": 94909, "Minden": 53385, "##ਿਆ": 21319, "Blum": 89905, "politika": 40573, "##榭": 114457, "результат": 54162, "Communications": 27428, "zove": 106163, "Arm": 56058, "##сак": 83872, "##ტურა": 94539, "првиот": 74355, "帷": 3625, "importància": 68429, "##ilità": 83236, "##зывает": 46702, "umro": 72330, "declarar": 76576, "##ženi": 85541, "876": 69271, "экономических": 106413, "Nottingham": 43396, "##క్కల": 89264, "伊": 2217, "anfangs": 66537, "boshqalar": 76476, "Wasser": 24068, "العديد": 21864, "EL": 69765, "髷": 8602, "Sumatera": 33676, "casada": 51762, "##ěch": 53644, "##டி": 24171, "##made": 109641, "ų": 364, "##хідний": 104764, "##בלת": 58906, "सामाजिक": 50974, "##שם": 34033, "##悲": 113640, "pòt": 74733, "aggregate": 75063, "##აში": 28985, "噁": 2964, "Rudi": 74202, "Qué": 86462, "##שת": 19941, "ملك": 61492, "ovo": 54415, "waard": 16274, "стрелковой": 73460, "практически": 36670, "Ahmad": 24717, "##臉": 116377, "दक्षिण": 23528, "עץ": 97675, "##兔": 112206, "廳": 3694, "618": 45806, "##ciatore": 82018, "##nciar": 97968, "Conrad": 25810, "keinen": 33505, "Fermi": 110486, "norr": 13316, "##தேச": 94801, "4a": 73436, "худ": 99065, "Славы": 51883, "conhecimento": 68549, "syntyi": 38086, "##buat": 75685, "hakim": 93728, "gezeigt": 51507, "ഉ": 1325, "##ở": 38485, "##enberg": 24304, "土": 3028, "1759": 31055, "Tax": 81839, "鮃": 8628, "519": 52224, "Максим": 55883, "##aty": 55241, "04": 10814, "page": 15975, "iku": 14474, "##岬": 113288, "advocate": 77761, "##metrajlı": 105277, "##сні": 53257, "populace": 92165, "##овая": 33316, "##ícies": 100922, "##疇": 115411, "वर्षा": 54605, "Članci": 48142, "Borg": 65791, "##ricain": 107567, "nalista": 28594, "степеней": 88267, "##cts": 39159, "ṣ": 1639, "धासा": 52365, "##cağı": 84825, "氦": 4860, "玟": 5481, "##র": 11128, "埤": 3094, "々な": 34075, "##lico": 47578, "escenas": 68185, "gwahanol": 72972, "zugunsten": 99690, "Gould": 42037, "Kentucky": 19627, "Comunidad": 55860, "726": 71895, "Klaus": 21350, "ring": 21550, "启": 2795, "##话": 117104, "מונה": 36653, "##陽": 118003, "Från": 39146, "Jahre": 11494, "Poznań": 39926, "kaks": 43052, "##ФК": 100016, "##ರಂದು": 73062, "##促": 112068, "써": 9502, "##uksen": 24405, "##thique": 76198, "##籤": 115903, "##ar": 10354, "פני": 51834, "##왈": 119161, "##ền": 28234, "Lara": 32386, "slutningen": 72627, "##logique": 51299, "Peel": 17998, "Torah": 90553, "##独": 115201, "Konflikt": 80409, "sång": 54724, "##თში": 56043, "Jésus": 57001, "Vikings": 64478, "##ech": 16200, "##ivent": 84757, "##sną": 81669, "##昕": 114138, "##цией": 21659, "sorte": 31123, "dywizji": 106058, "##necht": 103957, "ostalih": 58120, "##lərin": 19697, "##രത്തിൽ": 64783, "1511": 58985, "kabel": 90264, "##ského": 17246, "market": 17313, "ils": 13178, "feelings": 68478, "bisa": 17103, "paraît": 95060, "pokrajini": 52532, "sec": 37913, "##当": 113506, "Prior": 29376, "موارد": 59813, "Walk": 28620, "världens": 88627, "##ůstal": 91938, "einzelnen": 34489, "見": 7143, "ћ": 584, "governo": 15885, "##रिक": 53129, "Negro": 29934, "##楹": 114442, "Franck": 52575, "đạo": 20471, "Martinez": 50203, "滋": 5130, "муніципалітет": 32520, "갖": 8854, "佢": 2263, "##bitkan": 108678, "##рака": 79765, "##ن": 10582, "existem": 68594, "##haber": 67034, "Buffalo": 25990, "##work": 37382, "##疹": 115429, "Schneider": 25842, "##тые": 41600, "EF": 91236, "##uertu": 77284, "ফেব্রুয়ারি": 43244, "جعفر": 80328, "##োগ": 74592, "ós": 77949, "mk": 99932, "there": 11155, "podium": 39252, "##cci": 28217, "##쿤": 119318, "Pfarrei": 72200, "##뻔": 119014, "##病": 115433, "joutui": 51830, "##filiation": 107258, "віці": 62713, "##יקט": 93584, "السياسي": 79239, "森": 4639, "rejoindre": 46474, "inauguration": 98587, "kontrol": 55605, "закончил": 94707, "économiques": 56739, "convertido": 64577, "##ாமி": 79955, "άλλων": 67650, "##riven": 94546, "Béla": 37784, "##ager": 37247, "##지의": 73479, "##аја": 96012, "срок": 69163, "Andrei": 40594, "anal": 106615, "melhor": 23601, "륜": 9226, "##ợt": 70857, "##gree": 91479, "nationwide": 82771, "Vida": 31281, "Stalna": 106004, "##ónica": 46115, "诫": 7347, "##ybos": 44065, "Grécia": 105055, "beobachtet": 92489, "値": 2344, "båda": 53979, "##斌": 114082, "apresenta": 49320, "##핵": 119420, "батько": 72269, "prodotta": 67995, "artista": 17124, "offenbar": 97119, "##ований": 30955, "enemy": 29410, "845": 60558, "##层": 113251, "صاحب": 32594, "קודם": 62306, "##ิต": 60625, "ages": 56959, "##qlar": 83277, "##া": 12079, "喀": 2908, "だと": 54707, "##শের": 107645, "jehož": 43684, "牛": 5400, "Camille": 35543, "raised": 20526, "ένας": 27991, "Margit": 89274, "Franța": 32793, "205": 20862, "functions": 28277, "إسماعيل": 94242, "Heiligen": 42208, "##erang": 49330, "##껏": 118682, "##玠": 115248, "##писан": 36868, "##perus": 61127, "Sen": 18082, "կառուցվել": 110460, "regnigaste": 10999, "##やすい": 104207, "凛": 2510, "##偏": 112127, "##齡": 118591, "ᶜ": 1621, "##соту": 95086, "##дна": 31573, "##ერა": 97199, "पास": 52331, "##쇼": 119060, "görev": 38733, "##ém": 17927, "mampu": 31715, "csak": 14891, "ỡ": 1683, "SBS": 21266, "فوتوشیمی": 83309, "##ュ": 48412, "##poda": 47492, "##iable": 81232, "luna": 44885, "##prende": 51500, "orang": 12430, "gruppa": 94762, "рада": 28797, "odległości": 49957, "ООО": 61164, "титула": 95399, "##baum": 39687, "tomada": 89128, "Paulista": 47867, "Store": 21812, "##isti": 23620, "##teção": 101062, "Federación": 33911, "attraverso": 21828, "##hoff": 36425, "άλλα": 49063, "اند": 107289, "##داً": 88977, "honom": 32265, "できる": 24149, "كانت": 13353, "ترکیه": 81784, "lig": 69751, "roue": 49191, "Ленинградской": 78091, "##warkan": 85087, "länet": 91548, "##kaan": 26672, "##quer": 28531, "غ": 782, "Serien": 52260, "##ளம்": 32495, "##υση": 37648, "дальнейшем": 50625, "way": 13170, "##ritos": 105150, "##ിലെ": 72715, "Nuoroda": 51448, "##yyat": 64351, "尘": 3464, "Kappa": 92624, "verlor": 33312, "##skole": 69728, "##йские": 65758, "##움을": 90373, "##family": 78330, "Kraft": 32770, "incluyó": 78973, "##உ": 111297, "novu": 101643, "##rias": 31866, "##unga": 89957, "provocando": 86999, "648": 61485, "prvo": 32314, "##垠": 112841, "Óscar": 47355, "##zuje": 26460, "Oosterbroek": 89109, "##maa": 20528, "##ळी": 44779, "obvykle": 49329, "Offenbach": 83610, "único": 18680, "všetkých": 74542, "samalla": 50827, "імені": 27674, "##ზა": 57609, "dream": 51442, "##מות": 15482, "##ąc": 40708, "серию": 105310, "unabhängig": 68731, "Norsk": 27733, "utilizó": 78948, "##若": 116477, "##щи": 19682, "##мија": 73502, "Exchange": 32424, "##éry": 37653, "supported": 19992, "Между": 61586, "##лийг": 103958, "##ள்ளி": 62172, "##jazdu": 107698, "ਵੀ": 21091, "Spa": 64766, "ישנם": 76627, "##واں": 79730, "##ائی": 32245, "деятельность": 34112, "آیووا": 94188, "190": 16664, "llatí": 68202, "##krona": 105954, "##iyanın": 85638, "demostrar": 77644, "répartis": 102589, "##तील": 42476, "இந்தப்": 109529, "Roads": 72708, "##hacht": 104291, "headquartered": 80439, "1952": 11100, "պատերազմի": 64047, "horvát": 83917, "toneladas": 74872, "##marine": 67091, "##tățile": 74537, "takaisin": 48184, "##vej": 49268, "spesad": 59856, "मैथिली": 73553, "kritik": 59163, "駆": 8519, "oppgav": 53526, "kopā": 54682, "tải": 56968, "πόλεις": 93009, "aliados": 63547, "システム": 60144, "Geoffrey": 32540, "##tstad": 103775, "tidlegare": 44053, "##ласы": 75521, "KA": 85314, "implijet": 94027, "##畔": 115390, "بیان": 42148, "##rot": 28636, "##ijai": 96064, "помощь": 53532, "σημαντικό": 103119, "Ak": 71275, "اصول": 95260, "噂": 2965, "Revision": 48341, "##ടിൽ": 109744, "##orí": 85985, "##ąd": 34965, "množství": 53327, "Sarkozy": 93256, "Respublikos": 67883, "Ngoài": 45447, "изд": 21529, "bahwa": 14787, "##奢": 112993, "castelo": 74893, "Новое": 90161, "spots": 64148, "varierad": 49893, "komunitas": 106951, "kaldı": 81997, "الشخصية": 84490, "imena": 43421, "խավարածրի": 100270, "الإنترنت": 77369, "##포": 55530, "残": 4814, "بنسبة": 41974, "Fluss": 34823, "XVIII": 13058, "Greg": 22438, "##ệt": 30097, "##ಾತ": 97051, "ganado": 54140, "Soccer": 25914, "Валентина": 82162, "##ियों": 19966, "jetzt": 43814, "disque": 49777, "Jerez": 103225, "кен": 78201, "##бира": 64815, "clubs": 16707, "##ілу": 78485, "##жити": 109998, "नीचे": 110737, "##庵": 113440, "Brunswick": 30586, "angesehen": 65653, "네": 9011, "своем": 85842, "##诃": 117088, "ministry": 65338, "joskus": 91853, "##sökte": 96870, "##咁": 112595, "oil": 21073, "##կվել": 104282, "tous": 13477, "##iában": 34801, "##clei": 102790, "PDF": 12463, "##rant": 18348, "оьрс": 13376, "##桝": 114362, "ვ": 1569, "Nový": 68553, "religiosa": 30926, "##汕": 114646, "匆": 2644, "診": 7189, "##und": 17242, "##генда": 65422, "ீ": 1176, "겼": 8884, "##meister": 21449, "##瓒": 115348, "##sd": 82836, "##ala": 13322, "##бар": 26711, "eletto": 43401, "worked": 13858, "ژوئیه": 70310, "Lungsod": 61453, "##べ": 111802, "сезоната": 105058, "##erance": 91710, "Work": 25641, "##리의": 50053, "Польщі": 26520, "##CE": 43161, "impact": 21316, "utiliser": 44054, "##功": 112363, "Sharif": 94724, "АСТ": 102102, "pintures": 108482, "tient": 44730, "випадку": 63851, "use": 11760, "城": 3086, "bölüm": 108756, "##ート": 21761, "jiných": 57168, "##етрів": 108379, "Verfassung": 61585, "patterns": 49864, "část": 24396, "জনসংখ্যা": 23246, "Kalkulado": 15405, "##љени": 85701, "##鳥": 118475, "५०": 79373, "участия": 56574, "##ству": 23272, "тела": 33045, "look": 25157, "tinham": 48586, "מכיוון": 63455, "##행": 25549, "##rwydd": 107789, "gagner": 84036, "distinct": 35428, "professionnel": 39143, "##司": 112529, "gegeven": 58680, "##дай": 46195, "posterior": 22658, "Lietuvių": 100516, "##tier": 34146, "Promotion": 46444, "Missile": 87352, "933": 79145, "tries": 38106, "##lüm": 110336, "single": 11376, "Aufgaben": 45775, "til": 10275, "closed": 18440, "##finie": 104691, "vari": 24316, "Кубке": 93912, "##owany": 18762, "Peace": 20705, "Egypten": 74440, "再": 2475, "ویکیپدیاسینین": 15156, "剣": 2575, "##sior": 97908, "Dem": 37312, "匣": 2655, "ഖ": 1335, "показали": 95088, "attempting": 63494, "Darah": 110311, "虽": 6959, "արդեն": 73952, "Franklin": 18003, "prestigious": 71472, "Railroad": 28007, "1747": 36203, "considerato": 37204, "округу": 15255, "비해": 100876, "kwa": 14266, "##厳": 112489, "Journal": 11929, "##脫": 116327, "更": 4449, "augustus": 19947, "oberhalb": 69598, "嘻": 2962, "ظاهر": 109708, "Mel": 40060, "##ndole": 63849, "##wacji": 82498, "опыт": 90281, "##oq": 54265, "##ッツ": 52195, "Belgii": 99148, "deportiva": 87262, "##ných": 14385, "##pene": 57037, "qualifier": 96076, "##ear": 34321, "swój": 42165, "tournée": 32420, "degre": 79246, "meio": 25598, "двома": 61771, "בספטמבר": 33215, "li": 11614, "Bahn": 23428, "vieta": 34512, "повстання": 80339, "⇌": 1796, "kuuluvat": 65819, "##сады": 102432, "empieza": 60867, "román": 32106, "hún": 42736, "##ていたが": 94203, "##ула": 26428, "##난": 33305, "##še": 14747, "chuẩn": 39281, "Terrace": 110256, "##baliknya": 104243, "##avat": 38573, "##먹": 118921, "halda": 74109, "involves": 53963, "##ابی": 107619, "##誰": 116997, "Бірақ": 106437, "Crambidae": 50251, "Gladys": 101187, "##浊": 114753, "островах": 94502, "period": 13127, "##чине": 57146, "Ata": 68795, "##ресу": 106157, "átomos": 107347, "Bourgogne": 30003, "copias": 57811, "енеді": 24073, "Ред": 57838, "سالگی": 74645, "היו": 16371, "900": 13545, "##падає": 104218, "Bruxelles": 24222, "##utas": 30600, "союза": 75085, "1970": 10607, "##eno": 16818, "##骨": 118349, "##부가": 81896, "spansk": 69094, "бит": 97367, "##沙": 114680, "central": 12397, "bukid": 62487, "дом": 21487, "yaxın": 73221, "realizzare": 84948, "Västra": 60948, "јула": 63100, "filter": 80352, "0°": 104947, "dovoljno": 94776, "uscì": 56583, "avion": 41615, "##奋": 112981, "##undan": 83722, "много": 16318, "##港": 114852, "乔": 2128, "##dina": 25755, "##Ė": 110938, "##росла": 99125, "##chs": 42008, "##yíu": 55087, "肛": 6507, "encountered": 80975, "Siemens": 42197, "even": 13246, "##يز": 29548, "google": 41181, "menerima": 33850, "lineup": 90223, "ਸੀ": 15982, "Should": 71426, "allenatore": 29200, "lục": 47000, "Entry": 70824, "умер": 36983, "alrededor": 25289, "собрания": 85234, "Мать": 107549, "##ंस": 49096, "marathon": 45068, "##あまり": 104589, "##ết": 22554, "taula": 105841, "Lie": 39710, "Hollow": 66086, "困": 3008, "sciences": 21896, "giovanile": 107714, "Хенри": 110139, "Artist": 26606, "साहित्य": 33337, "##елом": 93372, "anden": 32648, "##mised": 89301, "наприкінці": 85958, "##mid": 59881, "nimitettiin": 80302, "##nellement": 108335, "##ೀಸ್": 88421, "##gation": 61005, "##utes": 50808, "##рих": 47996, "엉": 9558, "secular": 70422, "Bellini": 96707, "##giene": 79019, "lando": 54700, "filmy": 101794, "##ذكر": 42172, "beschlossen": 79284, "##ტების": 45984, "촉": 9758, "sovjetiske": 83991, "ੰ": 1064, "élection": 35583, "rồi": 36827, "##õe": 60571, "##yczne": 50533, "Nos": 24170, "猴": 5455, "##rto": 36396, "##кху": 69853, "conservation": 36378, "Рэдкал": 48617, "Jelena": 73009, "acest": 27007, "##nä": 26268, "січня": 22547, "##BA": 35999, "Northumberland": 74307, "anno": 11671, "Nielsen": 25223, "enfermedades": 91749, "yng": 25393, "Angleterre": 23741, "##јна": 76736, "Modell": 37955, "Padilla": 96192, "##entat": 61876, "##енное": 60861, "чӀогӀа": 42026, "kisbolygóövében": 104261, "excess": 93317, "unga": 84240, "##bica": 68031, "viti": 68480, "##bris": 48284, "Entomologique": 107771, "击": 2528, "өлеше": 106033, "##вљен": 78986, "##fodd": 93638, "鋼": 7971, "бог": 102166, "parce": 46718, "##tikus": 79981, "tidlig": 53550, "الجهاز": 24435, "##섰": 119042, "Sacred": 47568, "fugir": 78041, "##πιπλέον": 84405, "представлены": 86725, "##ево": 42500, "Châtillon": 87433, "villes": 26535, "Фильм": 58318, "Исто": 87653, "милиона": 49405, "##شبه": 88137, "रहते": 98656, "دادند": 89737, "##neri": 54839, "##逆": 117489, "hacerse": 99594, "##შვილი": 47740, "openbare": 93810, "grupė": 91384, "までは": 46454, "Cyber": 104265, "названий": 86379, "菱": 6802, "##erre": 45084, "##mert": 99057, "insurance": 49756, "聘": 6481, "ပြန်စစ်ပြီး": 39373, "juta": 32922, "##鵰": 118496, "anime": 19447, "Mundu": 77364, "tilsvarende": 84052, "Fever": 60534, "##šom": 89266, "985": 19110, "13일": 46686, "##dung": 20458, "##zené": 80528, "##ipes": 67132, "たちに": 109915, "##胀": 116290, "をする": 62378, "##dang": 24058, "að": 12071, "##ೀ": 35461, "kapta": 44746, "##był": 71367, "##ерен": 110635, "död": 17812, "Conceição": 105893, "₎": 1763, "thước": 92066, "biological": 48806, "Eestis": 43269, "荏": 6747, "vocation": 106799, "endèla": 54171, "czerwcu": 59431, "geht": 21952, "tomado": 87388, "cruel": 105034, "Generalitat": 51581, "arrivo": 47690, "vaak": 23450, "tanques": 101545, "akibat": 48206, "листи": 55089, "##തിന്": 94979, "##خلاف": 108068, "comité": 35983, "kurzen": 59003, "##دهای": 54218, "پنجابی": 52805, "##lən": 72112, "utilizza": 99029, "Marilyn": 38313, "##tza": 29067, "##le": 10284, "лучший": 60611, "##цу": 16806, "hear": 62064, "abolished": 69483, "##ием": 28788, "쁨": 9404, "##டும்": 67748, "opština": 25040, "übernahm": 19526, "##оҳи": 99869, "##jælland": 100007, "tijekom": 33234, "japonês": 93201, "Antilles": 98203, "Է": 631, "порт": 27999, "საიტზე": 110755, "##bajo": 77967, "泾": 4960, "Euphorbia": 55666, "##dels": 76070, "중에": 102246, "##teet": 107572, "Patienten": 64705, "H⁺": 92123, "vanuit": 36430, "Saudi": 26598, "dun": 23145, "includes": 15433, "Frankryk": 78980, "폼": 9932, "##vání": 20819, "Smith": 11673, "##yanan": 101182, "דולר": 67113, "##значити": 106441, "472": 39919, "nazwie": 76676, "있으나": 108543, "僕": 2397, "страница": 75011, "دے": 12049, "##щност": 87780, "##ических": 21871, "LC": 43586, "嘆": 2945, "մէջ": 28514, "##ئلة": 90080, "Bees": 52840, "##aso": 63321, "borders": 47360, "##ಾಗಿದೆ": 70938, "##ками": 18697, "гэж": 37517, "##fend": 86790, "tío": 94354, "các": 10792, "Friedrich": 12205, "Palm": 35158, "Marqués": 97867, "荘": 6752, "traite": 109953, "tubes": 79013, "القديمة": 46416, "赫": 7526, "##ეთ": 86235, "vor": 11190, "ramach": 31618, "##豬": 117174, "لازم": 84299, "##pah": 79059, "##forte": 62167, "##罌": 116161, "##רצה": 85001, "##matan": 52955, "##ģijas": 76655, "individuales": 93239, "festivals": 43225, "enquête": 33409, "##gah": 105944, "쿡": 9825, "Royce": 46753, "##тства": 70776, "##շակութային": 96942, "пер": 61381, "艤": 6664, "465": 36307, "Валентин": 83478, "worldtimezone": 59056, "altı": 69628, "누": 9032, "carcere": 94939, "##סוג": 94723, "nomme": 67078, "##yū": 89716, "##lves": 86506, "Biography": 14845, "તેમની": 83286, "Энэ": 46719, "丁": 2073, "Einheiten": 58114, "pictures": 54156, "##صيب": 97365, "##sala": 104655, "rue": 16505, "Euroopan": 39213, "##룸": 118892, "駿": 8528, "hommes": 17949, "##פה": 15590, "##ələr": 43167, "惱": 3896, "##γε": 56925, "儁": 2409, "##gau": 38161, "Cali": 65458, "##ępowania": 103684, "coreano": 106423, "язок": 91760, "##ly": 10454, "顛": 8407, "طائرة": 102219, "שיצא": 101394, "presque": 34905, "Smart": 44950, "##vende": 82093, "Km": 73132, "šiaurės": 32164, "##versario": 97804, "释": 7904, "Spiel": 21055, "rakennettu": 76731, "ay": 11538, "olabilir": 102228, "escultor": 57519, "₂": 1755, "խ": 680, "ಅಂಡ್": 82606, "している": 11574, "##媛": 113089, "talvolta": 74715, "έτσι": 45373, "##ρκ": 98356, "##dowych": 62743, "##ighet": 66444, "raskt": 79111, "##擔": 114021, "淦": 5047, "##鏗": 117782, "Slovenskej": 101111, "##靚": 118095, "Dow": 106035, "fant": 69262, "bolesti": 55924, "synonym": 57842, "Frankfurter": 45789, "apríla": 100821, "甌": 5594, "Հայկական": 59941, "Fins": 68128, "största": 16341, "##尙": 113231, "פתח": 83809, "oorspronkelijk": 63959, "##neho": 84788, "rights": 16691, "##жність": 71634, "RB": 71201, "המערכת": 105926, "ਭ": 1038, "gampong": 110562, "manuscrit": 86924, "directly": 22062, "컫": 9800, "kaart": 34361, "bridges": 70888, "shell": 43332, "ḍ": 1623, "kaupunki": 47939, "yılları": 41697, "Def": 77955, "Mancall": 42993, "yhden": 40848, "寝": 3425, "##夙": 112956, "taken": 15109, "##တွင်": 16969, "мира": 15325, "Sinds": 35938, "artículu": 47579, "##际": 117974, "##﹝": 119489, "제": 9672, "##έτη": 71315, "क्लब": 109496, "kiedy": 28401, "oldalon": 64460, "landskommun": 71556, "##рил": 90266, "Индии": 61627, "뿔": 9401, "risultati": 43670, "##izzato": 58287, "##nach": 29820, "##feitura": 84268, "##ggia": 40821, "address": 32198, "இவர்களில்": 65599, "kilomètres": 22308, "##葳": 116602, "##ади": 74894, "suspended": 49799, "пытался": 109549, "tulee": 46323, "longitud": 23230, "Then": 26467, "көптеген": 73215, "absence": 28589, "기타": 73142, "##筏": 115838, "##鱈": 118430, "##晃": 114155, "computing": 93709, "blot": 77326, "##ziano": 52868, "Limousin": 96554, "paciente": 78104, "овој": 33690, "##唸": 112653, "असतो": 99238, "##уды": 92953, "##ekommer": 109657, "বিশ্ব": 110793, "вёска": 32687, "##мая": 73977, "##лект": 100405, "Göteborg": 28421, "Suez": 75772, "CBE": 86744, "##ekte": 87357, "ცნობილი": 63919, "Simone": 28476, "##уто": 107796, "##醴": 117663, "邈": 7791, "труда": 49624, "##н": 10267, "##தான்": 85591, "हुन्": 49374, "##πήρχε": 103172, "mutations": 105083, "##tenuto": 74698, "Natalie": 40318, "洱": 4973, "органы": 79987, "笃": 6050, "##bilità": 44180, "##vie": 23966, "Ortschaften": 71245, "encontraba": 46227, "partits": 55128, "referència": 63319, "##ਮਰ": 109609, "##ësi": 53776, "Admiralty": 108951, "卜": 2685, "Германия": 20823, "##рук": 100597, "##לום": 60361, "виробництва": 47205, "direttamente": 43493, "##θήκες": 100234, "##eiz": 46343, "##езия": 69574, "UD": 85627, "##poidea": 67393, "lebte": 34643, "napravio": 43119, "এদের": 90425, "dawna": 70561, "getötet": 68983, "referred": 19884, "eher": 31560, "##इन्छ": 93156, "supporto": 59646, "##။": 111508, "Eisenach": 93826, "纲": 6315, "reeks": 43456, "##йским": 110658, "##racia": 73348, "##idt": 104339, "labor": 27605, "##mail": 85505, "שינוי": 85913, "##сын": 28306, "##üs": 54577, "##raphie": 94699, "quyền": 17992, "MotoGP": 104520, "##97": 100595, "39": 11303, "##zong": 100383, "ملک": 54102, "обикновено": 81427, "malo": 34989, "stadig": 37734, "НАСА": 46245, "##ах": 12588, "##یات": 57636, "posizione": 22594, "kohë": 74208, "водного": 27049, "documentos": 39519, "başlar": 92535, "plot": 32473, "pelasi": 23777, "активности": 52527, "ി": 1370, "##ラン": 36394, "ster": 78342, "Section": 28498, "##att": 26660, "clock": 52843, "##огу": 67456, "metric": 105200, "1512": 52087, "па": 12634, "인구는": 59757, "##ابة": 48783, "conocíu": 61095, "##की": 24962, "Quinn": 34674, "női": 60422, "districts": 24412, "destaca": 31422, "عملیات": 79049, "ਹੁੰਦੇ": 80952, "ял": 63367, "književnih": 80915, "##точно": 97962, "Орысша": 95907, "##таў": 65947, "##〗": 111783, "##cán": 45641, "Senato": 84060, "Ribeiro": 52807, "敬": 4304, "۲۰۰۱": 98684, "sarà": 32585, "##Á": 110903, "así": 13219, "##勛": 112392, "##had": 33796, "Suas": 103771, "názvem": 43399, "##ниците": 55149, "久": 2117, "Abigail": 91664, "liczbę": 89484, "Website": 21819, "##μένο": 33558, "Mexiko": 19036, "اپریل": 105430, "entiteten": 82588, "տարածքային": 54611, "##ezett": 49222, "torraste": 10996, "##նալ": 88391, "Wendy": 44859, "مختلطين": 92808, "##gender": 100032, "turun": 85253, "lämnade": 80760, "##ksesta": 91937, "cure": 77298, "billion": 25848, "##vao": 23991, "##施": 114103, "rapper": 39742, "482": 46810, "傾": 2391, "##ctica": 71474, "##ila": 13799, "##جل": 46969, "##lismo": 97295, "##owana": 26277, "##cope": 84087, "##xa": 14220, "亲": 2175, "钢": 8052, "##温": 114849, "##논": 118743, "##φους": 70252, "##牡": 115170, "##ičių": 106049, "Смоленской": 76134, "Canarias": 83568, "for": 10142, "విధంగా": 31491, "einzelne": 62178, "##bər": 80709, "##흘": 119463, "ആയിരുന്നു": 67691, "별": 9353, "ʼ": 412, "##ição": 24733, "tea": 57675, "##眠": 115536, "suites": 93891, "##вые": 40567, "##нимал": 93903, "minste": 94728, "سارے": 100594, "##钞": 117815, "قدم": 20317, "nadal": 68958, "Szenen": 79881, "Erich": 24413, "време": 13638, "burned": 63838, "##čního": 60787, "梦": 4614, "##మి": 76231, "##阔": 117954, "M4": 92340, "لبنان": 45920, "övrigt": 36775, "parecido": 102110, "##銮": 117723, "##ságát": 103984, "Amerikanci": 41401, "Seneca": 92129, "Ieu": 32542, "afdeling": 70277, "##òmic": 79264, "będzie": 46845, "Harvardiana": 76887, "##zilgan": 104501, "##rat": 12553, "ของ": 76523, "##cture": 57336, "##驊": 118305, "づ": 1937, "Category": 80087, "##ïna": 67269, "漠": 5164, "Dokumentarfilm": 91746, "竣": 6041, "Большого": 89532, "##улган": 80101, "vecchia": 70707, "Agent": 36065, "##fique": 73065, "##vina": 22179, "olemassa": 108919, "##jet": 18533, "utenfor": 60443, "##saba": 85795, "偲": 2366, "metodo": 56208, "researcher": 101084, "gründeten": 99060, "Línea": 87086, "Göy": 52290, "hùng": 95019, "##մբ": 81449, "##tycznej": 58235, "Sioux": 72663, "##eo": 15998, "okres": 32114, "Schltr": 53321, "##ვება": 85511, "Sanremo": 71345, "酚": 7866, "진": 9708, "sceneggiatura": 72382, "##skabet": 109848, "mėn": 68042, "شمسی": 76219, "الشعبية": 89129, "PK": 62390, "##會": 114225, "1177": 82024, "பட்டியல்": 26967, "ใ": 1453, "Vanuatu": 75837, "Zato": 101946, "PM": 46161, "Inc": 13604, "органов": 63281, "viszont": 46633, "##く": 18825, "デジタル": 106869, "##istiske": 48630, "Jacques": 12745, "##ключения": 49911, "Thompson": 13288, "aige": 90175, "##ბებს": 92225, "ਆਪਣੀ": 63560, "##minada": 88477, "قاجار": 89234, "Ala": 56500, "##嘢": 112720, "методи": 79839, "##bring": 109720, "Met": 19728, "##شل": 57735, "brevemente": 94649, "##חיה": 97241, "##lato": 35304, "##ốc": 48935, "##ante": 14640, "Philipp": 23293, "գ": 670, "##szeit": 37116, "##вного": 47301, "Architekten": 47406, "##udi": 35772, "॥": 921, "LA": 29079, "##ინის": 108503, "##מרד": 107236, "##ेस्ट": 110615, "бр": 109300, "Zahl": 30731, "##oš": 74133, "##甄": 115359, "##ంచాడు": 37041, "##障": 118019, "быў": 17564, "##раф": 102612, "##juan": 40135, "##յում": 47666, "pri": 12377, "諸": 7254, "forma": 11041, "öt": 50989, "##灶": 115028, "##鏢": 117786, "Kopenhagen": 59700, "##йської": 79361, "Kazimierz": 44167, "##MP": 79936, "##었": 119138, "lijkt": 70688, "##יים": 13644, "験": 8531, "##నీ": 48789, "numerosas": 36070, "zahlreiche": 22562, "sejarah": 34195, "Linn": 52939, "##quérir": 107893, "license": 47679, "ক্ষেত্রে": 76605, "##돔": 118795, "##tive": 14079, "##wór": 47137, "15일에": 109355, "##龐": 118600, "WEB": 88839, "##పు": 23268, "漉": 5158, "قوة": 72349, "蛾": 6996, "측": 9776, "##／": 119510, "declarado": 69875, "##loads": 110711, "Toulon": 63871, "##ol": 11481, "الضغط": 104313, "堊": 3107, "##чная": 27725, "##ంటి": 69340, "##sorte": 84109, "obvious": 94452, "jp": 59408, "##猷": 115223, "مه": 77010, "շատ": 31968, "trio": 32920, "##čić": 56742, "Iceland": 53588, "##ären": 25644, "además": 16943, "القرى": 97875, "reist": 76702, "גרסה": 104336, "Merchant": 91101, "botánico": 91873, "##塙": 112893, "Neill": 38269, "Мінск": 52817, "##чому": 71420, "##ute": 16808, "gingen": 30476, "Этот": 35589, "Charente": 39654, "еді": 89936, "poslední": 45999, "calcul": 87838, "##ographie": 62417, "##য়ের": 37150, "##ことにより": 61110, "sugar": 60390, "verurteilt": 61962, "trije": 70537, "譲": 7286, "rodzaju": 39101, "nafar": 14714, "lack": 23582, "##ստանի": 87072, "процессов": 97378, "Австрии": 79401, "Macedonian": 92341, "kebanyakan": 58177, "its": 10474, "ademais": 73303, "##դրում": 82547, "##hali": 63889, "##بش": 79774, "##ც": 21841, "Brody": 107352, "776": 69588, "##莅": 116530, "жас": 38074, "042": 97672, "##ави": 50511, "##vä": 32044, "ったが": 63425, "részt": 27628, "E1": 105481, "##bjerg": 78521, "Presents": 63023, "##勇": 112382, "##rych": 96437, "poorly": 93530, "előtt": 25305, "##/": 110865, "##wano": 26167, "прысвечаных": 106715, "altına": 101477, "만든": 73306, "ఉంది": 11374, "kirkon": 67360, "저": 9663, "۲۰۱۱": 60371, "##onydd": 86381, "踞": 7567, "##甘": 115363, "##ование": 43881, "మండలానికి": 55336, "port": 16874, "kup": 101079, "всього": 61860, "Jindřich": 103971, "##rgen": 39802, "##ชัย": 90609, "##hodné": 90294, "##obra": 91495, "Spectrum": 65733, "##اله": 105612, "Robb": 67250, "##misel": 46010, "hade": 14263, "herë": 70504, "मध्य": 21650, "##zió": 91167, "##ಾಗಿ": 21628, "##liegen": 46400, "##tiden": 44087, "Coral": 65996, "##ારો": 106531, "Nota": 63233, "##ಶ್": 93866, "насеља": 69700, "##முறை": 56954, "##مال": 65063, "##হান": 78552, "##sinde": 32571, "##מלך": 86165, "Κατά": 35458, "παρέμεινε": 99117, "##贵": 117261, "钏": 8041, "##麟": 118550, "##фер": 46647, "##chaften": 68556, "##ಂ": 26521, "ツ": 2019, "22일": 46355, "Француској": 63414, "ਐ": 1014, "Indonesien": 21829, "##stelling": 30920, "##阐": 117953, "сайте": 40087, "023": 84786, "нэг": 41146, "genoemd": 22071, "##Ќ": 111065, "##缝": 116147, "##zta": 32950, "浑": 4991, "expedición": 58867, "Mainstream": 105363, "järgi": 32993, "οποίες": 55913, "##קדם": 56420, "##rza": 28768, "movimentos": 99793, "֊": 708, "##ленд": 50702, "அமெரிக்க": 58443, "##מעבר": 90049, "##ուսի": 110841, "ri": 29956, "##ಗಳಲ್ಲಿ": 18136, "##κού": 38407, "тысячи": 59263, "##ருக்கு": 96530, "diesem": 14001, "sacrifice": 81063, "##wark": 87528, "##wód": 106462, "particuliers": 30684, "Activities": 66372, "frequentemente": 57021, "黻": 8813, "急": 3823, "##羹": 116198, "##фан": 107488, "色": 6670, "היתר": 61145, "olema": 104855, "##ncée": 102492, "capitán": 39628, "театру": 61708, "દ્વારા": 34853, "##мов": 33170, "イ": 1987, "Zeitung": 24452, "それが": 103849, "##egd": 58032, "绊": 6333, "##ющихся": 55396, "##zal": 32145, "##후": 31531, "##娼": 113071, "cantando": 89527, "Younger": 108637, "säsongen": 48109, "2ᵉ": 21672, "##ələrin": 87809, "وأربعون": 78187, "früher": 32430, "##dý": 102960, "нарича": 90771, "##ńca": 46795, "弾": 3733, "炯": 5282, "MVP": 31374, "##xt": 28883, "zusammengefasst": 105460, "فیزیک": 52687, "դեպքում": 55938, "análisis": 52909, "钙": 8044, "الكبرى": 62313, "inkább": 54420, "##demment": 89120, "αυτόν": 87190, "such": 11049, "الغرب": 86391, "teams": 14404, "ҷ": 611, "zunächst": 14993, "##還": 117555, "##bilă": 104285, "ஆர்": 83033, "##颈": 118195, "##tták": 71385, "paritany": 106776, "##izes": 59080, "ehemaliger": 34507, "Nam": 12645, "করেছিলেন": 62285, "bulundu": 108292, "##novnim": 106478, "victoria": 26304, "##ror": 30101, "expériences": 105365, "##keit": 17870, "смерці": 106931, "leur": 11807, "territòri": 94327, "renowned": 65315, "##gap": 76320, "##ẳng": 73882, "##いる": 20885, "##phäre": 105757, "Woody": 32274, "##｢": 119541, "##厂": 112470, "##унун": 50338, "ഢ": 1346, "##ヘ": 111824, "detrás": 45386, "plataformas": 100957, "astéroid": 13593, "##onder": 102754, "ця": 62265, "##Н": 25298, "##ျုပ်": 109684, "возраст": 71473, "thác": 90619, "嬴": 3346, "##משך": 37750, "Gil": 26463, "ersetzt": 31802, "berbeza": 87925, "##♦": 111755, "מפני": 72386, "旻": 4359, "связано": 78320, "##guèt": 41527, "##قوب": 106967, "ds": 30205, "##jām": 56702, "ṯ": 1642, "##지가": 80795, "##ейс": 104669, "咆": 2831, "греко": 82764, "signing": 46529, "tehsil": 62780, "cavallo": 71399, "grader": 108656, "##roud": 99788, "##حليل": 76367, "katerih": 66088, "叉": 2729, "Chant": 98055, "Mayo": 24611, "masalah": 42697, "поселения": 22412, "晤": 4403, "этом": 14551, "##釘": 117679, "reserves": 60405, "prvu": 90767, "##sprach": 88918, "lebenden": 106168, "очки": 97882, "maglia": 49468, "request": 37449, "##צאה": 63858, "마": 9246, "областта": 72322, "constituency": 36738, "##யிலும்": 58998, "##ન્ટ": 104366, "##dliche": 65612, "Matthias": 32557, "cittadino": 90397, "##वाल": 94597, "##âm": 34595, "gjin": 76435, "manufacturer": 56961, "Angelo": 22969, "gør": 90055, "##эк": 70426, "##득": 118813, "fruto": 81136, "школі": 58676, "##émica": 54683, "Devils": 58535, "Technik": 41279, "##ilussa": 107940, "Þegar": 110080, "വിവിധ": 90629, "produrre": 95020, "trägt": 34886, "velmi": 25773, "عزلة": 57809, "Baile": 63518, "abitants": 82047, "##զանի": 99195, "##íne": 75682, "##schiff": 48058, "dolazi": 40261, "ұлттық": 31697, "Não": 31107, "##з": 11571, "##ez": 12715, "538": 45677, "##عب": 20907, "##ossen": 65614, "comenzaron": 60056, "bisherigen": 68784, "monstrat": 76089, "D9": 101553, "Згідно": 59051, "lunghe": 106102, "kuno": 84377, "نفر": 12523, "##飒": 118218, "1872": 13944, "##jsze": 94405, "todo": 12655, "মনে": 84851, "миң": 94489, "##集": 118038, "դարի": 45511, "Pacheco": 72688, "##傍": 112142, "cintura": 43634, "Goals": 109675, "##omen": 37778, "bintang": 48420, "發": 5714, "形": 3745, "mismo": 13206, "produsent": 94835, "##lias": 75007, "##教": 114063, "caza": 58571, "giovane": 24476, "kéo": 47598, "##bc": 71492, "墳": 3153, "Städte": 40622, "##jikan": 97374, "##hista": 67174, "##剷": 112351, "##́й": 97407, "##цијата": 46098, "##arat": 49651, "##ельно": 49161, "MPEG": 73517, "Document": 109356, "extant": 104967, "##rque": 46347, "haute": 35111, "##ׂ": 111161, "Sverige": 14649, "堃": 3103, "由": 5611, "weak": 61285, "##דרך": 108742, "arcmin²": 103877, "Fausto": 78398, "ovog": 39571, "##рода": 45614, "відома": 98127, "turned": 21031, "fondateur": 46723, "ורג": 61925, "سکتا": 101206, "窘": 6017, "犹": 5423, "〉": 1830, "##ič": 61413, "##ical": 17616, "##둠": 118806, "##ická": 45007, "Erinnerung": 89101, "giocare": 63733, "trails": 110620, "##зия": 22685, "केला": 49902, "##jonu": 61417, "esordio": 76763, "ožujka": 57589, "ganar": 37943, "された": 10952, "##şehir": 60806, "Ichneumonidae": 24241, "##ēja": 19542, "Universiteit": 27527, "cộng": 30876, "##늘": 118762, "Luke": 21489, "platform": 22753, "власт": 38029, "気": 4854, "ٍ": 796, "Place": 17452, "##РО": 56033, "##йны": 69657, "##äck": 92572, "punkt": 15005, "можуть": 29438, "toenmalige": 85587, "[MASK]": 103, "ook": 11187, "ぐ": 1916, "##ثلاثة": 82534, "doctrine": 53336, "##споминания": 90688, "વિસ્તારમાં": 88317, "##hị": 69014, "СИЭМТ": 109095, "naciones": 100401, "##فق": 45797, "Institutionen": 100471, "##ecen": 106818, "участок": 44290, "Gran": 13272, "consente": 102210, "##twie": 41396, "##yote": 70436, "##rti": 28304, "##gick": 65577, "##引": 113481, "##酪": 117636, "cluster": 66758, "Pere": 33511, "##éru": 78218, "España": 12413, "##שב": 30253, "partijos": 89629, "Ai": 19672, "۲": 840, "jedes": 53263, "##祁": 115668, "ингл": 71456, "##साद": 97927, "Sunrise": 79666, "##şir": 66808, "Seu": 26399, "starb": 21532, "ulike": 29537, "##؍": 111166, "fertiggestellt": 68076, "##الة": 44911, "Baum": 67279, "späten": 58464, "##ttning": 66771, "##बंध": 107784, "tree": 23194, "##nzio": 109932, "绥": 6351, "elektronik": 80380, "lief": 46159, "nivel": 16398, "##רץ": 95394, "అందుతుంది": 33139, "Института": 52148, "wenigen": 45995, "1294": 92064, "##Գ": 111108, "grenzt": 51625, "höjddata": 16134, "kuwa": 26979, "碳": 5875, "廠": 3690, "浒": 4992, "孀": 3349, "##্রম": 81837, "участники": 110800, "dituzte": 58455, "matka": 41631, "##leen": 51675, "compagni": 82950, "офіційно": 68233, "Prosječna": 89690, "##өк": 54363, "volna": 34813, "seri": 46972, "Sha": 106583, "син": 21536, "##ině": 73143, "Pentref": 63384, "##戳": 113757, "sengem": 90555, "##ις": 35603, "향": 9967, "##bek": 25047, "ǔ": 380, "閾": 8151, "##מונח": 102803, "کشته": 68679, "temel": 78146, "tests": 34926, "təhsil": 52242, "⁴": 1743, "##ฉ": 111413, "##jete": 89178, "Gwlad": 94320, "инициативе": 104607, "쏘": 9507, "規": 7144, "վերանայված": 97468, "Lituania": 68615, "Northampton": 79445, "5º": 73993, "##עץ": 77821, "##סיבוב": 96529, "##gerer": 99881, "##رف": 29573, "Taylor": 13399, "jr": 73845, "##잭": 119201, "##북": 82512, "мал": 50818, "##лизации": 78935, "##šče": 39533, "Aku": 59157, "Einar": 57422, "##atet": 49688, "Tora": 95673, "Герои": 48269, "limitada": 62179, "##rlig": 81077, "##yət": 109337, "##جنس": 109014, "adicional": 72417, "internazionali": 68391, "##irli": 101550, "##프": 28396, "##ächsische": 105725, "##ifer": 50930, "##궤": 118660, "illness": 56507, "##ètica": 70597, "##pini": 103479, "##nden": 16212, "##lohe": 81781, "حين": 29735, "Svensson": 92501, "Agostini": 81375, "##되어": 16855, "حرکت": 50250, "##oro": 30700, "bodde": 61442, "##оен": 102875, "đốc": 45529, "30": 10244, "##емых": 40472, "##瞬": 115570, "çын": 61071, "##emble": 91259, "##chel": 58407, "##梟": 114378, "##ustrator": 73101, "##itud": 36083, "проблема": 66657, "zvolen": 65740, "producing": 31958, "എന്ന": 16471, "##沔": 114678, "východní": 70404, "##લા": 44211, "##炸": 115051, "mu": 12361, "nhiều": 13710, "##gende": 45478, "vegetation": 83879, "Jansen": 60709, "##rries": 107788, "ビ": 2034, "skreiv": 91750, "벌": 9339, "ans": 11744, "##ิ์": 91836, "Evans": 18402, "##瑩": 115319, "begun": 49510, "##tär": 105815, "Astor": 108057, "茴": 6737, "otrzymał": 25214, "혀": 9976, "빙": 9385, "##ało": 47333, "intégral": 69123, "juliol": 27799, "##houd": 64189, "partijen": 78243, "питань": 58179, "##ziny": 59418, "##oje": 18357, "kontroll": 64262, "Garnier": 100018, "鐮": 8023, "##畸": 115407, "##сбург": 82511, "passen": 108511, "Azerbaijan": 28810, "濛": 5220, "馅": 8501, "atac": 58586, "infatti": 19412, "На": 10778, "kimia": 64099, "##氮": 114630, "можат": 68822, "noite": 44105, "Across": 78031, "##訥": 116948, "ван": 39621, "laude": 104573, "igeltseroak": 102566, "##դը": 48484, "unlikely": 107914, "##ької": 28134, "##zone": 26076, "##hologie": 79670, "##ロシア": 109610, "pink": 78200, "##ľa": 42886, "##盏": 115504, "Presses": 76027, "рабочих": 58385, "Центрального": 85420, "Петров": 64082, "sortzen": 105972, "軀": 7595, "тағы": 79455, "##xement": 90945, "slekten": 53633, "ғылыми": 26457, "##rance": 43512, "187": 23228, "руки": 50365, "##詮": 116971, "kitų": 62235, "##자는": 53639, "##ისში": 97562, "aust": 61728, "Blake": 24321, "##որհրդային": 75641, "##贻": 117266, "##らない": 58737, "paraiaran": 44249, "namanya": 83015, "использованием": 87003, "##呀": 112571, "##forschung": 44680, "##吶": 112565, "responsables": 51188, "commonly": 23159, "##ikai": 92994, "##torbenen": 88402, "게임": 66402, "Shoes": 100676, "##ькій": 61738, "Référence": 54939, "الجزيرة": 52558, "inåt": 44681, "翔": 6441, "urmare": 76986, "হতে": 40502, "##geva": 101999, "execution": 62341, "##inifera": 93730, "монети": 95891, "круг": 78217, "##licht": 47498, "Національного": 110752, "সবচেয়ে": 72065, "##筑": 115840, "##stag": 98658, "თავის": 53369, "驼": 8563, "##unea": 41917, "Noi": 105412, "francoski": 106222, "NWA": 48661, "##긍": 118665, "##inkin": 106014, "##siona": 102978, "Inter": 24362, "כי": 13579, "##jának": 38204, "##قناة": 104259, "##medlem": 101513, "##wak": 57482, "##绛": 116110, "##ク": 16463, "Bodø": 95978, "널리": 107323, "Jugoslavije": 28570, "sayısı": 87039, "灌": 5249, "nor": 31515, "##тә": 33449, "הצליח": 59774, "absolvierte": 26797, "circles": 99818, "Natale": 74786, "ట్రాక్టర్లున్నాయి": 61651, "Literatura": 45014, "橐": 4738, "portuguesa": 32462, "##усского": 92277, "##вський": 77556, "##เมื่อวันที่": 106237, "emakume": 20196, "honor": 17598, "ള": 1362, "##醬": 117660, "Singing": 109385, "盼": 5761, "га": 16616, "тренер": 31470, "moll": 81968, "lähtien": 40325, "##han": 11781, "##ровки": 94800, "председател": 73552, "##ャン": 61980, "##ゆ": 111808, "תקופת": 70350, "oft": 18496, "suas": 15087, "##ющей": 31960, "Israel": 12991, "ട": 1343, "savo": 22629, "##enské": 107834, "живота": 39723, "altered": 78598, "##udeksi": 53487, "имели": 46567, "##שפה": 46313, "funkci": 61422, "õppis": 77659, "##anut": 60050, "асан": 88279, "nyelven": 41351, "ఝ": 1208, "##жає": 96048, "защитил": 84507, "Resources": 33513, "##जार": 80683, "##வில்லை": 50040, "##oki": 32592, "##lli": 14088, "743": 68937, "##ಬ": 90451, "姜": 3276, "##८": 21654, "##ჩნდა": 85091, "ανήκει": 98034, "экологи": 44081, "traverse": 53885, "installe": 53096, "parken": 105605, "##ᵖ": 111539, "Australien": 19788, "##寬": 113202, "sám": 50795, "suomalainen": 26464, "construir": 26518, "ল": 975, "Nossa": 47591, "substantial": 50608, "resource": 40970, "楸": 4675, "荆": 6744, "##aç": 95241, "medtem": 106866, "gruppi": 32387, "##родження": 105771, "Tien": 49642, "secours": 95828, "誰": 7231, "מנת": 28399, "##vins": 41797, "##mane": 38154, "devem": 80860, "##ীয়": 19580, "##bric": 95989, "nebylo": 107804, "Franciszek": 59359, "angreb": 89354, "параметр": 84533, "##кен": 34968, "##itä": 28218, "embannet": 82135, "##metrie": 103726, "établi": 65926, "##aven": 51671, "farklı": 36822, "926": 75752, "##uran": 28874, "##érico": 82785, "Craven": 95760, "forskellige": 33679, "accommodate": 72992, "##isso": 98917, "##ₜ": 111658, "log₁₀": 59793, "##unki": 85564, "##検": 114419, "ёсць": 44450, "##ponent": 80919, "Medalla": 46984, "##ливий": 89575, "Benito": 36538, "prowincji": 34798, "реки": 14566, "nessun": 81840, "##తు": 51199, "##ptar": 71400, "xx": 76294, "鲶": 8690, "dédié": 109473, "pochi": 34820, "##ēs": 60509, "Mor": 61695, "##pı": 84995, "більш": 31213, "##zzazione": 39195, "##λε": 45702, "##wis": 83648, "##eyn": 56362, "mogla": 100297, "हिमालय": 61505, "##tya": 53386, "##glio": 28503, "Ӏа": 14824, "Была": 95666, "када": 24038, "##gregation": 110099, "##Ż": 110977, "ön": 26276, "באוניברסיטת": 41625, "kostel": 45690, "окрузі": 109488, "حسب": 16310, "poucos": 58329, "##愫": 113680, "ghi": 32101, "padi": 84198, "磡": 5886, "Campeonatu": 107599, "##unkte": 99473, "べる": 78135, "që": 13345, "##気": 114620, "##klärung": 72190, "stasiun": 58713, "##برت": 46558, "hull": 77436, "髒": 8592, "fundado": 32549, "estudi": 48602, "##ဘ": 111492, "##альных": 51564, "srbsko": 82762, "##urat": 85918, "било": 16090, "##ونة": 68978, "##瑾": 115326, "##敬": 114070, "ἶ": 1706, "##рэг": 99218, "曦": 4444, "1030": 92464, "##गल": 109452, "wewengkon": 71685, "distanza": 43216, "ಕಾಲದಲ್ಲಿ": 110519, "##уша": 108110, "##関": 117906, "éponyme": 105669, "##wick": 24820, "livres": 28285, "общественного": 101516, "Winchester": 46637, "İngilizce": 60120, "års": 27998, "Điển": 95623, "గా": 53341, "Ан": 79524, "dopravy": 104768, "aéroport": 55841, "Toni": 37058, "笙": 6056, "##رمان": 77110, "CM": 42741, "отношении": 57144, "##өрү": 69932, "xét": 66331, "féidir": 69494, "##fta": 51510, "Cristo": 22027, "essais": 55542, "walang": 97953, "##ाओं": 110689, "päättyi": 76029, "##帷": 113391, "alias": 34554, "Wallis": 55732, "Statistica": 27912, "Räikkönen": 85276, "serait": 28180, "reflected": 74152, "uur": 43722, "웅": 9610, "Strike": 47256, "Με": 30694, "##orter": 62615, "Aktivitäten": 70918, "enero": 15988, "hop": 26369, "Tourist": 109782, "ایالتی": 37892, "##ғанда": 49387, "##richtet": 97234, "طور": 24940, "всего": 18275, "صالح": 61425, "##иду": 101797, "gewesen": 27044, "騨": 8533, "##vė": 54423, "رہی": 72905, "##ęciu": 87502, "##pet": 19094, "##يكل": 91013, "дому": 104926, "brzo": 75831, "Badan": 30093, "алды": 69672, "##dish": 67522, "浔": 4994, "##μια": 75451, "левом": 83651, "polis": 49114, "##্রিক": 89992, "olmayan": 47261, "재": 9659, "Armas": 94083, "ஆளுநர்": 67095, "潑": 5181, "범": 9340, "acerca": 39634, "μπορούσε": 93911, "restante": 83611, "##jęła": 89448, "##查": 114313, "meridionale": 43278, "##惺": 113667, "betrieben": 43673, "paar": 36291, "##fina": 54949, "Nicolae": 40977, "##期": 114236, "cloud": 78394, "дорог": 91376, "guard": 42842, "怕": 3816, "##blich": 55990, "Revenue": 69092, "भासे": 75250, "00012": 107022, "##ⁱ": 111635, "##рей": 34858, "ظهرت": 85643, "Потім": 77275, "voorzitter": 48862, "дарыя": 53600, "柝": 4544, "##זרה": 51301, "svete": 88289, "близько": 17632, "Begge": 94802, "##しく": 106975, "piece": 26767, "##鸣": 118515, "къаьмнийн": 36889, "##nnan": 38379, "##sg": 84105, "潜": 5185, "##ודים": 61313, "בקבוצת": 95958, "ամբողջ": 68904, "मनुतेगु": 67149, "##wenners": 105523, "##ى": 11832, "鉢": 7940, "##קשורת": 93063, "##ਸਾ": 65588, "##ες": 16462, "Bataillon": 70082, "नामक": 56734, "remain": 25430, "ഞ": 1342, "hängt": 105593, "##waan": 109261, "##ûs": 76937, "djela": 35502, "Morocco": 57295, "##ървоначално": 81368, "individus": 55173, "骤": 8580, "##θος": 62999, "huy": 33901, "своєму": 62248, "แห่ง": 98931, "שם": 16335, "##lights": 56552, "Quincy": 60313, "##စွာ": 60865, "مجموع": 63582, "##åd": 93935, "##hale": 39149, "##ылады": 109573, "canon": 50244, "Bartlett": 85189, "visão": 82250, "##out": 17514, "شغل": 96295, "Interactive": 40552, "##vado": 52273, "погибли": 96122, "situat": 20059, "متفاوت": 87229, "tittelen": 68606, "T2": 102172, "Іван": 35880, "1459": 84018, "##ồn": 50069, "Национальной": 64052, "##вестни": 98425, "գտնվում": 27649, "讥": 7301, "žene": 61373, "ס": 740, "##アン": 53217, "Kosovë": 82426, "##ça": 12989, "Fernanda": 91498, "##rul": 24849, "##餅": 118234, "##קר": 27564, "##另": 112515, "Languedoc": 43992, "culturas": 69224, "休": 2222, "zuerst": 48676, "##щил": 107276, "kerültek": 88469, "##∀": 111683, "##جائزة": 68136, "Сибири": 74404, "tradizionale": 62680, "##姿": 113052, "۲۱": 39488, "computer": 18765, "DVD": 12565, "##folge": 65392, "začela": 109964, "1311": 95333, "Merrill": 59905, "##zma": 32022, "##glichen": 73190, "Hieronymus": 107273, "convertir": 29235, "##烽": 115075, "အဖြစ်": 83384, "308": 29644, "بازگشت": 73402, "Noiz": 21734, "Marino": 29719, "cultura": 15501, "cuenta": 14997, "##логи": 80414, "мөн": 71240, "##羥": 116191, "Bois": 26384, "##潛": 114950, "նկատմամբ": 76896, "Chr": 18787, "1762": 29396, "cild": 75048, "##ಾಜ": 103150, "легко": 62363, "Elbe": 56688, "sønn": 41088, "ہوں": 88199, "##्वी": 108233, "ぢ": 1934, "består": 13022, "tecnología": 58352, "сезон": 22140, "ulteriori": 97342, "či": 16784, "##nated": 57566, "##efter": 46884, "##ရား": 98187, "یہ": 16152, "Fest": 46657, "##сынан": 65709, "тұрғыдан": 38179, "##펫": 119395, "marido": 40407, "##ండి": 73088, "способности": 82779, "##孢": 113128, "mostu": 89810, "पिता": 69650, "Noctuidae": 28203, "緬": 6259, "##۷۴": 83751, "regionalnu": 105229, "##chés": 91741, "прошёл": 62284, "##centrum": 101434, "сайта": 100120, "##र्ष": 71069, "climate": 15648, "conceito": 74369, "ادبی": 51317, "культуре": 101463, "такого": 45586, "##೨": 61057, "##уло": 81925, "##ustris": 95184, "Weaver": 63417, "##рных": 63899, "鰕": 8655, "words": 21296, "Vierge": 61077, "quelques": 15533, "должны": 38874, "labels": 78437, "Negara": 33230, "##毀": 114595, "假": 2358, "Australie": 33591, "##gede": 60423, "##ätti": 81888, "ktorá": 17419, "##bito": 48000, "##bbe": 28053, "##kland": 100980, "横": 4726, "nowej": 69876, "##ोबर": 104707, "8°": 62889, "##ajes": 87268, "##nář": 108410, "##гу": 15528, "##幀": 113394, "Antarktis": 43901, "Wallace": 22156, "##ராக": 32006, "##יטה": 33388, "identify": 51361, "##iendo": 18426, "##בוסס": 85259, "vierten": 51089, "ouverte": 56935, "##estro": 87410, "##குதியில்": 107798, "Daerah": 34362, "राजनीतिक": 85426, "thick": 59925, "pressão": 86378, "##tely": 100102, "дав": 95555, "##ěn": 50294, "ligada": 104623, "Chevalier": 43649, "сторон": 90193, "županije": 86762, "Maarten": 96619, "folle": 95059, "##芩": 116452, "సామాన్య": 39081, "##านี": 83744, "##tim": 28184, "bore": 73823, "##纺": 116088, "Bar": 20698, "丽": 2113, "##eń": 49394, "##躍": 117354, "permanente": 29670, "podaci": 55756, "donnant": 70137, "samples": 59090, "##kej": 23510, "Free": 16122, "الكبيرة": 88693, "##zane": 54848, "advisor": 89568, "mall": 76437, "oficiais": 61789, "##遅": 117519, "छ्येलेज्या": 24949, "охорони": 77408, "alleged": 48164, "walog": 64813, "worship": 64412, "ึ": 1445, "Gheorghe": 46907, "捐": 4128, "Ianuarii": 33633, "##аар": 86814, "##лению": 41075, "magát": 40722, "Hydrogen": 42378, "##quo": 79423, "Bock": 51961, "##ədə": 38469, "Nebulae": 46209, "##dite": 59627, "stärker": 82014, "Emploi": 31808, "Bernadette": 110600, "##rupt": 46791, "Artists": 32596, "externa": 68247, "Entomology": 60011, "Guitarra": 67249, "Feld": 53709, "voidaan": 27498, "##散": 114068, "##oes": 47125, "Петрович": 41423, "##гія": 89077, "smooth": 67601, "Amanda": 30380, "瞻": 5808, "##шњи": 78397, "ricorda": 76324, "vezetője": 74802, "његов": 62657, "##aye": 56621, "kayu": 12695, "隈": 8240, "iOS": 38853, "立": 6033, "##liste": 26719, "##parti": 96503, "Bull": 17653, "##ダー": 37088, "##ীন": 81337, "##ഗ": 111383, "ci": 11322, "перед": 18731, "##၄": 37024, "##tár": 38454, "использует": 89824, "svojom": 62709, "##пов": 43317, "music": 11839, "##献": 115220, "врста": 50910, "Rođenja": 52754, "##etzung": 102993, "לבסוף": 76110, "##gini": 54497, "##olució": 69496, "հետ": 14631, "##anum": 93554, "ヨ": 2055, "##right": 33661, "##顆": 118163, "##ítása": 45619, "##otta": 25931, "marcó": 77316, "##կեղեցու": 101000, "Hen": 86362, "بولاية": 93059, "##دها": 74055, "##logical": 32371, "磺": 5890, "넌": 9005, "##討": 116939, "രണ്ടു": 80667, "##roducción": 102185, "Helen": 21338, "enemmän": 59477, "bună": 95222, "buna": 68119, "pasangan": 77947, "fait": 11329, "intera": 51476, "mirë": 74824, "Pflanzen": 57097, "Național": 57010, "Planung": 83110, "##성은": 107442, "##ausgabe": 101846, "faoi": 55667, "देखा": 95730, "Lozano": 103033, "doce": 43810, "##ckey": 92334, "##turas": 65514, "Shqipëri": 75090, "Barth": 92590, "##ਾਗ": 90740, "##ள": 55186, "mezvalora": 18208, "меѓу": 34360, "##ארי": 55717, "возраста": 70699, "##遙": 117531, "Grosso": 51352, "Scribners": 42800, "местного": 63399, "रचना": 75639, "entidade": 109812, "##彈": 113501, "##宫": 113168, "سوریه": 92671, "##hörigen": 56661, "Aube": 64006, "Tamara": 69783, "##jny": 38418, "##usk": 107320, "doby": 33530, "சிற்றூர்களின்": 42180, "##ヵ": 111834, "##huda": 107387, "Aufgrund": 31513, "hải": 45965, "Dentro": 57943, "formes": 25049, "играх": 45664, "##граде": 68766, "минот": 95337, "Мексики": 105551, "##æde": 81335, "Outras": 93360, "##ıp": 41783, "Jogos": 35625, "렇": 9185, "##rosse": 86417, "رسید": 42734, "kantved": 60037, "zusätzliche": 83904, "##技": 113796, "##bal": 17140, "##ðar": 39322, "verdeeld": 88043, "##érmes": 88831, "derived": 29369, "補": 7110, "##piración": 99464, "dijadikan": 73676, "##אמנות": 88399, "##unternehmen": 69602, "Atatürk": 70025, "##اي": 67261, "amat": 79459, "##chement": 88389, "Эл": 63891, "##קרן": 94770, "cuestión": 67763, "separation": 72891, "##癒": 115468, "##！": 119498, "הופיע": 65575, "##גד": 105574, "##osas": 39786, "omfatter": 52755, "##äufer": 83783, "##tric": 45463, "##ből": 19633, "##τήρα": 87142, "remaining": 21448, "Eminem": 65496, "UCB": 17643, "口": 2746, "ახალი": 39703, "043": 104367, "живјело": 45125, "Gabrielle": 63936, "##σιών": 87156, "knows": 75354, "Васил": 58041, "knowledge": 22975, "##alni": 106119, "Ehemann": 102040, "##lyn": 34417, "##čia": 53450, "28일": 42784, "kterých": 72569, "δύναμη": 104177, "##nth": 61762, "##PO": 93520, "unutar": 57417, "личности": 61800, "##ונגריה": 93105, "potevano": 88782, "##ычных": 95462, "##më": 68001, "منابع": 57725, "Saar": 100459, "reprezintă": 64159, "##öcker": 72408, "dennes": 85058, "Prophet": 85064, "Rosso": 61891, "названием": 29307, "##יף": 39513, "defensor": 76068, "основно": 94261, "##loji": 74035, "##ittää": 68755, "##չ": 21947, "რაიონი": 72652, "dana": 22449, "العلم": 62320, "composée": 39068, "맡": 9257, "που": 11150, "抹": 4053, "##ikacji": 95064, "subit": 90395, "〃": 1883, "##贈": 117231, "Goebbels": 98792, "ญี่ปุ่น": 41874, "color": 14136, "##vatsko": 84704, "João": 17350, "煦": 5336, "Jenő": 94576, "翊": 6437, "##wasser": 42290, "##lat": 16698, "erwarb": 38441, "##疱": 115425, "Belgio": 75953, "Oricon": 51214, "##lanze": 97032, "##лади": 66684, "Fällen": 62224, "dorsal": 51774, "retrouvent": 107805, "##िर": 46354, "департамент": 34442, "மக்களவை": 94857, "acordo": 19979, "fakulteta": 88997, "lancement": 89840, "##지고": 68833, "##ფა": 70108, "##லில்": 32333, "podio": 94763, "##حساس": 101420, "##lare": 22831, "##vudstad": 96516, "##ḏ": 111548, "توابع": 25935, "Fischer": 19121, "##ხლის": 72095, "accueillir": 92214, "斬": 4330, "miały": 47370, "Tadeusz": 42737, "Mickey": 33344, "Mary": 12176, "##ûn": 29401, "premiu": 93244, "مکان": 81330, "##amas": 74347, "visitors": 44291, "##盒": 115507, "Oni": 60781, "##скан": 14307, "тең": 104422, "阐": 8187, "##న్న": 37218, "##lba": 70830, "##Қ": 100969, "почетку": 106284, "П": 524, "##iec": 35090, "Door": 21848, "Kwa": 48511, "Bahrain": 56769, "##туры": 40908, "##搬": 113969, "Run": 21485, "graduates": 106283, "Perry": 20191, "единственный": 70021, "##嗽": 112709, "Kerajaan": 36030, "sitting": 62151, "setiap": 24590, "劍": 2592, "##tagen": 100612, "##ใต้": 76558, "##зяржавы": 109625, "״": 751, "##dada": 41798, "##liselt": 61751, "1515": 47358, "##ეს": 22912, "Originally": 42038, "condizioni": 41487, "من": 10289, "ran": 17044, "##3": 10884, "eingebaut": 98257, "Обь": 17562, "貳": 7428, "##гү": 55317, "##מחנה": 64760, "##рий": 38864, "package": 62432, "1577": 50945, "##aras": 84226, "霞": 8313, "suba": 30156, "##оне": 41200, "vivos": 79734, "dieselfde": 94926, "Treasure": 66238, "srpski": 101979, "comes": 21405, "жертв": 103914, "viaje": 41574, "##бное": 77559, "##ột": 46700, "गर्ने": 44069, "Stavanger": 48255, "farming": 61295, "concreto": 85448, "هو": 11917, "Львівської": 101991, "حول": 25705, "##裡": 116879, "പല": 65019, "##ार": 19885, "границ": 93503, "##yai": 66988, "##孰": 113134, "##ciendo": 44398, "Göttingen": 28966, "##母": 114600, "##овали": 62699, "##кала": 46895, "Arcade": 71332, "caractérisée": 49988, "organismo": 46564, "##рно": 30533, "noble": 32777, "fácil": 52781, "secolo": 14215, "##ología": 30413, "##èra": 37833, "Classification": 18057, "Th": 51635, "lavorare": 59604, "dalį": 101984, "鉗": 7937, "##তম": 90229, "佩": 2267, "##пуск": 54018, "##nice": 16422, "Eve": 33127, "ô": 274, "目": 5755, "District": 11958, "uzun": 31975, "##fase": 95407, "আসে": 26807, "##posição": 93754, "##蛇": 116743, "Eritrea": 60004, "驮": 8553, "Bil": 82608, "##璧": 115339, "坎": 3045, "##스로": 94980, "##zate": 57601, "##less": 14985, "##ուսական": 100116, "이다": 30919, "deutschen": 14299, "групата": 28735, "##墀": 112904, "##bischen": 75716, "animation": 34950, "variation": 45871, "##aea": 82696, "mia": 44555, "Kusini": 101040, "駝": 8525, "Estrella": 73815, "nuna": 29947, "omborida": 22741, "type": 12807, "盘": 5745, "##ishi": 46071, "Thiessen": 96144, "၁": 1549, "##銨": 117721, "##ಕನ್": 110428, "otec": 51017, "Phong": 55430, "vasitəsilə": 61791, "##mban": 100086, "znači": 53427, "mezzi": 78941, "Yra": 78867, "처": 9744, "Rivers": 41233, "##оо": 44455, "##eae": 79469, "Monaco": 24661, "הוקם": 66787, "##తోంది": 68450, "Gutenberg": 60396, "Filosofia": 84375, "##żeństwa": 106015, "seulement": 22324, "nastala": 75138, "Flyers": 87753, "Synonymic": 18312, "đô": 19045, "seier": 99769, "нам": 59221, "dl": 63940, "яра": 83761, "trasmessa": 73582, "##睢": 115550, "##걸": 118624, "эң": 68057, "بذلك": 73954, "##ക്": 34590, "##ö": 14902, "অথবা": 93102, "indicates": 50239, "След": 19538, "##поля": 100521, "замка": 89650, "##ept": 54973, "tôi": 40813, "##jó": 29366, "alguna": 33452, "##tam": 37583, "Silence": 44786, "лейтенант": 29151, "##жено": 35621, "##樁": 114479, "笔": 6055, "##мба": 102644, "Cha": 53453, "##ും": 26256, "##ljem": 88554, "##čih": 104005, "Колумбия": 83253, "usos": 66308, "segurança": 64447, "день": 16276, "##ان": 10765, "חברת": 30103, "1407": 93190, "隍": 8243, "Russland": 22460, "țări": 95935, "скульптор": 100523, "tillhörde": 94713, "##듯": 118817, "kościół": 33819, "lands": 31361, "znatno": 94423, "Again": 21837, "citizenship": 76381, "дъщеря": 39138, "infine": 33943, "##芒": 116446, "##рање": 54024, "##钙": 117810, "Darul": 70126, "sœurs": 91054, "##庸": 113443, "sứ": 56866, "##諷": 117019, "Ludovic": 90889, "Orderu": 45104, "január": 25759, "hält": 50189, "étaient": 16563, "морских": 87914, "##жується": 80811, "##rajzi": 83802, "tenger": 109365, "##venti": 83692, "##ليل": 55863, "##mis": 15240, "##鯊": 118406, "ẹ": 1660, "##år": 22674, "составына": 60560, "você": 69532, "##лин": 20505, "détail": 91889, "##рования": 32875, "fick": 15260, "Союза": 20547, "##ko": 10440, "Ungheria": 74334, "Ese": 49092, "Clinton": 24139, "érkezett": 93553, "##icie": 89298, "##entino": 100159, "Shen": 85324, "溢": 5115, "##atki": 75840, "##kul": 58446, "მის": 39289, "##ецк": 106072, "瓢": 5586, "##dné": 65317, "городским": 92127, "nuova": 19125, "өлкәсе": 27812, "Thüringen": 46345, "произведение": 104647, "selo": 41870, "Italiji": 24315, "##्वत": 95877, "ampliar": 91506, "Online": 14056, "Garner": 103617, "##িজ": 80198, "krog": 83377, "ჯგუფის": 89963, "earth": 39189, "##ŷ": 110975, "народився": 49849, "Habana": 54612, "##igens": 109390, "Մոսկվայի": 108570, "abre": 83724, "genau": 46871, "顏": 8401, "##خضر": 107166, "run": 14095, "تقديم": 85200, "とした": 27583, "Yn": 14730, "끊": 8972, "Gereja": 43141, "2010census": 107023, "orbitalis": 75336, "2549": 66046, "職": 6492, "##ίων": 22413, "##곽": 118646, "perkembangan": 72519, "##όμματος": 102275, "1535": 46735, "लोगों": 41993, "##이스": 48653, "##諮": 117016, "##楢": 114433, "##żyć": 70311, "331": 30690, "Телефон": 105542, "##晚": 114165, "##ിച്ചു": 52370, "##滘": 114903, "##iaus": 66975, "мехкан": 54767, "##vane": 59731, "Jerzego": 76665, "kam": 12438, "##лива": 35777, "##nėje": 63715, "迎": 7695, "peyi": 25241, "##IE": 71655, "##வ": 31829, "柾": 4556, "inferiore": 40900, "главен": 74876, "row": 45006, "Giang": 40771, "při": 16475, "tesi": 73851, "genannten": 43782, "hold": 18500, "酪": 7870, "Nordosten": 41611, "##yja": 104217, "velikosti": 94363, "Meg": 77499, "##drome": 62595, "脆": 6549, "##900": 96702, "указом": 99452, "##ვრება": 90509, "##guera": 67048, "olandese": 62230, "провів": 37623, "weekly": 33159, "rond": 20576, "catholique": 35141, "razem": 32774, "##ذاك": 98733, "agent": 18980, "##杓": 114259, "##marker": 85223, "しては": 43430, "Гэта": 93594, "Mahalleye": 97530, "##মিক": 86677, "interprétation": 69719, "##hout": 45238, "Is": 12034, "##tena": 100081, "pequenas": 57556, "الإمبراطورية": 95223, "Haut": 28358, "沢": 4918, "##щена": 34346, "książek": 107782, "vrste": 33945, "Ägypten": 69393, "##lský": 100478, "Greene": 33260, "offense": 108902, "##魍": 118385, "needed": 23794, "mindig": 50696, "те": 13613, "Empire": 13642, "##יך": 32491, "достаточно": 45923, "Turm": 36464, "ӣ": 619, "hypothèse": 84861, "Körper": 50842, "##渥": 114847, "##bund": 29661, "депутаты": 101850, "Leverkusen": 84961, "##벼": 118983, "##ntan": 109368, "##deti": 73129, "##نڈ": 91391, "Barney": 54262, "448": 38611, "והיא": 45058, "係": 2301, "##փ": 66534, "##ir": 10835, "semula": 45910, "##ելի": 40506, "##Ü": 60747, "ori": 44773, "Rhodes": 35118, "##дердің": 100724, "toernooi": 39652, "روش": 44563, "##סה": 25380, "Armée": 43091, "ח": 730, "hissəsi": 77486, "할": 9955, "ST": 53317, "##likud": 96949, "елгасына": 64213, "##orf": 43920, "##țelor": 82008, "orientation": 52246, "##арна": 103569, "##дава": 83181, "##tru": 45388, "##يو": 28843, "##ited": 77815, "阔": 8188, "alb": 98892, "продюсер": 59589, "Brabant": 40646, "coalition": 41028, "exploration": 61326, "翟": 6443, "zawodnik": 62164, "имени": 17614, "följande": 24094, "氢": 4858, "marked": 26981, "برخی": 27976, "##타": 22695, "##ذر": 48920, "сектор": 103591, "##వామి": 96902, "1424": 83589, "llamó": 65598, "Acacia": 50604, "##ático": 26689, "##ത്തിന്റെ": 22745, "##ություն": 14620, "##辦": 117438, "kings": 79836, "misterioso": 106906, "##amental": 50938, "эсвэл": 107012, "Gjatë": 94924, "hon": 14923, "músicas": 45841, "##している": 36227, "позиции": 37714, "虚": 6947, "##скую": 15997, "煲": 5341, "presentano": 86708, "sculptor": 78793, "Morelos": 81237, "dạng": 31193, "Zweite": 99150, "博": 2684, "虹": 6957, "##иги": 104695, "মৌজা": 73228, "##სი": 41745, "##nutí": 47562, "鹵": 8773, "##ic": 11130, "mechanisms": 80007, "にて": 21605, "##람": 61250, "##овину": 87595, "##ntów": 70035, "##vka": 38299, "##льным": 32370, "classification": 15075, "έκδοση": 69231, "##iso": 48832, "duena": 88525, "descubrimiento": 104030, "##μενα": 46918, "treno": 103825, "Ucraina": 29124, "Pietų": 85828, "##skim": 16253, "##зіі": 83296, "##שי": 26559, "fills": 21569, "مرگ": 43297, "##sko": 12805, "ადგილი": 91569, "##עשייה": 85051, "Bing": 61103, "##ئم": 37977, "competitors": 92093, "János": 22758, "ḫ": 1632, "##よって": 43268, "##мет": 50362, "lentamente": 91838, "##квата": 108680, "##緊": 116013, "religión": 71890, "نطاق": 86501, "##naro": 90143, "Fluminense": 84707, "African": 13839, "Huxley": 98144, "ağ": 109122, "गया": 14242, "Snake": 48364, "##坝": 112819, "##абель": 103005, "noticia": 78880, "Muslimani": 110444, "Aínda": 87498, "Sandro": 69187, "##овищі": 98178, "Entre": 13645, "##rk": 16299, "Hercegovini": 49042, "딸": 9133, "##சிய": 95129, "Γεώργιος": 94471, "Turismo": 59466, "النقطة": 64963, "tej": 15905, "పంపిణీ": 41045, "##侃": 112042, "准": 2503, "##ghed": 75395, "##汰": 114660, "##zák": 82132, "jarak": 56344, "получил": 16308, "terbuka": 83727, "鉉": 7935, "Poul": 91704, "##onare": 97095, "disa": 36474, "signed": 14775, "Franca": 48761, "உலக": 97718, "Аурупа": 106170, "ће": 29109, "francês": 38773, "##czny": 22103, "söz": 51878, "##wego": 19089, "duel": 66330, "##ожных": 68674, "##plı": 107676, "northwest": 35078, "氟": 4857, "trenera": 89336, "##தி": 17109, "##жного": 30275, "##sso": 28125, "##вського": 51993, "##ichi": 35230, "##рії": 32266, "करने": 16257, "##iple": 102491, "##гі": 15773, "escort": 100883, "עבר": 31752, "Italian": 11667, "##зию": 67145, "Svetlana": 105062, "##kk": 20024, "##Ấ": 111569, "傘": 2379, "##ligado": 97871, "panství": 71719, "groter": 55100, "сцене": 68148, "##ία": 14840, "Animals": 49354, "Administratiboki": 99581, "دریایی": 84729, "थियो": 28860, "ресурсларының": 31120, "##戡": 113749, "Bà": 56138, "##לת": 21310, "страну": 89056, "##鹼": 118542, "##анский": 71455, "写": 2481, "##ంచింది": 38242, "##ोक": 69897, "Wereldoorlog": 30370, "קולנוע": 84260, "Wittenberg": 70057, "қызмет": 75377, "##čke": 16795, "1868": 13861, "##郊": 117586, "Bains": 53064, "##ガー": 69091, "##bow": 63081, "##ئدة": 100289, "##ذیر": 104876, "容": 3410, "栏": 4566, "башка": 35476, "afromoths": 71360, "די": 91560, "besteht": 17303, "Š": 351, "experienced": 40727, "##ویت": 97823, "##chea": 94346, "wokół": 68420, "Nathalie": 64682, "##ുന്നു": 100682, "wirtschaftlichen": 77258, "Canadian": 14023, "marcou": 75833, "##ین": 12710, "##cach": 71716, "chân": 28066, "yn": 10518, "թվական": 63995, "ঃ": 936, "estrema": 110390, "mondiali": 72934, "paru": 46039, "##min": 14956, "##mota": 105658, "##壌": 112924, "census": 14670, "##アー": 70806, "quinta": 36484, "Sejarah": 87341, "##unct": 108647, "##eeseen": 69525, "##痒": 115437, "##趾": 117311, "počinje": 59082, "##itatu": 94347, "Mani": 93673, "tutela": 89590, "1020": 100718, "##üt": 41559, "座": 3671, "tráfico": 67412, "правом": 55452, "衣": 7080, "electrónica": 88799, "parameters": 88588, "Там": 33933, "gefärbt": 109937, "##ленной": 42028, "##еро": 78094, "бо": 18481, "5000": 17436, "Ҳавогардҳо": 97060, "ցանկ": 44960, "Wells": 25325, "##eden": 24568, "writers": 35729, "##راضي": 97333, "kong": 40561, "##elli": 25636, "##опу": 100697, "##raba": 69020, "vivien": 19823, "##lila": 81523, "##ünün": 46609, "affinis": 85277, "Article": 26295, "Seen": 65693, "moth": 28877, "描": 4180, "##ച്ച": 34500, "prejel": 102137, "2558": 72450, "纺": 6322, "##került": 91955, "##pinnen": 106934, "##ਕਿ": 80623, "15일": 37912, "іграх": 108265, "##swahlen": 98700, "द्रविड": 54923, "##葦": 116597, "Prescott": 101421, "kościele": 84002, "뷰": 9375, "diócesis": 90038, "##筆": 115833, "vraća": 107468, "apareceu": 63221, "##ոք": 83151, "##ík": 23222, "hoặc": 16996, "##ict": 106788, "##٠": 111174, "filósofo": 83526, "philosopher": 84797, "urbain": 99499, "americký": 36344, "##alaisten": 104684, "##icu": 18989, "##малы": 93278, "všech": 38335, "Navarro": 43714, "尕": 3462, "sociales": 24826, "##slovenský": 97043, "##місії": 101235, "nowo": 66138, "##jából": 62352, "##żeń": 103577, "eaux": 39831, "cens": 29929, "##হের": 93193, "##ять": 20177, "지역의": 96954, "olímpico": 86722, "##鞭": 118120, "##chlag": 69381, "Burnett": 80453, "昭": 4379, "irá": 104790, "jurídica": 107715, "розпочав": 87715, "##咽": 112618, "##円": 112235, "તેઓ": 53601, "pouvait": 52793, "##осова": 94012, "lima": 36686, "##irse": 90900, "##ేజీ": 68695, "嚮": 2986, "##哀": 112619, "திருக்கோவில்கள்": 37584, "Mga": 46001, "##۹۳": 60870, "匱": 2659, "##gione": 48829, "##颉": 118196, "οι": 12311, "##件": 111976, "##тать": 91119, "깥": 8945, "##tette": 49573, "hör": 69940, "##طح": 99272, "berriz": 71375, "Departement": 18102, "dramaturg": 101263, "reasons": 31725, "joan": 72267, "难": 8267, "Wars": 19178, "filme": 14949, "##женні": 101192, "##ヲ": 111833, "trabajadores": 66886, "amor": 18142, "Yunanistan": 106684, "##կվում": 89143, "conduct": 45541, "Versuche": 104260, "значи": 59737, "crowd": 50059, "蛤": 6987, "##Λ": 111039, "055": 79262, "##奥": 112994, "Garonne": 38787, "##rus": 13923, "Belagerung": 108993, "Biała": 103238, "запада": 108891, "slik": 22962, "##분에": 110355, "geven": 34274, "Faye": 96840, "##nej": 12402, "beauftragt": 110681, "Monachium": 98417, "Wall": 19523, "##מינים": 65035, "##mbra": 44992, "барып": 105990, "Ahitana": 87979, "Wolff": 46051, "Systematics": 104660, "లేని": 24191, "める": 18253, "##mų": 36542, "Truth": 31925, "Bou": 62583, "##mė": 41346, "Selepas": 66175, "##łogi": 104567, "Veel": 71409, "השנים": 26278, "棣": 4636, "الفرنسي": 63217, "##toja": 56749, "ด": 1412, "ప్రాంతాలు": 85201, "Bend": 69998, "NR": 87261, "##anı": 52351, "You": 11065, "неговите": 43887, "dirinya": 47667, "徹": 3790, "##pravidla": 105389, "linna": 48734, "میدهد": 26752, "alır": 46717, "gelen": 32519, "finne": 71880, "appartiene": 110469, "verloor": 52608, "##פעל": 47736, "薛": 6903, "##дние": 80086, "autoroute": 80656, "Igreja": 28855, "鎧": 8008, "##狂": 115191, "রয়েছে": 29638, "场": 3037, "##勋": 112384, "##oxía": 81100, "##нес": 38157, "গাঙ": 76074, "##霜": 118078, "большого": 77950, "变": 2739, "##ight": 27521, "Trentino": 64113, "náměstí": 70564, "##κες": 83356, "##пециальный": 93973, "##慑": 113689, "бога": 104333, "##онте": 75714, "462": 44574, "渎": 5068, "melebihi": 91379, "сім": 35182, "resources": 25744, "ѕвезди": 82631, "поради": 23217, "nông": 47575, "pò": 106509, "Μια": 76166, "Downtown": 68339, "مخالف": 101982, "##пела": 91447, "nyelv": 65156, "eius": 47571, "##iaeth": 53567, "##ciuto": 90033, "##aper": 59445, "##Փ": 111137, "##宕": 113150, "##eins": 88764, "##붓": 118995, "sudeste": 66752, "summer": 17995, "TER": 103462, "##star": 25969, "##డం": 52640, "请": 7356, "##platte": 67085, "결국": 50342, "##oveň": 63636, "cancelled": 60557, "##യുന്നത്": 105516, "svenska": 23470, "पछि": 92248, "讞": 7297, "##敛": 114064, "##ชาติ": 95809, "publik": 70070, "айыл": 59101, "кездескендіктен": 71087, "прошлом": 110191, "##尽": 113246, "##pturen": 106753, "##kung": 32346, "##τησαν": 98404, "ながら": 103622, "##‰": 111626, "۲۰۰۳": 97397, "Canary": 108093, "processos": 62797, "Party": 12529, "sagadang": 46597, "##debaldeko": 101384, "Bala": 101370, "##ಕರು": 61506, "Cass": 76132, "##уо": 76317, "Chișinău": 89065, "##аметр": 98569, "230": 16888, "##ظمة": 76908, "##zare": 40907, "και": 10358, "Aleksandar": 68633, "Teruel": 69616, "##ázel": 105267, "63": 12256, "##τους": 46309, "##řit": 58820, "##юцца": 38261, "pedra": 30392, "¥": 202, "Tears": 49592, "##തി": 22945, "Roushie": 43150, "렴": 9196, "м³": 48403, "##лог": 22141, "vlasenko": 67018, "34": 11069, "carrer": 45172, "jak": 13050, "##ծված": 98821, "1038": 33593, "##素": 115961, "avant": 12851, "##igante": 100135, "تشير": 100455, "دولة": 47950, "gemeinsamen": 58090, "唑": 2880, "město": 29976, "##诈": 117092, "Really": 88002, "##gua": 20337, "Supporting": 75213, "##ση": 15367, "матеріалів": 93478, "炅": 5269, "pomocí": 42865, "Himmel": 61281, "வந்த": 104197, "listopada": 16378, "##vart": 73492, "##пити": 84915, "[unused53]": 53, "fond": 28834, "estudiantes": 44036, "##氈": 114614, "##نتج": 109831, "##حاولة": 80780, "Herb": 47748, "प्रतिशत": 66526, "havde": 14963, "##и": 10191, "Petter": 73775, "Kuntze": 79363, "##ični": 84427, "bianca": 73278, "##тала": 61782, "##ioun": 59167, "übernommen": 36598, "Petra": 27357, "ứ": 1689, "##bernación": 107268, "пре": 38494, "##ਹ": 34963, "missä": 58957, "[unused38]": 38, "revolución": 51393, "Волга": 51039, "##sområden": 93248, "што": 11713, "gắng": 103824, "闹": 8175, "دنیا": 28023, "élevée": 85310, "##述": 117478, "013": 64489, "##tados": 66838, "##湖": 114862, "kontinente": 60084, "bandeira": 78202, "απογραφή": 91901, "repair": 55583, "Renée": 85969, "##mione": 102643, "portar": 49559, "##ческой": 16954, "##ústica": 91957, "włoski": 69622, "##浆": 114751, "estudiar": 34099, "##си": 13700, "##张": 113486, "060": 84350, "噗": 2967, "##ägen": 101796, "उत्तराखण्ड": 15415, "anvendes": 94377, "levy": 87802, "##あり": 30880, "##ಡಲು": 107609, "却": 2698, "860": 46768, "##ume": 20467, "##علاج": 103470, "##unità": 66114, "geschrieben": 52081, "दौरान": 49131, "restaurant": 26234, "%": 110, "сразу": 41198, "політики": 78665, "Вологда": 40599, "fokus": 64009, "Ş": 349, "grundsätzlich": 99088, "##ઉ": 111272, "##lgar": 62273, "Aquitania": 61981, "##イズ": 49514, "мировой": 25682, "##ogisch": 108411, "##eyer": 85128, "遇": 7754, "##î": 25790, "opći": 45885, "izmed": 81122, "entrou": 48623, "dniach": 54225, "##邓": 117562, "##cieron": 36486, "luka": 75592, "##áról": 58625, "Lynne": 97455, "##ням": 97169, "##雄": 118036, "##frido": 100570, "##야마": 65942, "##毛": 114610, "##ндеги": 102366, "statues": 67109, "واقعةً": 79343, "entrant": 52269, "activiteiten": 95910, "##nsen": 41547, "##ásának": 80035, "##tzeko": 35808, "Villers": 70694, "amic": 100779, "##レ": 30263, "##žení": 26980, "रोमानी": 77432, "stratégie": 91035, "##rige": 45854, "नं": 16373, "Birthday": 57981, "spanischen": 61000, "612": 50810, "như": 12552, "##kammer": 93491, "באותה": 28389, "miaka": 59014, "большинстве": 101653, "ursprüngliche": 72257, "מסוימת": 105453, "Niederlande": 64166, "Katy": 66583, "పట్టణమైన": 42443, "1249": 105180, "block": 27242, "萇": 6808, "Harbor": 32180, "##獄": 115226, "##धारण": 79371, "izd": 11706, "Que": 27158, "Он": 14699, "##્રીય": 103367, "operates": 36737, "территорипе": 37701, "seni": 37820, "##чана": 95781, "##雯": 118058, "phản": 31062, "يتم": 20978, "હોય": 33897, "सकता": 26886, "producer": 16607, "##ter": 10877, "Thai": 26207, "Država": 36599, "mida": 24760, "##メント": 51567, "república": 53666, "fabbrica": 106864, "##מורה": 53080, "слова": 25217, "##痔": 115438, "##лаг": 54869, "特": 5410, "Wicipedia": 104836, "як": 11350, "племена": 69922, "Բ": 626, "##lini": 27542, "##وري": 47814, "##nur": 59471, "wei": 86981, "atmosphere": 59043, "extensively": 60420, "##얕": 119130, "인해": 39629, "##緞": 116020, "##淪": 114815, "##áli": 90448, "##ヨ": 111831, "##媳": 113091, "karo": 24668, "があり": 21877, "২০১৫": 31784, "##ემა": 67729, "##ызы": 102504, "fondé": 38142, "##okus": 99408, "赴": 7530, "##match": 95974, "Regiment": 17126, "のち": 54282, "corrispondenza": 109822, "##gha": 102121, "##쿡": 119317, "##usza": 84575, "กรกฎาคม": 45093, "Ebene": 46517, "secoli": 52231, "##露": 118082, "suspect": 97881, "##zési": 108055, "ائدیب": 49675, "##vissa": 57082, "##ficado": 28700, "ناحية": 68844, "358": 37702, "Dél": 58403, "celebre": 57955, "##セ": 107871, "⊆": 1823, "##ₚ": 111656, "színész": 71248, "##рыва": 84113, "prior": 20972, "劑": 2593, "اصلی": 25140, "mentor": 57881, "##享": 111937, "##료": 38688, "##슈": 119073, "##կում": 51092, "##ság": 19993, "tevens": 42898, "##واره": 74260, "Intel": 26386, "Comisión": 36422, "##gráficos": 103127, "##滿": 114920, "기준으로": 81600, "uncle": 49121, "Aus": 18290, "Armee": 23110, "##atum": 80708, "Concert": 26260, "##ellen": 25547, "Sofia": 21416, "Freiheit": 54760, "ud": 22278, "##©": 110889, "##naca": 75115, "##éta": 44876, "Inhalt": 103264, "##竟": 115805, "tempada": 48867, "Analyse": 67674, "##偲": 112132, "##ди": 12753, "##堂": 112868, "##czyński": 99710, "Lotte": 102530, "IUPAC": 88604, "tamién": 16315, "##tòric": 106820, "Britannica": 14485, "अल्मोड़ा": 100466, "##ttet": 56167, "##ਨ੍ਹਾਂ": 109521, "Osa": 94252, "etxetan": 20830, "Paraíba": 85130, "##уки": 63854, "##xes": 25439, "玲": 5489, "والسكنى": 40099, "1983": 10643, "1247": 101399, "##verka": 90127, "Angriff": 57839, "##zini": 61646, "Liverpool": 18376, "##sul": 29899, "טלוויזיה": 88091, "##пад": 36614, "աստիճան": 73275, "Alvarez": 43048, "Lamerikänik": 30904, "##ক্ষা": 74080, "听": 2794, "apareix": 55761, "riguarda": 58796, "##nskim": 108687, "이라는": 51815, "##ტეტის": 90151, "弛": 3718, "##բը": 110513, "##geführt": 43850, "Тие": 96752, "##娟": 113062, "агентстви": 45436, "欄": 4767, "команди": 28430, "##נהל": 96860, "##關": 117926, "снят": 108302, "Vincenzo": 32454, "##φές": 47216, "есть": 17622, "##füllt": 61388, "淀": 5033, "##것": 118627, "ells": 39314, "Λ": 447, "בתחילה": 98226, "pelakon": 70406, "别": 2553, "##ülür": 62832, "마지막": 67313, "Regions": 25643, "##яя": 84391, "státu": 61612, "##网": 116163, "גרמניה": 42129, "ت": 766, "##†": 111620, "ulan": 13982, "katholischer": 108489, "##Ư": 110981, "partij": 40466, "учебных": 93276, "Offensive": 83340, "Дону": 68090, "imaxe": 84279, "victorias": 82177, "##lució": 64087, "contenuto": 81819, "vivant": 54452, "Wojska": 56581, "##揀": 113941, "槃": 4696, "##ऋ": 111195, "dnes": 32773, "Moun": 48855, "расположен": 35177, "##สดงโดย": 92115, "signature": 44852, "##penn": 103351, "##מכים": 103217, "##volte": 101852, "Селото": 68224, "yıl": 25890, "##紀": 115944, "extend": 62504, "##掩": 113930, "fusion": 34125, "Museums": 42850, "Akademi": 46902, "##竭": 115810, "##tren": 67137, "##trici": 80576, "대한": 18154, "##alkan": 74962, "электронный": 69638, "##್ವ": 109180, "垸": 3083, "Eihwohna": 73031, "##uido": 72982, "##redo": 33379, "security": 21849, "вона": 20723, "chambre": 41571, "1916": 11785, "Catalog": 18709, "##ritz": 102761, "##ох": 51823, "campu": 72050, "gần": 23594, "جبل": 53250, "##iselt": 70453, "##yk": 20935, "eléctrica": 60049, "##ఏ": 111324, "ฎ": 1406, "Leiden": 27069, "##ünden": 27350, "##芭": 116454, "兇": 2430, "##ẹ": 65753, "##monė": 100694, "х": 562, "passato": 33281, "Christiania": 95661, "mellor": 66354, "##cycle": 49274, "讯": 7307, "##лије": 65177, "وب": 88868, "førte": 30674, "##싹": 119090, "Chemistry": 20642, "##وهای": 91789, "##h": 10237, "##արանի": 72007, "aparecen": 50252, "324": 30723, "##aram": 50647, "lung": 66041, "##와의": 92019, "kundi": 62358, "##tii": 95299, "Summers": 89702, "nennen": 90984, "Unione": 36999, "##zur": 63934, "##ые": 14578, "##rafía": 70928, "##ായി": 24865, "##יק": 24196, "##氾": 114638, "##堰": 112880, "deltok": 27104, "पानी": 66941, "Scottish": 18879, "##garuhi": 82673, "champs": 88098, "aftermath": 107035, "##нӣ": 99981, "Zimbabwe": 34577, "শ": 976, "má": 13267, "دیا": 30393, "tradizione": 42976, "غربی": 31739, "1337": 86072, "Гидрологи": 45530, "##posición": 52797, "##tice": 41553, "majority": 19471, "##►": 111736, "következő": 30633, "Et": 16232, "##erne": 17894, "##ПЦ": 86811, "##зов": 43953, "##rah": 23497, "स्थापित": 36072, "Kur": 61912, "Barr": 79283, "Secretary": 19382, "ivez": 36516, "##సిన": 57856, "имале": 108651, "譙": 7279, "dodici": 90758, "##سة": 25413, "состояния": 85055, "魏": 8621, "汰": 4894, "abandonado": 102490, "##窄": 115776, "##猶": 115222, "##prese": 52339, "##вый": 50941, "##트를": 101825, "הרבה": 61715, "﴿": 10038, "ово": 85742, "hatalmas": 71709, "climat": 60733, "trouve": 15969, "##mannen": 75140, "xương": 104495, "Palma": 28138, "##ლობდა": 86144, "teki": 20808, "##lite": 66289, "évvel": 52495, "Newsletter": 110190, "ಫ": 1283, "##doras": 61808, "visiting": 48780, "руху": 42350, "bandes": 56171, "##mburg": 51982, "някои": 42811, "振": 4117, "Friends": 23113, "1785": 22558, "Гидротехник": 68885, "wie": 10953, "կոդ": 99775, "évoluant": 106766, "##hu": 13723, "Wanderers": 53061, "##দান": 100491, "gi": 38356, "匯": 2658, "Turquie": 69888, "кейбір": 108459, "ehess": 60305, "Và": 108369, "##nél": 52822, "##春": 114142, "仗": 2197, "##нији": 72000, "##liz": 95340, "שונים": 24983, "муьран": 94113, "鵰": 8730, "Goldstein": 89755, "##noi": 99718, "ਨੇ": 17214, "##חוד": 50404, "##ℓ": 111662, "английского": 94803, "Bau": 18727, "daar": 18826, "##bewegung": 54077, "##洹": 114743, "historiske": 62923, "estudio": 21037, "πρώτο": 36984, "##мони": 107389, "##ometer": 68962, "##ọc": 51025, "##kuk": 76666, "髓": 8593, "отряда": 66414, "fenomeno": 74027, "vilken": 47577, "##ручје": 104425, "るが": 91784, "##יצג": 108837, "俸": 2328, "菌": 6790, "Familia": 35728, "இணையக்": 28405, "menciona": 69321, "എന്ന്": 44672, "##роки": 75442, "Belfast": 41373, "##שמי": 64056, "દેશના": 30851, "trener": 37474, "##ude": 17756, "##lem": 19343, "##霍": 118073, "январехь": 88190, "следующих": 95550, "ਕਰਦਾ": 73485, "톡": 9874, "##呎": 112578, "sive": 47012, "completar": 52303, "##வதற்கு": 91983, "victime": 62910, "##ثبت": 80447, "cuentan": 110001, "##siin": 51004, "Oriente": 30353, "##ൈ": 59009, "fotograf": 72253, "Società": 48131, "##mene": 32877, "будучи": 57745, "##ася": 76672, "##file": 85649, "##レット": 67303, "##אש": 57032, "ォ": 1992, "殇": 4811, "gentañ": 100505, "鴇": 8714, "OʻzME": 29916, "stagione": 14256, "calquera": 97606, "839": 74738, "ugljenika": 60107, "comienza": 39747, "##diu": 43919, "错": 8098, "##পি": 82445, "sırada": 52117, "ovvero": 34912, "osoba": 20996, "nazivaju": 109777, "дель": 84919, "##cília": 72356, "##жка": 33615, "Barbados": 69121, "閏": 8134, "##喘": 112684, "Banco": 30067, "proyectos": 50219, "կարելի": 77508, "##lies": 22201, "Eiropas": 50969, "spomenik": 109364, "Fauchald": 42010, "opposed": 30488, "慕": 3924, "marker": 104661, "##iée": 93612, "Nova": 13124, "Oblast": 26969, "佇": 2244, "Alfredo": 26798, "moment": 14316, "Neuroptera": 84911, "влиянием": 97113, "erhoben": 59741, "elektrisk": 79342, "Lugo": 47696, "##fähigkeit": 80121, "##ew": 26127, "##朴": 114246, "διάρκεια": 29742, "##ictwo": 81015, "##gatif": 85756, "kuris": 38741, "##ların": 15628, "##獐": 115230, "centre": 12672, "Pertama": 61266, "##gehen": 40578, "##šna": 72858, "loser": 55526, "шәһәр": 56496, "##וצה": 103959, "kanton": 27255, "##tschappij": 76952, "##сы": 12095, "##kip": 51484, "elegido": 35847, "باعث": 34406, "1833": 16759, "Elke": 96697, "країні": 72783, "Uzbekistan": 63172, "تشکیل": 29853, "##kenning": 106448, "обязанности": 84347, "045": 98603, "Sitt": 105987, "State": 11104, "ہوتی": 62823, "##馭": 118277, "##וכן": 61582, "Tiny": 97563, "909": 75018, "挣": 4111, "Украина": 36836, "تعيش": 58714, "бий": 74922, "nacimiento": 59999, "right": 13448, "##wyddyn": 103646, "Arturo": 33141, "Künstler": 30456, "厘": 2712, "Cary": 93785, "淡": 5045, "##煉": 115091, "藻": 6930, "娣": 3298, "ABA": 93292, "##hagen": 63833, "36836": 108534, "##closed": 75379, "などと": 71763, "Об": 18890, "##кові": 48114, "ag": 16942, "##ásával": 56601, "مسائل": 80849, "deportista": 80247, "##する": 29442, "##など": 29741, "##াত": 43004, "perioada": 37040, "custodian": 17349, "diagnosed": 107123, "písemná": 89560, "##dbe": 82164, "##rinin": 59912, "русский": 37619, "##zła": 59726, "##այր": 60445, "швидкість": 95470, "##nisten": 100822, "##ливих": 79334, "式": 3709, "##rami": 67571, "accused": 37303, "affrontare": 83311, "Present": 31911, "nouveau": 14285, "ABBA": 95880, "##ymo": 50273, "kilometro": 12684, "Latino": 34425, "##big": 67666, "военных": 44285, "翼": 6453, "##ಕವಾಗಿ": 87463, "identified": 26121, "##ónimo": 53688, "conflicto": 56405, "伸": 2238, "##enko": 56204, "urednik": 102905, "Verkauf": 77735, "овие": 52193, "pado": 12193, "##tín": 54819, "vielä": 30505, "##plugged": 106081, "##aði": 104198, "ূ": 985, "отримання": 107540, "Scientists": 106232, "soan": 110771, "##脷": 116331, "சி": 86625, "##olio": 73783, "primero": 23446, "덧": 9080, "侗": 2285, "##ศ์": 90622, "sorgte": 98698, "арестован": 79589, "Corso": 107272, "##صبح": 41858, "巴": 3594, "##անակի": 79504, "##味": 112590, "একর": 71243, "##riés": 80345, "##器": 112736, "##erta": 43861, "##號": 116717, "fødd": 43726, "##σιο": 46022, "internos": 103947, "눌": 9035, "海": 5005, "regio": 19190, "χρονιά": 71740, "##ίκο": 71745, "ن": 789, "rada": 26763, "сельсавета": 33179, "Quan": 25629, "##nommen": 76328, "Evidence": 54361, "##澤": 114973, "##ьную": 44178, "##وحيد": 103807, "urbs": 50290, "nurse": 108470, "Joy": 32718, "Newell": 97829, "europea": 30908, "bức": 60127, "grubu": 78349, "Survivor": 66035, "Syrphidae": 76175, "##津": 114735, "зокрема": 28368, "##儼": 112188, "chun": 37881, "fie": 29959, "Zusammen": 56357, "čega": 42871, "responses": 94133, "exércitu": 81738, "Senate": 22294, "##енски": 74086, "##啮": 112668, "##aron": 23081, "הסדרה": 46064, "하나의": 90387, "открытия": 91412, "嚇": 2981, "millas": 106189, "##uto": 16248, "Jenkins": 39038, "opposing": 93780, "sile": 63085, "##tom": 25032, "habilidades": 65735, "заслуженный": 93405, "舞": 6646, "UMP": 77477, "##ონის": 38643, "Council": 12821, "ainult": 49805, "##ში": 12509, "##ած": 24133, "winnaar": 92104, "##sity": 62498, "Find": 50738, "##του": 29613, "miasto": 22208, "свойства": 100616, "Zur": 18556, "##누": 118751, "##года": 77211, "rencontres": 62088, "tradição": 82139, "میں": 10916, "publiek": 65811, "Brady": 45982, "polskich": 40398, "alá": 42558, "##끓": 118706, "Er": 10915, "inspector": 104701, "##ered": 45452, "##cian": 35288, "##شرة": 104713, "поп": 48138, "Maan": 107499, "檬": 4754, "comisión": 81547, "comics": 60379, "główny": 90220, "cérémonie": 65980, "namun": 22736, "উপজেলার": 83470, "##sies": 42632, "maps": 19350, "##crático": 70385, "Lounge": 107444, "##بان": 36467, "##₤": 111659, "##גדל": 73907, "Danmarks": 48987, "##pang": 54774, "vincendo": 73158, "##楊": 114425, "Kroatien": 61542, "##حافة": 97020, "trilha": 91860, "významné": 99529, "του": 10356, "##ienia": 41892, "##šanu": 42878, "##ಾರದ": 98958, "##sters": 47035, "തുടങ്ങിയ": 65924, "##chodzą": 82689, "##reus": 51831, "რესპუბლიკის": 99640, "ktorých": 56939, "yılda": 97437, "##west": 49458, "##чиње": 93024, "奠": 3226, "ہون": 109591, "##rechte": 55663, "##cesse": 106752, "برگزار": 52118, "##kles": 75674, "##bamba": 96527, "##堕": 112875, "hemiboreal": 68698, "മ": 1357, "##cze": 25129, "EE": 36502, "##雛": 118050, "rota": 79965, "##dw": 96407, "Боб": 110264, "##ФА": 48483, "##ఞ": 111333, "UFC": 31226, "Hornet": 102464, "costumes": 58176, "Kỳ": 15665, "מספר": 17187, "Wikispecies": 85119, "##nelse": 56040, "##nir": 23907, "Strangers": 100509, "للمعلومات": 39250, "partes": 19106, "##groep": 58376, "žemės": 48982, "##ソング": 97441, "##hine": 76648, "示": 5898, "Wissenschaft": 45662, "##ালনা": 107137, "ефект": 110725, "principle": 48300, "##ミックス": 95879, "##արան": 47892, "sentyabr": 68636, "مدیریت": 58432, "concorso": 73547, "aceea": 100560, "αυτήν": 109671, "bahkan": 57177, "##נתו": 66851, "##gody": 108035, "foundation": 33572, "svih": 34669, "besuchte": 24280, "##zs": 47799, "شماری": 95641, "församling": 32919, "##ούσε": 85289, "Dieses": 28190, "india": 55210, "गाम्य": 58340, "##bocadura": 101354, "Pagina": 64641, "Visuotinė": 79309, "Красная": 82173, "LR": 71203, "ੂ": 1051, "عظیم": 91301, "nenhum": 68703, "##namn": 106852, "общественных": 98351, "##sil": 34934, "Октябрь": 98539, "##〈": 111769, "##ntal": 54739, "681": 63632, "##褚": 116891, "##љи": 45732, "##acle": 100755, "крила": 94809, "shorter": 73797, "滴": 5151, "##글": 118663, "defeated": 18058, "##lü": 28205, "latest": 50908, "If": 14535, "##ইট": 89437, "Governo": 46134, "##fiée": 48905, "filhos": 37793, "凿": 2530, "Ralph": 19882, "erkennen": 49173, "##16": 37301, "##ündən": 98470, "##kuun": 55204, "Верховного": 30433, "##genes": 52085, "##滓": 114900, "severu": 53454, "##ני": 12706, "dahulu": 74261, "extraordinary": 105509, "##vd": 54685, "##拠": 113844, "архитектура": 84506, "##ètes": 90109, "⊂": 1822, "co": 11170, "##曝": 114208, "normes": 72104, "寵": 3439, "##venir": 44247, "aun": 84462, "entspricht": 43044, "ӯ": 623, "呋": 2811, "Brunnen": 92444, "muere": 71349, "##ბების": 71903, "##脆": 116315, "مولانا": 83490, "##班": 115275, "ليست": 98422, "engineer": 26500, "maja": 15291, "الحدود": 77750, "dirigida": 25058, "Keep": 42384, "##ੀਆ": 96398, "##ntarios": 94542, "佛": 2258, "든": 9115, "komandas": 98960, "Regne": 48640, "慮": 3932, "##ndeki": 84213, "M": 150, "julkaistu": 55456, "PB": 105789, "દક્ષિણ": 83537, "Dolní": 74560, "##촉": 119267, "莒": 6769, "Région": 64584, "##έφερε": 99857, "얇": 9542, "##›": 111630, "مطلق": 64684, "Ethel": 87905, "##ρές": 37480, "##نے": 19878, "caratteristiche": 40817, "२५": 76715, "committed": 38184, "қалалары": 87739, "##ruzioni": 88536, "##catus": 107690, "Bridges": 57270, "##менту": 106957, "eit": 13916, "شهردیر": 46952, "##сные": 94109, "Dušan": 73568, "幡": 3636, "Bring": 73859, "##ことになった": 42487, "##monds": 97369, "枭": 4530, "##нять": 46886, "茲": 6736, "Acre": 86200, "##žius": 76776, "豔": 7403, "Dmitri": 59429, "##ਮਾਨ": 78345, "Drummond": 90452, "##姻": 113051, "##atie": 35167, "Communes": 64526, "அவை": 68355, "Gromada": 93758, "##鋪": 117732, "##ச்சு": 83623, "鸿": 8759, "馱": 8513, "##tering": 85353, "Phoenix": 21101, "कथलं": 28987, "##asto": 65798, "balls": 88301, "ракі": 76968, "requiere": 99865, "##湊": 114860, "сада": 68593, "##geschichte": 23445, "##şu": 51295, "##mb": 27012, "села": 14596, "##능": 74986, "existând": 38286, "##իլմ": 110522, "Pluto": 61814, "najmä": 51375, "##dési": 98602, "##ury": 35567, "importanta": 104800, "сільського": 60719, "nostri": 49433, "##zième": 99659, "决": 2494, "russisch": 46372, "##颍": 118199, "direcció": 50267, "bom": 32965, "ਲਿਆ": 89104, "ministra": 38143, "meraih": 66216, "悄": 3857, "Vinci": 44234, "restricted": 58750, "آموزش": 57091, "##ävä": 81889, "鲽": 8693, "Übersetzung": 47038, "##ólogos": 66371, "Melhor": 37572, "suelo": 46822, "نویسنده": 57358, "麼": 8793, "Übernahme": 82496, "föddes": 103494, "archivos": 96169, "jelas": 71199, "Алма": 91764, "##であった": 86195, "solem": 76671, "##קו": 25941, "Briggs": 73268, "జనగణన": 23689, "Kaudella": 65808, "kills": 69179, "soggetto": 61111, "تحمل": 77608, "البحر": 30352, "considers": 96008, "##ktan": 50859, "Pokud": 70624, "terenie": 23974, "##ᠢ": 111525, "ancora": 15393, "coleóptero": 65082, "浄": 4983, "sucesión": 110820, "雌": 8276, "##твия": 90659, "մարտի": 56434, "गढवाली": 28787, "##ләрне": 67842, "Fusion": 53814, "9000": 56911, "χωριού": 95146, "collecting": 88737, "##昇": 114130, "거쳐": 69642, "##nité": 62627, "##سماء": 79146, "Carthage": 105505, "##19": 54055, "rozlohu": 23839, "educación": 29949, "##าม": 79790, "##들어": 93200, "Tucker": 40518, "##ופי": 65564, "Hauptstadt": 36631, "漂": 5156, "près": 16092, "щата": 104161, "##ংশ": 68663, "partnership": 36944, "poziom": 109687, "伪": 2233, "##nting": 70925, "##õi": 76024, "Галина": 105387,
[...]
