{"[PAD]": 0, "[UNK]": 1, "[CLS]": 2, "[SEP]": 3, "[MASK]": 4, "<S>": 5, "<T>": 6, "!": 7, "\"": 8, "#": 9, "$": 10, "%": 11, "&": 12, "'": 13, "(": 14, ")": 15, "*": 16, "+": 17, ",": 18, "-": 19, ".": 20, "/": 21, "0": 22, "1": 23, "2": 24, "3": 25, "4": 26, "5": 27, "6": 28, "7": 29, "8": 30, "9": 31, ":": 32, ";": 33, "<": 34, "=": 35, ">": 36, "?": 37, "@": 38, "A": 39, "B": 40, "C": 41, "D": 42, "E": 43, "F": 44, "G": 45, "H": 46, "I": 47, "J": 48, "K": 49, "L": 50, "M": 51, "N": 52, "O": 53, "P": 54, "Q": 55, "R": 56, "S": 57, "T": 58, "U": 59, "V": 60, "W": 61, "X": 62, "Y": 63, "Z": 64, "[": 65, "\\": 66, "]": 67, "^": 68, "_": 69, "a": 70, "b": 71, "c": 72, "d": 73, "e": 74, "f": 75, "g": 76, "h": 77, "i": 78, "j": 79, "k": 80, "l": 81, "m": 82, "n": 83, "o": 84, "p": 85, "q": 86, "r": 87, "s": 88, "t": 89, "u": 90, "v": 91, "w": 92, "x": 93, "y": 94, "z": 95, "{": 96, "|": 97, "}": 98, "~": 99, "¡": 100, "¢": 101, "£": 102, "¥": 103, "¦": 104, "§": 105, "¨": 106, "©": 107, "ª": 108, "«": 109, "¬": 110, "®": 111, "°": 112, "±": 113, "²": 114, "³": 115, "µ": 116, "¶": 117, "·": 118, "¹": 119, "º": 120, "»": 121, "¼": 122, "½": 123, "¾": 124, "¿": 125, "À": 126, "Á": 127, "Â": 128, "Ã": 129, "Ä": 130, "Å": 131, "Æ": 132, "Ç": 133, "È": 134, "É": 135, "Ê": 136, "Ë": 137, "Ì": 138, "Í": 139, "Î": 140, "Ð": 141, "Ñ": 142, "Ò": 143, "Ó": 144, "Ô": 145, "Õ": 146, "Ö": 147, "×": 148, "Ø": 149, "Ú": 150, "Ü": 151, "Ý": 152, "Þ": 153, "ß": 154, "à": 155, "á": 156, "â": 157, "ã": 158, "ä": 159, "å": 160, "æ": 161, "ç": 162, "è": 163, "é": 164, "ê": 165, "ë": 166, "ì": 167, "í": 168, "î": 169, "ï": 170, "ð": 171, "ñ": 172, "ò": 173, "ó": 174, "ô": 175, "õ": 176, "ö": 177, "÷": 178, "ø": 179, "ù": 180, "ú": 181, "û": 182, "ü": 183, "ý": 184, "þ": 185, "ÿ": 186, "Ā": 187, "ā": 188, "Ă": 189, "ă": 190, "Ą": 191, "ą": 192, "Ć": 193, "ć": 194, "Č": 195, "č": 196, "Ď": 197, "ď": 198, "Đ": 199, "đ": 200, "Ē": 201, "ē": 202, "Ĕ": 203, "ĕ": 204, "Ė": 205, "ė": 206, "ę": 207, "ě": 208, "Ğ": 209, "ğ": 210, "ġ": 211, "Ģ": 212, "ģ": 213, "Ħ": 214, "ħ": 215, "ĩ": 216, "Ī": 217, "ī": 218, "Į": 219, "į": 220, "İ": 221, "ı": 222, "Ķ": 223, "ķ": 224, "ĺ": 225, "Ļ": 226, "ļ": 227, "Ľ": 228, "ľ": 229, "Ł": 230, "ł": 231, "ń": 232, "Ņ": 233, "ņ": 234, "ň": 235, "ŉ": 236, "ŋ": 237, "Ō": 238, "ō": 239, "ŏ": 240, "Ő": 241, "ő": 242, "Œ": 243, "œ": 244, "ŕ": 245, "Ř": 246, "ř": 247, "Ś": 248, "ś": 249, "Ş": 250, "ş": 251, "Š": 252, "š": 253, "Ţ": 254, "ţ": 255, "Ť": 256, "ť": 257, "ũ": 258, "Ū": 259, "ū": 260, "ŭ": 261, "ů": 262, "Ű": 263, "ű": 264, "ų": 265, "ŵ": 266, "ŷ": 267, "Ź": 268, "ź": 269, "Ż": 270, "ż": 271, "Ž": 272, "ž": 273, "Ə": 274, "ƒ": 275, "ơ": 276, "Ư": 277, "ư": 278, "ǎ": 279, "ǐ": 280, "ǔ": 281, "ǫ": 282, "ǹ": 283, "Ș": 284, "ș": 285, "Ț": 286, "ț": 287, "ɐ": 288, "ɑ": 289, "ɔ": 290, "ɕ": 291, "ə": 292, "ɛ": 293, "ɡ": 294, "ɣ": 295, "ɨ": 296, "ɪ": 297, "ɲ": 298, "ɾ": 299, "ʁ": 300, "ʃ": 301, "ʊ": 302, "ʎ": 303, "ʒ": 304, "ʔ": 305, "ʙ": 306, "ʰ": 307, "ʲ": 308, "ʳ": 309, "ʷ": 310, "ʸ": 311, "ʻ": 312, "ʼ": 313, "ʾ": 314, "ʿ": 315, "ˈ": 316, "ː": 317, "ˡ": 318, "ˢ": 319, "̀": 320, "́": 321, "̃": 322, "̄": 323, "̍": 324, "̥": 325, "̧": 326, "̲": 327, "͡": 328, "΄": 329, "Ά": 330, "Έ": 331, "Ή": 332, "Ί": 333, "Ό": 334, "Ύ": 335, "Ώ": 336, "ΐ": 337, "Α": 338, "Β": 339, "Γ": 340, "Δ": 341, "Ε": 342, "Ζ": 343, "Η": 344, "Θ": 345, "Ι": 346, "Κ": 347, "Λ": 348, "Μ": 349, "Ν": 350, "Ξ": 351, "Ο": 352, "Π": 353, "Ρ": 354, "Σ": 355, "Τ": 356, "Υ": 357, "Φ": 358, "Χ": 359, "Ψ": 360, "Ω": 361, "ά": 362, "έ": 363, "ή": 364, "ί": 365, "α": 366, "β": 367, "γ": 368, "δ": 369, "ε": 370, "ζ": 371, "η": 372, "θ": 373, "ι": 374, "κ": 375, "λ": 376, "μ": 377, "ν": 378, "ξ": 379, "ο": 380, "π": 381, "ρ": 382, "ς": 383, "σ": 384, "τ": 385, "υ": 386, "φ": 387, "χ": 388, "ψ": 389, "ω": 390, "ϊ": 391, "ϋ": 392, "ό": 393, "ύ": 394, "ώ": 395, "Ё": 396, "Ђ": 397, "Ѓ": 398, "Є": 399, "Ѕ": 400, "І": 401, "Ї": 402, "Ј": 403, "Љ": 404, "Њ": 405, "Ћ": 406, "Ќ": 407, "Ў": 408, "Џ": 409, "А": 410, "Б": 411, "В": 412, "Г": 413, "Д": 414, "Е": 415, "Ж": 416, "З": 417, "И": 418, "Й": 419, "К": 420, "Л": 421, "М": 422, "Н": 423, "О": 424, "П": 425, "Р": 426, "С": 427, "Т": 428, "У": 429, "Ф": 430, "Х": 431, "Ц": 432, "Ч": 433, "Ш": 434, "Щ": 435, "Ъ": 436, "Ы": 437, "Ь": 438, "Э": 439, "Ю": 440, "Я": 441, "а": 442, "б": 443, "в": 444, "г": 445, "д": 446, "е": 447, "ж": 448, "з": 449, "и": 450, "й": 451, "к": 452, "л": 453, "м": 454, "н": 455, "о": 456, "п": 457, "р": 458, "с": 459, "т": 460, "у": 461, "ф": 462, "х": 463, "ц": 464, "ч": 465, "ш": 466, "щ": 467, "ъ": 468, "ы": 469, "ь": 470, "э": 471, "ю": 472, "я": 473, "ѐ": 474, "ё": 475, "ђ": 476, "ѓ": 477, "є": 478, "ѕ": 479, "і": 480, "ї": 481, "ј": 482, "љ": 483, "њ": 484, "ћ": 485, "ќ": 486, "ѝ": 487, "ў": 488, "џ": 489, "ѣ": 490, "Ґ": 491, "ґ": 492, "Ғ": 493, "ғ": 494, "Җ": 495, "җ": 496, "Ҙ": 497, "ҙ": 498, "Қ": 499, "қ": 500, "Ҡ": 501, "ҡ": 502, "ң": 503, "ҫ": 504, "Ү": 505, "ү": 506, "Ұ": 507, "ұ": 508, "Ҳ": 509, "ҳ": 510, "Ҷ": 511, "ҷ": 512, "Һ": 513, "һ": 514, "Ӏ": 515, "ӑ": 516, "ӗ": 517, "Ә": 518, "ә": 519, "ӣ": 520, "Ө": 521, "ө": 522, "Ӯ": 523, "ӯ": 524, "ӳ": 525, "Ա": 526, "Բ": 527, "Գ": 528, "Դ": 529, "Ե": 530, "Զ": 531, "Է": 532, "Ը": 533, "Թ": 534, "Ժ": 535, "Ի": 536, "Լ": 537, "Խ": 538, "Ծ": 539, "Կ": 540, "Հ": 541, "Ձ": 542, "Ղ": 543, "Ճ": 544, "Մ": 545, "Յ": 546, "Ն": 547, "Շ": 548, "Ո": 549, "Չ": 550, "Պ": 551, "Ջ": 552, "Ռ": 553, "Ս": 554, "Վ": 555, "Տ": 556, "Ր": 557, "Ց": 558, "Ւ": 559, "Փ": 560, "Ք": 561, "Օ": 562, "Ֆ": 563, "՚": 564, "՛": 565, "՜": 566, "՝": 567, "՞": 568, "ա": 569, "բ": 570, "գ": 571, "դ": 572, "ե": 573, "զ": 574, "է": 575, "ը": 576, "թ": 577, "ժ": 578, "ի": 579, "լ": 580, "խ": 581, "ծ": 582, "կ": 583, "հ": 584, "ձ": 585, "ղ": 586, "ճ": 587, "մ": 588, "յ": 589, "ն": 590, "շ": 591, "ո": 592, "չ": 593, "պ": 594, "ջ": 595, "ռ": 596, "ս": 597, "վ": 598, "տ": 599, "ր": 600, "ց": 601, "ւ": 602, "փ": 603, "ք": 604, "օ": 605, "ֆ": 606, "և": 607, "։": 608, "֊": 609, "ְ": 610, "ֱ": 611, "ֲ": 612, "ִ": 613, "ֵ": 614, "ֶ": 615, "ַ": 616, "ָ": 617, "ֹ": 618, "ּ": 619, "־": 620, "ׁ": 621, "ׂ": 622, "׃": 623, "א": 624, "ב": 625, "ג": 626, "ד": 627, "ה": 628, "ו": 629, "ז": 630, "ח": 631, "ט": 632, "י": 633, "ך": 634, "כ": 635, "ל": 636, "ם": 637, "מ": 638, "ן": 639, "נ": 640, "ס": 641, "ע": 642, "ף": 643, "פ": 644, "ץ": 645, "צ": 646, "ק": 647, "ר": 648, "ש": 649, "ת": 650, "׳": 651, "״": 652, "،": 653, "؍": 654, "ؒ": 655, "؛": 656, "؟": 657, "ء": 658, "آ": 659, "أ": 660, "ؤ": 661, "إ": 662, "ئ": 663, "ا": 664, "ب": 665, "ة": 666, "ت": 667, "ث": 668, "ج": 669, "ح": 670, "خ": 671, "د": 672, "ذ": 673, "ر": 674, "ز": 675, "س": 676, "ش": 677, "ص": 678, "ض": 679, "ط": 680, "ظ": 681, "ع": 682, "غ": 683, "ـ": 684, "ف": 685, "ق": 686, "ك": 687, "ل": 688, "م": 689, "ن": 690, "ه": 691, "و": 692, "ى": 693, "ي": 694, "ً": 695, "ٌ": 696, "ٍ": 697, "َ": 698, "ُ": 699, "ِ": 700, "ّ": 701, "ْ": 702, "ٔ": 703, "ٛ": 704, "٠": 705, "١": 706, "٢": 707, "٣": 708, "٤": 709, "٥": 710, "٩": 711, "٪": 712, "٫": 713, "٬": 714, "٭": 715, "ٰ": 716, "ٹ": 717, "پ": 718, "چ": 719, "ڈ": 720, "ڑ": 721, "ژ": 722, "ڤ": 723, "ک": 724, "ڭ": 725, "گ": 726, "ں": 727, "ھ": 728, "ۀ": 729, "ہ": 730, "ۂ": 731, "ۃ": 732, "ۆ": 733, "ۇ": 734, "ی": 735, "ے": 736, "ۓ": 737, "۔": 738, "۰": 739, "۱": 740, "۲": 741, "۳": 742, "۴": 743, "۵": 744, "۶": 745, "۷": 746, "۸": 747, "۹": 748, "ँ": 749, "ं": 750, "ः": 751, "अ": 752, "आ": 753, "इ": 754, "ई": 755, "उ": 756, "ऊ": 757, "ऋ": 758, "ऍ": 759, "ऎ": 760, "ए": 761, "ऐ": 762, "ऑ": 763, "ओ": 764, "औ": 765, "क": 766, "ख": 767, "ग": 768, "घ": 769, "ङ": 770, "च": 771, "छ": 772, "ज": 773, "झ": 774, "ञ": 775, "ट": 776, "ठ": 777, "ड": 778, "ढ": 779, "ण": 780, "त": 781, "थ": 782, "द": 783, "ध": 784, "न": 785, "प": 786, "फ": 787, "ब": 788, "भ": 789, "म": 790, "य": 791, "र": 792, "ऱ": 793, "ल": 794, "ळ": 795, "व": 796, "श": 797, "ष": 798, "स": 799, "ह": 800, "़": 801, "ऽ": 802, "ा": 803, "ि": 804, "ी": 805, "ु": 806, "ू": 807, "ृ": 808, "ॄ": 809, "ॅ": 810, "ॆ": 811, "े": 812, "ै": 813, "ॉ": 814, "ो": 815, "ौ": 816, "्": 817, "ॐ": 818, "॓": 819, "ॠ": 820, "।": 821, "॥": 822, "०": 823, "१": 824, "२": 825, "३": 826, "४": 827, "५": 828, "६": 829, "७": 830, "८": 831, "९": 832, "॰": 833, "ॲ": 834, "ঁ": 835, "ং": 836, "ঃ": 837, "অ": 838, "আ": 839, "ই": 840, "ঈ": 841, "উ": 842, "ঊ": 843, "ঋ": 844, "এ": 845, "ঐ": 846, "ও": 847, "ঔ": 848, "ক": 849, "খ": 850, "গ": 851, "ঘ": 852, "ঙ": 853, "চ": 854, "ছ": 855, "জ": 856, "ঝ": 857, "ঞ": 858, "ট": 859, "ঠ": 860, "ড": 861, "ঢ": 862, "ণ": 863, "ত": 864, "থ": 865, "দ": 866, "ধ": 867, "ন": 868, "প": 869, "ফ": 870, "ব": 871, "ভ": 872, "ম": 873, "য": 874, "র": 875, "ল": 876, "শ": 877, "ষ": 878, "স": 879, "হ": 880, "়": 881, "া": 882, "ি": 883, "ী": 884, "ু": 885, "ূ": 886, "ৃ": 887, "ে": 888, "ৈ": 889, "ো": 890, "ৌ": 891, "্": 892, "ৎ": 893, "০": 894, "১": 895, "২": 896, "৩": 897, "৪": 898, "৫": 899, "৬": 900, "৭": 901, "৮": 902, "৯": 903, "ৰ": 904, "ৱ": 905, "৷": 906, "ਂ": 907, "ਅ": 908, "ਆ": 909, "ਇ": 910, "ਈ": 911, "ਉ": 912, "ਊ": 913, "ਏ": 914, "ਐ": 915, "ਓ": 916, "ਔ": 917, "ਕ": 918, "ਖ": 919, "ਗ": 920, "ਘ": 921, "ਚ": 922, "ਛ": 923, "ਜ": 924, "ਝ": 925, "ਟ": 926, "ਠ": 927, "ਡ": 928, "ਢ": 929, "ਣ": 930, "ਤ": 931, "ਥ": 932, "ਦ": 933, "ਧ": 934, "ਨ": 935, "ਪ": 936, "ਫ": 937, "ਬ": 938, "ਭ": 939, "ਮ": 940, "ਯ": 941, "ਰ": 942, "ਲ": 943, "ਵ": 944, "ਸ": 945, "ਹ": 946, "਼": 947, "ਾ": 948, "ਿ": 949, "ੀ": 950, "ੁ": 951, "ੂ": 952, "ੇ": 953, "ੈ": 954, "ੋ": 955, "ੌ": 956, "੍": 957, "ੜ": 958, "੦": 959, "੧": 960, "੨": 961, "੩": 962, "੪": 963, "੫": 964, "ੰ": 965, "ੱ": 966, "ੲ": 967, "ੳ": 968, "ં": 969, "ઃ": 970, "અ": 971, "આ": 972, "ઇ": 973, "ઈ": 974, "ઉ": 975, "ઊ": 976, "ઋ": 977, "ઍ": 978, "એ": 979, "ઐ": 980, "ઑ": 981, "ઓ": 982, "ઔ": 983, "ક": 984, "ખ": 985, "ગ": 986, "ઘ": 987, "ચ": 988, "છ": 989, "જ": 990, "ઝ": 991, "ઞ": 992, "ટ": 993, "ઠ": 994, "ડ": 995, "ઢ": 996, "ણ": 997, "ત": 998, "થ": 999, "દ": 1000, "ધ": 1001, "ન": 1002, "પ": 1003, "ફ": 1004, "બ": 1005, "ભ": 1006, "મ": 1007, "ય": 1008, "ર": 1009, "લ": 1010, "ળ": 1011, "વ": 1012, "શ": 1013, "ષ": 1014, "સ": 1015, "હ": 1016, "ા": 1017, "િ": 1018, "ી": 1019, "ુ": 1020, "ૂ": 1021, "ૃ": 1022, "ૅ": 1023, "ે": 1024, "ૈ": 1025, "ૉ": 1026, "ો": 1027, "ૌ": 1028, "્": 1029, "૦": 1030, "૧": 1031, "૨": 1032, "૩": 1033, "૪": 1034, "૫": 1035, "૬": 1036, "૭": 1037, "૮": 1038, "૯": 1039, "ஃ": 1040, "அ": 1041, "ஆ": 1042, "இ": 1043, "ஈ": 1044, "உ": 1045, "ஊ": 1046, "எ": 1047, "ஏ": 1048, "ஐ": 1049, "ஒ": 1050, "ஓ": 1051, "ஔ": 1052, "க": 1053, "ங": 1054, "ச": 1055, "ஜ": 1056, "ஞ": 1057, "ட": 1058, "ண": 1059, "த": 1060, "ந": 1061, "ன": 1062, "ப": 1063, "ம": 1064, "ய": 1065, "ர": 1066, "ற": 1067, "ல": 1068, "ள": 1069, "ழ": 1070, "வ": 1071, "ஷ": 1072, "ஸ": 1073, "ஹ": 1074, "ா": 1075, "ி": 1076, "ீ": 1077, "ு": 1078, "ூ": 1079, "ெ": 1080, "ே": 1081, "ை": 1082, "ொ": 1083, "ோ": 1084, "ௌ": 1085, "்": 1086, "ం": 1087, "ః": 1088, "అ": 1089, "ఆ": 1090, "ఇ": 1091, "ఈ": 1092, "ఉ": 1093, "ఊ": 1094, "ఋ": 1095, "ఎ": 1096, "ఏ": 1097, "ఐ": 1098, "ఒ": 1099, "ఓ": 1100, "ఔ": 1101, "క": 1102, "ఖ": 1103, "గ": 1104, "ఘ": 1105, "చ": 1106, "ఛ": 1107, "జ": 1108, "ఝ": 1109, "ఞ": 1110, "ట": 1111, "ఠ": 1112, "డ": 1113, "ఢ": 1114, "ణ": 1115, "త": 1116, "థ": 1117, "ద": 1118, "ధ": 1119, "న": 1120, "ప": 1121, "ఫ": 1122, "బ": 1123, "భ": 1124, "మ": 1125, "య": 1126, "ర": 1127, "ఱ": 1128, "ల": 1129, "ళ": 1130, "వ": 1131, "శ": 1132, "ష": 1133, "స": 1134, "హ": 1135, "ా": 1136, "ి": 1137, "ీ": 1138, "ు": 1139, "ూ": 1140, "ృ": 1141, "ె": 1142, "ే": 1143, "ై": 1144, "ొ": 1145, "ో": 1146, "ౌ": 1147, "్": 1148, "ಂ": 1149, "ಃ": 1150, "ಅ": 1151, "ಆ": 1152, "ಇ": 1153, "ಈ": 1154, "ಉ": 1155, "ಊ": 1156, "ಋ": 1157, "ಎ": 1158, "ಏ": 1159, "ಐ": 1160, "ಒ": 1161, "ಓ": 1162, "ಔ": 1163, "ಕ": 1164, "ಖ": 1165, "ಗ": 1166, "ಘ": 1167, "ಚ": 1168, "ಛ": 1169, "ಜ": 1170, "ಝ": 1171, "ಞ": 1172, "ಟ": 1173, "ಠ": 1174, "ಡ": 1175, "ಢ": 1176, "ಣ": 1177, "ತ": 1178, "ಥ": 1179, "ದ": 1180, "ಧ": 1181, "ನ": 1182, "ಪ": 1183, "ಫ": 1184, "ಬ": 1185, "ಭ": 1186, "ಮ": 1187, "ಯ": 1188, "ರ": 1189, "ಲ": 1190, "ಳ": 1191, "ವ": 1192, "ಶ": 1193, "ಷ": 1194, "ಸ": 1195, "ಹ": 1196, "ಾ": 1197, "ಿ": 1198, "ೀ": 1199, "ು": 1200, "ೂ": 1201, "ೃ": 1202, "ೆ": 1203, "ೇ": 1204, "ೈ": 1205, "ೊ": 1206, "ೋ": 1207, "ೌ": 1208, "್": 1209, "೦": 1210, "೧": 1211, "೨": 1212, "೩": 1213, "೪": 1214, "೫": 1215, "೬": 1216, "೭": 1217, "೮": 1218, "೯": 1219, "ം": 1220, "ഃ": 1221, "അ": 1222, "ആ": 1223, "ഇ": 1224, "ഈ": 1225, "ഉ": 1226, "ഊ": 1227, "ഋ": 1228, "എ": 1229, "ഏ": 1230, "ഐ": 1231, "ഒ": 1232, "ഓ": 1233, "ഔ": 1234, "ക": 1235, "ഖ": 1236, "ഗ": 1237, "ഘ": 1238, "ങ": 1239, "ച": 1240, "ഛ": 1241, "ജ": 1242, "ഞ": 1243, "ട": 1244, "ഠ": 1245, "ഡ": 1246, "ഢ": 1247, "ണ": 1248, "ത": 1249, "ഥ": 1250, "ദ": 1251, "ധ": 1252, "ന": 1253, "പ": 1254, "ഫ": 1255, "ബ": 1256, "ഭ": 1257, "മ": 1258, "യ": 1259, "ര": 1260, "റ": 1261, "ല": 1262, "ള": 1263, "ഴ": 1264, "വ": 1265, "ശ": 1266, "ഷ": 1267, "സ": 1268, "ഹ": 1269, "ാ": 1270, "ി": 1271, "ീ": 1272, "ു": 1273, "ൂ": 1274, "ൃ": 1275, "െ": 1276, "േ": 1277, "ൈ": 1278, "ൊ": 1279, "ോ": 1280, "ൌ": 1281, "്": 1282, "ൗ": 1283, "൧": 1284, "ൺ": 1285, "ൻ": 1286, "ർ": 1287, "ൽ": 1288, "ൾ": 1289, "ක": 1290, "ය": 1291, "ර": 1292, "ල": 1293, "්": 1294, "ා": 1295, "ก": 1296, "ข": 1297, "ค": 1298, "ฆ": 1299, "ง": 1300, "จ": 1301, "ฉ": 1302, "ช": 1303, "ซ": 1304, "ฌ": 1305, "ญ": 1306, "ฎ": 1307, "ฏ": 1308, "ฐ": 1309, "ฑ": 1310, "ฒ": 1311, "ณ": 1312, "ด": 1313, "ต": 1314, "ถ": 1315, "ท": 1316, "ธ": 1317, "น": 1318, "บ": 1319, "ป": 1320, "ผ": 1321, "ฝ": 1322, "พ": 1323, "ฟ": 1324, "ภ": 1325, "ม": 1326, "ย": 1327, "ร": 1328, "ฤ": 1329, "ล": 1330, "ว": 1331, "ศ": 1332, "ษ": 1333, "ส": 1334, "ห": 1335, "ฬ": 1336, "อ": 1337, "ฮ": 1338, "ฯ": 1339, "ะ": 1340, "ั": 1341, "า": 1342, "ำ": 1343, "ิ": 1344, "ี": 1345, "ึ": 1346, "ื": 1347, "ุ": 1348, "ู": 1349, "ฺ": 1350, "เ": 1351, "แ": 1352, "โ": 1353, "ใ": 1354, "ไ": 1355, "ๆ": 1356, "็": 1357, "่": 1358, "้": 1359, "๊": 1360, "๋": 1361, "์": 1362, "๐": 1363, "๑": 1364, "๒": 1365, "๓": 1366, "๔": 1367, "๕": 1368, "๖": 1369, "๗": 1370, "๘": 1371, "๙": 1372, "་": 1373, "།": 1374, "ག": 1375, "ང": 1376, "ཆ": 1377, "ད": 1378, "ན": 1379, "པ": 1380, "བ": 1381, "མ": 1382, "ཚ": 1383, "ར": 1384, "ལ": 1385, "ས": 1386, "ི": 1387, "ེ": 1388, "ོ": 1389, "ྒ": 1390, "ྫ": 1391, "ྱ": 1392, "က": 1393, "ခ": 1394, "ဂ": 1395, "ဃ": 1396, "င": 1397, "စ": 1398, "ဆ": 1399, "ဇ": 1400, "ဈ": 1401, "ဉ": 1402, "ည": 1403, "ဋ": 1404, "ဌ": 1405, "ဍ": 1406, "ဏ": 1407, "တ": 1408, "ထ": 1409, "ဒ": 1410, "ဓ": 1411, "န": 1412, "ပ": 1413, "ဖ": 1414, "ဗ": 1415, "ဘ": 1416, "မ": 1417, "ယ": 1418, "ရ": 1419, "လ": 1420, "ဝ": 1421, "သ": 1422, "ဟ": 1423, "ဠ": 1424, "အ": 1425, "ဤ": 1426, "ဥ": 1427, "ဦ": 1428, "ဧ": 1429, "ဩ": 1430, "ါ": 1431, "ာ": 1432, "ိ": 1433, "ီ": 1434, "ု": 1435, "ူ": 1436, "ေ": 1437, "ဲ": 1438, "ံ": 1439, "့": 1440, "း": 1441, "္": 1442, "်": 1443, "ျ": 1444, "ြ": 1445, "ွ": 1446, "ှ": 1447, "ဿ": 1448, "၀": 1449, "၁": 1450, "၂": 1451, "၃": 1452, "၄": 1453, "၅": 1454, "၆": 1455, "၇": 1456, "၈": 1457, "၉": 1458, "၊": 1459, "။": 1460, "၌": 1461, "၍": 1462, "၎": 1463, "၏": 1464, "ა": 1465, "ბ": 1466, "გ": 1467, "დ": 1468, "ე": 1469, "ვ": 1470, "ზ": 1471, "თ": 1472, "ი": 1473, "კ": 1474, "ლ": 1475, "მ": 1476, "ნ": 1477, "ო": 1478, "პ": 1479, "ჟ": 1480, "რ": 1481, "ს": 1482, "ტ": 1483, "უ": 1484, "ფ": 1485, "ქ": 1486, "ღ": 1487, "ყ": 1488, "შ": 1489, "ჩ": 1490, "ც": 1491, "ძ": 1492, "წ": 1493, "ჭ": 1494, "ხ": 1495, "ჯ": 1496, "ჰ": 1497, "ჲ": 1498, "ᠢ": 1499, "ᠨ": 1500, "ᴬ": 1501, "ᴮ": 1502, "ᴰ": 1503, "ᴵ": 1504, "ᴾ": 1505, "ᵀ": 1506, "ᵃ": 1507, "ᵇ": 1508, "ᵈ": 1509, "ᵉ": 1510, "ᵍ": 1511, "ᵏ": 1512, "ᵐ": 1513, "ᵒ": 1514, "ᵖ": 1515, "ᵗ": 1516, "ᵘ": 1517, "ᵛ": 1518, "ᵢ": 1519, "ᵣ": 1520, "ᵤ": 1521, "ᶜ": 1522, "ᶠ": 1523, "ḍ": 1524, "ḏ": 1525, "Ḑ": 1526, "ḑ": 1527, "Ḥ": 1528, "ḥ": 1529, "Ḩ": 1530, "ḩ": 1531, "Ḫ": 1532, "ḫ": 1533, "ḷ": 1534, "ṃ": 1535, "ṇ": 1536, "ṛ": 1537, "ṟ": 1538, "Ṣ": 1539, "ṣ": 1540, "Ṭ": 1541, "ṭ": 1542, "ṯ": 1543, "ẕ": 1544, "ạ": 1545, "Ả": 1546, "ả": 1547, "Ấ": 1548, "ấ": 1549, "ầ": 1550, "Ẩ": 1551, "ẩ": 1552, "ẫ": 1553, "ậ": 1554, "ắ": 1555, "ằ": 1556, "ẳ": 1557, "ẵ": 1558, "ặ": 1559, "Ẹ": 1560, "ẹ": 1561, "ẻ": 1562, "ẽ": 1563, "ế": 1564, "ề": 1565, "ể": 1566, "ễ": 1567, "ệ": 1568, "ỉ": 1569, "ị": 1570, "Ọ": 1571, "ọ": 1572, "ỏ": 1573, "Ố": 1574, "ố": 1575, "ồ": 1576, "ổ": 1577, "ỗ": 1578, "ộ": 1579, "ớ": 1580, "ờ": 1581, "Ở": 1582, "ở": 1583, "ỡ": 1584, "ợ": 1585, "ụ": 1586, "Ủ": 1587, "ủ": 1588, "Ứ": 1589, "ứ": 1590, "ừ": 1591, "ử": 1592, "ữ": 1593, "ự": 1594, "ỳ": 1595, "ỵ": 1596, "ỷ": 1597, "ỹ": 1598, "ἀ": 1599, "ἄ": 1600, "Ἀ": 1601, "ἐ": 1602, "ἡ": 1603, "ἢ": 1604, "ἰ": 1605, "ἱ": 1606, "ἶ": 1607, "ὁ": 1608, "ὅ": 1609, "ὐ": 1610, "ὡ": 1611, "ὰ": 1612, "ὲ": 1613, "ὴ": 1614, "ὶ": 1615, "ὸ": 1616, "ὺ": 1617, "ῆ": 1618, "ῇ": 1619, "ῖ": 1620, "ῦ": 1621, "ῶ": 1622, "ῷ": 1623, "‖": 1624, "‚": 1625, "„": 1626, "‟": 1627, "†": 1628, "‡": 1629, "•": 1630, "․": 1631, "‥": 1632, "‧": 1633, "‰": 1634, "′": 1635, "″": 1636, "‹": 1637, "›": 1638, "※": 1639, "‿": 1640, "⁄": 1641, "⁰": 1642, "ⁱ": 1643, "⁴": 1644, "⁵": 1645, "⁶": 1646, "⁷": 1647, "⁸": 1648, "⁹": 1649, "⁺": 1650, "⁻": 1651, "⁾": 1652, "ⁿ": 1653, "₀": 1654, "₁": 1655, "₂": 1656, "₃": 1657, "₄": 1658, "₅": 1659, "₆": 1660, "₇": 1661, "₈": 1662, "₍": 1663, "₎": 1664, "ₐ": 1665, "ₑ": 1666, "ₒ": 1667, "ₓ": 1668, "ₖ": 1669, "ₘ": 1670, "ₙ": 1671, "ₚ": 1672, "ₛ": 1673, "ₜ": 1674, "₤": 1675, "€": 1676, "₹": 1677, "℃": 1678, "ℓ": 1679, "№": 1680, "ℝ": 1681, "™": 1682, "ℤ": 1683, "⅓": 1684, "⅔": 1685, "Ⅰ": 1686, "Ⅱ": 1687, "Ⅲ": 1688, "Ⅳ": 1689, "←": 1690, "↑": 1691, "→": 1692, "↓": 1693, "↔": 1694, "↺": 1695, "⇄": 1696, "⇌": 1697, "⇒": 1698, "⇔": 1699, "∀": 1700, "∅": 1701, "∇": 1702, "∈": 1703, "−": 1704, "∗": 1705, "∘": 1706, "∙": 1707, "√": 1708, "∞": 1709, "∧": 1710, "∨": 1711, "∩": 1712, "∪": 1713, "∫": 1714, "∼": 1715, "≈": 1716, "≠": 1717, "≡": 1718, "≤": 1719, "≥": 1720, "≪": 1721, "≫": 1722, "⊂": 1723, "⊆": 1724, "⊕": 1725, "⊗": 1726, "⊙": 1727, "⋅": 1728, "⋯": 1729, "〈": 1730, "〉": 1731, "①": 1732, "②": 1733, "③": 1734, "④": 1735, "⑤": 1736, "─": 1737, "━": 1738, "│": 1739, "┃": 1740, "┓": 1741, "└": 1742, "├": 1743, "┣": 1744, "┫": 1745, "║": 1746, "█": 1747, "■": 1748, "□": 1749, "▪": 1750, "▭": 1751, "▲": 1752, "△": 1753, "►": 1754, "▼": 1755, "◆": 1756, "◇": 1757, "○": 1758, "◎": 1759, "●": 1760, "◡": 1761, "★": 1762, "☆": 1763, "☉": 1764, "♀": 1765, "♂": 1766, "♕": 1767, "♙": 1768, "♠": 1769, "♡": 1770, "♣": 1771, "♥": 1772, "♦": 1773, "♪": 1774, "♭": 1775, "♯": 1776, "⚭": 1777, "✝": 1778, "⟨": 1779, "⟩": 1780, "ⱼ": 1781, "、": 1782, "。": 1783, "〃": 1784, "々": 1785, "〇": 1786, "〈": 1787, "〉": 1788, "《": 1789, "》": 1790, "「": 1791, "」": 1792, "『": 1793, "』": 1794, "【": 1795, "】": 1796, "〒": 1797, "〔": 1798, "〕": 1799, "〖": 1800, "〗": 1801, "〜": 1802, "〝": 1803, "ぁ": 1804, "あ": 1805, "ぃ": 1806, "い": 1807, "う": 1808, "ぇ": 1809, "え": 1810, "お": 1811, "か": 1812, "が": 1813, "き": 1814, "ぎ": 1815, "く": 1816, "ぐ": 1817, "け": 1818, "げ": 1819, "こ": 1820, "ご": 1821, "さ": 1822, "ざ": 1823, "し": 1824, "じ": 1825, "す": 1826, "ず": 1827, "せ": 1828, "ぜ": 1829, "そ": 1830, "ぞ": 1831, "た": 1832, "だ": 1833, "ち": 1834, "ぢ": 1835, "っ": 1836, "つ": 1837, "づ": 1838, "て": 1839, "で": 1840, "と": 1841, "ど": 1842, "な": 1843, "に": 1844, "ぬ": 1845, "ね": 1846, "の": 1847, "は": 1848, "ば": 1849, "ぱ": 1850, "ひ": 1851, "び": 1852, "ぴ": 1853, "ふ": 1854, "ぶ": 1855, "ぷ": 1856, "へ": 1857, "べ": 1858, "ぺ": 1859, "ほ": 1860, "ぼ": 1861, "ぽ": 1862, "ま": 1863, "み": 1864, "む": 1865, "め": 1866, "も": 1867, "ゃ": 1868, "や": 1869, "ゅ": 1870, "ゆ": 1871, "ょ": 1872, "よ": 1873, "ら": 1874, "り": 1875, "る": 1876, "れ": 1877, "ろ": 1878, "わ": 1879, "ゐ": 1880, "を": 1881, "ん": 1882, "ゝ": 1883, "ゞ": 1884, "ァ": 1885, "ア": 1886, "ィ": 1887, "イ": 1888, "ゥ": 1889, "ウ": 1890, "ェ": 1891, "エ": 1892, "ォ": 1893, "オ": 1894, "カ": 1895, "ガ": 1896, "キ": 1897, "ギ": 1898, "ク": 1899, "グ": 1900, "ケ": 1901, "ゲ": 1902, "コ": 1903, "ゴ": 1904, "サ": 1905, "ザ": 1906, "シ": 1907, "ジ": 1908, "ス": 1909, "ズ": 1910, "セ": 1911, "ゼ": 1912, "ソ": 1913, "ゾ": 1914, "タ": 1915, "ダ": 1916, "チ": 1917, "ヂ": 1918, "ッ": 1919, "ツ": 1920, "ヅ": 1921, "テ": 1922, "デ": 1923, "ト": 1924, "ド": 1925, "ナ": 1926, "ニ": 1927, "ヌ": 1928, "ネ": 1929, "ノ": 1930, "ハ": 1931, "バ": 1932, "パ": 1933, "ヒ": 1934, "ビ": 1935, "ピ": 1936, "フ": 1937, "ブ": 1938, "プ": 1939, "ヘ": 1940, "ベ": 1941, "ペ": 1942, "ホ": 1943, "ボ": 1944, "ポ": 1945, "マ": 1946, "ミ": 1947, "ム": 1948, "メ": 1949, "モ": 1950, "ャ": 1951, "ヤ": 1952, "ュ": 1953, "ユ": 1954, "ョ": 1955, "ヨ": 1956, "ラ": 1957, "リ": 1958, "ル": 1959, "レ": 1960, "ロ": 1961, "ワ": 1962, "ヱ": 1963, "ヲ": 1964, "ン": 1965, "ヴ": 1966, "ヵ": 1967, "ヶ": 1968, "・": 1969, "ー": 1970, "ㆍ": 1971, "䲁": 1972, "一": 1973, "丁": 1974, "七": 1975, "万": 1976, "丈": 1977, "三": 1978, "上": 1979, "下": 1980, "不": 1981, "与": 1982, "丐": 1983, "丑": 1984, "专": 1985, "且": 1986, "丕": 1987, "世": 1988, "丘": 1989, "丙": 1990, "业": 1991, "丛": 1992, "东": 1993, "丝": 1994, "丞": 1995, "丟": 1996, "両": 1997, "丢": 1998, "两": 1999, "严": 2000, "並": 2001, "丧": 2002, "个": 2003, "丫": 2004, "中": 2005, "丰": 2006, "串": 2007, "临": 2008, "丸": 2009, "丹": 2010, "为": 2011, "主": 2012, "丼": 2013, "丽": 2014, "举": 2015, "乂": 2016, "乃": 2017, "久": 2018, "么": 2019, "义": 2020, "之": 2021, "乌": 2022, "乍": 2023, "乎": 2024, "乏": 2025, "乐": 2026, "乒": 2027, "乓": 2028, "乔": 2029, "乖": 2030, "乗": 2031, "乘": 2032, "乙": 2033, "九": 2034, "乞": 2035, "也": 2036, "习": 2037, "乡": 2038, "书": 2039, "乩": 2040, "买": 2041, "乱": 2042, "乳": 2043, "乾": 2044, "亀": 2045, "亂": 2046, "了": 2047, "予": 2048, "争": 2049, "事": 2050, "二": 2051, "于": 2052, "亏": 2053, "云": 2054, "互": 2055, "五": 2056, "井": 2057, "亘": 2058, "亚": 2059, "些": 2060, "亜": 2061, "亞": 2062, "亟": 2063, "亡": 2064, "亢": 2065, "交": 2066, "亥": 2067, "亦": 2068, "产": 2069, "亨": 2070, "亩": 2071, "享": 2072, "京": 2073, "亭": 2074, "亮": 2075, "亲": 2076, "亳": 2077, "亵": 2078, "亶": 2079, "人": 2080, "亿": 2081, "什": 2082, "仁": 2083, "仄": 2084, "仅": 2085, "仆": 2086, "仇": 2087, "今": 2088, "介": 2089, "仍": 2090, "从": 2091, "仏": 2092, "仑": 2093, "仓": 2094, "仔": 2095, "仕": 2096, "他": 2097, "仗": 2098, "付": 2099, "仙": 2100, "仝": 2101, "仡": 2102, "代": 2103, "令": 2104, "以": 2105, "仪": 2106, "们": 2107, "仮": 2108, "仰": 2109, "仲": 2110, "件": 2111, "价": 2112, "任": 2113, "份": 2114, "仿": 2115, "企": 2116, "伉": 2117, "伊": 2118, "伍": 2119, "伎": 2120, "伏": 2121, "伐": 2122, "休": 2123, "众": 2124, "优": 2125, "伙": 2126, "会": 2127, "伝": 2128, "伞": 2129, "伟": 2130, "传": 2131, "伤": 2132, "伦": 2133, "伪": 2134, "伯": 2135, "估": 2136, "伴": 2137, "伶": 2138, "伸": 2139, "伺": 2140, "似": 2141, "伽": 2142, "佃": 2143, "但": 2144, "佇": 2145, "佈": 2146, "位": 2147, "低": 2148, "住": 2149, "佐": 2150, "佑": 2151, "体": 2152, "佔": 2153, "何": 2154, "佗": 2155, "佘": 2156, "余": 2157, "佚": 2158, "佛": 2159, "作": 2160, "佞": 2161, "佟": 2162, "你": 2163, "佢": 2164, "佣": 2165, "佤": 2166, "佥": 2167, "佩": 2168, "佬": 2169, "佯": 2170, "佰": 2171, "佳": 2172, "併": 2173, "佶": 2174, "佼": 2175, "使": 2176, "侃": 2177, "侄": 2178, "來": 2179, "侈": 2180, "例": 2181, "侍": 2182, "侏": 2183, "侑": 2184, "侖": 2185, "侗": 2186, "供": 2187, "依": 2188, "侠": 2189, "価": 2190, "侣": 2191, "侦": 2192, "侧": 2193, "侨": 2194, "侬": 2195, "侮": 2196, "侯": 2197, "侵": 2198, "侶": 2199, "便": 2200, "俁": 2201, "係": 2202, "促": 2203, "俄": 2204, "俊": 2205, "俎": 2206, "俏": 2207, "俐": 2208, "俑": 2209, "俗": 2210, "俘": 2211, "俚": 2212, "保": 2213, "俞": 2214, "俟": 2215, "俠": 2216, "信": 2217, "俣": 2218, "俨": 2219, "俩": 2220, "俪": 2221, "俭": 2222, "修": 2223, "俯": 2224, "俱": 2225, "俳": 2226, "俵": 2227, "俶": 2228, "俸": 2229, "俺": 2230, "俾": 2231, "倆": 2232, "倉": 2233, "個": 2234, "倍": 2235, "們": 2236, "倒": 2237, "倖": 2238, "倘": 2239, "候": 2240, "倚": 2241, "借": 2242, "倡": 2243, "倣": 2244, "値": 2245, "倦": 2246, "倩": 2247, "倪": 2248, "倫": 2249, "倬": 2250, "倭": 2251, "倶": 2252, "倹": 2253, "债": 2254, "倻": 2255, "值": 2256, "倾": 2257, "偃": 2258, "假": 2259, "偈": 2260, "偉": 2261, "偏": 2262, "偕": 2263, "做": 2264, "停": 2265, "健": 2266, "偲": 2267, "側": 2268, "偵": 2269, "偶": 2270, "偷": 2271, "偽": 2272, "偿": 2273, "傀": 2274, "傅": 2275, "傈": 2276, "傍": 2277, "傑": 2278, "傕": 2279, "傘": 2280, "備": 2281, "傢": 2282, "傣": 2283, "储": 2284, "催": 2285, "傭": 2286, "傲": 2287, "傳": 2288, "債": 2289, "傷": 2290, "傻": 2291, "傾": 2292, "僅": 2293, "僉": 2294, "働": 2295, "像": 2296, "僑": 2297, "僕": 2298, "僖": 2299, "僚": 2300, "僧": 2301, "僭": 2302, "僮": 2303, "僱": 2304, "僳": 2305, "僵": 2306, "價": 2307, "僻": 2308, "儀": 2309, "儁": 2310, "儂": 2311, "億": 2312, "儉": 2313, "儋": 2314, "儒": 2315, "儘": 2316, "儚": 2317, "償": 2318, "儡": 2319, "優": 2320, "儲": 2321, "儷": 2322, "儼": 2323, "儿": 2324, "兀": 2325, "允": 2326, "元": 2327, "兄": 2328, "充": 2329, "兆": 2330, "兇": 2331, "先": 2332, "光": 2333, "克": 2334, "兌": 2335, "免": 2336, "兎": 2337, "児": 2338, "兑": 2339, "兒": 2340, "兔": 2341, "兖": 2342, "兗": 2343, "党": 2344, "兜": 2345, "兢": 2346, "入": 2347, "內": 2348, "全": 2349, "兩": 2350, "兪": 2351, "八": 2352, "公": 2353, "六": 2354, "兮": 2355, "兰": 2356, "共": 2357, "关": 2358, "兴": 2359, "兵": 2360, "其": 2361, "具": 2362, "典": 2363, "兹": 2364, "养": 2365, "兼": 2366, "兽": 2367, "冀": 2368, "内": 2369, "円": 2370, "冇": 2371, "冈": 2372, "冉": 2373, "冊": 2374, "册": 2375, "再": 2376, "冏": 2377, "冑": 2378, "冒": 2379, "冕": 2380, "冗": 2381, "写": 2382, "军": 2383, "农": 2384, "冠": 2385, "冢": 2386, "冤": 2387, "冥": 2388, "冨": 2389, "冪": 2390, "冬": 2391, "冯": 2392, "冰": 2393, "冲": 2394, "决": 2395, "冴": 2396, "况": 2397, "冶": 2398, "冷": 2399, "冻": 2400, "冼": 2401, "净": 2402, "凄": 2403, "准": 2404, "凉": 2405, "凋": 2406, "凌": 2407, "凍": 2408, "减": 2409, "凑": 2410, "凛": 2411, "凜": 2412, "凝": 2413, "几": 2414, "凡": 2415, "凤": 2416, "処": 2417, "凧": 2418, "凪": 2419, "凭": 2420, "凯": 2421, "凰": 2422, "凱": 2423, "凳": 2424, "凶": 2425, "凸": 2426, "凹": 2427, "出": 2428, "击": 2429, "函": 2430, "凿": 2431, "刀": 2432, "刁": 2433, "刃": 2434, "分": 2435, "切": 2436, "刈": 2437, "刊": 2438, "刍": 2439, "刎": 2440, "刑": 2441, "划": 2442, "列": 2443, "刘": 2444, "则": 2445, "刚": 2446, "创": 2447, "初": 2448, "删": 2449, "判": 2450, "別": 2451, "利": 2452, "刪": 2453, "别": 2454, "刮": 2455, "到": 2456, "制": 2457, "刷": 2458, "券": 2459, "刹": 2460, "刺": 2461, "刻": 2462, "剂": 2463, "剃": 2464, "則": 2465, "削": 2466, "剋": 2467, "剌": 2468, "前": 2469, "剎": 2470, "剑": 2471, "剔": 2472, "剖": 2473, "剛": 2474, "剝": 2475, "剣": 2476, "剤": 2477, "剥": 2478, "剧": 2479, "剩": 2480, "剪": 2481, "副": 2482, "剰": 2483, "割": 2484, "創": 2485, "剷": 2486, "剽": 2487, "剿": 2488, "劃": 2489, "劇": 2490, "劈": 2491, "劉": 2492, "劍": 2493, "劑": 2494, "力": 2495, "劝": 2496, "办": 2497, "功": 2498, "加": 2499, "务": 2500, "劣": 2501, "动": 2502, "助": 2503, "努": 2504, "劫": 2505, "劭": 2506, "励": 2507, "劲": 2508, "劳": 2509, "労": 2510, "効": 2511, "劾": 2512, "势": 2513, "勁": 2514, "勃": 2515, "勅": 2516, "勇": 2517, "勉": 2518, "勋": 2519, "勐": 2520, "勒": 2521, "動": 2522, "勖": 2523, "勗": 2524, "勘": 2525, "務": 2526, "勛": 2527, "勝": 2528, "勞": 2529, "募": 2530, "勢": 2531, "勤": 2532, "勧": 2533, "勲": 2534, "勳": 2535, "勵": 2536, "勸": 2537, "勺": 2538, "勻": 2539, "勾": 2540, "勿": 2541, "匀": 2542, "匂": 2543, "包": 2544, "匆": 2545, "匈": 2546, "匍": 2547, "匐": 2548, "匕": 2549, "化": 2550, "北": 2551, "匙": 2552, "匝": 2553, "匠": 2554, "匡": 2555, "匣": 2556, "匪": 2557, "匮": 2558, "匯": 2559, "匱": 2560, "匹": 2561, "区": 2562, "医": 2563, "匾": 2564, "匿": 2565, "區": 2566, "十": 2567, "千": 2568, "卅": 2569, "升": 2570, "午": 2571, "卉": 2572, "半": 2573, "卍": 2574, "华": 2575, "协": 2576, "卑": 2577, "卒": 2578, "卓": 2579, "協": 2580, "单": 2581, "卖": 2582, "南": 2583, "単": 2584, "博": 2585, "卜": 2586, "卞": 2587, "占": 2588, "卡": 2589, "卢": 2590, "卤": 2591, "卦": 2592, "卧": 2593, "卫": 2594, "卯": 2595, "印": 2596, "危": 2597, "即": 2598, "却": 2599, "卵": 2600, "卷": 2601, "卸": 2602, "卻": 2603, "卿": 2604, "厂": 2605, "厄": 2606, "厅": 2607, "历": 2608, "厉": 2609, "压": 2610, "厌": 2611, "厕": 2612, "厘": 2613, "厚": 2614, "厝": 2615, "原": 2616, "厢": 2617, "厥": 2618, "厦": 2619, "厨": 2620, "厩": 2621, "厭": 2622, "厲": 2623, "厳": 2624, "去": 2625, "县": 2626, "参": 2627, "參": 2628, "又": 2629, "叉": 2630, "及": 2631, "友": 2632, "双": 2633, "反": 2634, "収": 2635, "发": 2636, "叔": 2637, "取": 2638, "受": 2639, "变": 2640, "叙": 2641, "叛": 2642, "叟": 2643, "叠": 2644, "叡": 2645, "叢": 2646, "口": 2647, "古": 2648, "句": 2649, "另": 2650, "叩": 2651, "只": 2652, "叫": 2653, "召": 2654, "叭": 2655, "叮": 2656, "可": 2657, "台": 2658, "叱": 2659, "史": 2660, "右": 2661, "叶": 2662, "号": 2663, "司": 2664, "叹": 2665, "叻": 2666, "吁": 2667, "吃": 2668, "各": 2669, "合": 2670, "吉": 2671, "吊": 2672, "吋": 2673, "同": 2674, "名": 2675, "后": 2676, "吏": 2677, "吐": 2678, "向": 2679, "吒": 2680, "吓": 2681, "吕": 2682, "吗": 2683, "君": 2684, "吝": 2685, "吞": 2686, "吟": 2687, "吠": 2688, "吡": 2689, "否": 2690, "吧": 2691, "吨": 2692, "吩": 2693, "含": 2694, "听": 2695, "启": 2696, "吳": 2697, "吴": 2698, "吵": 2699, "吶": 2700, "吸": 2701, "吹": 2702, "吻": 2703, "吼": 2704, "吾": 2705, "呀": 2706, "呂": 2707, "呆": 2708, "呈": 2709, "呉": 2710, "告": 2711, "呋": 2712, "呎": 2713, "呐": 2714, "呑": 2715, "呕": 2716, "员": 2717, "呛": 2718, "呜": 2719, "呟": 2720, "呢": 2721, "呤": 2722, "周": 2723, "呪": 2724, "味": 2725, "呵": 2726, "呼": 2727, "命": 2728, "咀": 2729, "咁": 2730, "咄": 2731, "咆": 2732, "咋": 2733, "和": 2734, "咎": 2735, "咏": 2736, "咐": 2737, "咒": 2738, "咕": 2739, "咖": 2740, "咤": 2741, "咥": 2742, "咨": 2743, "咩": 2744, "咪": 2745, "咫": 2746, "咬": 2747, "咯": 2748, "咱": 2749, "咲": 2750, "咳": 2751, "咸": 2752, "咽": 2753, "哀": 2754, "品": 2755, "哄": 2756, "哆": 2757, "哇": 2758, "哈": 2759, "哉": 2760, "哌": 2761, "响": 2762, "哑": 2763, "哗": 2764, "員": 2765, "哥": 2766, "哦": 2767, "哨": 2768, "哩": 2769, "哪": 2770, "哭": 2771, "哮": 2772, "哲": 2773, "哺": 2774, "哼": 2775, "唁": 2776, "唄": 2777, "唆": 2778, "唇": 2779, "唐": 2780, "唑": 2781, "唔": 2782, "唖": 2783, "唤": 2784, "售": 2785, "唯": 2786, "唱": 2787, "唸": 2788, "唾": 2789, "啄": 2790, "商": 2791, "啉": 2792, "啊": 2793, "問": 2794, "啓": 2795, "啖": 2796, "啜": 2797, "啞": 2798, "啟": 2799, "啡": 2800, "啤": 2801, "啦": 2802, "啮": 2803, "啰": 2804, "啶": 2805, "啸": 2806, "啼": 2807, "啾": 2808, "喀": 2809, "喂": 2810, "喃": 2811, "善": 2812, "喆": 2813, "喇": 2814, "喉": 2815, "喊": 2816, "喋": 2817, "喔": 2818, "喘": 2819, "喙": 2820, "喚": 2821, "喜": 2822, "喝": 2823, "喧": 2824, "喩": 2825, "喪": 2826, "喫": 2827, "喬": 2828, "單": 2829, "喰": 2830, "喱": 2831, "喵": 2832, "営": 2833, "喷": 2834, "喻": 2835, "嗅": 2836, "嗎": 2837, "嗓": 2838, "嗚": 2839, "嗜": 2840, "嗟": 2841, "嗣": 2842, "嗪": 2843, "嗽": 2844, "嘅": 2845, "嘆": 2846, "嘉": 2847, "嘌": 2848, "嘎": 2849, "嘔": 2850, "嘗": 2851, "嘘": 2852, "嘛": 2853, "嘟": 2854, "嘢": 2855, "嘧": 2856, "嘩": 2857, "嘯": 2858, "嘱": 2859, "嘲": 2860, "嘴": 2861, "嘶": 2862, "嘻": 2863, "嘿": 2864, "噁": 2865, "噂": 2866, "噌": 2867, "噗": 2868, "噛": 2869, "噜": 2870, "器": 2871, "噩": 2872, "噪": 2873, "噬": 2874, "噴": 2875, "噶": 2876, "噸": 2877, "噹": 2878, "噺": 2879, "噻": 2880, "嚆": 2881, "嚇": 2882, "嚎": 2883, "嚕": 2884, "嚢": 2885, "嚣": 2886, "嚮": 2887, "嚴": 2888, "嚼": 2889, "囁": 2890, "囂": 2891, "囃": 2892, "囉": 2893, "囊": 2894, "囍": 2895, "囑": 2896, "囗": 2897, "囚": 2898, "四": 2899, "回": 2900, "因": 2901, "团": 2902, "団": 2903, "囤": 2904, "囧": 2905, "囪": 2906, "园": 2907, "囮": 2908, "困": 2909, "囱": 2910, "囲": 2911, "図": 2912, "围": 2913, "固": 2914, "国": 2915, "图": 2916, "圀": 2917, "圃": 2918, "圆": 2919, "圈": 2920, "國": 2921, "圍": 2922, "圏": 2923, "園": 2924, "圓": 2925, "圖": 2926, "團": 2927, "圜": 2928, "土": 2929, "圣": 2930, "圧": 2931, "在": 2932, "圩": 2933, "圪": 2934, "圭": 2935, "地": 2936, "圳": 2937, "场": 2938, "圻": 2939, "圾": 2940, "址": 2941, "坂": 2942, "均": 2943, "坊": 2944, "坍": 2945, "坎": 2946, "坏": 2947, "坐": 2948, "坑": 2949, "块": 2950, "坚": 2951, "坛": 2952, "坜": 2953, "坝": 2954, "坞": 2955, "坟": 2956, "坠": 2957, "坡": 2958, "坤": 2959, "坦": 2960, "坨": 2961, "坪": 2962, "坳": 2963, "坵": 2964, "坷": 2965, "垂": 2966, "垃": 2967, "垄": 2968, "垅": 2969, "型": 2970, "垌": 2971, "垒": 2972, "垓": 2973, "垛": 2974, "垟": 2975, "垠": 2976, "垢": 2977, "垣": 2978, "垦": 2979, "垩": 2980, "垫": 2981, "垭": 2982, "垮": 2983, "垸": 2984, "埃": 2985, "埋": 2986, "城": 2987, "埔": 2988, "埕": 2989, "埗": 2990, "埜": 2991, "域": 2992, "埠": 2993, "埡": 2994, "埤": 2995, "埭": 2996, "埴": 2997, "執": 2998, "培": 2999, "基": 3000, "埼": 3001, "堀": 3002, "堂": 3003, "堃": 3004, "堅": 3005, "堆": 3006, "堇": 3007, "堊": 3008, "堑": 3009, "堕": 3010, "堡": 3011, "堤": 3012, "堪": 3013, "堯": 3014, "堰": 3015, "報": 3016, "場": 3017, "堵": 3018, "堺": 3019, "塀": 3020, "塁": 3021, "塊": 3022, "塌": 3023, "塑": 3024, "塔": 3025, "塗": 3026, "塘": 3027, "塙": 3028, "塚": 3029, "塞": 3030, "塢": 3031, "塩": 3032, "填": 3033, "塬": 3034, "塭": 3035, "塵": 3036, "塹": 3037, "塾": 3038, "墀": 3039, "境": 3040, "墅": 3041, "墉": 3042, "墊": 3043, "墓": 3044, "増": 3045, "墘": 3046, "墙": 3047, "墜": 3048, "增": 3049, "墟": 3050, "墨": 3051, "墩": 3052, "墮": 3053, "墳": 3054, "墾": 3055, "壁": 3056, "壇": 3057, "壊": 3058, "壌": 3059, "壑": 3060, "壓": 3061, "壕": 3062, "壘": 3063, "壞": 3064, "壟": 3065, "壠": 3066, "壢": 3067, "壤": 3068, "壩": 3069, "士": 3070, "壬": 3071, "壮": 3072, "壯": 3073, "声": 3074, "壱": 3075, "売": 3076, "壳": 3077, "壶": 3078, "壷": 3079, "壹": 3080, "壺": 3081, "壽": 3082, "处": 3083, "备": 3084, "変": 3085, "复": 3086, "夏": 3087, "夔": 3088, "夕": 3089, "外": 3090, "夙": 3091, "多": 3092, "夜": 3093, "够": 3094, "夠": 3095, "夢": 3096, "夥": 3097, "大": 3098, "天": 3099, "太": 3100, "夫": 3101, "夭": 3102, "央": 3103, "夯": 3104, "失": 3105, "头": 3106, "夷": 3107, "夸": 3108, "夹": 3109, "夺": 3110, "夾": 3111, "奄": 3112, "奇": 3113, "奈": 3114, "奉": 3115, "奋": 3116, "奎": 3117, "奏": 3118, "奐": 3119, "契": 3120, "奔": 3121, "奕": 3122, "奖": 3123, "套": 3124, "奘": 3125, "奚": 3126, "奠": 3127, "奢": 3128, "奥": 3129, "奧": 3130, "奨": 3131, "奪": 3132, "奬": 3133, "奭": 3134, "奮": 3135, "女": 3136, "奴": 3137, "奶": 3138, "奸": 3139, "她": 3140, "好": 3141, "如": 3142, "妃": 3143, "妄": 3144, "妆": 3145, "妇": 3146, "妈": 3147, "妊": 3148, "妍": 3149, "妒": 3150, "妓": 3151, "妖": 3152, "妙": 3153, "妝": 3154, "妞": 3155, "妤": 3156, "妥": 3157, "妨": 3158, "妬": 3159, "妮": 3160, "妲": 3161, "妳": 3162, "妹": 3163, "妻": 3164, "妾": 3165, "姆": 3166, "姉": 3167, "姊": 3168, "始": 3169, "姍": 3170, "姐": 3171, "姑": 3172, "姓": 3173, "委": 3174, "姗": 3175, "姚": 3176, "姜": 3177, "姝": 3178, "姥": 3179, "姦": 3180, "姨": 3181, "姪": 3182, "姫": 3183, "姬": 3184, "姶": 3185, "姻": 3186, "姿": 3187, "威": 3188, "娃": 3189, "娄": 3190, "娅": 3191, "娇": 3192, "娑": 3193, "娘": 3194, "娛": 3195, "娜": 3196, "娟": 3197, "娠": 3198, "娣": 3199, "娥": 3200, "娩": 3201, "娯": 3202, "娱": 3203, "娴": 3204, "娶": 3205, "娼": 3206, "婁": 3207, "婆": 3208, "婉": 3209, "婕": 3210, "婚": 3211, "婢": 3212, "婦": 3213, "婧": 3214, "婪": 3215, "婭": 3216, "婴": 3217, "婶": 3218, "婷": 3219, "婺": 3220, "婿": 3221, "媒": 3222, "媚": 3223, "媛": 3224, "媲": 3225, "媳": 3226, "媽": 3227, "嫁": 3228, "嫂": 3229, "嫉": 3230, "嫌": 3231, "嫔": 3232, "嫖": 3233, "嫡": 3234, "嫣": 3235, "嫦": 3236, "嫩": 3237, "嫻": 3238, "嬅": 3239, "嬉": 3240, "嬌": 3241, "嬢": 3242, "嬤": 3243, "嬪": 3244, "嬬": 3245, "嬰": 3246, "嬴": 3247, "嬷": 3248, "嬸": 3249, "孀": 3250, "子": 3251, "孔": 3252, "孕": 3253, "孖": 3254, "字": 3255, "存": 3256, "孙": 3257, "孚": 3258, "孛": 3259, "孜": 3260, "孝": 3261, "孟": 3262, "孢": 3263, "季": 3264, "孤": 3265, "学": 3266, "孩": 3267, "孫": 3268, "孰": 3269, "孵": 3270, "學": 3271, "孺": 3272, "孽": 3273, "宁": 3274, "它": 3275, "宅": 3276, "宇": 3277, "守": 3278, "安": 3279, "宋": 3280, "完": 3281, "宍": 3282, "宏": 3283, "宓": 3284, "宕": 3285, "宗": 3286, "官": 3287, "宙": 3288, "定": 3289, "宛": 3290, "宜": 3291, "宝": 3292, "实": 3293, "実": 3294, "宠": 3295, "审": 3296, "客": 3297, "宣": 3298, "室": 3299, "宥": 3300, "宦": 3301, "宪": 3302, "宫": 3303, "宮": 3304, "宰": 3305, "害": 3306, "宴": 3307, "宵": 3308, "家": 3309, "宸": 3310, "容": 3311, "宽": 3312, "宾": 3313, "宿": 3314, "寂": 3315, "寄": 3316, "寅": 3317, "密": 3318, "寇": 3319, "富": 3320, "寐": 3321, "寒": 3322, "寓": 3323, "寔": 3324, "寛": 3325, "寝": 3326, "寞": 3327, "察": 3328, "寡": 3329, "寢": 3330, "寥": 3331, "實": 3332, "寧": 3333, "寨": 3334, "審": 3335, "寫": 3336, "寬": 3337, "寮": 3338, "寰": 3339, "寵": 3340, "寶": 3341, "寸": 3342, "对": 3343, "寺": 3344, "寻": 3345, "导": 3346, "対": 3347, "寿": 3348, "封": 3349, "専": 3350, "射": 3351, "将": 3352, "將": 3353, "專": 3354, "尉": 3355, "尊": 3356, "尋": 3357, "對": 3358, "導": 3359, "小": 3360, "少": 3361, "尔": 3362, "尕": 3363, "尖": 3364, "尘": 3365, "尙": 3366, "尚": 3367, "尝": 3368, "尤": 3369, "尧": 3370, "尬": 3371, "尭": 3372, "就": 3373, "尴": 3374, "尷": 3375, "尸": 3376, "尹": 3377, "尺": 3378, "尻": 3379, "尼": 3380, "尽": 3381, "尾": 3382, "尿": 3383, "局": 3384, "屁": 3385, "层": 3386, "居": 3387, "屆": 3388, "屈": 3389, "届": 3390, "屋": 3391, "屍": 3392, "屎": 3393, "屏": 3394, "屑": 3395, "展": 3396, "属": 3397, "屠": 3398, "屡": 3399, "屢": 3400, "層": 3401, "履": 3402, "屬": 3403, "屯": 3404, "山": 3405, "屹": 3406, "屿": 3407, "岁": 3408, "岂": 3409, "岌": 3410, "岐": 3411, "岑": 3412, "岔": 3413, "岖": 3414, "岗": 3415, "岘": 3416, "岙": 3417, "岚": 3418, "岛": 3419, "岡": 3420, "岩": 3421, "岫": 3422, "岬": 3423, "岭": 3424, "岱": 3425, "岳": 3426, "岷": 3427, "岸": 3428, "峁": 3429, "峇": 3430, "峒": 3431, "峙": 3432, "峠": 3433, "峡": 3434, "峦": 3435, "峨": 3436, "峪": 3437, "峭": 3438, "峯": 3439, "峰": 3440, "峴": 3441, "島": 3442, "峻": 3443, "峽": 3444, "崁": 3445, "崇": 3446, "崎": 3447, "崑": 3448, "崔": 3449, "崖": 3450, "崗": 3451, "崙": 3452, "崛": 3453, "崧": 3454, "崩": 3455, "崭": 3456, "崴": 3457, "嵇": 3458, "嵊": 3459, "嵋": 3460, "嵌": 3461, "嵐": 3462, "嵜": 3463, "嵩": 3464, "嵯": 3465, "嶄": 3466, "嶇": 3467, "嶋": 3468, "嶠": 3469, "嶷": 3470, "嶺": 3471, "嶼": 3472, "嶽": 3473, "巅": 3474, "巌": 3475, "巍": 3476, "巒": 3477, "巔": 3478, "巖": 3479, "川": 3480, "州": 3481, "巡": 3482, "巢": 3483, "巣": 3484, "工": 3485, "左": 3486, "巧": 3487, "巨": 3488, "巩": 3489, "巫": 3490, "差": 3491, "己": 3492, "已": 3493, "巳": 3494, "巴": 3495, "巷": 3496, "巻": 3497, "巽": 3498, "巾": 3499, "币": 3500, "市": 3501, "布": 3502, "帅": 3503, "帆": 3504, "师": 3505, "希": 3506, "帐": 3507, "帑": 3508, "帕": 3509, "帖": 3510, "帘": 3511, "帚": 3512, "帛": 3513, "帜": 3514, "帝": 3515, "帥": 3516, "带": 3517, "帧": 3518, "師": 3519, "席": 3520, "帮": 3521, "帯": 3522, "帰": 3523, "帳": 3524, "帶": 3525, "帷": 3526, "常": 3527, "帽": 3528, "幀": 3529, "幂": 3530, "幅": 3531, "幇": 3532, "幌": 3533, "幔": 3534, "幕": 3535, "幟": 3536, "幡": 3537, "幢": 3538, "幣": 3539, "幫": 3540, "干": 3541, "平": 3542, "年": 3543, "并": 3544, "幸": 3545, "幹": 3546, "幺": 3547, "幻": 3548, "幼": 3549, "幽": 3550, "幾": 3551, "广": 3552, "庁": 3553, "広": 3554, "庄": 3555, "庆": 3556, "庇": 3557, "床": 3558, "序": 3559, "庐": 3560, "库": 3561, "应": 3562, "底": 3563, "店": 3564, "庙": 3565, "庚": 3566, "府": 3567, "庞": 3568, "废": 3569, "庠": 3570, "度": 3571, "座": 3572, "庫": 3573, "庭": 3574, "庵": 3575, "庶": 3576, "康": 3577, "庸": 3578, "庾": 3579, "廁": 3580, "廂": 3581, "廃": 3582, "廈": 3583, "廉": 3584, "廊": 3585, "廍": 3586, "廓": 3587, "廖": 3588, "廚": 3589, "廟": 3590, "廠": 3591, "廢": 3592, "廣": 3593, "廬": 3594, "廳": 3595, "延": 3596, "廷": 3597, "建": 3598, "廻": 3599, "廼": 3600, "廿": 3601, "开": 3602, "弁": 3603, "异": 3604, "弃": 3605, "弄": 3606, "弈": 3607, "弊": 3608, "弋": 3609, "式": 3610, "弐": 3611, "弑": 3612, "弒": 3613, "弓": 3614, "弔": 3615, "引": 3616, "弗": 3617, "弘": 3618, "弛": 3619, "弟": 3620, "张": 3621, "弥": 3622, "弦": 3623, "弧": 3624, "弩": 3625, "弭": 3626, "弯": 3627, "弱": 3628, "張": 3629, "強": 3630, "弹": 3631, "强": 3632, "弼": 3633, "弾": 3634, "彅": 3635, "彈": 3636, "彊": 3637, "彌": 3638, "彎": 3639, "归": 3640, "当": 3641, "录": 3642, "彗": 3643, "彙": 3644, "彝": 3645, "形": 3646, "彤": 3647, "彥": 3648, "彦": 3649, "彧": 3650, "彩": 3651, "彪": 3652, "彫": 3653, "彬": 3654, "彭": 3655, "彰": 3656, "影": 3657, "彷": 3658, "役": 3659, "彻": 3660, "彼": 3661, "彿": 3662, "往": 3663, "征": 3664, "径": 3665, "待": 3666, "徇": 3667, "很": 3668, "徊": 3669, "律": 3670, "後": 3671, "徐": 3672, "徑": 3673, "徒": 3674, "従": 3675, "得": 3676, "徘": 3677, "徙": 3678, "從": 3679, "徠": 3680, "御": 3681, "徨": 3682, "復": 3683, "循": 3684, "徭": 3685, "微": 3686, "徳": 3687, "徴": 3688, "徵": 3689, "德": 3690, "徹": 3691, "徽": 3692, "心": 3693, "必": 3694, "忆": 3695, "忌": 3696, "忍": 3697, "忏": 3698, "忒": 3699, "志": 3700, "忘": 3701, "忙": 3702, "応": 3703, "忠": 3704, "忤": 3705, "忧": 3706, "快": 3707, "忱": 3708, "念": 3709, "忻": 3710, "忽": 3711, "忿": 3712, "怀": 3713, "态": 3714, "怎": 3715, "怒": 3716, "怕": 3717, "怖": 3718, "怛": 3719, "怜": 3720, "思": 3721, "怠": 3722, "怡": 3723, "急": 3724, "性": 3725, "怨": 3726, "怪": 3727, "怯": 3728, "总": 3729, "恂": 3730, "恃": 3731, "恆": 3732, "恋": 3733, "恍": 3734, "恐": 3735, "恒": 3736, "恕": 3737, "恙": 3738, "恚": 3739, "恢": 3740, "恣": 3741, "恤": 3742, "恥": 3743, "恨": 3744, "恩": 3745, "恪": 3746, "恬": 3747, "恭": 3748, "息": 3749, "恰": 3750, "恳": 3751, "恵": 3752, "恶": 3753, "恺": 3754, "恼": 3755, "恽": 3756, "恿": 3757, "悄": 3758, "悅": 3759, "悉": 3760, "悌": 3761, "悍": 3762, "悔": 3763, "悖": 3764, "悚": 3765, "悟": 3766, "悠": 3767, "患": 3768, "悦": 3769, "您": 3770, "悩": 3771, "悪": 3772, "悬": 3773, "悯": 3774, "悲": 3775, "悶": 3776, "悸": 3777, "悼": 3778, "情": 3779, "惇": 3780, "惊": 3781, "惑": 3782, "惕": 3783, "惚": 3784, "惛": 3785, "惜": 3786, "惟": 3787, "惠": 3788, "惡": 3789, "惣": 3790, "惧": 3791, "惨": 3792, "惩": 3793, "惮": 3794, "惯": 3795, "惰": 3796, "惱": 3797, "惲": 3798, "想": 3799, "惶": 3800, "惹": 3801, "惺": 3802, "愁": 3803, "愈": 3804, "愉": 3805, "愍": 3806, "意": 3807, "愔": 3808, "愕": 3809, "愚": 3810, "愛": 3811, "感": 3812, "愤": 3813, "愧": 3814, "愫": 3815, "愷": 3816, "愼": 3817, "愿": 3818, "慄": 3819, "慈": 3820, "態": 3821, "慌": 3822, "慎": 3823, "慑": 3824, "慕": 3825, "慘": 3826, "慚": 3827, "慟": 3828, "慢": 3829, "慣": 3830, "慧": 3831, "慨": 3832, "慮": 3833, "慰": 3834, "慳": 3835, "慶": 3836, "慷": 3837, "慾": 3838, "憂": 3839, "憍": 3840, "憎": 3841, "憐": 3842, "憑": 3843, "憚": 3844, "憤": 3845, "憧": 3846, "憨": 3847, "憩": 3848, "憫": 3849, "憬": 3850, "憲": 3851, "憶": 3852, "憾": 3853, "懂": 3854, "懇": 3855, "懈": 3856, "應": 3857, "懋": 3858, "懐": 3859, "懒": 3860, "懦": 3861, "懲": 3862, "懶": 3863, "懷": 3864, "懸": 3865, "懺": 3866, "懼": 3867, "懿": 3868, "戀": 3869, "戈": 3870, "戊": 3871, "戌": 3872, "戍": 3873, "戎": 3874, "戏": 3875, "成": 3876, "我": 3877, "戒": 3878, "或": 3879, "战": 3880, "戚": 3881, "戛": 3882, "戟": 3883, "戡": 3884, "戦": 3885, "截": 3886, "戮": 3887, "戯": 3888, "戰": 3889, "戱": 3890, "戲": 3891, "戳": 3892, "戴": 3893, "戶": 3894, "户": 3895, "戸": 3896, "戻": 3897, "戾": 3898, "房": 3899, "所": 3900, "扁": 3901, "扇": 3902, "扈": 3903, "扉": 3904, "手": 3905, "才": 3906, "扎": 3907, "扑": 3908, "扒": 3909, "打": 3910, "扔": 3911, "払": 3912, "托": 3913, "扛": 3914, "扣": 3915, "执": 3916, "扩": 3917, "扫": 3918, "扬": 3919, "扭": 3920, "扮": 3921, "扯": 3922, "扰": 3923, "扱": 3924, "扳": 3925, "扶": 3926, "批": 3927, "扼": 3928, "找": 3929, "承": 3930, "技": 3931, "抄": 3932, "抉": 3933, "把": 3934, "抑": 3935, "抒": 3936, "抓": 3937, "投": 3938, "抖": 3939, "抗": 3940, "折": 3941, "抚": 3942, "抛": 3943, "抜": 3944, "択": 3945, "抢": 3946, "护": 3947, "报": 3948, "抨": 3949, "披": 3950, "抬": 3951, "抱": 3952, "抵": 3953, "抹": 3954, "押": 3955, "抽": 3956, "拂": 3957, "担": 3958, "拆": 3959, "拇": 3960, "拉": 3961, "拋": 3962, "拌": 3963, "拍": 3964, "拏": 3965, "拐": 3966, "拒": 3967, "拓": 3968, "拔": 3969, "拖": 3970, "拗": 3971, "拘": 3972, "拙": 3973, "拚": 3974, "招": 3975, "拜": 3976, "拝": 3977, "拟": 3978, "拠": 3979, "拡": 3980, "拢": 3981, "拣": 3982, "拥": 3983, "拦": 3984, "拨": 3985, "择": 3986, "括": 3987, "拭": 3988, "拮": 3989, "拯": 3990, "拱": 3991, "拳": 3992, "拶": 3993, "拷": 3994, "拼": 3995, "拾": 3996, "拿": 3997, "持": 3998, "挂": 3999, "指": 4000, "按": 4001, "挑": 4002, "挖": 4003, "挙": 4004, "挚": 4005, "挛": 4006, "挝": 4007, "挞": 4008, "挟": 4009, "挠": 4010, "挡": 4011, "挣": 4012, "挤": 4013, "挥": 4014, "挨": 4015, "挪": 4016, "挫": 4017, "振": 4018, "挹": 4019, "挺": 4020, "挽": 4021, "挾": 4022, "挿": 4023, "捆": 4024, "捉": 4025, "捌": 4026, "捍": 4027, "捏": 4028, "捐": 4029, "捕": 4030, "捗": 4031, "捜": 4032, "捞": 4033, "损": 4034, "捡": 4035, "换": 4036, "捣": 4037, "捧": 4038, "捨": 4039, "捩": 4040, "据": 4041, "捲": 4042, "捷": 4043, "捺": 4044, "捻": 4045, "掀": 4046, "掃": 4047, "授": 4048, "掉": 4049, "掌": 4050, "掏": 4051, "排": 4052, "掖": 4053, "掘": 4054, "掙": 4055, "掛": 4056, "掟": 4057, "掠": 4058, "採": 4059, "探": 4060, "掣": 4061, "接": 4062, "控": 4063, "推": 4064, "掩": 4065, "措": 4066, "掬": 4067, "掲": 4068, "掳": 4069, "掴": 4070, "掷": 4071, "掸": 4072, "掺": 4073, "掻": 4074, "掾": 4075, "揀": 4076, "揃": 4077, "揄": 4078, "揆": 4079, "揉": 4080, "描": 4081, "提": 4082, "插": 4083, "揖": 4084, "揚": 4085, "換": 4086, "握": 4087, "揣": 4088, "揪": 4089, "揭": 4090, "揮": 4091, "援": 4092, "揶": 4093, "揺": 4094, "揽": 4095, "搁": 4096, "搅": 4097, "損": 4098, "搏": 4099, "搖": 4100, "搗": 4101, "搜": 4102, "搞": 4103, "搬": 4104, "搭": 4105, "搶": 4106, "携": 4107, "搾": 4108, "摂": 4109, "摄": 4110, "摆": 4111, "摇": 4112, "摊": 4113, "摒": 4114, "摔": 4115, "摘": 4116, "摠": 4117, "摧": 4118, "摩": 4119, "摯": 4120, "摸": 4121, "摹": 4122, "摺": 4123, "摻": 4124, "撃": 4125, "撇": 4126, "撈": 4127, "撐": 4128, "撑": 4129, "撒": 4130, "撓": 4131, "撕": 4132, "撞": 4133, "撣": 4134, "撤": 4135, "撥": 4136, "撫": 4137, "播": 4138, "撮": 4139, "撰": 4140, "撲": 4141, "撹": 4142, "撻": 4143, "撼": 4144, "撿": 4145, "擁": 4146, "擂": 4147, "擄": 4148, "擅": 4149, "擇": 4150, "擊": 4151, "擋": 4152, "操": 4153, "擎": 4154, "擒": 4155, "擔": 4156, "擘": 4157, "據": 4158, "擠": 4159, "擢": 4160, "擦": 4161, "擧": 4162, "擬": 4163, "擱": 4164, "擲": 4165, "擴": 4166, "擺": 4167, "擾": 4168, "攀": 4169, "攏": 4170, "攔": 4171, "攘": 4172, "攜": 4173, "攝": 4174, "攣": 4175, "攤": 4176, "攪": 4177, "攫": 4178, "攬": 4179, "支": 4180, "收": 4181, "攸": 4182, "改": 4183, "攻": 4184, "放": 4185, "政": 4186, "故": 4187, "效": 4188, "敌": 4189, "敍": 4190, "敎": 4191, "敏": 4192, "救": 4193, "敕": 4194, "敖": 4195, "敗": 4196, "敘": 4197, "教": 4198, "敛": 4199, "敝": 4200, "敞": 4201, "敢": 4202, "散": 4203, "敦": 4204, "敬": 4205, "数": 4206, "敲": 4207, "整": 4208, "敵": 4209, "敷": 4210, "數": 4211, "斂": 4212, "斃": 4213, "文": 4214, "斉": 4215, "斋": 4216, "斌": 4217, "斎": 4218, "斐": 4219, "斑": 4220, "斗": 4221, "料": 4222, "斛": 4223, "斜": 4224, "斟": 4225, "斡": 4226, "斤": 4227, "斥": 4228, "斧": 4229, "斩": 4230, "斬": 4231, "断": 4232, "斯": 4233, "新": 4234, "斷": 4235, "方": 4236, "於": 4237, "施": 4238, "旁": 4239, "旃": 4240, "旅": 4241, "旋": 4242, "旌": 4243, "族": 4244, "旗": 4245, "旛": 4246, "无": 4247, "既": 4248, "日": 4249, "旦": 4250, "旧": 4251, "旨": 4252, "早": 4253, "旬": 4254, "旭": 4255, "旱": 4256, "时": 4257, "旷": 4258, "旺": 4259, "旻": 4260, "旼": 4261, "昀": 4262, "昂": 4263, "昆": 4264, "昇": 4265, "昉": 4266, "昊": 4267, "昌": 4268, "明": 4269, "昏": 4270, "易": 4271, "昔": 4272, "昕": 4273, "昙": 4274, "星": 4275, "映": 4276, "春": 4277, "昧": 4278, "昨": 4279, "昭": 4280, "是": 4281, "昱": 4282, "昴": 4283, "昵": 4284, "昶": 4285, "昼": 4286, "显": 4287, "晁": 4288, "時": 4289, "晃": 4290, "晉": 4291, "晋": 4292, "晏": 4293, "晒": 4294, "晓": 4295, "晔": 4296, "晕": 4297, "晖": 4298, "晗": 4299, "晚": 4300, "晝": 4301, "晞": 4302, "晟": 4303, "晤": 4304, "晦": 4305, "晨": 4306, "晩": 4307, "普": 4308, "景": 4309, "晰": 4310, "晴": 4311, "晶": 4312, "晷": 4313, "智": 4314, "暁": 4315, "暂": 4316, "暄": 4317, "暇": 4318, "暈": 4319, "暉": 4320, "暎": 4321, "暐": 4322, "暑": 4323, "暖": 4324, "暗": 4325, "暠": 4326, "暢": 4327, "暦": 4328, "暧": 4329, "暨": 4330, "暫": 4331, "暮": 4332, "暱": 4333, "暴": 4334, "暹": 4335, "曄": 4336, "曆": 4337, "曇": 4338, "曉": 4339, "曖": 4340, "曙": 4341, "曜": 4342, "曝": 4343, "曠": 4344, "曦": 4345, "曬": 4346, "曰": 4347, "曲": 4348, "曳": 4349, "更": 4350, "曷": 4351, "書": 4352, "曹": 4353, "曺": 4354, "曼": 4355, "曽": 4356, "曾": 4357, "替": 4358, "最": 4359, "會": 4360, "月": 4361, "有": 4362, "朋": 4363, "服": 4364, "朐": 4365, "朔": 4366, "朕": 4367, "朗": 4368, "望": 4369, "朝": 4370, "期": 4371, "朦": 4372, "朧": 4373, "木": 4374, "未": 4375, "末": 4376, "本": 4377, "札": 4378, "术": 4379, "朱": 4380, "朴": 4381, "朵": 4382, "机": 4383, "朽": 4384, "杀": 4385, "杂": 4386, "权": 4387, "杆": 4388, "杉": 4389, "李": 4390, "杏": 4391, "材": 4392, "村": 4393, "杓": 4394, "杖": 4395, "杜": 4396, "杞": 4397, "束": 4398, "杠": 4399, "条": 4400, "杣": 4401, "来": 4402, "杨": 4403, "杭": 4404, "杯": 4405, "杰": 4406, "東": 4407, "杲": 4408, "杵": 4409, "杷": 4410, "杼": 4411, "松": 4412, "板": 4413, "极": 4414, "构": 4415, "枇": 4416, "枉": 4417, "枋": 4418, "析": 4419, "枕": 4420, "林": 4421, "枚": 4422, "果": 4423, "枝": 4424, "枠": 4425, "枡": 4426, "枢": 4427, "枣": 4428, "枪": 4429, "枫": 4430, "枭": 4431, "枯": 4432, "架": 4433, "枷": 4434, "柄": 4435, "柊": 4436, "柏": 4437, "某": 4438, "柑": 4439, "染": 4440, "柔": 4441, "柘": 4442, "柚": 4443, "柜": 4444, "柝": 4445, "柞": 4446, "柠": 4447, "查": 4448, "柩": 4449, "柬": 4450, "柯": 4451, "柱": 4452, "柳": 4453, "柴": 4454, "柵": 4455, "査": 4456, "柾": 4457, "柿": 4458, "栃": 4459, "栄": 4460, "栅": 4461, "标": 4462, "栈": 4463, "栉": 4464, "栋": 4465, "栎": 4466, "栏": 4467, "树": 4468, "栓": 4469, "栖": 4470, "栗": 4471, "栞": 4472, "校": 4473, "栢": 4474, "栩": 4475, "株": 4476, "栱": 4477, "样": 4478, "核": 4479, "根": 4480, "格": 4481, "栽": 4482, "栾": 4483, "桀": 4484, "桁": 4485, "桂": 4486, "桃": 4487, "桅": 4488, "框": 4489, "案": 4490, "桌": 4491, "桐": 4492, "桑": 4493, "桓": 4494, "桔": 4495, "桜": 4496, "桝": 4497, "桟": 4498, "桢": 4499, "档": 4500, "桥": 4501, "桦": 4502, "桧": 4503, "桨": 4504, "桩": 4505, "桶": 4506, "桿": 4507, "梁": 4508, "梅": 4509, "梓": 4510, "梗": 4511, "條": 4512, "梟": 4513, "梢": 4514, "梦": 4515, "梧": 4516, "梨": 4517, "梭": 4518, "梯": 4519, "械": 4520, "梱": 4521, "梳": 4522, "梵": 4523, "梶": 4524, "检": 4525, "棄": 4526, "棉": 4527, "棋": 4528, "棍": 4529, "棒": 4530, "棕": 4531, "棗": 4532, "棘": 4533, "棚": 4534, "棟": 4535, "棠": 4536, "棣": 4537, "棧": 4538, "棨": 4539, "森": 4540, "棱": 4541, "棲": 4542, "棵": 4543, "棹": 4544, "棺": 4545, "棻": 4546, "椀": 4547, "椅": 4548, "椋": 4549, "植": 4550, "椎": 4551, "椒": 4552, "椙": 4553, "検": 4554, "椭": 4555, "椰": 4556, "椴": 4557, "椽": 4558, "椿": 4559, "楊": 4560, "楓": 4561, "楔": 4562, "楕": 4563, "楚": 4564, "楞": 4565, "楠": 4566, "楡": 4567, "楢": 4568, "楣": 4569, "楨": 4570, "楫": 4571, "業": 4572, "楯": 4573, "極": 4574, "楷": 4575, "楸": 4576, "楹": 4577, "楼": 4578, "楽": 4579, "概": 4580, "榄": 4581, "榆": 4582, "榈": 4583, "榊": 4584, "榎": 4585, "榔": 4586, "榕": 4587, "榘": 4588, "榛": 4589, "榜": 4590, "榨": 4591, "榭": 4592, "榮": 4593, "榴": 4594, "榷": 4595, "榻": 4596, "槃": 4597, "槇": 4598, "構": 4599, "槌": 4600, "槍": 4601, "槎": 4602, "槐": 4603, "槓": 4604, "様": 4605, "槙": 4606, "槛": 4607, "槟": 4608, "槭": 4609, "槳": 4610, "槻": 4611, "槽": 4612, "槿": 4613, "樁": 4614, "樂": 4615, "樅": 4616, "樊": 4617, "樋": 4618, "樑": 4619, "樓": 4620, "標": 4621, "樞": 4622, "樟": 4623, "模": 4624, "樣": 4625, "権": 4626, "横": 4627, "樫": 4628, "樱": 4629, "樵": 4630, "樸": 4631, "樹": 4632, "樺": 4633, "樽": 4634, "橄": 4635, "橇": 4636, "橈": 4637, "橋": 4638, "橐": 4639, "橘": 4640, "橙": 4641, "機": 4642, "橡": 4643, "橢": 4644, "橫": 4645, "橿": 4646, "檀": 4647, "檄": 4648, "檎": 4649, "檐": 4650, "檔": 4651, "檗": 4652, "檜": 4653, "檢": 4654, "檬": 4655, "檯": 4656, "檳": 4657, "檸": 4658, "檻": 4659, "櫂": 4660, "櫃": 4661, "櫓": 4662, "櫚": 4663, "櫛": 4664, "櫟": 4665, "櫥": 4666, "櫻": 4667, "欄": 4668, "欅": 4669, "權": 4670, "欒": 4671, "欖": 4672, "欠": 4673, "次": 4674, "欢": 4675, "欣": 4676, "欧": 4677, "欲": 4678, "欺": 4679, "欽": 4680, "款": 4681, "歆": 4682, "歇": 4683, "歉": 4684, "歌": 4685, "歎": 4686, "歐": 4687, "歓": 4688, "歙": 4689, "歡": 4690, "止": 4691, "正": 4692, "此": 4693, "步": 4694, "武": 4695, "歧": 4696, "歩": 4697, "歪": 4698, "歯": 4699, "歲": 4700, "歳": 4701, "歴": 4702, "歷": 4703, "歸": 4704, "歹": 4705, "死": 4706, "歼": 4707, "歿": 4708, "殁": 4709, "殃": 4710, "殆": 4711, "殇": 4712, "殉": 4713, "殊": 4714, "残": 4715, "殖": 4716, "殘": 4717, "殡": 4718, "殤": 4719, "殭": 4720, "殯": 4721, "殲": 4722, "殴": 4723, "段": 4724, "殷": 4725, "殺": 4726, "殻": 4727, "殼": 4728, "殿": 4729, "毀": 4730, "毁": 4731, "毅": 4732, "毆": 4733, "毋": 4734, "母": 4735, "毎": 4736, "每": 4737, "毒": 4738, "毓": 4739, "比": 4740, "毕": 4741, "毗": 4742, "毘": 4743, "毙": 4744, "毛": 4745, "毫": 4746, "毬": 4747, "毯": 4748, "氈": 4749, "氏": 4750, "氐": 4751, "民": 4752, "氓": 4753, "气": 4754, "気": 4755, "氙": 4756, "氛": 4757, "氟": 4758, "氢": 4759, "氣": 4760, "氦": 4761, "氧": 4762, "氨": 4763, "氫": 4764, "氮": 4765, "氯": 4766, "氰": 4767, "水": 4768, "氵": 4769, "氷": 4770, "永": 4771, "氹": 4772, "氾": 4773, "汀": 4774, "汁": 4775, "求": 4776, "汇": 4777, "汉": 4778, "汎": 4779, "汐": 4780, "汕": 4781, "汗": 4782, "汙": 4783, "汚": 4784, "汛": 4785, "汜": 4786, "汝": 4787, "汞": 4788, "江": 4789, "池": 4790, "污": 4791, "汤": 4792, "汨": 4793, "汪": 4794, "汰": 4795, "汲": 4796, "汴": 4797, "汶": 4798, "決": 4799, "汽": 4800, "汾": 4801, "沁": 4802, "沂": 4803, "沃": 4804, "沅": 4805, "沆": 4806, "沈": 4807, "沉": 4808, "沌": 4809, "沐": 4810, "沒": 4811, "沓": 4812, "沔": 4813, "沖": 4814, "沙": 4815, "沛": 4816, "沟": 4817, "没": 4818, "沢": 4819, "沥": 4820, "沦": 4821, "沧": 4822, "沪": 4823, "沫": 4824, "沭": 4825, "沮": 4826, "沱": 4827, "河": 4828, "沸": 4829, "油": 4830, "治": 4831, "沼": 4832, "沽": 4833, "沾": 4834, "沿": 4835, "況": 4836, "泄": 4837, "泉": 4838, "泊": 4839, "泌": 4840, "泓": 4841, "法": 4842, "泗": 4843, "泛": 4844, "泠": 4845, "泡": 4846, "波": 4847, "泣": 4848, "泥": 4849, "注": 4850, "泪": 4851, "泮": 4852, "泰": 4853, "泳": 4854, "泵": 4855, "泷": 4856, "泸": 4857, "泻": 4858, "泼": 4859, "泽": 4860, "泾": 4861, "洁": 4862, "洄": 4863, "洋": 4864, "洒": 4865, "洗": 4866, "洙": 4867, "洛": 4868, "洞": 4869, "津": 4870, "洩": 4871, "洪": 4872, "洮": 4873, "洱": 4874, "洲": 4875, "洵": 4876, "洸": 4877, "洹": 4878, "活": 4879, "洼": 4880, "洽": 4881, "派": 4882, "流": 4883, "浄": 4884, "浅": 4885, "浆": 4886, "浇": 4887, "浊": 4888, "测": 4889, "济": 4890, "浏": 4891, "浑": 4892, "浒": 4893, "浓": 4894, "浔": 4895, "浙": 4896, "浚": 4897, "浜": 4898, "浣": 4899, "浦": 4900, "浩": 4901, "浪": 4902, "浬": 4903, "浮": 4904, "浴": 4905, "海": 4906, "浸": 4907, "涂": 4908, "涅": 4909, "涇": 4910, "消": 4911, "涉": 4912, "涌": 4913, "涎": 4914, "涓": 4915, "涕": 4916, "涙": 4917, "涛": 4918, "涝": 4919, "涟": 4920, "涡": 4921, "涤": 4922, "润": 4923, "涧": 4924, "涨": 4925, "涩": 4926, "涪": 4927, "涯": 4928, "液": 4929, "涵": 4930, "涸": 4931, "涼": 4932, "涿": 4933, "淀": 4934, "淄": 4935, "淅": 4936, "淆": 4937, "淇": 4938, "淋": 4939, "淑": 4940, "淖": 4941, "淘": 4942, "淚": 4943, "淝": 4944, "淞": 4945, "淡": 4946, "淤": 4947, "淦": 4948, "淨": 4949, "淪": 4950, "淫": 4951, "淮": 4952, "深": 4953, "淳": 4954, "淵": 4955, "混": 4956, "淸": 4957, "淹": 4958, "淺": 4959, "添": 4960, "淼": 4961, "清": 4962, "渇": 4963, "済": 4964, "渉": 4965, "渊": 4966, "渋": 4967, "渍": 4968, "渎": 4969, "渐": 4970, "渓": 4971, "渔": 4972, "渕": 4973, "渗": 4974, "渚": 4975, "減": 4976, "渝": 4977, "渠": 4978, "渡": 4979, "渣": 4980, "渤": 4981, "渥": 4982, "渦": 4983, "温": 4984, "測": 4985, "渭": 4986, "港": 4987, "渲": 4988, "渴": 4989, "游": 4990, "渺": 4991, "渾": 4992, "湃": 4993, "湄": 4994, "湊": 4995, "湍": 4996, "湖": 4997, "湘": 4998, "湛": 4999, "湟": 5000, "湧": 5001, "湮": 5002, "湯": 5003, "湳": 5004, "湾": 5005, "湿": 5006, "満": 5007, "溃": 5008, "溅": 5009, "溉": 5010, "源": 5011, "準": 5012, "溜": 5013, "溝": 5014, "溟": 5015, "溢": 5016, "溥": 5017, "溧": 5018, "溪": 5019, "溫": 5020, "溯": 5021, "溴": 5022, "溶": 5023, "溺": 5024, "滁": 5025, "滂": 5026, "滄": 5027, "滅": 5028, "滇": 5029, "滉": 5030, "滋": 5031, "滌": 5032, "滎": 5033, "滑": 5034, "滓": 5035, "滔": 5036, "滕": 5037, "滘": 5038, "滙": 5039, "滚": 5040, "滝": 5041, "滞": 5042, "满": 5043, "滤": 5044, "滥": 5045, "滦": 5046, "滨": 5047, "滩": 5048, "滬": 5049, "滯": 5050, "滲": 5051, "滴": 5052, "滸": 5053, "滾": 5054, "滿": 5055, "漁": 5056, "漂": 5057, "漆": 5058, "漉": 5059, "漏": 5060, "漑": 5061, "漓": 5062, "演": 5063, "漕": 5064, "漠": 5065, "漢": 5066, "漣": 5067, "漩": 5068, "漪": 5069, "漫": 5070, "漬": 5071, "漯": 5072, "漱": 5073, "漲": 5074, "漳": 5075, "漸": 5076, "漾": 5077, "漿": 5078, "潁": 5079, "潇": 5080, "潍": 5081, "潑": 5082, "潔": 5083, "潘": 5084, "潛": 5085, "潜": 5086, "潞": 5087, "潟": 5088, "潢": 5089, "潤": 5090, "潦": 5091, "潭": 5092, "潮": 5093, "潯": 5094, "潰": 5095, "潼": 5096, "澀": 5097, "澁": 5098, "澂": 5099, "澄": 5100, "澆": 5101, "澈": 5102, "澍": 5103, "澎": 5104, "澗": 5105, "澜": 5106, "澡": 5107, "澤": 5108, "澧": 5109, "澪": 5110, "澱": 5111, "澳": 5112, "澹": 5113, "激": 5114, "濁": 5115, "濂": 5116, "濃": 5117, "濑": 5118, "濒": 5119, "濕": 5120, "濛": 5121, "濟": 5122, "濠": 5123, "濡": 5124, "濤": 5125, "濫": 5126, "濬": 5127, "濮": 5128, "濯": 5129, "濰": 5130, "濱": 5131, "濺": 5132, "濾": 5133, "瀆": 5134, "瀉": 5135, "瀋": 5136, "瀏": 5137, "瀑": 5138, "瀕": 5139, "瀘": 5140, "瀚": 5141, "瀛": 5142, "瀝": 5143, "瀞": 5144, "瀟": 5145, "瀧": 5146, "瀨": 5147, "瀬": 5148, "瀾": 5149, "灌": 5150, "灏": 5151, "灑": 5152, "灘": 5153, "灝": 5154, "灞": 5155, "灣": 5156, "灤": 5157, "火": 5158, "灭": 5159, "灯": 5160, "灰": 5161, "灵": 5162, "灶": 5163, "灸": 5164, "灼": 5165, "災": 5166, "灾": 5167, "灿": 5168, "炀": 5169, "炅": 5170, "炉": 5171, "炊": 5172, "炎": 5173, "炒": 5174, "炔": 5175, "炘": 5176, "炙": 5177, "炜": 5178, "炫": 5179, "炬": 5180, "炭": 5181, "炮": 5182, "炯": 5183, "炱": 5184, "炳": 5185, "炸": 5186, "点": 5187, "為": 5188, "炼": 5189, "炽": 5190, "烁": 5191, "烂": 5192, "烃": 5193, "烈": 5194, "烏": 5195, "烘": 5196, "烙": 5197, "烛": 5198, "烟": 5199, "烤": 5200, "烦": 5201, "烧": 5202, "烨": 5203, "烫": 5204, "热": 5205, "烯": 5206, "烴": 5207, "烷": 5208, "烹": 5209, "烽": 5210, "焉": 5211, "焊": 5212, "焔": 5213, "焕": 5214, "焘": 5215, "焙": 5216, "焚": 5217, "焜": 5218, "無": 5219, "焦": 5220, "焯": 5221, "焰": 5222, "然": 5223, "焼": 5224, "煇": 5225, "煉": 5226, "煊": 5227, "煌": 5228, "煎": 5229, "煒": 5230, "煕": 5231, "煙": 5232, "煜": 5233, "煞": 5234, "煤": 5235, "煥": 5236, "煦": 5237, "照": 5238, "煩": 5239, "煬": 5240, "煮": 5241, "煲": 5242, "煽": 5243, "熄": 5244, "熊": 5245, "熏": 5246, "熒": 5247, "熔": 5248, "熙": 5249, "熟": 5250, "熬": 5251, "熱": 5252, "熵": 5253, "熹": 5254, "熾": 5255, "燁": 5256, "燃": 5257, "燈": 5258, "燊": 5259, "燎": 5260, "燐": 5261, "燒": 5262, "燕": 5263, "燙": 5264, "營": 5265, "燥": 5266, "燦": 5267, "燧": 5268, "燭": 5269, "燮": 5270, "燻": 5271, "燼": 5272, "燾": 5273, "燿": 5274, "爆": 5275, "爍": 5276, "爐": 5277, "爛": 5278, "爨": 5279, "爪": 5280, "爬": 5281, "爭": 5282, "爰": 5283, "爱": 5284, "爲": 5285, "爵": 5286, "父": 5287, "爷": 5288, "爸": 5289, "爹": 5290, "爺": 5291, "爻": 5292, "爽": 5293, "爾": 5294, "牆": 5295, "片": 5296, "版": 5297, "牌": 5298, "牒": 5299, "牙": 5300, "牛": 5301, "牝": 5302, "牟": 5303, "牠": 5304, "牡": 5305, "牢": 5306, "牧": 5307, "物": 5308, "牲": 5309, "牵": 5310, "特": 5311, "牺": 5312, "牽": 5313, "犀": 5314, "犁": 5315, "犍": 5316, "犛": 5317, "犠": 5318, "犢": 5319, "犧": 5320, "犬": 5321, "犯": 5322, "状": 5323, "犹": 5324, "狀": 5325, "狂": 5326, "狄": 5327, "狐": 5328, "狒": 5329, "狗": 5330, "狙": 5331, "狛": 5332, "狠": 5333, "狡": 5334, "狩": 5335, "独": 5336, "狭": 5337, "狮": 5338, "狱": 5339, "狸": 5340, "狹": 5341, "狼": 5342, "猎": 5343, "猕": 5344, "猖": 5345, "猗": 5346, "猛": 5347, "猜": 5348, "猝": 5349, "猟": 5350, "猥": 5351, "猩": 5352, "猪": 5353, "猫": 5354, "献": 5355, "猴": 5356, "猶": 5357, "猷": 5358, "猾": 5359, "猿": 5360, "獄": 5361, "獅": 5362, "獎": 5363, "獏": 5364, "獐": 5365, "獠": 5366, "獣": 5367, "獨": 5368, "獲": 5369, "獵": 5370, "獸": 5371, "獺": 5372, "獻": 5373, "獼": 5374, "獾": 5375, "玄": 5376, "率": 5377, "玉": 5378, "王": 5379, "玖": 5380, "玛": 5381, "玟": 5382, "玠": 5383, "玥": 5384, "玩": 5385, "玫": 5386, "玮": 5387, "环": 5388, "现": 5389, "玲": 5390, "玳": 5391, "玺": 5392, "玻": 5393, "珀": 5394, "珂": 5395, "珅": 5396, "珈": 5397, "珉": 5398, "珊": 5399, "珍": 5400, "珏": 5401, "珑": 5402, "珙": 5403, "珞": 5404, "珠": 5405, "珣": 5406, "珥": 5407, "珩": 5408, "珪": 5409, "班": 5410, "珮": 5411, "珲": 5412, "現": 5413, "球": 5414, "琅": 5415, "理": 5416, "琇": 5417, "琉": 5418, "琊": 5419, "琏": 5420, "琐": 5421, "琚": 5422, "琛": 5423, "琢": 5424, "琥": 5425, "琦": 5426, "琨": 5427, "琪": 5428, "琬": 5429, "琮": 5430, "琰": 5431, "琲": 5432, "琳": 5433, "琴": 5434, "琵": 5435, "琶": 5436, "琼": 5437, "琿": 5438, "瑀": 5439, "瑁": 5440, "瑄": 5441, "瑋": 5442, "瑕": 5443, "瑗": 5444, "瑙": 5445, "瑚": 5446, "瑛": 5447, "瑜": 5448, "瑞": 5449, "瑟": 5450, "瑠": 5451, "瑣": 5452, "瑤": 5453, "瑩": 5454, "瑪": 5455, "瑭": 5456, "瑯": 5457, "瑰": 5458, "瑳": 5459, "瑶": 5460, "瑾": 5461, "璀": 5462, "璁": 5463, "璃": 5464, "璇": 5465, "璉": 5466, "璋": 5467, "璐": 5468, "璘": 5469, "璜": 5470, "璞": 5471, "璟": 5472, "璠": 5473, "璧": 5474, "璨": 5475, "璩": 5476, "環": 5477, "璽": 5478, "璿": 5479, "瓊": 5480, "瓌": 5481, "瓏": 5482, "瓒": 5483, "瓘": 5484, "瓚": 5485, "瓜": 5486, "瓢": 5487, "瓣": 5488, "瓦": 5489, "瓮": 5490, "瓯": 5491, "瓶": 5492, "瓷": 5493, "甄": 5494, "甌": 5495, "甑": 5496, "甕": 5497, "甘": 5498, "甚": 5499, "甜": 5500, "生": 5501, "產": 5502, "産": 5503, "甥": 5504, "甦": 5505, "用": 5506, "甩": 5507, "甫": 5508, "甬": 5509, "甯": 5510, "田": 5511, "由": 5512, "甲": 5513, "申": 5514, "电": 5515, "男": 5516, "甸": 5517, "町": 5518, "画": 5519, "畅": 5520, "畈": 5521, "界": 5522, "畏": 5523, "畑": 5524, "畔": 5525, "留": 5526, "畜": 5527, "畝": 5528, "畠": 5529, "畢": 5530, "略": 5531, "畦": 5532, "番": 5533, "畫": 5534, "異": 5535, "畲": 5536, "畳": 5537, "畴": 5538, "畵": 5539, "當": 5540, "畷": 5541, "畸": 5542, "畿": 5543, "疃": 5544, "疆": 5545, "疇": 5546, "疊": 5547, "疋": 5548, "疎": 5549, "疏": 5550, "疑": 5551, "疗": 5552, "疚": 5553, "疟": 5554, "疣": 5555, "疤": 5556, "疫": 5557, "疮": 5558, "疯": 5559, "疱": 5560, "疲": 5561, "疵": 5562, "疸": 5563, "疹": 5564, "疼": 5565, "疽": 5566, "疾": 5567, "病": 5568, "症": 5569, "痊": 5570, "痍": 5571, "痒": 5572, "痔": 5573, "痕": 5574, "痘": 5575, "痙": 5576, "痛": 5577, "痞": 5578, "痢": 5579, "痣": 5580, "痩": 5581, "痪": 5582, "痰": 5583, "痴": 5584, "痹": 5585, "痺": 5586, "瘀": 5587, "瘋": 5588, "瘍": 5589, "瘓": 5590, "瘟": 5591, "瘠": 5592, "瘡": 5593, "瘤": 5594, "瘦": 5595, "瘧": 5596, "瘫": 5597, "瘴": 5598, "瘾": 5599, "療": 5600, "癇": 5601, "癌": 5602, "癒": 5603, "癖": 5604, "癡": 5605, "癢": 5606, "癫": 5607, "癬": 5608, "癮": 5609, "癱": 5610, "癲": 5611, "癸": 5612, "発": 5613, "登": 5614, "發": 5615, "白": 5616, "百": 5617, "皂": 5618, "的": 5619, "皆": 5620, "皇": 5621, "皈": 5622, "皋": 5623, "皎": 5624, "皐": 5625, "皓": 5626, "皖": 5627, "皝": 5628, "皮": 5629, "皱": 5630, "皺": 5631, "皿": 5632, "盂": 5633, "盃": 5634, "盆": 5635, "盈": 5636, "益": 5637, "盎": 5638, "盏": 5639, "盐": 5640, "监": 5641, "盒": 5642, "盔": 5643, "盖": 5644, "盗": 5645, "盘": 5646, "盛": 5647, "盜": 5648, "盞": 5649, "盟": 5650, "盡": 5651, "監": 5652, "盤": 5653, "盧": 5654, "盪": 5655, "目": 5656, "盯": 5657, "盱": 5658, "盲": 5659, "直": 5660, "相": 5661, "盼": 5662, "盾": 5663, "省": 5664, "眉": 5665, "看": 5666, "県": 5667, "眙": 5668, "眞": 5669, "真": 5670, "眠": 5671, "眩": 5672, "眶": 5673, "眷": 5674, "眸": 5675, "眺": 5676, "眼": 5677, "眾": 5678, "着": 5679, "睇": 5680, "睐": 5681, "睛": 5682, "睞": 5683, "睡": 5684, "睢": 5685, "督": 5686, "睦": 5687, "睨": 5688, "睪": 5689, "睫": 5690, "睹": 5691, "睽": 5692, "睾": 5693, "睿": 5694, "瞄": 5695, "瞋": 5696, "瞎": 5697, "瞑": 5698, "瞒": 5699, "瞞": 5700, "瞥": 5701, "瞧": 5702, "瞩": 5703, "瞪": 5704, "瞬": 5705, "瞭": 5706, "瞰": 5707, "瞳": 5708, "瞻": 5709, "瞼": 5710, "瞿": 5711, "矗": 5712, "矚": 5713, "矛": 5714, "矜": 5715, "矢": 5716, "矣": 5717, "知": 5718, "矧": 5719, "矩": 5720, "矫": 5721, "短": 5722, "矮": 5723, "矯": 5724, "石": 5725, "矶": 5726, "矽": 5727, "矿": 5728, "码": 5729, "砂": 5730, "砌": 5731, "砍": 5732, "研": 5733, "砕": 5734, "砖": 5735, "砚": 5736, "砥": 5737, "砦": 5738, "砧": 5739, "砲": 5740, "破": 5741, "砷": 5742, "砸": 5743, "砺": 5744, "砾": 5745, "础": 5746, "硅": 5747, "硏": 5748, "硒": 5749, "硕": 5750, "硝": 5751, "硤": 5752, "硫": 5753, "硬": 5754, "确": 5755, "硯": 5756, "硼": 5757, "碁": 5758, "碇": 5759, "碉": 5760, "碌": 5761, "碍": 5762, "碎": 5763, "碑": 5764, "碓": 5765, "碕": 5766, "碗": 5767, "碘": 5768, "碚": 5769, "碟": 5770, "碣": 5771, "碧": 5772, "碩": 5773, "碰": 5774, "碱": 5775, "碳": 5776, "確": 5777, "碼": 5778, "碾": 5779, "磁": 5780, "磅": 5781, "磊": 5782, "磋": 5783, "磐": 5784, "磔": 5785, "磚": 5786, "磡": 5787, "磨": 5788, "磯": 5789, "磷": 5790, "磺": 5791, "礁": 5792, "礎": 5793, "礙": 5794, "礦": 5795, "礪": 5796, "礫": 5797, "礬": 5798, "示": 5799, "礼": 5800, "社": 5801, "祀": 5802, "祁": 5803, "祂": 5804, "祇": 5805, "祈": 5806, "祉": 5807, "祐": 5808, "祓": 5809, "祕": 5810, "祖": 5811, "祗": 5812, "祚": 5813, "祜": 5814, "祝": 5815, "神": 5816, "祟": 5817, "祠": 5818, "祢": 5819, "祥": 5820, "票": 5821, "祭": 5822, "祯": 5823, "祷": 5824, "祸": 5825, "祺": 5826, "祿": 5827, "禀": 5828, "禁": 5829, "禄": 5830, "禅": 5831, "禍": 5832, "禎": 5833, "福": 5834, "禕": 5835, "禛": 5836, "禦": 5837, "禧": 5838, "禪": 5839, "禮": 5840, "禰": 5841, "禱": 5842, "禹": 5843, "禺": 5844, "离": 5845, "禽": 5846, "禾": 5847, "禿": 5848, "秀": 5849, "私": 5850, "秃": 5851, "秉": 5852, "秋": 5853, "种": 5854, "科": 5855, "秒": 5856, "秘": 5857, "租": 5858, "秣": 5859, "秤": 5860, "秦": 5861, "秧": 5862, "秩": 5863, "积": 5864, "称": 5865, "移": 5866, "秽": 5867, "稀": 5868, "稅": 5869, "程": 5870, "稍": 5871, "税": 5872, "稔": 5873, "稗": 5874, "稙": 5875, "稚": 5876, "稜": 5877, "稟": 5878, "稠": 5879, "稣": 5880, "種": 5881, "稱": 5882, "稲": 5883, "稳": 5884, "稷": 5885, "稻": 5886, "稼": 5887, "稽": 5888, "稿": 5889, "穀": 5890, "穂": 5891, "穆": 5892, "穌": 5893, "積": 5894, "穎": 5895, "穏": 5896, "穗": 5897, "穢": 5898, "穣": 5899, "穩": 5900, "穫": 5901, "穰": 5902, "穴": 5903, "究": 5904, "穷": 5905, "穹": 5906, "空": 5907, "穿": 5908, "突": 5909, "窃": 5910, "窄": 5911, "窈": 5912, "窑": 5913, "窒": 5914, "窓": 5915, "窖": 5916, "窗": 5917, "窘": 5918, "窜": 5919, "窝": 5920, "窟": 5921, "窥": 5922, "窦": 5923, "窩": 5924, "窪": 5925, "窮": 5926, "窯": 5927, "窺": 5928, "窿": 5929, "竄": 5930, "竇": 5931, "竈": 5932, "竊": 5933, "立": 5934, "竑": 5935, "竖": 5936, "站": 5937, "竜": 5938, "竞": 5939, "竟": 5940, "章": 5941, "竣": 5942, "童": 5943, "竪": 5944, "竭": 5945, "端": 5946, "競": 5947, "竹": 5948, "竺": 5949, "竿": 5950, "笃": 5951, "笈": 5952, "笋": 5953, "笏": 5954, "笑": 5955, "笔": 5956, "笙": 5957, "笛": 5958, "笞": 5959, "笠": 5960, "笥": 5961, "符": 5962, "笨": 5963, "第": 5964, "笹": 5965, "笺": 5966, "笼": 5967, "筆": 5968, "筈": 5969, "等": 5970, "筋": 5971, "筍": 5972, "筏": 5973, "筐": 5974, "筑": 5975, "筒": 5976, "答": 5977, "策": 5978, "筛": 5979, "筝": 5980, "筠": 5981, "筧": 5982, "筱": 5983, "筲": 5984, "筵": 5985, "筷": 5986, "筹": 5987, "签": 5988, "简": 5989, "箇": 5990, "箋": 5991, "箍": 5992, "箏": 5993, "箐": 5994, "箒": 5995, "箔": 5996, "箕": 5997, "算": 5998, "管": 5999, "箪": 6000, "箭": 6001, "箱": 6002, "箴": 6003, "箸": 6004, "節": 6005, "篁": 6006, "範": 6007, "篆": 6008, "篇": 6009, "築": 6010, "篙": 6011, "篝": 6012, "篠": 6013, "篡": 6014, "篤": 6015, "篩": 6016, "篭": 6017, "篮": 6018, "篱": 6019, "篷": 6020, "簇": 6021, "簒": 6022, "簗": 6023, "簡": 6024, "簧": 6025, "簪": 6026, "簫": 6027, "簷": 6028, "簸": 6029, "簽": 6030, "簾": 6031, "簿": 6032, "籃": 6033, "籌": 6034, "籍": 6035, "籐": 6036, "籠": 6037, "籤": 6038, "籬": 6039, "籲": 6040, "米": 6041, "类": 6042, "籽": 6043, "籾": 6044, "粉": 6045, "粋": 6046, "粒": 6047, "粕": 6048, "粗": 6049, "粘": 6050, "粛": 6051, "粟": 6052, "粤": 6053, "粥": 6054, "粧": 6055, "粪": 6056, "粮": 6057, "粱": 6058, "粲": 6059, "粵": 6060, "粹": 6061, "粽": 6062, "精": 6063, "粿": 6064, "糊": 6065, "糎": 6066, "糕": 6067, "糖": 6068, "糙": 6069, "糜": 6070, "糞": 6071, "糟": 6072, "糠": 6073, "糧": 6074, "糯": 6075, "糸": 6076, "系": 6077, "糾": 6078, "紀": 6079, "紂": 6080, "約": 6081, "紅": 6082, "紆": 6083, "紇": 6084, "紊": 6085, "紋": 6086, "納": 6087, "紐": 6088, "紓": 6089, "純": 6090, "紗": 6091, "紘": 6092, "紙": 6093, "級": 6094, "紛": 6095, "素": 6096, "紡": 6097, "索": 6098, "紧": 6099, "紫": 6100, "紬": 6101, "紮": 6102, "累": 6103, "細": 6104, "紳": 6105, "紹": 6106, "紺": 6107, "終": 6108, "絃": 6109, "組": 6110, "絆": 6111, "経": 6112, "結": 6113, "絕": 6114, "絞": 6115, "絡": 6116, "絢": 6117, "給": 6118, "絨": 6119, "絮": 6120, "統": 6121, "絲": 6122, "絳": 6123, "絵": 6124, "絶": 6125, "絹": 6126, "綁": 6127, "綏": 6128, "經": 6129, "継": 6130, "続": 6131, "綜": 6132, "綠": 6133, "綢": 6134, "綦": 6135, "綫": 6136, "綬": 6137, "維": 6138, "綱": 6139, "網": 6140, "綴": 6141, "綸": 6142, "綺": 6143, "綻": 6144, "綽": 6145, "綾": 6146, "綿": 6147, "緊": 6148, "緋": 6149, "総": 6150, "緑": 6151, "緒": 6152, "線": 6153, "緝": 6154, "緞": 6155, "締": 6156, "緣": 6157, "編": 6158, "緩": 6159, "緬": 6160, "緯": 6161, "練": 6162, "緹": 6163, "緻": 6164, "縁": 6165, "縄": 6166, "縉": 6167, "縊": 6168, "縛": 6169, "縞": 6170, "縣": 6171, "縦": 6172, "縫": 6173, "縮": 6174, "縱": 6175, "縷": 6176, "縻": 6177, "總": 6178, "績": 6179, "繁": 6180, "繆": 6181, "繇": 6182, "繊": 6183, "繋": 6184, "繍": 6185, "織": 6186, "繕": 6187, "繚": 6188, "繞": 6189, "繡": 6190, "繩": 6191, "繪": 6192, "繫": 6193, "繭": 6194, "繰": 6195, "繳": 6196, "繹": 6197, "繼": 6198, "纂": 6199, "續": 6200, "纏": 6201, "纓": 6202, "纖": 6203, "纜": 6204, "纠": 6205, "红": 6206, "纤": 6207, "纥": 6208, "约": 6209, "级": 6210, "纪": 6211, "纬": 6212, "纮": 6213, "纯": 6214, "纱": 6215, "纲": 6216, "纳": 6217, "纵": 6218, "纶": 6219, "纷": 6220, "纸": 6221, "纹": 6222, "纺": 6223, "纽": 6224, "纾": 6225, "线": 6226, "绀": 6227, "练": 6228, "组": 6229, "绅": 6230, "细": 6231, "织": 6232, "终": 6233, "绊": 6234, "绍": 6235, "绎": 6236, "经": 6237, "绑": 6238, "绒": 6239, "结": 6240, "绕": 6241, "绘": 6242, "给": 6243, "绚": 6244, "绛": 6245, "络": 6246, "绝": 6247, "绞": 6248, "统": 6249, "绢": 6250, "绣": 6251, "绥": 6252, "继": 6253, "绩": 6254, "绪": 6255, "绫": 6256, "续": 6257, "绮": 6258, "绯": 6259, "绰": 6260, "绳": 6261, "维": 6262, "绵": 6263, "绶": 6264, "绸": 6265, "综": 6266, "绽": 6267, "绿": 6268, "缀": 6269, "缅": 6270, "缆": 6271, "缇": 6272, "缉": 6273, "缎": 6274, "缓": 6275, "缔": 6276, "缕": 6277, "编": 6278, "缘": 6279, "缙": 6280, "缚": 6281, "缝": 6282, "缠": 6283, "缢": 6284, "缨": 6285, "缩": 6286, "缪": 6287, "缮": 6288, "缴": 6289, "缶": 6290, "缸": 6291, "缺": 6292, "缽": 6293, "罂": 6294, "罄": 6295, "罌": 6296, "罐": 6297, "网": 6298, "罔": 6299, "罕": 6300, "罗": 6301, "罚": 6302, "罠": 6303, "罢": 6304, "罩": 6305, "罪": 6306, "置": 6307, "罰": 6308, "署": 6309, "罵": 6310, "罷": 6311, "罹": 6312, "羁": 6313, "羅": 6314, "羈": 6315, "羊": 6316, "羌": 6317, "美": 6318, "羔": 6319, "羚": 6320, "羞": 6321, "羟": 6322, "羡": 6323, "羣": 6324, "群": 6325, "羥": 6326, "羧": 6327, "羨": 6328, "義": 6329, "羯": 6330, "羰": 6331, "羲": 6332, "羹": 6333, "羽": 6334, "羿": 6335, "翁": 6336, "翅": 6337, "翊": 6338, "翌": 6339, "翎": 6340, "習": 6341, "翔": 6342, "翘": 6343, "翟": 6344, "翠": 6345, "翡": 6346, "翦": 6347, "翩": 6348, "翰": 6349, "翱": 6350, "翳": 6351, "翹": 6352, "翻": 6353, "翼": 6354, "耀": 6355, "老": 6356, "考": 6357, "者": 6358, "耆": 6359, "而": 6360, "耍": 6361, "耐": 6362, "耒": 6363, "耕": 6364, "耗": 6365, "耘": 6366, "耙": 6367, "耦": 6368, "耳": 6369, "耶": 6370, "耸": 6371, "耻": 6372, "耽": 6373, "耿": 6374, "聂": 6375, "聆": 6376, "聊": 6377, "聋": 6378, "职": 6379, "联": 6380, "聖": 6381, "聘": 6382, "聚": 6383, "聞": 6384, "聡": 6385, "聪": 6386, "聯": 6387, "聰": 6388, "聲": 6389, "聳": 6390, "聴": 6391, "聶": 6392, "職": 6393, "聽": 6394, "聾": 6395, "聿": 6396, "肃": 6397, "肄": 6398, "肅": 6399, "肆": 6400, "肇": 6401, "肉": 6402, "肋": 6403, "肌": 6404, "肖": 6405, "肘": 6406, "肚": 6407, "肛": 6408, "肝": 6409, "肠": 6410, "股": 6411, "肢": 6412, "肤": 6413, "肥": 6414, "肩": 6415, "肪": 6416, "肯": 6417, "肱": 6418, "育": 6419, "肴": 6420, "肺": 6421, "肽": 6422, "肾": 6423, "肿": 6424, "胀": 6425, "胁": 6426, "胃": 6427, "胄": 6428, "胆": 6429, "背": 6430, "胎": 6431, "胖": 6432, "胚": 6433, "胜": 6434, "胞": 6435, "胡": 6436, "胤": 6437, "胥": 6438, "胪": 6439, "胭": 6440, "胰": 6441, "胱": 6442, "胴": 6443, "胶": 6444, "胸": 6445, "胺": 6446, "能": 6447, "脂": 6448, "脅": 6449, "脆": 6450, "脇": 6451, "脈": 6452, "脉": 6453, "脊": 6454, "脏": 6455, "脐": 6456, "脑": 6457, "脖": 6458, "脚": 6459, "脛": 6460, "脩": 6461, "脫": 6462, "脯": 6463, "脱": 6464, "脳": 6465, "脷": 6466, "脸": 6467, "脹": 6468, "脾": 6469, "腈": 6470, "腊": 6471, "腋": 6472, "腌": 6473, "腎": 6474, "腐": 6475, "腑": 6476, "腓": 6477, "腔": 6478, "腕": 6479, "腥": 6480, "腦": 6481, "腫": 6482, "腮": 6483, "腰": 6484, "腱": 6485, "腳": 6486, "腸": 6487, "腹": 6488, "腺": 6489, "腻": 6490, "腾": 6491, "腿": 6492, "膀": 6493, "膏": 6494, "膚": 6495, "膛": 6496, "膜": 6497, "膝": 6498, "膠": 6499, "膣": 6500, "膦": 6501, "膨": 6502, "膩": 6503, "膳": 6504, "膵": 6505, "膺": 6506, "膽": 6507, "膿": 6508, "臀": 6509, "臂": 6510, "臆": 6511, "臉": 6512, "臍": 6513, "臓": 6514, "臘": 6515, "臚": 6516, "臟": 6517, "臣": 6518, "臥": 6519, "臧": 6520, "臨": 6521, "自": 6522, "臭": 6523, "至": 6524, "致": 6525, "臺": 6526, "臻": 6527, "臼": 6528, "舂": 6529, "舅": 6530, "舆": 6531, "與": 6532, "興": 6533, "舉": 6534, "舊": 6535, "舌": 6536, "舍": 6537, "舎": 6538, "舐": 6539, "舒": 6540, "舔": 6541, "舖": 6542, "舗": 6543, "舘": 6544, "舛": 6545, "舜": 6546, "舞": 6547, "舟": 6548, "航": 6549, "舫": 6550, "般": 6551, "舰": 6552, "舱": 6553, "舵": 6554, "舶": 6555, "舷": 6556, "船": 6557, "舺": 6558, "艇": 6559, "艉": 6560, "艋": 6561, "艏": 6562, "艘": 6563, "艙": 6564, "艤": 6565, "艦": 6566, "艮": 6567, "良": 6568, "艰": 6569, "艱": 6570, "色": 6571, "艳": 6572, "艶": 6573, "艷": 6574, "艺": 6575, "艾": 6576, "节": 6577, "芋": 6578, "芍": 6579, "芎": 6580, "芒": 6581, "芙": 6582, "芜": 6583, "芝": 6584, "芥": 6585, "芦": 6586, "芩": 6587, "芬": 6588, "芭": 6589, "芮": 6590, "芯": 6591, "花": 6592, "芳": 6593, "芷": 6594, "芸": 6595, "芹": 6596, "芻": 6597, "芽": 6598, "芾": 6599, "苅": 6600, "苇": 6601, "苍": 6602, "苏": 6603, "苑": 6604, "苓": 6605, "苔": 6606, "苗": 6607, "苛": 6608, "苞": 6609, "苟": 6610, "苣": 6611, "若": 6612, "苦": 6613, "苫": 6614, "苯": 6615, "英": 6616, "苳": 6617, "苴": 6618, "苷": 6619, "苹": 6620, "苺": 6621, "苻": 6622, "苾": 6623, "茂": 6624, "范": 6625, "茄": 6626, "茅": 6627, "茉": 6628, "茎": 6629, "茗": 6630, "茛": 6631, "茜": 6632, "茧": 6633, "茨": 6634, "茫": 6635, "茱": 6636, "茲": 6637, "茴": 6638, "茵": 6639, "茶": 6640, "茸": 6641, "茹": 6642, "荀": 6643, "荃": 6644, "荆": 6645, "草": 6646, "荊": 6647, "荏": 6648, "荐": 6649, "荒": 6650, "荔": 6651, "荖": 6652, "荘": 6653, "荚": 6654, "荟": 6655, "荡": 6656, "荣": 6657, "荥": 6658, "荧": 6659, "荫": 6660, "药": 6661, "荷": 6662, "荻": 6663, "荼": 6664, "莅": 6665, "莆": 6666, "莉": 6667, "莊": 6668, "莎": 6669, "莒": 6670, "莓": 6671, "莖": 6672, "莘": 6673, "莞": 6674, "莢": 6675, "莪": 6676, "莫": 6677, "莱": 6678, "莲": 6679, "获": 6680, "莹": 6681, "莺": 6682, "莽": 6683, "莿": 6684, "菀": 6685, "菁": 6686, "菅": 6687, "菇": 6688, "菈": 6689, "菊": 6690, "菌": 6691, "菏": 6692, "菓": 6693, "菖": 6694, "菘": 6695, "菜": 6696, "菟": 6697, "菠": 6698, "菩": 6699, "菫": 6700, "華": 6701, "菰": 6702, "菱": 6703, "菲": 6704, "菴": 6705, "菸": 6706, "萃": 6707, "萄": 6708, "萇": 6709, "萊": 6710, "萌": 6711, "萍": 6712, "萎": 6713, "萘": 6714, "萝": 6715, "萤": 6716, "营": 6717, "萧": 6718, "萨": 6719, "萩": 6720, "萬": 6721, "萱": 6722, "萸": 6723, "萼": 6724, "落": 6725, "葆": 6726, "葉": 6727, "著": 6728, "葛": 6729, "葡": 6730, "董": 6731, "葦": 6732, "葫": 6733, "葬": 6734, "葭": 6735, "葱": 6736, "葳": 6737, "葵": 6738, "葺": 6739, "蒂": 6740, "蒋": 6741, "蒐": 6742, "蒔": 6743, "蒙": 6744, "蒜": 6745, "蒞": 6746, "蒨": 6747, "蒯": 6748, "蒲": 6749, "蒴": 6750, "蒸": 6751, "蒼": 6752, "蒿": 6753, "蓀": 6754, "蓁": 6755, "蓄": 6756, "蓉": 6757, "蓋": 6758, "蓑": 6759, "蓓": 6760, "蓝": 6761, "蓟": 6762, "蓬": 6763, "蓮": 6764, "蓼": 6765, "蔑": 6766, "蔓": 6767, "蔔": 6768, "蔗": 6769, "蔚": 6770, "蔡": 6771, "蔣": 6772, "蔥": 6773, "蔦": 6774, "蔬": 6775, "蔭": 6776, "蔵": 6777, "蔷": 6778, "蔻": 6779, "蔽": 6780, "蕁": 6781, "蕃": 6782, "蕈": 6783, "蕉": 6784, "蕊": 6785, "蕎": 6786, "蕗": 6787, "蕙": 6788, "蕨": 6789, "蕩": 6790, "蕪": 6791, "蕭": 6792, "蕲": 6793, "蕴": 6794, "蕾": 6795, "薄": 6796, "薇": 6797, "薈": 6798, "薊": 6799, "薑": 6800, "薔": 6801, "薗": 6802, "薙": 6803, "薛": 6804, "薦": 6805, "薨": 6806, "薩": 6807, "薪": 6808, "薫": 6809, "薬": 6810, "薮": 6811, "薯": 6812, "薰": 6813, "薹": 6814, "藁": 6815, "藉": 6816, "藍": 6817, "藏": 6818, "藐": 6819, "藓": 6820, "藔": 6821, "藕": 6822, "藜": 6823, "藝": 6824, "藤": 6825, "藥": 6826, "藩": 6827, "藪": 6828, "藹": 6829, "藺": 6830, "藻": 6831, "蘂": 6832, "蘄": 6833, "蘆": 6834, "蘇": 6835, "蘊": 6836, "蘋": 6837, "蘑": 6838, "蘚": 6839, "蘭": 6840, "蘿": 6841, "虎": 6842, "虏": 6843, "虐": 6844, "虑": 6845, "虔": 6846, "處": 6847, "虚": 6848, "虛": 6849, "虜": 6850, "虞": 6851, "號": 6852, "虢": 6853, "虧": 6854, "虫": 6855, "虬": 6856, "虱": 6857, "虹": 6858, "虻": 6859, "虽": 6860, "虾": 6861, "蚀": 6862, "蚁": 6863, "蚂": 6864, "蚊": 6865, "蚌": 6866, "蚓": 6867, "蚕": 6868, "蚜": 6869, "蚝": 6870, "蚣": 6871, "蚤": 6872, "蚩": 6873, "蚪": 6874, "蚬": 6875, "蚵": 6876, "蚶": 6877, "蛇": 6878, "蛉": 6879, "蛊": 6880, "蛋": 6881, "蛍": 6882, "蛎": 6883, "蛙": 6884, "蛛": 6885, "蛞": 6886, "蛟": 6887, "蛤": 6888, "蛭": 6889, "蛮": 6890, "蛯": 6891, "蛱": 6892, "蛸": 6893, "蛹": 6894, "蛺": 6895, "蛻": 6896, "蛾": 6897, "蜀": 6898, "蜂": 6899, "蜃": 6900, "蜆": 6901, "蜈": 6902, "蜍": 6903, "蜒": 6904, "蜓": 6905, "蜕": 6906, "蜗": 6907, "蜘": 6908, "蜚": 6909, "蜜": 6910, "蜡": 6911, "蜢": 6912, "蜥": 6913, "蜱": 6914, "蜴": 6915, "蜷": 6916, "蜻": 6917, "蜿": 6918, "蝇": 6919, "蝉": 6920, "蝋": 6921, "蝌": 6922, "蝎": 6923, "蝓": 6924, "蝕": 6925, "蝗": 6926, "蝙": 6927, "蝠": 6928, "蝦": 6929, "蝨": 6930, "蝮": 6931, "蝰": 6932, "蝴": 6933, "蝶": 6934, "蝸": 6935, "蝽": 6936, "螂": 6937, "螃": 6938, "螈": 6939, "融": 6940, "螞": 6941, "螢": 6942, "螯": 6943, "螳": 6944, "螺": 6945, "蟄": 6946, "蟆": 6947, "蟋": 6948, "蟑": 6949, "蟒": 6950, "蟠": 6951, "蟬": 6952, "蟲": 6953, "蟹": 6954, "蟻": 6955, "蟾": 6956, "蠅": 6957, "蠍": 6958, "蠕": 6959, "蠟": 6960, "蠡": 6961, "蠢": 6962, "蠣": 6963, "蠱": 6964, "蠶": 6965, "蠻": 6966, "血": 6967, "衅": 6968, "衆": 6969, "行": 6970, "衍": 6971, "術": 6972, "衔": 6973, "街": 6974, "衙": 6975, "衛": 6976, "衝": 6977, "衞": 6978, "衡": 6979, "衢": 6980, "衣": 6981, "补": 6982, "表": 6983, "衫": 6984, "衬": 6985, "衮": 6986, "衰": 6987, "衷": 6988, "衿": 6989, "袁": 6990, "袂": 6991, "袈": 6992, "袋": 6993, "袍": 6994, "袒": 6995, "袖": 6996, "袜": 6997, "袞": 6998, "被": 6999, "袭": 7000, "袱": 7001, "袴": 7002, "裁": 7003, "裂": 7004, "装": 7005, "裏": 7006, "裔": 7007, "裕": 7008, "裘": 7009, "裙": 7010, "補": 7011, "裝": 7012, "裟": 7013, "裡": 7014, "裤": 7015, "裨": 7016, "裳": 7017, "裴": 7018, "裸": 7019, "裹": 7020, "製": 7021, "裾": 7022, "複": 7023, "褐": 7024, "褒": 7025, "褚": 7026, "褥": 7027, "褪": 7028, "褫": 7029, "褲": 7030, "褶": 7031, "褻": 7032, "襄": 7033, "襖": 7034, "襟": 7035, "襪": 7036, "襯": 7037, "襲": 7038, "西": 7039, "要": 7040, "覃": 7041, "覆": 7042, "覇": 7043, "見": 7044, "規": 7045, "覓": 7046, "視": 7047, "覗": 7048, "覚": 7049, "覧": 7050, "親": 7051, "覲": 7052, "観": 7053, "覺": 7054, "覽": 7055, "觀": 7056, "见": 7057, "观": 7058, "规": 7059, "觅": 7060, "视": 7061, "览": 7062, "觉": 7063, "觐": 7064, "角": 7065, "解": 7066, "触": 7067, "觸": 7068, "言": 7069, "訂": 7070, "訃": 7071, "計": 7072, "訊": 7073, "討": 7074, "訓": 7075, "訖": 7076, "託": 7077, "記": 7078, "訛": 7079, "訝": 7080, "訟": 7081, "訣": 7082, "訥": 7083, "訪": 7084, "設": 7085, "許": 7086, "訳": 7087, "訴": 7088, "訶": 7089, "診": 7090, "註": 7091, "証": 7092, "詐": 7093, "詔": 7094, "評": 7095, "詛": 7096, "詞": 7097, "詠": 7098, "詡": 7099, "詢": 7100, "詣": 7101, "試": 7102, "詩": 7103, "詫": 7104, "詭": 7105, "詮": 7106, "詰": 7107, "話": 7108, "該": 7109, "詳": 7110, "詹": 7111, "誅": 7112, "誇": 7113, "誉": 7114, "誌": 7115, "認": 7116, "誑": 7117, "誓": 7118, "誕": 7119, "誘": 7120, "語": 7121, "誠": 7122, "誡": 7123, "誣": 7124, "誤": 7125, "誥": 7126, "誦": 7127, "誨": 7128, "說": 7129, "説": 7130, "読": 7131, "誰": 7132, "課": 7133, "誹": 7134, "誼": 7135, "調": 7136, "諂": 7137, "談": 7138, "請": 7139, "諌": 7140, "諍": 7141, "諏": 7142, "諒": 7143, "論": 7144, "諜": 7145, "諡": 7146, "諦": 7147, "諧": 7148, "諫": 7149, "諭": 7150, "諮": 7151, "諱": 7152, "諶": 7153, "諷": 7154, "諸": 7155, "諺": 7156, "諾": 7157, "謀": 7158, "謁": 7159, "謂": 7160, "謄": 7161, "謊": 7162, "謎": 7163, "謐": 7164, "謗": 7165, "謙": 7166, "謚": 7167, "講": 7168, "謝": 7169, "謠": 7170, "謡": 7171, "謨": 7172, "謫": 7173, "謬": 7174, "謳": 7175, "謹": 7176, "證": 7177, "譏": 7178, "識": 7179, "譙": 7180, "譚": 7181, "譜": 7182, "警": 7183, "譬": 7184, "譯": 7185, "議": 7186, "譲": 7187, "譴": 7188, "護": 7189, "譽": 7190, "讀": 7191, "讃": 7192, "變": 7193, "讐": 7194, "讒": 7195, "讓": 7196, "讚": 7197, "讞": 7198, "计": 7199, "订": 7200, "认": 7201, "讥": 7202, "讨": 7203, "让": 7204, "讫": 7205, "训": 7206, "议": 7207, "讯": 7208, "记": 7209, "讲": 7210, "讳": 7211, "讶": 7212, "讷": 7213, "许": 7214, "讹": 7215, "论": 7216, "讼": 7217, "讽": 7218, "设": 7219, "访": 7220, "诀": 7221, "证": 7222, "诃": 7223, "评": 7224, "诅": 7225, "识": 7226, "诈": 7227, "诉": 7228, "诊": 7229, "词": 7230, "诏": 7231, "译": 7232, "诒": 7233, "试": 7234, "诗": 7235, "诘": 7236, "诚": 7237, "诛": 7238, "话": 7239, "诞": 7240, "诠": 7241, "诡": 7242, "询": 7243, "诣": 7244, "该": 7245, "详": 7246, "诩": 7247, "诫": 7248, "诬": 7249, "语": 7250, "误": 7251, "诰": 7252, "诱": 7253, "诲": 7254, "说": 7255, "诵": 7256, "请": 7257, "诸": 7258, "诹": 7259, "诺": 7260, "读": 7261, "诽": 7262, "课": 7263, "谁": 7264, "调": 7265, "谅": 7266, "谈": 7267, "谊": 7268, "谋": 7269, "谍": 7270, "谎": 7271, "谏": 7272, "谐": 7273, "谒": 7274, "谓": 7275, "谔": 7276, "谕": 7277, "谚": 7278, "谛": 7279, "谜": 7280, "谟": 7281, "谢": 7282, "谣": 7283, "谤": 7284, "谥": 7285, "谦": 7286, "谨": 7287, "谪": 7288, "谬": 7289, "谭": 7290, "谯": 7291, "谱": 7292, "谳": 7293, "谴": 7294, "谷": 7295, "谿": 7296, "豁": 7297, "豆": 7298, "豈": 7299, "豊": 7300, "豌": 7301, "豎": 7302, "豐": 7303, "豔": 7304, "豚": 7305, "象": 7306, "豪": 7307, "豫": 7308, "豬": 7309, "豹": 7310, "豺": 7311, "貂": 7312, "貌": 7313, "貓": 7314, "貘": 7315, "貝": 7316, "貞": 7317, "負": 7318, "財": 7319, "貢": 7320, "貧": 7321, "貨": 7322, "販": 7323, "貪": 7324, "貫": 7325, "責": 7326, "貯": 7327, "貰": 7328, "貳": 7329, "貴": 7330, "貶": 7331, "買": 7332, "貸": 7333, "費": 7334, "貼": 7335, "貽": 7336, "貿": 7337, "賀": 7338, "賁": 7339, "賂": 7340, "賃": 7341, "賄": 7342, "資": 7343, "賈": 7344, "賊": 7345, "賑": 7346, "賓": 7347, "賚": 7348, "賛": 7349, "賜": 7350, "賞": 7351, "賠": 7352, "賡": 7353, "賢": 7354, "賣": 7355, "賤": 7356, "賦": 7357, "質": 7358, "賭": 7359, "賴": 7360, "賺": 7361, "購": 7362, "賽": 7363, "贄": 7364, "贅": 7365, "贈": 7366, "贊": 7367, "贋": 7368, "贍": 7369, "贏": 7370, "贓": 7371, "贖": 7372, "贛": 7373, "贝": 7374, "贞": 7375, "负": 7376, "贡": 7377, "财": 7378, "责": 7379, "贤": 7380, "败": 7381, "账": 7382, "货": 7383, "质": 7384, "贩": 7385, "贪": 7386, "贫": 7387, "贬": 7388, "购": 7389, "贮": 7390, "贯": 7391, "贰": 7392, "贱": 7393, "贲": 7394, "贴": 7395, "贵": 7396, "贷": 7397, "贸": 7398, "费": 7399, "贺": 7400, "贻": 7401, "贼": 7402, "贾": 7403, "贿": 7404, "赁": 7405, "赂": 7406, "赃": 7407, "资": 7408, "赈": 7409, "赉": 7410, "赋": 7411, "赌": 7412, "赎": 7413, "赏": 7414, "赐": 7415, "赓": 7416, "赔": 7417, "赖": 7418, "赚": 7419, "赛": 7420, "赞": 7421, "赠": 7422, "赢": 7423, "赣": 7424, "赤": 7425, "赦": 7426, "赫": 7427, "赭": 7428, "走": 7429, "赳": 7430, "赴": 7431, "赵": 7432, "赶": 7433, "起": 7434, "趁": 7435, "超": 7436, "越": 7437, "趋": 7438, "趕": 7439, "趙": 7440, "趟": 7441, "趣": 7442, "趨": 7443, "足": 7444, "趴": 7445, "趾": 7446, "跃": 7447, "跆": 7448, "跋": 7449, "跌": 7450, "跑": 7451, "跖": 7452, "跛": 7453, "距": 7454, "跟": 7455, "跡": 7456, "跤": 7457, "跨": 7458, "跪": 7459, "路": 7460, "跳": 7461, "践": 7462, "跻": 7463, "踊": 7464, "踏": 7465, "踐": 7466, "踝": 7467, "踞": 7468, "踢": 7469, "踩": 7470, "踪": 7471, "踴": 7472, "踵": 7473, "蹂": 7474, "蹄": 7475, "蹇": 7476, "蹈": 7477, "蹊": 7478, "蹟": 7479, "蹤": 7480, "蹦": 7481, "蹲": 7482, "蹴": 7483, "蹼": 7484, "躁": 7485, "躇": 7486, "躊": 7487, "躋": 7488, "躍": 7489, "躙": 7490, "身": 7491, "躬": 7492, "躯": 7493, "躲": 7494, "躺": 7495, "軀": 7496, "車": 7497, "軋": 7498, "軌": 7499, "軍": 7500, "軒": 7501, "軔": 7502, "軛": 7503, "軟": 7504, "転": 7505, "軫": 7506, "軸": 7507, "軻": 7508, "軼": 7509, "軽": 7510, "軾": 7511, "較": 7512, "載": 7513, "輌": 7514, "輒": 7515, "輓": 7516, "輔": 7517, "輕": 7518, "輛": 7519, "輜": 7520, "輝": 7521, "輟": 7522, "輦": 7523, "輩": 7524, "輪": 7525, "輯": 7526, "輸": 7527, "輻": 7528, "輾": 7529, "輿": 7530, "轄": 7531, "轅": 7532, "轉": 7533, "轍": 7534, "轎": 7535, "轟": 7536, "轢": 7537, "车": 7538, "轧": 7539, "轨": 7540, "轩": 7541, "转": 7542, "轭": 7543, "轮": 7544, "软": 7545, "轰": 7546, "轴": 7547, "轶": 7548, "轸": 7549, "轻": 7550, "轼": 7551, "载": 7552, "轿": 7553, "较": 7554, "辄": 7555, "辅": 7556, "辆": 7557, "辈": 7558, "辉": 7559, "辍": 7560, "辐": 7561, "辑": 7562, "输": 7563, "辕": 7564, "辖": 7565, "辗": 7566, "辙": 7567, "辛": 7568, "辜": 7569, "辞": 7570, "辟": 7571, "辣": 7572, "辦": 7573, "辨": 7574, "辩": 7575, "辫": 7576, "辭": 7577, "辮": 7578, "辯": 7579, "辰": 7580, "辱": 7581, "農": 7582, "边": 7583, "辺": 7584, "辻": 7585, "込": 7586, "辽": 7587, "达": 7588, "辿": 7589, "迁": 7590, "迂": 7591, "迄": 7592, "迅": 7593, "过": 7594, "迈": 7595, "迎": 7596, "运": 7597, "近": 7598, "返": 7599, "还": 7600, "这": 7601, "进": 7602, "远": 7603, "违": 7604, "连": 7605, "迟": 7606, "迥": 7607, "迦": 7608, "迩": 7609, "迪": 7610, "迫": 7611, "迭": 7612, "述": 7613, "迴": 7614, "迷": 7615, "迹": 7616, "迺": 7617, "追": 7618, "退": 7619, "送": 7620, "适": 7621, "逃": 7622, "逅": 7623, "逆": 7624, "选": 7625, "逊": 7626, "逍": 7627, "透": 7628, "逐": 7629, "递": 7630, "逓": 7631, "途": 7632, "逕": 7633, "逗": 7634, "這": 7635, "通": 7636, "逛": 7637, "逝": 7638, "逞": 7639, "速": 7640, "造": 7641, "逢": 7642, "連": 7643, "逮": 7644, "週": 7645, "進": 7646, "逵": 7647, "逸": 7648, "逻": 7649, "逼": 7650, "逾": 7651, "遁": 7652, "遂": 7653, "遅": 7654, "遇": 7655, "遊": 7656, "運": 7657, "遍": 7658, "過": 7659, "遏": 7660, "遐": 7661, "道": 7662, "達": 7663, "違": 7664, "遗": 7665, "遙": 7666, "遜": 7667, "遞": 7668, "遠": 7669, "遡": 7670, "遣": 7671, "遥": 7672, "適": 7673, "遭": 7674, "遮": 7675, "遲": 7676, "遴": 7677, "遵": 7678, "遷": 7679, "選": 7680, "遹": 7681, "遺": 7682, "遼": 7683, "遽": 7684, "避": 7685, "邀": 7686, "邁": 7687, "邂": 7688, "邃": 7689, "還": 7690, "邇": 7691, "邈": 7692, "邉": 7693, "邊": 7694, "邏": 7695, "邑": 7696, "邓": 7697, "邕": 7698, "邛": 7699, "邝": 7700, "邠": 7701, "邢": 7702, "那": 7703, "邦": 7704, "邨": 7705, "邪": 7706, "邬": 7707, "邮": 7708, "邯": 7709, "邰": 7710, "邱": 7711, "邳": 7712, "邵": 7713, "邸": 7714, "邹": 7715, "邺": 7716, "邻": 7717, "邾": 7718, "郁": 7719, "郃": 7720, "郊": 7721, "郎": 7722, "郑": 7723, "郗": 7724, "郜": 7725, "郝": 7726, "郞": 7727, "郡": 7728, "郢": 7729, "郤": 7730, "郧": 7731, "部": 7732, "郭": 7733, "郯": 7734, "郴": 7735, "郵": 7736, "郷": 7737, "郸": 7738, "都": 7739, "鄂": 7740, "鄉": 7741, "鄒": 7742, "鄔": 7743, "鄕": 7744, "鄖": 7745, "鄙": 7746, "鄚": 7747, "鄞": 7748, "鄢": 7749, "鄧": 7750, "鄭": 7751, "鄯": 7752, "鄰": 7753, "鄱": 7754, "鄲": 7755, "鄴": 7756, "鄺": 7757, "酉": 7758, "酋": 7759, "酌": 7760, "配": 7761, "酎": 7762, "酐": 7763, "酒": 7764, "酔": 7765, "酗": 7766, "酚": 7767, "酢": 7768, "酣": 7769, "酥": 7770, "酪": 7771, "酬": 7772, "酮": 7773, "酯": 7774, "酰": 7775, "酱": 7776, "酵": 7777, "酶": 7778, "酷": 7779, "酸": 7780, "酿": 7781, "醃": 7782, "醇": 7783, "醉": 7784, "醋": 7785, "醍": 7786, "醐": 7787, "醒": 7788, "醚": 7789, "醛": 7790, "醜": 7791, "醣": 7792, "醤": 7793, "醫": 7794, "醬": 7795, "醮": 7796, "醯": 7797, "醴": 7798, "醸": 7799, "釀": 7800, "釁": 7801, "采": 7802, "釈": 7803, "釉": 7804, "释": 7805, "釋": 7806, "里": 7807, "重": 7808, "野": 7809, "量": 7810, "釐": 7811, "金": 7812, "釗": 7813, "釘": 7814, "釜": 7815, "針": 7816, "釣": 7817, "釧": 7818, "釵": 7819, "鈉": 7820, "鈍": 7821, "鈔": 7822, "鈕": 7823, "鈞": 7824, "鈣": 7825, "鈦": 7826, "鈴": 7827, "鈷": 7828, "鈺": 7829, "鈾": 7830, "鈿": 7831, "鉀": 7832, "鉄": 7833, "鉅": 7834, "鉈": 7835, "鉉": 7836, "鉑": 7837, "鉗": 7838, "鉛": 7839, "鉞": 7840, "鉢": 7841, "鉤": 7842, "鉱": 7843, "鉴": 7844, "鉻": 7845, "鉾": 7846, "銀": 7847, "銃": 7848, "銅": 7849, "銑": 7850, "銓": 7851, "銖": 7852, "銘": 7853, "銚": 7854, "銜": 7855, "銨": 7856, "銭": 7857, "銮": 7858, "銳": 7859, "銷": 7860, "銹": 7861, "鋁": 7862, "鋅": 7863, "鋏": 7864, "鋒": 7865, "鋤": 7866, "鋪": 7867, "鋭": 7868, "鋰": 7869, "鋳": 7870, "鋸": 7871, "鋼": 7872, "錄": 7873, "錆": 7874, "錐": 7875, "錕": 7876, "錘": 7877, "錚": 7878, "錠": 7879, "錢": 7880, "錦": 7881, "錨": 7882, "錫": 7883, "錬": 7884, "錮": 7885, "錯": 7886, "録": 7887, "錳": 7888, "錶": 7889, "鍊": 7890, "鍋": 7891, "鍍": 7892, "鍔": 7893, "鍛": 7894, "鍬": 7895, "鍮": 7896, "鍵": 7897, "鍼": 7898, "鍾": 7899, "鎂": 7900, "鎊": 7901, "鎌": 7902, "鎏": 7903, "鎔": 7904, "鎖": 7905, "鎗": 7906, "鎚": 7907, "鎢": 7908, "鎧": 7909, "鎬": 7910, "鎭": 7911, "鎮": 7912, "鎳": 7913, "鏃": 7914, "鏈": 7915, "鏑": 7916, "鏗": 7917, "鏞": 7918, "鏟": 7919, "鏡": 7920, "鏢": 7921, "鏽": 7922, "鐘": 7923, "鐮": 7924, "鐳": 7925, "鐵": 7926, "鐸": 7927, "鑄": 7928, "鑑": 7929, "鑒": 7930, "鑣": 7931, "鑫": 7932, "鑰": 7933, "鑲": 7934, "鑼": 7935, "鑽": 7936, "鑾": 7937, "鑿": 7938, "针": 7939, "钉": 7940, "钊": 7941, "钏": 7942, "钓": 7943, "钗": 7944, "钙": 7945, "钚": 7946, "钛": 7947, "钜": 7948, "钝": 7949, "钞": 7950, "钟": 7951, "钠": 7952, "钢": 7953, "钥": 7954, "钦": 7955, "钧": 7956, "钨": 7957, "钩": 7958, "钮": 7959, "钰": 7960, "钱": 7961, "钳": 7962, "钴": 7963, "钵": 7964, "钺": 7965, "钻": 7966, "钾": 7967, "铀": 7968, "铁": 7969, "铂": 7970, "铃": 7971, "铅": 7972, "铉": 7973, "铎": 7974, "铜": 7975, "铝": 7976, "铠": 7977, "铨": 7978, "铬": 7979, "铭": 7980, "铮": 7981, "铲": 7982, "铳": 7983, "铵": 7984, "银": 7985, "铸": 7986, "铺": 7987, "链": 7988, "铿": 7989, "销": 7990, "锁": 7991, "锂": 7992, "锄": 7993, "锅": 7994, "锈": 7995, "锋": 7996, "锌": 7997, "锐": 7998, "错": 7999, "锚": 8000, "锟": 8001, "锡": 8002, "锢": 8003, "锣": 8004, "锤": 8005, "锥": 8006, "锦": 8007, "锭": 8008, "键": 8009, "锯": 8010, "锰": 8011, "锷": 8012, "锺": 8013, "锻": 8014, "镀": 8015, "镁": 8016, "镇": 8017, "镍": 8018, "镐": 8019, "镑": 8020, "镕": 8021, "镖": 8022, "镛": 8023, "镜": 8024, "镭": 8025, "镰": 8026, "镶": 8027, "長": 8028, "长": 8029, "門": 8030, "閃": 8031, "閆": 8032, "閉": 8033, "開": 8034, "閏": 8035, "閑": 8036, "閒": 8037, "間": 8038, "閔": 8039, "閘": 8040, "関": 8041, "閣": 8042, "閤": 8043, "閥": 8044, "閨": 8045, "閩": 8046, "閬": 8047, "閭": 8048, "閱": 8049, "閲": 8050, "閻": 8051, "閾": 8052, "闆": 8053, "闇": 8054, "闊": 8055, "闍": 8056, "闐": 8057, "闕": 8058, "闖": 8059, "闘": 8060, "關": 8061, "闡": 8062, "闢": 8063, "门": 8064, "闪": 8065, "闫": 8066, "闭": 8067, "问": 8068, "闯": 8069, "闰": 8070, "闲": 8071, "间": 8072, "闵": 8073, "闷": 8074, "闸": 8075, "闹": 8076, "闺": 8077, "闻": 8078, "闽": 8079, "闾": 8080, "阀": 8081, "阁": 8082, "阅": 8083, "阆": 8084, "阇": 8085, "阉": 8086, "阎": 8087, "阐": 8088, "阔": 8089, "阗": 8090, "阙": 8091, "阜": 8092, "队": 8093, "阡": 8094, "阪": 8095, "阮": 8096, "阯": 8097, "阱": 8098, "防": 8099, "阳": 8100, "阴": 8101, "阵": 8102, "阶": 8103, "阻": 8104, "阿": 8105, "陀": 8106, "陂": 8107, "附": 8108, "际": 8109, "陆": 8110, "陇": 8111, "陈": 8112, "陋": 8113, "陌": 8114, "降": 8115, "限": 8116, "陕": 8117, "陛": 8118, "陝": 8119, "陞": 8120, "陟": 8121, "陡": 8122, "院": 8123, "陣": 8124, "除": 8125, "陥": 8126, "陨": 8127, "险": 8128, "陪": 8129, "陰": 8130, "陲": 8131, "陳": 8132, "陵": 8133, "陶": 8134, "陷": 8135, "陸": 8136, "険": 8137, "陽": 8138, "隅": 8139, "隆": 8140, "隈": 8141, "隊": 8142, "隋": 8143, "隍": 8144, "階": 8145, "随": 8146, "隐": 8147, "隔": 8148, "隕": 8149, "隗": 8150, "隘": 8151, "隙": 8152, "際": 8153, "障": 8154, "隠": 8155, "隣": 8156, "隧": 8157, "隨": 8158, "險": 8159, "隱": 8160, "隴": 8161, "隶": 8162, "隷": 8163, "隸": 8164, "隻": 8165, "隼": 8166, "隽": 8167, "难": 8168, "雀": 8169, "雁": 8170, "雄": 8171, "雅": 8172, "集": 8173, "雇": 8174, "雉": 8175, "雋": 8176, "雌": 8177, "雍": 8178, "雏": 8179, "雑": 8180, "雒": 8181, "雕": 8182, "雖": 8183, "雙": 8184, "雛": 8185, "雜": 8186, "雞": 8187, "離": 8188, "難": 8189, "雨": 8190, "雪": 8191, "雫": 8192, "雯": 8193, "雰": 8194, "雲": 8195, "雳": 8196, "零": 8197, "雷": 8198, "雹": 8199, "電": 8200, "雾": 8201, "需": 8202, "霄": 8203, "霆": 8204, "震": 8205, "霉": 8206, "霊": 8207, "霍": 8208, "霏": 8209, "霑": 8210, "霓": 8211, "霖": 8212, "霜": 8213, "霞": 8214, "霧": 8215, "霰": 8216, "露": 8217, "霸": 8218, "霹": 8219, "霽": 8220, "霾": 8221, "靂": 8222, "靄": 8223, "靈": 8224, "靑": 8225, "青": 8226, "靓": 8227, "靖": 8228, "静": 8229, "靚": 8230, "靛": 8231, "靜": 8232, "非": 8233, "靠": 8234, "靡": 8235, "面": 8236, "革": 8237, "靭": 8238, "靱": 8239, "靳": 8240, "靴": 8241, "靶": 8242, "靺": 8243, "靼": 8244, "鞄": 8245, "鞅": 8246, "鞆": 8247, "鞋": 8248, "鞍": 8249, "鞏": 8250, "鞑": 8251, "鞘": 8252, "鞠": 8253, "鞨": 8254, "鞭": 8255, "鞮": 8256, "韃": 8257, "韋": 8258, "韌": 8259, "韓": 8260, "韜": 8261, "韦": 8262, "韧": 8263, "韩": 8264, "韬": 8265, "韭": 8266, "韮": 8267, "音": 8268, "韵": 8269, "韶": 8270, "韻": 8271, "響": 8272, "頁": 8273, "頂": 8274, "頃": 8275, "項": 8276, "順": 8277, "須": 8278, "頊": 8279, "頌": 8280, "預": 8281, "頑": 8282, "頒": 8283, "頓": 8284, "頗": 8285, "領": 8286, "頚": 8287, "頜": 8288, "頡": 8289, "頤": 8290, "頬": 8291, "頭": 8292, "頰": 8293, "頸": 8294, "頹": 8295, "頻": 8296, "頼": 8297, "顆": 8298, "題": 8299, "額": 8300, "顎": 8301, "顏": 8302, "顒": 8303, "顔": 8304, "顕": 8305, "顗": 8306, "願": 8307, "顛": 8308, "類": 8309, "顥": 8310, "顧": 8311, "顫": 8312, "顯": 8313, "顱": 8314, "页": 8315, "顶": 8316, "顷": 8317, "项": 8318, "顺": 8319, "须": 8320, "顽": 8321, "顾": 8322, "顿": 8323, "颁": 8324, "颂": 8325, "预": 8326, "颅": 8327, "领": 8328, "颇": 8329, "颈": 8330, "颉": 8331, "颊": 8332, "颌": 8333, "颍": 8334, "颐": 8335, "频": 8336, "颓": 8337, "颖": 8338, "颗": 8339, "题": 8340, "颚": 8341, "颜": 8342, "额": 8343, "颠": 8344, "颤": 8345, "風": 8346, "颯": 8347, "颱": 8348, "颶": 8349, "飄": 8350, "飆": 8351, "风": 8352, "飒": 8353, "飓": 8354, "飘": 8355, "飙": 8356, "飛": 8357, "飞": 8358, "食": 8359, "飢": 8360, "飪": 8361, "飯": 8362, "飲": 8363, "飴": 8364, "飼": 8365, "飽": 8366, "飾": 8367, "餃": 8368, "餅": 8369, "餉": 8370, "養": 8371, "餌": 8372, "餐": 8373, "餓": 8374, "餘": 8375, "餚": 8376, "餡": 8377, "館": 8378, "餵": 8379, "餾": 8380, "饅": 8381, "饉": 8382, "饋": 8383, "饌": 8384, "饑": 8385, "饒": 8386, "饗": 8387, "饥": 8388, "饪": 8389, "饭": 8390, "饮": 8391, "饰": 8392, "饱": 8393, "饲": 8394, "饵": 8395, "饶": 8396, "饷": 8397, "饺": 8398, "饼": 8399, "饿": 8400, "馀": 8401, "馅": 8402, "馆": 8403, "馈": 8404, "馏": 8405, "首": 8406, "馗": 8407, "香": 8408, "馥": 8409, "馨": 8410, "馬": 8411, "馭": 8412, "馮": 8413, "馱": 8414, "馳": 8415, "馴": 8416, "駁": 8417, "駄": 8418, "駅": 8419, "駆": 8420, "駐": 8421, "駒": 8422, "駕": 8423, "駙": 8424, "駛": 8425, "駝": 8426, "駭": 8427, "駱": 8428, "駿": 8429, "騎": 8430, "騒": 8431, "験": 8432, "騙": 8433, "騨": 8434, "騫": 8435, "騰": 8436, "騷": 8437, "驃": 8438, "驅": 8439, "驊": 8440, "驍": 8441, "驒": 8442, "驕": 8443, "驗": 8444, "驚": 8445, "驛": 8446, "驟": 8447, "驢": 8448, "驤": 8449, "驥": 8450, "驪": 8451, "马": 8452, "驭": 8453, "驮": 8454, "驯": 8455, "驰": 8456, "驱": 8457, "驳": 8458, "驴": 8459, "驶": 8460, "驸": 8461, "驹": 8462, "驻": 8463, "驼": 8464, "驾": 8465, "驿": 8466, "骁": 8467, "骂": 8468, "骄": 8469, "骅": 8470, "骆": 8471, "骇": 8472, "骊": 8473, "验": 8474, "骏": 8475, "骑": 8476, "骗": 8477, "骚": 8478, "骞": 8479, "骠": 8480, "骤": 8481, "骥": 8482, "骧": 8483, "骨": 8484, "骰": 8485, "骷": 8486, "骸": 8487, "骼": 8488, "髄": 8489, "髅": 8490, "髏": 8491, "髑": 8492, "髒": 8493, "髓": 8494, "體": 8495, "高": 8496, "髙": 8497, "髦": 8498, "髪": 8499, "髭": 8500, "髮": 8501, "髯": 8502, "髷": 8503, "髻": 8504, "鬃": 8505, "鬆": 8506, "鬍": 8507, "鬘": 8508, "鬚": 8509, "鬣": 8510, "鬥": 8511, "鬧": 8512, "鬱": 8513, "鬼": 8514, "魁": 8515, "魂": 8516, "魃": 8517, "魄": 8518, "魅": 8519, "魍": 8520, "魎": 8521, "魏": 8522, "魔": 8523, "魚": 8524, "魨": 8525, "魮": 8526, "魯": 8527, "魷": 8528, "鮃": 8529, "鮋": 8530, "鮎": 8531, "鮑": 8532, "鮟": 8533, "鮠": 8534, "鮡": 8535, "鮨": 8536, "鮫": 8537, "鮭": 8538, "鮮": 8539, "鯉": 8540, "鯊": 8541, "鯖": 8542, "鯙": 8543, "鯛": 8544, "鯡": 8545, "鯤": 8546, "鯨": 8547, "鯰": 8548, "鯱": 8549, "鯽": 8550, "鰂": 8551, "鰈": 8552, "鰍": 8553, "鰐": 8554, "鰓": 8555, "鰕": 8556, "鰨": 8557, "鰭": 8558, "鰲": 8559, "鰹": 8560, "鰺": 8561, "鰻": 8562, "鱂": 8563, "鱇": 8564, "鱈": 8565, "鱉": 8566, "鱒": 8567, "鱔": 8568, "鱗": 8569, "鱧": 8570, "鱨": 8571, "鱲": 8572, "鱷": 8573, "鱸": 8574, "鱼": 8575, "鱿": 8576, "鲀": 8577, "鲁": 8578, "鲆": 8579, "鲇": 8580, "鲈": 8581, "鲉": 8582, "鲍": 8583, "鲑": 8584, "鲛": 8585, "鲜": 8586, "鲤": 8587, "鲨": 8588, "鲫": 8589, "鲱": 8590, "鲶": 8591, "鲷": 8592, "鲸": 8593, "鲽": 8594, "鲿": 8595, "鳃": 8596, "鳄": 8597, "鳅": 8598, "鳉": 8599, "鳌": 8600, "鳍": 8601, "鳎": 8602, "鳕": 8603, "鳖": 8604, "鳗": 8605, "鳚": 8606, "鳝": 8607, "鳞": 8608, "鳢": 8609, "鳥": 8610, "鳩": 8611, "鳳": 8612, "鳴": 8613, "鳶": 8614, "鴇": 8615, "鴉": 8616, "鴎": 8617, "鴛": 8618, "鴞": 8619, "鴦": 8620, "鴨": 8621, "鴻": 8622, "鴿": 8623, "鵑": 8624, "鵙": 8625, "鵜": 8626, "鵝": 8627, "鵠": 8628, "鵡": 8629, "鵬": 8630, "鵰": 8631, "鵲": 8632, "鶇": 8633, "鶉": 8634, "鶏": 8635, "鶥": 8636, "鶯": 8637, "鶴": 8638, "鶻": 8639, "鷗": 8640, "鷲": 8641, "鷹": 8642, "鷺": 8643, "鸚": 8644, "鸞": 8645, "鸟": 8646, "鸠": 8647, "鸡": 8648, "鸢": 8649, "鸣": 8650, "鸥": 8651, "鸦": 8652, "鸫": 8653, "鸭": 8654, "鸮": 8655, "鸯": 8656, "鸳": 8657, "鸽": 8658, "鸾": 8659, "鸿": 8660, "鹃": 8661, "鹅": 8662, "鹈": 8663, "鹉": 8664, "鹊": 8665, "鹏": 8666, "鹘": 8667, "鹛": 8668, "鹤": 8669, "鹦": 8670, "鹫": 8671, "鹭": 8672, "鹰": 8673, "鹵": 8674, "鹸": 8675, "鹹": 8676, "鹼": 8677, "鹽": 8678, "鹿": 8679, "麋": 8680, "麒": 8681, "麓": 8682, "麗": 8683, "麝": 8684, "麟": 8685, "麤": 8686, "麥": 8687, "麦": 8688, "麴": 8689, "麵": 8690, "麹": 8691, "麺": 8692, "麻": 8693, "麼": 8694, "麽": 8695, "麾": 8696, "麿": 8697, "黃": 8698, "黄": 8699, "黍": 8700, "黎": 8701, "黏": 8702, "黑": 8703, "黒": 8704, "黔": 8705, "默": 8706, "黙": 8707, "黛": 8708, "黜": 8709, "點": 8710, "黨": 8711, "黯": 8712, "黴": 8713, "黻": 8714, "鼎": 8715, "鼐": 8716, "鼓": 8717, "鼠": 8718, "鼩": 8719, "鼬": 8720, "鼻": 8721, "齊": 8722, "齋": 8723, "齐": 8724, "齒": 8725, "齡": 8726, "齢": 8727, "齣": 8728, "齦": 8729, "齧": 8730, "齿": 8731, "龄": 8732, "龈": 8733, "龍": 8734, "龐": 8735, "龔": 8736, "龕": 8737, "龙": 8738, "龚": 8739, "龛": 8740, "龜": 8741, "龟": 8742, "龢": 8743, "가": 8744, "각": 8745, "간": 8746, "갇": 8747, "갈": 8748, "감": 8749, "갑": 8750, "값": 8751, "갓": 8752, "갔": 8753, "강": 8754, "갖": 8755, "같": 8756, "갚": 8757, "개": 8758, "객": 8759, "갤": 8760, "갯": 8761, "갱": 8762, "걀": 8763, "거": 8764, "걱": 8765, "건": 8766, "걷": 8767, "걸": 8768, "검": 8769, "겁": 8770, "것": 8771, "겉": 8772, "게": 8773, "겐": 8774, "겔": 8775, "겟": 8776, "겠": 8777, "겨": 8778, "격": 8779, "겪": 8780, "견": 8781, "결": 8782, "겸": 8783, "겹": 8784, "겼": 8785, "경": 8786, "곁": 8787, "계": 8788, "고": 8789, "곡": 8790, "곤": 8791, "곧": 8792, "골": 8793, "곰": 8794, "곱": 8795, "곳": 8796, "공": 8797, "곶": 8798, "과": 8799, "곽": 8800, "관": 8801, "괄": 8802, "괌": 8803, "광": 8804, "괜": 8805, "괴": 8806, "굉": 8807, "교": 8808, "구": 8809, "국": 8810, "군": 8811, "굳": 8812, "굴": 8813, "굵": 8814, "굽": 8815, "굿": 8816, "궁": 8817, "권": 8818, "궐": 8819, "궤": 8820, "귀": 8821, "귄": 8822, "규": 8823, "균": 8824, "그": 8825, "극": 8826, "근": 8827, "글": 8828, "금": 8829, "급": 8830, "긋": 8831, "긍": 8832, "기": 8833, "긴": 8834, "길": 8835, "김": 8836, "깁": 8837, "깃": 8838, "깊": 8839, "까": 8840, "깎": 8841, "깐": 8842, "깔": 8843, "깜": 8844, "깝": 8845, "깥": 8846, "깨": 8847, "꺼": 8848, "꺾": 8849, "껍": 8850, "껏": 8851, "께": 8852, "껴": 8853, "꼈": 8854, "꼬": 8855, "꼭": 8856, "꼴": 8857, "꼼": 8858, "꼽": 8859, "꽃": 8860, "꽤": 8861, "꾀": 8862, "꾸": 8863, "꾼": 8864, "꿀": 8865, "꿈": 8866, "꿔": 8867, "꿨": 8868, "뀌": 8869, "뀐": 8870, "끄": 8871, "끈": 8872, "끊": 8873, "끌": 8874, "끓": 8875, "끔": 8876, "끗": 8877, "끝": 8878, "끼": 8879, "낀": 8880, "낄": 8881, "낌": 8882, "나": 8883, "낙": 8884, "난": 8885, "날": 8886, "낡": 8887, "남": 8888, "납": 8889, "낫": 8890, "났": 8891, "낭": 8892, "낮": 8893, "낯": 8894, "낱": 8895, "낳": 8896, "내": 8897, "낸": 8898, "낼": 8899, "냄": 8900, "냈": 8901, "냉": 8902, "냐": 8903, "냥": 8904, "너": 8905, "넌": 8906, "널": 8907, "넓": 8908, "넘": 8909, "넛": 8910, "넣": 8911, "네": 8912, "넥": 8913, "넨": 8914, "넬": 8915, "넷": 8916, "녀": 8917, "녁": 8918, "년": 8919, "념": 8920, "녔": 8921, "녕": 8922, "노": 8923, "녹": 8924, "논": 8925, "놀": 8926, "놈": 8927, "농": 8928, "높": 8929, "놓": 8930, "뇌": 8931, "뇨": 8932, "누": 8933, "눅": 8934, "눈": 8935, "눌": 8936, "눠": 8937, "뉘": 8938, "뉜": 8939, "뉴": 8940, "늄": 8941, "느": 8942, "늑": 8943, "는": 8944, "늘": 8945, "늙": 8946, "능": 8947, "늦": 8948, "늬": 8949, "니": 8950, "닉": 8951, "닌": 8952, "닐": 8953, "님": 8954, "닛": 8955, "닝": 8956, "다": 8957, "닥": 8958, "닦": 8959, "단": 8960, "닫": 8961, "달": 8962, "닭": 8963, "닮": 8964, "담": 8965, "답": 8966, "닷": 8967, "당": 8968, "닿": 8969, "대": 8970, "댄": 8971, "댈": 8972, "댐": 8973, "댓": 8974, "더": 8975, "덕": 8976, "던": 8977, "덜": 8978, "덟": 8979, "덤": 8980, "덧": 8981, "덩": 8982, "덮": 8983, "데": 8984, "덱": 8985, "덴": 8986, "델": 8987, "도": 8988, "독": 8989, "돈": 8990, "돋": 8991, "돌": 8992, "돔": 8993, "돕": 8994, "돗": 8995, "동": 8996, "돼": 8997, "됐": 8998, "되": 8999, "된": 9000, "될": 9001, "됨": 9002, "두": 9003, "둑": 9004, "둔": 9005, "둘": 9006, "둠": 9007, "둥": 9008, "뒀": 9009, "뒤": 9010, "뒷": 9011, "듀": 9012, "듈": 9013, "드": 9014, "득": 9015, "든": 9016, "듣": 9017, "들": 9018, "듬": 9019, "듭": 9020, "듯": 9021, "등": 9022, "디": 9023, "딕": 9024, "딘": 9025, "딜": 9026, "딥": 9027, "딧": 9028, "딩": 9029, "딪": 9030, "따": 9031, "딱": 9032, "딴": 9033, "딸": 9034, "땃": 9035, "땄": 9036, "땅": 9037, "때": 9038, "떠": 9039, "떡": 9040, "떤": 9041, "떨": 9042, "떻": 9043, "떼": 9044, "또": 9045, "똑": 9046, "뚜": 9047, "뚝": 9048, "뚫": 9049, "뚱": 9050, "뛰": 9051, "뜨": 9052, "뜬": 9053, "뜻": 9054, "띄": 9055, "띠": 9056, "띤": 9057, "라": 9058, "락": 9059, "란": 9060, "랄": 9061, "람": 9062, "랍": 9063, "랐": 9064, "랑": 9065, "래": 9066, "랙": 9067, "랜": 9068, "램": 9069, "랩": 9070, "랫": 9071, "랬": 9072, "랭": 9073, "랴": 9074, "략": 9075, "량": 9076, "러": 9077, "럭": 9078, "런": 9079, "럴": 9080, "럼": 9081, "럽": 9082, "럿": 9083, "렀": 9084, "렁": 9085, "렇": 9086, "레": 9087, "렉": 9088, "렌": 9089, "렐": 9090, "렘": 9091, "렛": 9092, "려": 9093, "력": 9094, "련": 9095, "렬": 9096, "렴": 9097, "렵": 9098, "렷": 9099, "렸": 9100, "령": 9101, "례": 9102, "로": 9103, "록": 9104, "론": 9105, "롤": 9106, "롬": 9107, "롭": 9108, "롯": 9109, "롱": 9110, "뢰": 9111, "료": 9112, "룡": 9113, "루": 9114, "룩": 9115, "룬": 9116, "룰": 9117, "룸": 9118, "룹": 9119, "룻": 9120, "룽": 9121, "뤄": 9122, "뤘": 9123, "뤼": 9124, "류": 9125, "륙": 9126, "륜": 9127, "률": 9128, "륨": 9129, "륭": 9130, "르": 9131, "륵": 9132, "른": 9133, "를": 9134, "름": 9135, "릇": 9136, "릉": 9137, "릎": 9138, "리": 9139, "릭": 9140, "린": 9141, "릴": 9142, "림": 9143, "립": 9144, "릿": 9145, "링": 9146, "마": 9147, "막": 9148, "만": 9149, "많": 9150, "맏": 9151, "말": 9152, "맑": 9153, "맘": 9154, "맛": 9155, "망": 9156, "맞": 9157, "맡": 9158, "매": 9159, "맥": 9160, "맨": 9161, "맵": 9162, "맷": 9163, "맹": 9164, "맺": 9165, "머": 9166, "먹": 9167, "먼": 9168, "멀": 9169, "멈": 9170, "멋": 9171, "멍": 9172, "메": 9173, "멕": 9174, "멘": 9175, "멜": 9176, "멤": 9177, "멧": 9178, "며": 9179, "면": 9180, "멸": 9181, "명": 9182, "몇": 9183, "모": 9184, "목": 9185, "몫": 9186, "몬": 9187, "몰": 9188, "몸": 9189, "몹": 9190, "못": 9191, "몽": 9192, "뫼": 9193, "묘": 9194, "무": 9195, "묵": 9196, "묶": 9197, "문": 9198, "묻": 9199, "물": 9200, "뭄": 9201, "뭇": 9202, "뭉": 9203, "뭐": 9204, "뭔": 9205, "뮌": 9206, "뮤": 9207, "뮬": 9208, "므": 9209, "미": 9210, "믹": 9211, "민": 9212, "믿": 9213, "밀": 9214, "밋": 9215, "밍": 9216, "및": 9217, "밑": 9218, "바": 9219, "박": 9220, "밖": 9221, "반": 9222, "받": 9223, "발": 9224, "밝": 9225, "밟": 9226, "밤": 9227, "밥": 9228, "방": 9229, "밭": 9230, "배": 9231, "백": 9232, "밴": 9233, "밸": 9234, "뱀": 9235, "뱅": 9236, "버": 9237, "벅": 9238, "번": 9239, "벌": 9240, "범": 9241, "법": 9242, "벗": 9243, "벚": 9244, "베": 9245, "벡": 9246, "벤": 9247, "벨": 9248, "벳": 9249, "벵": 9250, "벼": 9251, "벽": 9252, "변": 9253, "별": 9254, "볍": 9255, "병": 9256, "보": 9257, "복": 9258, "본": 9259, "볼": 9260, "봄": 9261, "봇": 9262, "봉": 9263, "봐": 9264, "봤": 9265, "부": 9266, "북": 9267, "분": 9268, "불": 9269, "붉": 9270, "붐": 9271, "붓": 9272, "붕": 9273, "붙": 9274, "뷔": 9275, "뷰": 9276, "브": 9277, "븐": 9278, "블": 9279, "비": 9280, "빅": 9281, "빈": 9282, "빌": 9283, "빔": 9284, "빗": 9285, "빙": 9286, "빚": 9287, "빛": 9288, "빠": 9289, "빨": 9290, "빵": 9291, "빼": 9292, "빽": 9293, "뻐": 9294, "뻔": 9295, "뻗": 9296, "뼈": 9297, "뽑": 9298, "뾰": 9299, "뿌": 9300, "뿐": 9301, "뿔": 9302, "쁘": 9303, "쁜": 9304, "쁨": 9305, "사": 9306, "삭": 9307, "산": 9308, "살": 9309, "삶": 9310, "삼": 9311, "삽": 9312, "삿": 9313, "샀": 9314, "상": 9315, "새": 9316, "색": 9317, "샌": 9318, "샐": 9319, "샘": 9320, "생": 9321, "샤": 9322, "샬": 9323, "샹": 9324, "섀": 9325, "서": 9326, "석": 9327, "섞": 9328, "선": 9329, "설": 9330, "섬": 9331, "섭": 9332, "섯": 9333, "섰": 9334, "성": 9335, "세": 9336, "섹": 9337, "센": 9338, "셀": 9339, "셈": 9340, "셉": 9341, "셋": 9342, "셔": 9343, "션": 9344, "셜": 9345, "셨": 9346, "셰": 9347, "셸": 9348, "소": 9349, "속": 9350, "손": 9351, "솔": 9352, "솜": 9353, "솟": 9354, "송": 9355, "쇄": 9356, "쇠": 9357, "쇼": 9358, "숀": 9359, "숍": 9360, "수": 9361, "숙": 9362, "순": 9363, "술": 9364, "숨": 9365, "숫": 9366, "숭": 9367, "숲": 9368, "쉐": 9369, "쉬": 9370, "쉴": 9371, "쉽": 9372, "슈": 9373, "슌": 9374, "슐": 9375, "슘": 9376, "슛": 9377, "스": 9378, "슨": 9379, "슬": 9380, "슭": 9381, "슴": 9382, "습": 9383, "슷": 9384, "승": 9385, "시": 9386, "식": 9387, "신": 9388, "싣": 9389, "실": 9390, "싫": 9391, "심": 9392, "십": 9393, "싯": 9394, "싱": 9395, "싶": 9396, "싸": 9397, "싹": 9398, "싼": 9399, "쌀": 9400, "쌍": 9401, "쌓": 9402, "써": 9403, "썩": 9404, "썬": 9405, "썰": 9406, "썼": 9407, "쏘": 9408, "쏜": 9409, "쏟": 9410, "쑤": 9411, "쓰": 9412, "쓴": 9413, "쓸": 9414, "씀": 9415, "씌": 9416, "씨": 9417, "씩": 9418, "씬": 9419, "아": 9420, "악": 9421, "안": 9422, "앉": 9423, "않": 9424, "알": 9425, "앓": 9426, "암": 9427, "압": 9428, "앗": 9429, "았": 9430, "앙": 9431, "앞": 9432, "애": 9433, "액": 9434, "앤": 9435, "앨": 9436, "앱": 9437, "앵": 9438, "야": 9439, "약": 9440, "얀": 9441, "얄": 9442, "얇": 9443, "양": 9444, "얕": 9445, "얘": 9446, "어": 9447, "억": 9448, "언": 9449, "얹": 9450, "얻": 9451, "얼": 9452, "얽": 9453, "엄": 9454, "업": 9455, "없": 9456, "엇": 9457, "었": 9458, "엉": 9459, "에": 9460, "엑": 9461, "엔": 9462, "엘": 9463, "엠": 9464, "엣": 9465, "여": 9466, "역": 9467, "엮": 9468, "연": 9469, "열": 9470, "염": 9471, "엽": 9472, "엿": 9473, "였": 9474, "영": 9475, "옆": 9476, "예": 9477, "옌": 9478, "옐": 9479, "옛": 9480, "오": 9481, "옥": 9482, "온": 9483, "올": 9484, "옮": 9485, "옳": 9486, "옴": 9487, "옵": 9488, "옷": 9489, "옹": 9490, "와": 9491, "완": 9492, "왈": 9493, "왓": 9494, "왔": 9495, "왕": 9496, "왜": 9497, "외": 9498, "왼": 9499, "요": 9500, "욕": 9501, "욘": 9502, "욤": 9503, "용": 9504, "우": 9505, "욱": 9506, "운": 9507, "울": 9508, "움": 9509, "웃": 9510, "웅": 9511, "워": 9512, "원": 9513, "월": 9514, "웠": 9515, "웨": 9516, "웬": 9517, "웰": 9518, "웹": 9519, "위": 9520, "윅": 9521, "윈": 9522, "윌": 9523, "윗": 9524, "윙": 9525, "유": 9526, "육": 9527, "윤": 9528, "율": 9529, "융": 9530, "으": 9531, "윽": 9532, "은": 9533, "을": 9534, "음": 9535, "읍": 9536, "응": 9537, "의": 9538, "이": 9539, "익": 9540, "인": 9541, "일": 9542, "읽": 9543, "잃": 9544, "임": 9545, "입": 9546, "잇": 9547, "있": 9548, "잉": 9549, "잊": 9550, "잎": 9551, "자": 9552, "작": 9553, "잔": 9554, "잘": 9555, "잠": 9556, "잡": 9557, "장": 9558, "잦": 9559, "재": 9560, "잭": 9561, "쟁": 9562, "쟈": 9563, "저": 9564, "적": 9565, "전": 9566, "절": 9567, "젊": 9568, "점": 9569, "접": 9570, "정": 9571, "젖": 9572, "제": 9573, "젝": 9574, "젠": 9575, "젤": 9576, "져": 9577, "졌": 9578, "조": 9579, "족": 9580, "존": 9581, "졸": 9582, "좀": 9583, "좁": 9584, "종": 9585, "좋": 9586, "좌": 9587, "죄": 9588, "죠": 9589, "주": 9590, "죽": 9591, "준": 9592, "줄": 9593, "줌": 9594, "중": 9595, "줘": 9596, "줬": 9597, "쥐": 9598, "쥬": 9599, "쥰": 9600, "즈": 9601, "즉": 9602, "즌": 9603, "즐": 9604, "즘": 9605, "증": 9606, "지": 9607, "직": 9608, "진": 9609, "질": 9610, "짐": 9611, "집": 9612, "짓": 9613, "징": 9614, "짙": 9615, "짜": 9616, "짝": 9617, "짧": 9618, "짱": 9619, "째": 9620, "쩌": 9621, "쩔": 9622, "쪽": 9623, "쫓": 9624, "쭉": 9625, "쯔": 9626, "쯤": 9627, "찌": 9628, "찍": 9629, "찔": 9630, "차": 9631, "착": 9632, "찬": 9633, "찮": 9634, "찰": 9635, "참": 9636, "창": 9637, "찾": 9638, "채": 9639, "책": 9640, "챈": 9641, "챌": 9642, "챔": 9643, "챙": 9644, "처": 9645, "척": 9646, "천": 9647, "철": 9648, "첨": 9649, "첩": 9650, "첫": 9651, "청": 9652, "체": 9653, "첸": 9654, "첼": 9655, "쳐": 9656, "쳤": 9657, "초": 9658, "촉": 9659, "촌": 9660, "촛": 9661, "총": 9662, "촨": 9663, "촬": 9664, "최": 9665, "추": 9666, "축": 9667, "춘": 9668, "출": 9669, "춤": 9670, "충": 9671, "춰": 9672, "췌": 9673, "취": 9674, "츄": 9675, "츠": 9676, "측": 9677, "츰": 9678, "층": 9679, "치": 9680, "칙": 9681, "친": 9682, "칠": 9683, "침": 9684, "칩": 9685, "칭": 9686, "카": 9687, "칸": 9688, "칼": 9689, "캄": 9690, "캅": 9691, "캉": 9692, "캐": 9693, "캔": 9694, "캘": 9695, "캠": 9696, "캡": 9697, "캣": 9698, "커": 9699, "컨": 9700, "컫": 9701, "컬": 9702, "컴": 9703, "컵": 9704, "컷": 9705, "컸": 9706, "케": 9707, "켄": 9708, "켈": 9709, "켓": 9710, "켜": 9711, "켰": 9712, "코": 9713, "콕": 9714, "콘": 9715, "콜": 9716, "콤": 9717, "콥": 9718, "콧": 9719, "콩": 9720, "콰": 9721, "쾌": 9722, "쾰": 9723, "쿄": 9724, "쿠": 9725, "쿡": 9726, "쿤": 9727, "쿨": 9728, "쿼": 9729, "퀘": 9730, "퀴": 9731, "퀸": 9732, "큐": 9733, "큘": 9734, "크": 9735, "큰": 9736, "클": 9737, "큼": 9738, "키": 9739, "킥": 9740, "킨": 9741, "킬": 9742, "킴": 9743, "킷": 9744, "킹": 9745, "타": 9746, "탁": 9747, "탄": 9748, "탈": 9749, "탐": 9750, "탑": 9751, "탓": 9752, "탔": 9753, "탕": 9754, "태": 9755, "택": 9756, "탠": 9757, "탤": 9758, "탬": 9759, "탭": 9760, "탱": 9761, "터": 9762, "턱": 9763, "턴": 9764, "털": 9765, "텀": 9766, "테": 9767, "텍": 9768, "텐": 9769, "텔": 9770, "템": 9771, "텝": 9772, "톈": 9773, "토": 9774, "톡": 9775, "톤": 9776, "톨": 9777, "톰": 9778, "톱": 9779, "통": 9780, "퇴": 9781, "투": 9782, "툰": 9783, "툴": 9784, "툼": 9785, "퉁": 9786, "튀": 9787, "튜": 9788, "튠": 9789, "튬": 9790, "트": 9791, "특": 9792, "튼": 9793, "틀": 9794, "틈": 9795, "티": 9796, "틱": 9797, "틴": 9798, "틸": 9799, "팀": 9800, "팅": 9801, "파": 9802, "팍": 9803, "판": 9804, "팔": 9805, "팜": 9806, "팝": 9807, "팟": 9808, "팡": 9809, "패": 9810, "팩": 9811, "팬": 9812, "팽": 9813, "퍼": 9814, "펀": 9815, "펄": 9816, "펌": 9817, "펑": 9818, "페": 9819, "펙": 9820, "펜": 9821, "펠": 9822, "펫": 9823, "펴": 9824, "편": 9825, "펼": 9826, "평": 9827, "폐": 9828, "포": 9829, "폭": 9830, "폰": 9831, "폴": 9832, "폼": 9833, "퐁": 9834, "표": 9835, "푸": 9836, "푼": 9837, "풀": 9838, "품": 9839, "풋": 9840, "풍": 9841, "퓨": 9842, "프": 9843, "픈": 9844, "플": 9845, "픔": 9846, "피": 9847, "픽": 9848, "핀": 9849, "필": 9850, "핍": 9851, "핑": 9852, "하": 9853, "학": 9854, "한": 9855, "할": 9856, "함": 9857, "합": 9858, "핫": 9859, "항": 9860, "해": 9861, "핵": 9862, "핸": 9863, "햄": 9864, "햇": 9865, "했": 9866, "행": 9867, "향": 9868, "허": 9869, "헌": 9870, "헐": 9871, "험": 9872, "헝": 9873, "헤": 9874, "헨": 9875, "헬": 9876, "혀": 9877, "혁": 9878, "현": 9879, "혈": 9880, "혐": 9881, "협": 9882, "혔": 9883, "형": 9884, "혜": 9885, "호": 9886, "혹": 9887, "혼": 9888, "홀": 9889, "홈": 9890, "홉": 9891, "홋": 9892, "홍": 9893, "화": 9894, "확": 9895, "환": 9896, "활": 9897, "황": 9898, "회": 9899, "획": 9900, "횟": 9901, "횡": 9902, "효": 9903, "후": 9904, "훈": 9905, "훌": 9906, "훔": 9907, "훗": 9908, "훨": 9909, "훼": 9910, "휘": 9911, "휠": 9912, "휩": 9913, "휴": 9914, "흉": 9915, "흐": 9916, "흑": 9917, "흔": 9918, "흘": 9919, "흙": 9920, "흡": 9921, "흥": 9922, "흩": 9923, "희": 9924, "흰": 9925, "히": 9926, "힌": 9927, "힐": 9928, "힘": 9929, "힙": 9930, "﨑": 9931, "ﮐ": 9932, "ﮟ": 9933, "ﮨ": 9934, "ﮯ": 9935, "ﯽ": 9936, "ﯿ": 9937, "﴾": 9938, "﴿": 9939, "ﷲ": 9940, "ﷺ": 9941, "︰": 9942, "﹐": 9943, "﹑": 9944, "﹔": 9945, "﹕": 9946, "﹝": 9947, "﹞": 9948, "﹣": 9949, "ﺍ": 9950, "ﺎ": 9951, "ﺗ": 9952, "ﻣ": 9953, "ﻭ": 9954, "ﻮ": 9955, "！": 9956, "＂": 9957, "＃": 9958, "％": 9959, "＆": 9960, "（": 9961, "）": 9962, "＊": 9963, "＋": 9964, "，": 9965, "－": 9966, "．": 9967, "／": 9968, "０": 9969, "１": 9970, "２": 9971, "３": 9972, "４": 9973, "５": 9974, "６": 9975, "７": 9976, "８": 9977, "９": 9978, "：": 9979, "；": 9980, "＜": 9981, "＝": 9982, "＞": 9983, "？": 9984, "＠": 9985, "Ａ": 9986, "Ｂ": 9987, "Ｃ": 9988, "Ｍ": 9989, "Ｓ": 9990, "Ｘ": 9991, "［": 9992, "＼": 9993, "］": 9994, "＿": 9995, "｜": 9996, "～": 9997, "｡": 9998, "｢": 9999, "｣": 10000, "､": 10001, "･": 10002, "𩽾": 10003, "𩾌": 10004, "de": 10005, "the": 10006, "in": 10007, "##s": 10008, "of": 10009, "la": 10010, "en": 10011, "and": 10012, "##e": 10013, "##a": 10014, "to": 10015, "##n": 10016, "##i": 10017, "un": 10018, "di": 10019, "##t": 10020, "is": 10021, "se": 10022, "del": 10023, "die": 10024, "##r": 10025, "und": 10026, "na": 10027, "##o": 10028, "was": 10029, "on": 10030, "##en": 10031, "##u": 10032, "des": 10033, "den": 10034, "le": 10035, "for": 10036, "da": 10037, "je": 10038, "van": 10039, "as": 10040, "##m": 10041, "sa": 10042, "do": 10043, "10": 10044, "an": 10045, "una": 10046, "by": 10047, "##y": 10048, "at": 10049, "##l": 10050, "##d": 10051, "er": 10052, "al": 10053, "##er": 10054, "du": 10055, "with": 10056, "av": 10057, "##es": 10058, "med": 10059, "con": 10060, "##k": 10061, "per": 10062, "##а": 10063, "12": 10064, "from": 10065, "that": 10066, "##и": 10067, "no": 10068, "11": 10069, "es": 10070, "20": 10071, "su": 10072, "ja": 10073, "##е": 10074, "##an": 10075, "15": 10076, "om": 10077, "im": 10078, "com": 10079, "##ta": 10080, "##te": 10081, "18": 10082, "##na": 10083, "para": 10084, "mit": 10085, "his": 10086, "##у": 10087, "ha": 10088, "##da": 10089, "##ing": 10090, "une": 10091, "24": 10092, "##h": 10093, "##ne": 10094, "##g": 10095, "##м": 10096, "das": 10097, "30": 10098, "##in": 10099, "##re": 10100, "14": 10101, "par": 10102, "13": 10103, "16": 10104, "##us": 10105, "##de": 10106, "au": 10107, "25": 10108, "000": 10109, "he": 10110, "che": 10111, "##on": 10112, "em": 10113, "##н": 10114, "dem": 10115, "##ch": 10116, "19": 10117, "it": 10118, "17": 10119, "##ی": 10120, "##ia": 10121, "##le": 10122, "##ra": 10123, "##is": 10124, "##ы": 10125, "si": 10126, "21": 10127, "var": 10128, "are": 10129, "op": 10130, "##z": 10131, "22": 10132, "##et": 10133, "were": 10134, "##os": 10135, "od": 10136, "son": 10137, "26": 10138, "##о": 10139, "which": 10140, "##ja": 10141, "va": 10142, "ve": 10143, "##ti": 10144, "sur": 10145, "23": 10146, "##la": 10147, "##é": 10148, "##ed": 10149, "war": 10150, "za": 10151, "##to": 10152, "##se": 10153, "##ni": 10154, "or": 10155, "be": 10156, "28": 10157, "det": 10158, "##c": 10159, "##т": 10160, "##і": 10161, "##х": 10162, "##ar": 10163, "qui": 10164, "##va": 10165, "27": 10166, "mm": 10167, "##nt": 10168, "##ma": 10169, "##ka": 10170, "had": 10171, "##ng": 10172, "also": 10173, "so": 10174, "##je": 10175, "##ة": 10176, "##й": 10177, "##я": 10178, "29": 10179, "##ه": 10180, "##li": 10181, "am": 10182, "has": 10183, "ur": 10184, "##ie": 10185, "##ri": 10186, "lo": 10187, "100": 10188, "##p": 10189, "31": 10190, "ni": 10191, "##al": 10192, "##ה": 10193, "##j": 10194, "##ce": 10195, "first": 10196, "##ca": 10197, "##ment": 10198, "os": 10199, "met": 10200, "##ا": 10201, "all": 10202, "##ko": 10203, "##ó": 10204, "non": 10205, "##si": 10206, "##em": 10207, "af": 10208, "##ly": 10209, "their": 10210, "ar": 10211, "##b": 10212, "film": 10213, "##의": 10214, "##ي": 10215, "50": 10216, "one": 10217, "##sa": 10218, "bis": 10219, "##ă": 10220, "not": 10221, "but": 10222, "its": 10223, "##v": 10224, "ir": 10225, "who": 10226, "ny": 10227, "##ו": 10228, "##ga": 10229, "##ς": 10230, "her": 10231, "##it": 10232, "ang": 10233, "over": 10234, "dei": 10235, "##ת": 10236, "##ت": 10237, "##ki": 10238, "##к": 10239, "##с": 10240, "po": 10241, "##л": 10242, "##р": 10243, "##ge": 10244, "##at": 10245, "have": 10246, "##에": 10247, "this": 10248, "40": 10249, "##י": 10250, "##ba": 10251, "ed": 10252, "##в": 10253, "##í": 10254, "##ur": 10255, "ya": 10256, "##ke": 10257, "two": 10258, "ne": 10259, "bir": 10260, "##st": 10261, "plus": 10262, "##ro": 10263, "##el": 10264, "under": 10265, "##f": 10266, "##ن": 10267, "pada": 10268, "meter": 10269, "men": 10270, "##man": 10271, "been": 10272, "##ю": 10273, "din": 10274, "##ci": 10275, "##ve": 10276, "##ą": 10277, "##을": 10278, "september": 10279, "##me": 10280, "fra": 10281, "##den": 10282, "##の": 10283, "time": 10284, "##za": 10285, "##io": 10286, "No": 10287, "##د": 10288, "##á": 10289, "after": 10290, "##or": 10291, "part": 10292, "01": 10293, "dia": 10294, "##ر": 10295, "come": 10296, "##ya": 10297, "red": 10298, "other": 10299, "##x": 10300, "they": 10301, "##om": 10302, "##م": 10303, "##di": 10304, "##kan": 10305, "##ek": 10306, "into": 10307, "60": 10308, "till": 10309, "##ı": 10310, "##lo": 10311, "06": 10312, "aan": 10313, "##2": 10314, "ka": 10315, "##S": 10316, "mai": 10317, "##A": 10318, "##이": 10319, "dal": 10320, "up": 10321, "##д": 10322, "This": 10323, "new": 10324, "500": 10325, "##ho": 10326, "##1": 10327, "##ji": 10328, "200": 10329, "att": 10330, "ce": 10331, "sin": 10332, "##go": 10333, "more": 10334, "nan": 10335, "35": 10336, "ei": 10337, "##ts": 10338, "##co": 10339, "04": 10340, "##à": 10341, "man": 10342, "##tion": 10343, "##г": 10344, "ma": 10345, "45": 10346, "05": 10347, "80": 10348, "she": 10349, "ad": 10350, "when": 10351, "32": 10352, "65": 10353, "##ų": 10354, "sus": 10355, "due": 10356, "##ь": 10357, "##ku": 10358, "cu": 10359, "years": 10360, "##C": 10361, "fan": 10362, "##ze": 10363, "later": 10364, "##w": 10365, "07": 10366, "ki": 10367, "##3": 10368, "##ë": 10369, "##ns": 10370, "##은": 10371, "only": 10372, "would": 10373, "##ik": 10374, "##が": 10375, "##ers": 10376, "03": 10377, "##ry": 10378, "me": 10379, "##ी": 10380, "##sen": 10381, "90": 10382, "##ha": 10383, "70": 10384, "year": 10385, "##ban": 10386, "##0": 10387, "pa": 10388, "##ם": 10389, "during": 10390, "where": 10391, "ze": 10392, "##rs": 10393, "can": 10394, "between": 10395, "out": 10396, "##년": 10397, "him": 10398, "##ل": 10399, "##ę": 10400, "##ben": 10401, "alle": 10402, "##ը": 10403, "##rt": 10404, "और": 10405, "about": 10406, "02": 10407, "##tu": 10408, "most": 10409, "33": 10410, "##ן": 10411, "three": 10412, "##ů": 10413, "##am": 10414, "##ou": 10415, "##4": 10416, "##ä": 10417, "ben": 10418, "##는": 10419, "made": 10420, "ye": 10421, "00": 10422, "##il": 10423, "used": 10424, "##mo": 10425, "09": 10426, "##wa": 10427, "##jo": 10428, "##be": 10429, "##ion": 10430, "such": 10431, "08": 10432, "known": 10433, "ved": 10434, "36": 10435, "then": 10436, "You": 10437, "34": 10438, "final": 10439, "##п": 10440, "##land": 10441, "##lla": 10442, "than": 10443, "##ب": 10444, "naam": 10445, "##T": 10446, "##س": 10447, "300": 10448, "##한": 10449, "##un": 10450, "club": 10451, "team": 10452, "44": 10453, "##P": 10454, "##র": 10455, "##ic": 10456, "care": 10457, "second": 10458, "##ł": 10459, "ca": 10460, "##ok": 10461, "##th": 10462, "##و": 10463, "##ш": 10464, "some": 10465, "##ada": 10466, "there": 10467, "##ut": 10468, "pe": 10469, "ke": 10470, "data": 10471, "##5": 10472, "area": 10473, "co": 10474, "38": 10475, "400": 10476, "any": 10477, "##ton": 10478, "एक": 10479, "ook": 10480, "place": 10481, "##ty": 10482, "including": 10483, "##ে": 10484, "##ble": 10485, "37": 10486, "well": 10487, "##ा": 10488, "##ר": 10489, "##gi": 10490, "##6": 10491, "##ի": 10492, "##ն": 10493, "through": 10494, "being": 10495, "season": 10496, "##ll": 10497, "##ea": 10498, "##res": 10499, "##ant": 10500, "##ہ": 10501, "##ò": 10502, "ko": 10503, "cho": 10504, "##E": 10505, "##로": 10506, "##ck": 10507, "##les": 10508, "##ning": 10509, "##R": 10510, "##B": 10511, "42": 10512, "##gen": 10513, "##I": 10514, "##zi": 10515, "pro": 10516, "##가": 10517, "##ot": 10518, "##ל": 10519, "##ist": 10520, "bij": 10521, "##nie": 10522, "many": 10523, "48": 10524, "39": 10525, "##der": 10526, "##7": 10527, "pp": 10528, "##vi": 10529, "##に": 10530, "##ს": 10531, "ci": 10532, "name": 10533, "against": 10534, "will": 10535, "total": 10536, "bi": 10537, "them": 10538, "ai": 10539, "##pe": 10540, "world": 10541, "ab": 10542, "55": 10543, "##pa": 10544, "before": 10545, "family": 10546, "series": 10547, "won": 10548, "##L": 10549, "43": 10550, "while": 10551, "ale": 10552, "##9": 10553, "single": 10554, "##を": 10555, "##ў": 10556, "may": 10557, "state": 10558, "##tas": 10559, "solo": 10560, "##8": 10561, "##O": 10562, "##ent": 10563, "via": 10564, "both": 10565, "75": 10566, "ex": 10567, "work": 10568, "people": 10569, "local": 10570, "until": 10571, "##ky": 10572, "##ger": 10573, "##G": 10574, "##ý": 10575, "##न": 10576, "##du": 10577, "##ura": 10578, "wa": 10579, "contra": 10580, "##ii": 10581, "##sk": 10582, "##ol": 10583, "##ā": 10584, "##ć": 10585, "history": 10586, "number": 10587, "##ad": 10588, "##D": 10589, "##nes": 10590, "bu": 10591, "##ز": 10592, "##ї": 10593, "##를": 10594, "##M": 10595, "bat": 10596, "hi": 10597, "51": 10598, "52": 10599, "##lt": 10600, "##nd": 10601, "##N": 10602, "ay": 10603, "released": 10604, "##ai": 10605, "##र": 10606, "called": 10607, "##े": 10608, "same": 10609, "##ə": 10610, "##F": 10611, "band": 10612, "##з": 10613, "end": 10614, "##ა": 10615, "49": 10616, "city": 10617, "##ach": 10618, "##は": 10619, "##are": 10620, "four": 10621, "based": 10622, "li": 10623, "tre": 10624, "##ita": 10625, "##ies": 10626, "##ش": 10627, "##ire": 10628, "56": 10629, "##ě": 10630, "##ú": 10631, "re": 10632, "##he": 10633, "##bi": 10634, "principal": 10635, "54": 10636, "game": 10637, "##と": 10638, "##고": 10639, "##ン": 10640, "anno": 10641, "version": 10642, "##ks": 10643, "##ud": 10644, "##ru": 10645, "public": 10646, "##ف": 10647, "##ع": 10648, "long": 10649, "##q": 10650, "##au": 10651, "##ier": 10652, "##cy": 10653, "##ک": 10654, "##ल": 10655, "november": 10656, "##ida": 10657, "sau": 10658, "early": 10659, "##K": 10660, "ut": 10661, "several": 10662, "##ন": 10663, "ans": 10664, "##ч": 10665, "##ls": 10666, "53": 10667, "dont": 10668, "##im": 10669, "use": 10670, "84": 10671, "these": 10672, "since": 10673, "150": 10674, "ten": 10675, "##V": 10676, "##han": 10677, "go": 10678, "system": 10679, "##bo": 10680, "Do": 10681, "group": 10682, "600": 10683, "##ation": 10684, "home": 10685, "found": 10686, "##ס": 10687, "##ى": 10688, "music": 10689, "post": 10690, "national": 10691, "##त": 10692, "high": 10693, "set": 10694, "like": 10695, "##ق": 10696, "now": 10697, "ra": 10698, "##nda": 10699, "59": 10700, "april": 10701, "##ker": 10702, "##과": 10703, "##ė": 10704, "ga": 10705, "##ang": 10706, "kg": 10707, "show": 10708, "off": 10709, "800": 10710, "following": 10711, "##다": 10712, "##ua": 10713, "##ted": 10714, "##ice": 10715, "site": 10716, "major": 10717, "##hi": 10718, "art": 10719, "day": 10720, "began": 10721, "##ive": 10722, "##ling": 10723, "each": 10724, "##ity": 10725, "we": 10726, "##gan": 10727, "95": 10728, "net": 10729, "service": 10730, "held": 10731, "##°": 10732, "member": 10733, "##ے": 10734, "song": 10735, "back": 10736, "##U": 10737, "##ж": 10738, "##인": 10739, "named": 10740, "government": 10741, "120": 10742, "##lan": 10743, "##tan": 10744, "nad": 10745, "XX": 10746, "khi": 10747, "88": 10748, "large": 10749, "video": 10750, "##া": 10751, "##ד": 10752, "age": 10753, "##lor": 10754, "##도": 10755, "##ב": 10756, "##zo": 10757, "company": 10758, "##ure": 10759, "life": 10760, "line": 10761, "72": 10762, "meg": 10763, "main": 10764, "fr": 10765, "##kin": 10766, "##ting": 10767, "social": 10768, "took": 10769, "##nce": 10770, "##क": 10771, "left": 10772, "around": 10773, "did": 10774, "could": 10775, "##bu": 10776, "82": 10777, "##ц": 10778, "capital": 10779, "99": 10780, "form": 10781, "##ದ": 10782, "##tta": 10783, "fa": 10784, "##ber": 10785, "पर": 10786, "250": 10787, "66": 10788, "region": 10789, "town": 10790, "pre": 10791, "##ス": 10792, "##val": 10793, "##ি": 10794, "##で": 10795, "finale": 10796, "##burg": 10797, "side": 10798, "play": 10799, "present": 10800, "##ah": 10801, "if": 10802, "##є": 10803, "water": 10804, "received": 10805, "bio": 10806, "##ano": 10807, "##기": 10808, "61": 10809, "mar": 10810, "81": 10811, "97": 10812, "point": 10813, "##ð": 10814, "##ٔ": 10815, "##cu": 10816, "##dy": 10817, "match": 10818, "mu": 10819, "top": 10820, "##ü": 10821, "68": 10822, "because": 10823, "etc": 10824, "pri": 10825, "mens": 10826, "within": 10827, "kann": 10828, "##ט": 10829, "##ms": 10830, "##H": 10831, "central": 10832, "along": 10833, "83": 10834, "said": 10835, "##서": 10836, "##ル": 10837, "##ate": 10838, "kam": 10839, "important": 10840, "##ens": 10841, "members": 10842, "last": 10843, "million": 10844, "small": 10845, "##ari": 10846, "program": 10847, "football": 10848, "78": 10849, "##kt": 10850, "##ك": 10851, "best": 10852, "##지": 10853, "##ק": 10854, "71": 10855, "##ő": 10856, "media": 10857, "91": 10858, "##aan": 10859, "##wy": 10860, "##ι": 10861, "77": 10862, "##б": 10863, "##ף": 10864, "international": 10865, "##ג": 10866, "74": 10867, "jo": 10868, "own": 10869, "73": 10870, "vo": 10871, "death": 10872, "very": 10873, "##ver": 10874, "air": 10875, "69": 10876, "##we": 10877, "building": 10878, "yr": 10879, "satu": 10880, "popular": 10881, "id": 10882, "##스": 10883, "mis": 10884, "control": 10885, "##ء": 10886, "##ح": 10887, "##č": 10888, "##ש": 10889, "##ld": 10890, "third": 10891, "##와": 10892, "services": 10893, "89": 10894, "still": 10895, "##ν": 10896, "centre": 10897, "##X": 10898, "##pi": 10899, "those": 10900, "##ara": 10901, "col": 10902, "##od": 10903, "##ys": 10904, "##리": 10905, "##ite": 10906, "##ј": 10907, "##per": 10908, "vol": 10909, "##og": 10910, "ter": 10911, "##ato": 10912, "country": 10913, "##ա": 10914, "tak": 10915, "included": 10916, "book": 10917, "##nti": 10918, "##ח": 10919, "##ster": 10920, "##ue": 10921, "##ť": 10922, "points": 10923, "79": 10924, "wo": 10925, "##ile": 10926, "just": 10927, "dove": 10928, "##ş": 10929, "Con": 10930, "##ᵉ": 10931, "another": 10932, "##ye": 10933, "##ә": 10934, "##ि": 10935, "near": 10936, "see": 10937, "##su": 10938, "often": 10939, "##sel": 10940, "##mas": 10941, "dar": 10942, "information": 10943, "president": 10944, "down": 10945, "##사": 10946, "nas": 10947, "##line": 10948, "position": 10949, "live": 10950, "##cha": 10951, "##어": 10952, "what": 10953, "fins": 10954, "order": 10955, "web": 10956, "car": 10957, "late": 10958, "##ey": 10959, "##ira": 10960, "bet": 10961, "grand": 10962, "##ore": 10963, "##ج": 10964, "you": 10965, "##ց": 10966, "##W": 10967, "##ise": 10968, "##vu": 10969, "##est": 10970, "tu": 10971, "110": 10972, "moved": 10973, "##ika": 10974, "##rn": 10975, "plan": 10976, "hai": 10977, "make": 10978, "##uri": 10979, "##ੀ": 10980, "##able": 10981, "##ী": 10982, "##ক": 10983, "ez": 10984, "again": 10985, "period": 10986, "##ves": 10987, "##α": 10988, "support": 10989, "##ses": 10990, "##ges": 10991, "way": 10992, "much": 10993, "ho": 10994, "##న": 10995, "power": 10996, "##ں": 10997, "##ih": 10998, "women": 10999, "model": 11000, "father": 11001, "##ham": 11002, "##ע": 11003, "##tra": 11004, "##ž": 11005, "similar": 11006, "house": 11007, "##ps": 11008, "##ಿ": 11009, "##rea": 11010, "even": 11011, "##ati": 11012, "##sh": 11013, "##ი": 11014, "##ds": 11015, "##ix": 11016, "##tic": 11017, "level": 11018, "##も": 11019, "face": 11020, "far": 11021, "##ల": 11022, "##ì": 11023, "##ide": 11024, "##ee": 11025, "##ala": 11026, "##ons": 11027, "among": 11028, "##cs": 11029, "games": 11030, "cap": 11031, "##è": 11032, "##ಯ": 11033, "style": 11034, "community": 11035, "##op": 11036, "##fa": 11037, "full": 11038, "##yn": 11039, "using": 11040, "came": 11041, "development": 11042, "##ç": 11043, "natural": 11044, "sai": 11045, "gan": 11046, "list": 11047, "##ss": 11048, "##स": 11049, "fine": 11050, "##된": 11051, "went": 11052, "right": 11053, "next": 11054, "modern": 11055, "started": 11056, "##ল": 11057, "become": 11058, "times": 11059, "case": 11060, "##ਰ": 11061, "ru": 11062, "min": 11063, "real": 11064, "##ous": 11065, "students": 11066, "##ell": 11067, "given": 11068, "1st": 11069, "##ο": 11070, "##po": 11071, "यह": 11072, "##ত": 11073, "various": 11074, "average": 11075, "Your": 11076, "##ese": 11077, "round": 11078, "take": 11079, "website": 11080, "head": 11081, "##ù": 11082, "##bra": 11083, "##ф": 11084, "gov": 11085, "nin": 11086, "let": 11087, "class": 11088, "##ht": 11089, "##ral": 11090, "##ӣ": 11091, "story": 11092, "ac": 11093, "##tica": 11094, "##yi": 11095, "##ket": 11096, "plu": 11097, "##ం": 11098, "fer": 11099, "##llo": 11100, "without": 11101, "date": 11102, "yo": 11103, "having": 11104, "election": 11105, "mer": 11106, "language": 11107, "store": 11108, "short": 11109, "pop": 11110, "##ो": 11111, "term": 11112, "contro": 11113, "##hu": 11114, "##ң": 11115, "##rte": 11116, "download": 11117, "##자": 11118, "##ĕ": 11119, "##ਨ": 11120, "##ਾ": 11121, "cc": 11122, "metal": 11123, "however": 11124, "##ging": 11125, "##ನ": 11126, "##ff": 11127, "few": 11128, "east": 11129, "##ೆ": 11130, "##א": 11131, "##म": 11132, "##vis": 11133, "##ram": 11134, "##dia": 11135, "professor": 11136, "announced": 11137, "worked": 11138, "sei": 11139, "ima": 11140, "##य": 11141, "##қ": 11142, "half": 11143, "##장": 11144, "online": 11145, "##ー": 11146, "bil": 11147, "##თ": 11148, "##iti": 11149, "##ト": 11150, "joined": 11151, "project": 11152, "economic": 11153, "structure": 11154, "route": 11155, "eo": 11156, "ass": 11157, "field": 11158, "vi": 11159, "sos": 11160, "140": 11161, "free": 11162, "##Z": 11163, "##ding": 11164, "beste": 11165, "updated": 11166, "sub": 11167, "days": 11168, "##ay": 11169, "works": 11170, "##ness": 11171, "actual": 11172, "##ं": 11173, "returned": 11174, "bol": 11175, "##시": 11176, "status": 11177, "fi": 11178, "aj": 11179, "125": 11180, "professional": 11181, "##ರ": 11182, "month": 11183, "##ु": 11184, "release": 11185, "##lus": 11186, "##dad": 11187, "open": 11188, "##lli": 11189, "run": 11190, "##nus": 11191, "lead": 11192, "research": 11193, "https": 11194, "win": 11195, "possible": 11196, "##way": 11197, "color": 11198, "##ಕ": 11199, "##게": 11200, "homes": 11201, "business": 11202, "inte": 11203, "lost": 11204, "human": 11205, "##ń": 11206, "##ties": 11207, "##ન": 11208, "action": 11209, "##her": 11210, "##una": 11211, "recorded": 11212, "together": 11213, "every": 11214, "##り": 11215, "इस": 11216, "##bles": 11217, "continued": 11218, "##원": 11219, "##ು": 11220, "##ط": 11221, "considered": 11222, "making": 11223, "office": 11224, "ok": 11225, "track": 11226, "##ű": 11227, "moment": 11228, "##cus": 11229, "yon": 11230, "chi": 11231, "body": 11232, "##ori": 11233, "##ז": 11234, "example": 11235, "policy": 11236, "edition": 11237, "opened": 11238, "ti": 11239, "wife": 11240, "##š": 11241, "##ich": 11242, "##fi": 11243, "teams": 11244, "##ins": 11245, "##gar": 11246, "event": 11247, "##대": 11248, "news": 11249, "performance": 11250, "##lse": 11251, "nam": 11252, "##ful": 11253, "active": 11254, "bola": 11255, "sama": 11256, "special": 11257, "result": 11258, "##bb": 11259, "put": 11260, "##ण": 11261, "qua": 11262, "##ag": 11263, "##해": 11264, "##ct": 11265, "##ս": 11266, "sent": 11267, "##ments": 11268, "areas": 11269, "##ી": 11270, "available": 11271, "kada": 11272, "##ces": 11273, "further": 11274, "lag": 11275, "front": 11276, "##up": 11277, "private": 11278, "##ait": 11279, "##fe": 11280, "stand": 11281, "san": 11282, "growth": 11283, "working": 11284, "living": 11285, "developed": 11286, "august": 11287, "others": 11288, "##oi": 11289, "##ante": 11290, "##gas": 11291, "##부": 11292, "##ean": 11293, "lu": 11294, "##υ": 11295, "##ਕ": 11296, "##mar": 11297, "ise": 11298, "##ズ": 11299, "study": 11300, "##ү": 11301, "##Y": 11302, "eng": 11303, "entry": 11304, "##eta": 11305, "##る": 11306, "official": 11307, "##К": 11308, "##ム": 11309, "##and": 11310, "addition": 11311, "great": 11312, "although": 11313, "##hen": 11314, "##С": 11315, "never": 11316, "how": 11317, "##ા": 11318, "##적": 11319, "##し": 11320, "should": 11321, "##ट": 11322, "##할": 11323, "lett": 11324, "neu": 11325, "##회": 11326, "court": 11327, "##면": 11328, "##상": 11329, "disco": 11330, "##ം": 11331, "##dt": 11332, "section": 11333, "##ö": 11334, "collection": 11335, "once": 11336, "##get": 11337, "tam": 11338, "##ಾ": 11339, "hon": 11340, "personal": 11341, "sea": 11342, "idea": 11343, "away": 11344, "hit": 11345, "##min": 11346, "##ך": 11347, "##pt": 11348, "##დ": 11349, "current": 11350, "standard": 11351, "must": 11352, "##less": 11353, "vs": 11354, "##iya": 11355, "350": 11356, "##my": 11357, "##ই": 11358, "##드": 11359, "##ম": 11360, "##zza": 11361, "##ans": 11362, "leader": 11363, "particular": 11364, "##tions": 11365, "##ր": 11366, "force": 11367, "mil": 11368, "police": 11369, "##ി": 11370, "fast": 11371, "person": 11372, "black": 11373, "pot": 11374, "polo": 11375, "##व": 11376, "return": 11377, "##ൽ": 11378, "##ē": 11379, "though": 11380, "##ર": 11381, "does": 11382, "##ela": 11383, "taken": 11384, "##pan": 11385, "##త": 11386, "my": 11387, "ham": 11388, "across": 11389, "process": 11390, "##į": 11391, "start": 11392, "##ama": 11393, "opp": 11394, "hy": 11395, "##ast": 11396, "##ava": 11397, "##트": 11398, "##kar": 11399, "##ota": 11400, "good": 11401, "tid": 11402, "help": 11403, "##ய": 11404, "##い": 11405, "##կ": 11406, "hand": 11407, "##ք": 11408, "##η": 11409, "festival": 11410, "##ે": 11411, "motor": 11412, "##স": 11413, "white": 11414, "##º": 11415, "##ץ": 11416, "##క": 11417, "performed": 11418, "##ī": 11419, "ada": 11420, "##ൻ": 11421, "mother": 11422, "families": 11423, "minutes": 11424, "less": 11425, "cause": 11426, "currently": 11427, "get": 11428, "sold": 11429, "##vy": 11430, "drama": 11431, "course": 11432, "largest": 11433, "features": 11434, "##ō": 11435, "##ض": 11436, "##ries": 11437, "##art": 11438, "##ping": 11439, "##J": 11440, "##ਲ": 11441, "includes": 11442, "change": 11443, "songs": 11444, "##dar": 11445, "##ラ": 11446, "##ias": 11447, "##ص": 11448, "##hus": 11449, "##ா": 11450, "road": 11451, "sale": 11452, "##nne": 11453, "sense": 11454, "ins": 11455, "##ੇ": 11456, "##its": 11457, "##asi": 11458, "##ish": 11459, "text": 11460, "##द": 11461, "months": 11462, "issue": 11463, "gol": 11464, "##dom": 11465, "##house": 11466, "##گ": 11467, "shows": 11468, "##ો": 11469, "direction": 11470, "range": 11471, "mid": 11472, "usa": 11473, "league": 11474, "##ial": 11475, "low": 11476, "##king": 11477, "center": 11478, "tri": 11479, "##tel": 11480, "groups": 11481, "seen": 11482, "regular": 11483, "##ñ": 11484, "##liga": 11485, "115": 11486, "ba": 11487, "followed": 11488, "ku": 11489, "##ు": 11490, "##tur": 11491, "##gs": 11492, "##lon": 11493, "##red": 11494, "##ド": 11495, "##ٹ": 11496, "training": 11497, "##տ": 11498, "##ా": 11499, "##か": 11500, "light": 11501, "##mit": 11502, "##gh": 11503, "##ू": 11504, "##usi": 11505, "completed": 11506, "double": 11507, "##cal": 11508, "##hn": 11509, "##ई": 11510, "##て": 11511, "##ო": 11512, "220": 11513, "uns": 11514, "bad": 11515, "test": 11516, "108": 11517, "##oli": 11518, "superior": 11519, "mise": 11520, "##well": 11521, "negli": 11522, "##ి": 11523, "##ions": 11524, "##수": 11525, "volume": 11526, "##ث": 11527, "usually": 11528, "countries": 11529, "##ê": 11530, "throughout": 11531, "##wi": 11532, "desa": 11533, "##lde": 11534, "reported": 11535, "##ec": 11536, "immer": 11537, "##イ": 11538, "##uit": 11539, "finished": 11540, "##yan": 11541, "remained": 11542, "##น": 11543, "240": 11544, "leading": 11545, "##П": 11546, "above": 11547, "sites": 11548, "close": 11549, "##ap": 11550, "individual": 11551, "gas": 11552, "##sy": 11553, "either": 11554, "contract": 11555, "##ule": 11556, "week": 11557, "##shi": 11558, "begin": 11559, "love": 11560, "##ρ": 11561, "##ু": 11562, "##tia": 11563, "कर": 11564, "able": 11565, "space": 11566, "simple": 11567, "saat": 11568, "##ô": 11569, "##sed": 11570, "##int": 11571, "hab": 11572, "##ً": 11573, "##mon": 11574, "added": 11575, "bin": 11576, "federal": 11577, "##ving": 11578, "least": 11579, "states": 11580, "##주": 11581, "eventually": 11582, "ek": 11583, "##å": 11584, "##sing": 11585, "135": 11586, "##લ": 11587, "##led": 11588, "##ors": 11589, "related": 11590, "##ming": 11591, "##tle": 11592, "artist": 11593, "plant": 11594, "##ো": 11595, "##나": 11596, "##nna": 11597, "regional": 11598, "degree": 11599, "##ance": 11600, "##ク": 11601, "kota": 11602, "student": 11603, "##bin": 11604, "cases": 11605, "##eti": 11606, "provided": 11607, "rok": 11608, "##nder": 11609, "##خ": 11610, "unit": 11611, "wis": 11612, "sta": 11613, "winning": 11614, "##aire": 11615, "self": 11616, "##್": 11617, "independent": 11618, "##pp": 11619, "##ized": 11620, "ul": 11621, "##ow": 11622, "##정": 11623, "producer": 11624, "nature": 11625, "##전": 11626, "certain": 11627, "competition": 11628, "star": 11629, "normal": 11630, "117": 11631, "anu": 11632, "##over": 11633, "studies": 11634, "too": 11635, "future": 11636, "450": 11637, "ver": 11638, "##ਤ": 11639, "##py": 11640, "previous": 11641, "little": 11642, "##hr": 11643, "##명": 11644, "##pis": 11645, "wel": 11646, "##き": 11647, "##А": 11648, "##ί": 11649, "##У": 11650, "rather": 11651, "pay": 11652, "provide": 11653, "port": 11654, "whose": 11655, "##ats": 11656, "##ym": 11657, "pdf": 11658, "##ped": 11659, "night": 11660, "placed": 11661, "dues": 11662, "fourth": 11663, "digital": 11664, "minister": 11665, "direct": 11666, "manager": 11667, "don": 11668, "##च": 11669, "ag": 11670, "code": 11671, "##ics": 11672, "##아": 11673, "##ward": 11674, "##rii": 11675, "success": 11676, "health": 11677, "##ned": 11678, "##xo": 11679, "##gal": 11680, "review": 11681, "mission": 11682, "ever": 11683, "##oma": 11684, "upp": 11685, "ran": 11686, "750": 11687, "##hl": 11688, "##logie": 11689, "stated": 11690, "##ე": 11691, "reached": 11692, "dr": 11693, "##lte": 11694, "##ह": 11695, "saw": 11696, "##gy": 11697, "almost": 11698, "movement": 11699, "##ets": 11700, "##성": 11701, "legal": 11702, "management": 11703, "behind": 11704, "##ક": 11705, "basis": 11706, "network": 11707, "##구": 11708, "##λ": 11709, "##ਣ": 11710, "##und": 11711, "epi": 11712, "##ż": 11713, "mat": 11714, "##۰": 11715, "pak": 11716, "hui": 11717, "##ά": 11718, "influence": 11719, "ship": 11720, "market": 11721, "conditions": 11722, "campaign": 11723, "brought": 11724, "##غ": 11725, "successful": 11726, "rest": 11727, "ob": 11728, "##라": 11729, "##า": 11730, "##군": 11731, "need": 11732, "tournament": 11733, "##aa": 11734, "##ლ": 11735, "##ม": 11736, "##ª": 11737, "##ज": 11738, "sector": 11739, "121": 11740, "##ß": 11741, "industry": 11742, "##ip": 11743, "##dis": 11744, "our": 11745, "##ө": 11746, "##sion": 11747, "required": 11748, "previously": 11749, "##pu": 11750, "especially": 11751, "##ತ": 11752, "##jar": 11753, "##ன": 11754, "##দ": 11755, "##out": 11756, "118": 11757, "##mm": 11758, "figure": 11759, "##ction": 11760, "traditional": 11761, "below": 11762, "##০": 11763, "report": 11764, "outside": 11765, "means": 11766, "##み": 11767, "itself": 11768, "sometimes": 11769, "##ande": 11770, "primary": 11771, "interest": 11772, "##०": 11773, "bit": 11774, "seat": 11775, "score": 11776, "##mba": 11777, "##ే": 11778, "##제": 11779, "continue": 11780, "##ude": 11781, "##nk": 11782, "past": 11783, "str": 11784, "##ை": 11785, "126": 11786, "theory": 11787, "##ਮ": 11788, "issues": 11789, "find": 11790, "soon": 11791, "##լ": 11792, "complete": 11793, "##ein": 11794, "paper": 11795, "##ക": 11796, "view": 11797, "##پ": 11798, "significant": 11799, "runs": 11800, "money": 11801, "board": 11802, "bang": 11803, "##tua": 11804, "##ո": 11805, "##ნ": 11806, "opening": 11807, "names": 11808, "higher": 11809, "summer": 11810, "##ã": 11811, "##О": 11812, "##Р": 11813, "running": 11814, "ji": 11815, "fall": 11816, "child": 11817, "wide": 11818, "according": 11819, "problem": 11820, "generally": 11821, "taking": 11822, "##time": 11823, "##ema": 11824, "give": 11825, "strong": 11826, "towards": 11827, "eru": 11828, "associated": 11829, "##히": 11830, "bar": 11831, "gold": 11832, "highest": 11833, "industrial": 11834, "hospital": 11835, "##nga": 11836, "allowed": 11837, "charge": 11838, "lower": 11839, "image": 11840, "goals": 11841, "##nge": 11842, "##प": 11843, "##ർ": 11844, "##mt": 11845, "practice": 11846, "plans": 11847, "sports": 11848, "##ists": 11849, "location": 11850, "##oda": 11851, "unique": 11852, "##ア": 11853, "##화": 11854, "##bat": 11855, "##eth": 11856, "##ost": 11857, "income": 11858, "auto": 11859, "matches": 11860, "##ี": 11861, "##ও": 11862, "pred": 11863, "contains": 11864, "heavy": 11865, "##ac": 11866, "##zed": 11867, "access": 11868, "better": 11869, "global": 11870, "##gd": 11871, "rate": 11872, "##rant": 11873, "##ब": 11874, "##ာ": 11875, "movie": 11876, "##ു": 11877, "##har": 11878, "##일": 11879, "144": 11880, "##യ": 11881, "##ಣ": 11882, "##ก": 11883, "ended": 11884, "papa": 11885, "tok": 11886, "##ै": 11887, "closed": 11888, "##bt": 11889, "key": 11890, "##hal": 11891, "##선": 11892, "##ence": 11893, "hold": 11894, "##э": 11895, "##ট": 11896, "effect": 11897, "##ّ": 11898, "distance": 11899, "##τ": 11900, "##ీ": 11901, "##щ": 11902, "additional": 11903, "##ric": 11904, "##mp": 11905, "loss": 11906, "move": 11907, "##մ": 11908, "situation": 11909, "energy": 11910, "20th": 11911, "##치": 11912, "##진": 11913, "##ん": 11914, "fact": 11915, "ch": 11916, "##ு": 11917, "##back": 11918, "##ત": 11919, "##Б": 11920, "evidence": 11921, "##მ": 11922, "today": 11923, "##ら": 11924, "##동": 11925, "##간": 11926, "records": 11927, "ana": 11928, "##く": 11929, "##ே": 11930, "##ged": 11931, "create": 11932, "cost": 11933, "launched": 11934, "fir": 11935, "companies": 11936, "##ロ": 11937, "##వ": 11938, "font": 11939, "earlier": 11940, "trade": 11941, "dek": 11942, "turn": 11943, "internet": 11944, "cha": 11945, "thought": 11946, "##ator": 11947, "##ame": 11948, "##adi": 11949, "agent": 11950, "##num": 11951, "changes": 11952, "estate": 11953, "##ney": 11954, "already": 11955, "recent": 11956, "##uti": 11957, "feature": 11958, "##۵": 11959, "speed": 11960, "going": 11961, "##만": 11962, "bas": 11963, "##cing": 11964, "hard": 11965, "analysis": 11966, "tom": 11967, "##య": 11968, "types": 11969, "##ega": 11970, "characters": 11971, "##hat": 11972, "##ize": 11973, "specific": 11974, "entire": 11975, "##ง": 11976, "##dit": 11977, "192": 11978, "value": 11979, "concept": 11980, "decision": 11981, "##oto": 11982, "##rre": 11983, "annual": 11984, "तक": 11985, "limited": 11986, "##ust": 11987, "##Q": 11988, "activities": 11989, "prime": 11990, "officer": 11991, "##eve": 11992, "increased": 11993, "##zing": 11994, "programs": 11995, "##rm": 11996, "##৫": 11997, "here": 11998, "##aga": 11999, "bus": 12000, "##ό": 12001, "##af": 12002, "chief": 12003, "bank": 12004, "##ň": 12005, "##कर": 12006, "bli": 12007, "##cle": 12008, "##դ": 12009, "content": 12010, "lines": 12011, "##bs": 12012, "##sm": 12013, "always": 12014, "selected": 12015, "room": 12016, "got": 12017, "##コ": 12018, "hours": 12019, "##zes": 12020, "##more": 12021, "remains": 12022, "temple": 12023, "tim": 12024, "us": 12025, "##৭": 12026, "cross": 12027, "ak": 12028, "particularly": 12029, "##գ": 12030, "##for": 12031, "##৬": 12032, "##lation": 12033, "victory": 12034, "positive": 12035, "##ग": 12036, "##۹": 12037, "##ナ": 12038, "technology": 12039, "tv": 12040, "index": 12041, "##ally": 12042, "19th": 12043, "application": 12044, "sister": 12045, "meeting": 12046, "lot": 12047, "kur": 12048, "act": 12049, "moun": 12050, "##ਸ": 12051, "##৩": 12052, "##위": 12053, "keer": 12054, "note": 12055, "multiple": 12056, "rus": 12057, "extra": 12058, "historical": 12059, "uses": 12060, "becoming": 12061, "referred": 12062, "##க": 12063, "notes": 12064, "##fied": 12065, "##ব": 12066, "hin": 12067, "society": 12068, "deal": 12069, "##nem": 12070, "##ace": 12071, "##ug": 12072, "##ず": 12073, "##stra": 12074, "##ization": 12075, "##ep": 12076, "shown": 12077, "passed": 12078, "subject": 12079, "##た": 12080, "##რ": 12081, "##pas": 12082, "##₂": 12083, "friend": 12084, "##৮": 12085, "##મ": 12086, "##tone": 12087, "##ύ": 12088, "##nic": 12089, "##als": 12090, "longer": 12091, "lea": 12092, "middle": 12093, "themselves": 12094, "pat": 12095, "engl": 12096, "question": 12097, "diversi": 12098, "dus": 12099, "fill": 12100, "##ி": 12101, "provides": 12102, "##yt": 12103, "##rg": 12104, "pages": 12105, "volte": 12106, "jer": 12107, "appears": 12108, "increase": 12109, "##10": 12110, "##크": 12111, "##호": 12112, "##mana": 12113, "##unda": 12114, "done": 12115, "problems": 12116, "4th": 12117, "phase": 12118, "##Т": 12119, "composed": 12120, "##्": 12121, "your": 12122, "initially": 12123, "##ume": 12124, "##۸": 12125, "##국": 12126, "154": 12127, "##५": 12128, "##ย": 12129, "bo": 12130, "##ล": 12131, "sala": 12132, "stock": 12133, "##ণ": 12134, "sou": 12135, "stop": 12136, "##ర": 12137, "raised": 12138, "makes": 12139, "Ye": 12140, "financial": 12141, "call": 12142, "##bank": 12143, "##off": 12144, "fem": 12145, "gift": 12146, "##관": 12147, "##ڈ": 12148, "##jana": 12149, "##조": 12150, "experience": 12151, "##unt": 12152, "king": 12153, "contact": 12154, "pl": 12155, "##ೂ": 12156, "##ised": 12157, "##ड": 12158, "##۲": 12159, "sat": 12160, "##৪": 12161, "##ved": 12162, "##ೇ": 12163, "##oy": 12164, "##dne": 12165, "mag": 12166, "##গ": 12167, "##yr": 12168, "claimed": 12169, "##ř": 12170, "cell": 12171, "weeks": 12172, "championship": 12173, "##ћ": 12174, "union": 12175, "failed": 12176, "allo": 12177, "##band": 12178, "foreign": 12179, "##ann": 12180, "winner": 12181, "mainly": 12182, "electronic": 12183, "##bility": 12184, "225": 12185, "##ത": 12186, "bal": 12187, "vivo": 12188, "moi": 12189, "helped": 12190, "products": 12191, "##ick": 12192, "##bro": 12193, "##yk": 12194, "overall": 12195, "border": 12196, "numbers": 12197, "couple": 12198, "might": 12199, "prior": 12200, "##idas": 12201, "drug": 12202, "assistant": 12203, "response": 12204, "leaving": 12205, "##צ": 12206, "##dent": 12207, "turned": 12208, "##키": 12209, "press": 12210, "##ҡ": 12211, "##ர": 12212, "figures": 12213, "oil": 12214, "department": 12215, "sam": 12216, "carried": 12217, "##ars": 12218, "##۴": 12219, "transfer": 12220, "##ో": 12221, "mile": 12222, "lagi": 12223, "mind": 12224, "##ವ": 12225, "##۶": 12226, "##식": 12227, "stories": 12228, "##ή": 12229, "##ಮ": 12230, "multi": 12231, "sing": 12232, "finally": 12233, "##ε": 12234, "voice": 12235, "effects": 12236, "##rda": 12237, "earned": 12238, "##gate": 12239, "impact": 12240, "##bas": 12241, "np": 12242, "##fo": 12243, "occasion": 12244, "attention": 12245, "##М": 12246, "##৯": 12247, "##۳": 12248, "manga": 12249, "nearly": 12250, "##۷": 12251, "##산": 12252, "kes": 12253, "##ਟ": 12254, "attempt": 12255, "comes": 12256, "##며": 12257, "enough": 12258, "##ِ": 12259, "##vam": 12260, "remaining": 12261, "##や": 12262, "##row": 12263, "##タ": 12264, "##২": 12265, "bl": 12266, "channel": 12267, "box": 12268, "want": 12269, "product": 12270, "nay": 12271, "ring": 12272, "levels": 12273, "responsible": 12274, "##ū": 12275, "cut": 12276, "##계": 12277, "##リ": 12278, "##운": 12279, "fit": 12280, "##८": 12281, "##hold": 12282, "##enti": 12283, "issued": 12284, "technique": 12285, "##pte": 12286, "##uga": 12287, "##야": 12288, "heart": 12289, "ala": 12290, "asi": 12291, "chart": 12292, "finals": 12293, "minute": 12294, "xa": 12295, "table": 12296, "documents": 12297, "##개": 12298, "##்": 12299, "##ե": 12300, "##३": 12301, "yet": 12302, "##श": 12303, "##hir": 12304, "##ც": 12305, "security": 12306, "know": 12307, "##ock": 12308, "starting": 12309, "##터": 12310, "whether": 12311, "##kes": 12312, "##२": 12313, "quality": 12314, "importance": 12315, "##당": 12316, "##չ": 12317, "##hos": 12318, "leave": 12319, "cos": 12320, "rule": 12321, "##med": 12322, "friends": 12323, "god": 12324, "master": 12325, "inter": 12326, "true": 12327, "inga": 12328, "##쪽": 12329, "##fication": 12330, "directly": 12331, "visto": 12332, "actions": 12333, "efforts": 12334, "##ด": 12335, "##zzi": 12336, "asked": 12337, "says": 12338, "selle": 12339, "big": 12340, "##종": 12341, "##lies": 12342, "activity": 12343, "##alo": 12344, "##ਂ": 12345, "fifth": 12346, "formerly": 12347, "ea": 12348, "##²": 12349, "nation": 12350, "##care": 12351, "kind": 12352, "nearby": 12353, "median": 12354, "##ivi": 12355, "##소": 12356, "##প": 12357, "lehen": 12358, "pai": 12359, "##hs": 12360, "##カ": 12361, "##sco": 12362, "method": 12363, "num": 12364, "##す": 12365, "##ome": 12366, "##미": 12367, "ton": 12368, "ll": 12369, "techniques": 12370, "##フ": 12371, "likely": 12372, "##gent": 12373, "##ated": 12374, "##う": 12375, "##com": 12376, "crime": 12377, "##वर": 12378, "arrived": 12379, "wanted": 12380, "##ะ": 12381, "##ए": 12382, "##ther": 12383, "highly": 12384, "##۱": 12385, "commerce": 12386, "appear": 12387, "##१": 12388, "##20": 12389, "##oo": 12390, "##ય": 12391, "executive": 12392, "##Д": 12393, "##타": 12394, "##mark": 12395, "##nsi": 12396, "##zon": 12397, "performances": 12398, "##ং": 12399, "##ร": 12400, "tat": 12401, "saying": 12402, "173": 12403, "##マ": 12404, "niya": 12405, "##४": 12406, "crisis": 12407, "##শ": 12408, "##lls": 12409, "##ffer": 12410, "ina": 12411, "##な": 12412, "##ذ": 12413, "knowledge": 12414, "inside": 12415, "ju": 12416, "extension": 12417, "##ining": 12418, "##asa": 12419, "wi": 12420, "##fort": 12421, "card": 12422, "approach": 12423, "potential": 12424, "##َ": 12425, "rules": 12426, "formal": 12427, "##ery": 12428, "समय": 12429, "480": 12430, "dun": 12431, "##역": 12432, "##७": 12433, "materials": 12434, "focus": 12435, "file": 12436, "account": 12437, "##eet": 12438, "poor": 12439, "blue": 12440, "5th": 12441, "meet": 12442, "probably": 12443, "##ര": 12444, "officially": 12445, "forward": 12446, "##sha": 12447, "green": 12448, "##학": 12449, "build": 12450, "199": 12451, "pass": 12452, "firm": 12453, "##ਜ": 12454, "except": 12455, "##ever": 12456, "divided": 12457, "##km": 12458, "vis": 12459, "dead": 12460, "pressure": 12461, "##차": 12462, "brand": 12463, "##چ": 12464, "##con": 12465, "##κ": 12466, "##rah": 12467, "temperature": 12468, "##μ": 12469, "##સ": 12470, "##১": 12471, "##ø": 12472, "terminal": 12473, "Call": 12474, "moving": 12475, "kama": 12476, "##ુ": 12477, "lack": 12478, "quickly": 12479, "travel": 12480, "sets": 12481, "ig": 12482, "links": 12483, "trial": 12484, "job": 12485, "##ave": 12486, "unde": 12487, "secret": 12488, "##९": 12489, "follows": 12490, "historic": 12491, "join": 12492, "##cum": 12493, "conducted": 12494, "mixed": 12495, "recently": 12496, "say": 12497, "needed": 12498, "##uu": 12499, "##마": 12500, "offers": 12501, "keep": 12502, "##६": 12503, "street": 12504, "sales": 12505, "share": 12506, "##ਦ": 12507, "thu": 12508, "removed": 12509, "rare": 12510, "mang": 12511, "##name": 12512, "##eng": 12513, "##park": 12514, "##െ": 12515, "royal": 12516, "coming": 12517, "##던": 12518, "##jal": 12519, "##생": 12520, "immediately": 12521, "##ట": 12522, "amount": 12523, "alone": 12524, "thi": 12525, "pi": 12526, "housing": 12527, "participated": 12528, "##can": 12529, "##്": 12530, "##ncy": 12531, "upper": 12532, "risk": 12533, "##ေ": 12534, "##pers": 12535, "break": 12536, "##fy": 12537, "##카": 12538, "##ణ": 12539, "actress": 12540, "reach": 12541, "##cta": 12542, "planned": 12543, "widely": 12544, "##aran": 12545, "actually": 12546, "##জ": 12547, "giving": 12548, "##ening": 12549, "offer": 12550, "##ാ": 12551, "##ľ": 12552, "purchased": 12553, "critical": 12554, "therefore": 12555, "cura": 12556, "##day": 12557, "purpose": 12558, "##tag": 12559, "conflict": 12560, "typically": 12561, "##esse": 12562, "ice": 12563, "branch": 12564, "mobile": 12565, "karo": 12566, "institutions": 12567, "things": 12568, "##మ": 12569, "adopted": 12570, "hour": 12571, "##12": 12572, "assigned": 12573, "regime": 12574, "hindi": 12575, "kell": 12576, "##్": 12577, "##nka": 12578, "clear": 12579, "##rri": 12580, "6th": 12581, "##즈": 12582, "circuit": 12583, "hen": 12584, "mentioned": 12585, "##ș": 12586, "read": 12587, "tar": 12588, "gives": 12589, "##rist": 12590, "pan": 12591, "foot": 12592, "##용": 12593, "##세": 12594, "##단": 12595, "communication": 12596, "##Г": 12597, "##upa": 12598, "conference": 12599, "captured": 12600, "electric": 12601, "##ws": 12602, "profit": 12603, "guide": 12604, "kar": 12605, "acting": 12606, "##ious": 12607, "basic": 12608, "sept": 12609, "dark": 12610, "mini": 12611, "tip": 12612, "##oc": 12613, "##iku": 12614, "look": 12615, "document": 12616, "fell": 12617, "##お": 12618, "super": 12619, "gained": 12620, "difficult": 12621, "mountain": 12622, "##교": 12623, "continues": 12624, "##lea": 12625, "##uru": 12626, "budget": 12627, "##Н": 12628, "gh": 12629, "239": 12630, "##ന": 12631, "##권": 12632, "##Ф": 12633, "##ూ": 12634, "365": 12635, "##신": 12636, "##tha": 12637, "##kke": 12638, "##ば": 12639, "remain": 12640, "##dge": 12641, "mee": 12642, "goes": 12643, "##nter": 12644, "##ळ": 12645, "val": 12646, "tax": 12647, "ro": 12648, "##연": 12649, "signal": 12650, "##니": 12651, "weight": 12652, "##코": 12653, "roll": 12654, "265": 12655, "##room": 12656, "##פ": 12657, "##행": 12658, "##վ": 12659, "growing": 12660, "agreed": 12661, "cea": 12662, "liv": 12663, "##ots": 12664, "generation": 12665, "spread": 12666, "compared": 12667, "##gra": 12668, "joint": 12669, "##board": 12670, "##nata": 12671, "jam": 12672, "rang": 12673, "reduced": 12674, "occurred": 12675, "##fs": 12676, "##gger": 12677, "##ders": 12678, "negative": 12679, "##î": 12680, "##ઓ": 12681, "billion": 12682, "##ď": 12683, "claims": 12684, "gain": 12685, "##ugh": 12686, "##cent": 12687, "##ھ": 12688, "##ё": 12689, "cal": 12690, "driver": 12691, "resta": 12692, "##otta": 12693, "##문": 12694, "paid": 12695, "##В": 12696, "##star": 12697, "expected": 12698, "draw": 12699, "winter": 12700, "taught": 12701, "##alla": 12702, "spring": 12703, "applications": 12704, "environment": 12705, "audience": 12706, "secondary": 12707, "suffered": 12708, "bring": 12709, "simply": 12710, "##tog": 12711, "##ew": 12712, "something": 12713, "##হ": 12714, "##ij": 12715, "##ੂ": 12716, "link": 12717, "##naire": 12718, "##rts": 12719, "ap": 12720, "301": 12721, "##ோ": 12722, "prof": 12723, "##phone": 12724, "restaurant": 12725, "##vara": 12726, "##pper": 12727, "receive": 12728, "##cation": 12729, "##દ": 12730, "##ś": 12731, "hop": 12732, "##և": 12733, "int": 12734, "##ಲ": 12735, "Track": 12736, "facto": 12737, "##ọ": 12738, "##토": 12739, "usage": 12740, "begins": 12741, "allows": 12742, "traffic": 12743, "minimum": 12744, "hu": 12745, "##ಂ": 12746, "249": 12747, "kept": 12748, "##つ": 12749, "deep": 12750, "wala": 12751, "existing": 12752, "organ": 12753, "camera": 12754, "##ế": 12755, "questions": 12756, "wall": 12757, "##ီ": 12758, "##liste": 12759, "##려": 12760, "##alan": 12761, "ratio": 12762, "conte": 12763, "##업": 12764, "sign": 12765, "##ਡ": 12766, "##์": 12767, "##်": 12768, "##ટ": 12769, "coup": 12770, "ty": 12771, "seats": 12772, "learning": 12773, "##ં": 12774, "doctor": 12775, "##jk": 12776, "info": 12777, "marked": 12778, "##kta": 12779, "connected": 12780, "##mb": 12781, "##들": 12782, "tells": 12783, "necessary": 12784, "inspired": 12785, "##mic": 12786, "##ま": 12787, "##gge": 12788, "advanced": 12789, "##nds": 12790, "courses": 12791, "safety": 12792, "ranking": 12793, "tried": 12794, "##down": 12795, "##ệ": 12796, "completely": 12797, "##verse": 12798, "##က": 12799, "lau": 12800, "fully": 12801, "disc": 12802, "block": 12803, "containing": 12804, "teaching": 12805, "unknown": 12806, "confirmed": 12807, "##우": 12808, "core": 12809, "ore": 12810, "##ware": 12811, "claim": 12812, "##cono": 12813, "showed": 12814, "##nca": 12815, "##jah": 12816, "baza": 12817, "##형": 12818, "##ï": 12819, "starring": 12820, "##ight": 12821, "##cm": 12822, "##ტ": 12823, "visit": 12824, "economy": 12825, "labor": 12826, "daily": 12827, "pair": 12828, "##린": 12829, "##բ": 12830, "18th": 12831, "suggested": 12832, "kat": 12833, "##ध": 12834, "instrumental": 12835, "exchange": 12836, "dates": 12837, "bor": 12838, "officials": 12839, "##И": 12840, "##cted": 12841, "unu": 12842, "##cre": 12843, "##mate": 12844, "arrive": 12845, "losing": 12846, "calle": 12847, "##col": 12848, "##ख": 12849, "##れ": 12850, "##け": 12851, "##ened": 12852, "think": 12853, "##ல": 12854, "chance": 12855, "matter": 12856, "dis": 12857, "##ോ": 12858, "hits": 12859, "hands": 12860, "reason": 12861, "##iran": 12862, "##공": 12863, "incident": 12864, "theatre": 12865, "##sts": 12866, "follow": 12867, "peace": 12868, "##력": 12869, "ama": 12870, "xe": 12871, "##오": 12872, "bonus": 12873, "##cci": 12874, "medicine": 12875, "##ิ": 12876, "##だ": 12877, "mix": 12878, "headquarters": 12879, "dele": 12880, "holds": 12881, "achieved": 12882, "##rti": 12883, "quarter": 12884, "aa": 12885, "##ծ": 12886, "zero": 12887, "##프": 12888, "relatively": 12889, "asp": 12890, "sum": 12891, "##こ": 12892, "fields": 12893, "airport": 12894, "escala": 12895, "##ँ": 12896, "solution": 12897, "##nces": 12898, "coll": 12899, "identity": 12900, "##aco": 12901, "target": 12902, "##թ": 12903, "##ex": 12904, "needs": 12905, "write": 12906, "##ਈ": 12907, "rise": 12908, "##cket": 12909, "zom": 12910, "##ined": 12911, "pt": 12912, "morning": 12913, "##ส": 12914, "##ư": 12915, "st": 12916, "bands": 12917, "282": 12918, "##オ": 12919, "perform": 12920, "##50": 12921, "len": 12922, "##फ": 12923, "bought": 12924, "jis": 12925, "##xt": 12926, "##데": 12927, "respect": 12928, "dur": 12929, "##ڑ": 12930, "##노": 12931, "holding": 12932, "गए": 12933, "brief": 12934, "ends": 12935, "shared": 12936, "ending": 12937, "##ブ": 12938, "user": 12939, "dt": 12940, "##ẻ": 12941, "mark": 12942, "##π": 12943, "launch": 12944, "##၀": 12945, "portal": 12946, "capable": 12947, "prevent": 12948, "mah": 12949, "pal": 12950, "object": 12951, "##물": 12952, "##hm": 12953, "##േ": 12954, "जब": 12955, "enemy": 12956, "##nc": 12957, "birds": 12958, "gay": 12959, "murder": 12960, "##비": 12961, "rose": 12962, "##dies": 12963, "tyre": 12964, "powerful": 12965, "bost": 12966, "details": 12967, "560": 12968, "profile": 12969, "ideal": 12970, "##yne": 12971, "stay": 12972, "##dler": 12973, "##체": 12974, "hot": 12975, "##pad": 12976, "##ջ": 12977, "category": 12978, "##rme": 12979, "##ification": 12980, "medium": 12981, "approved": 12982, "consecutive": 12983, "internal": 12984, "reduce": 12985, "technical": 12986, "performing": 12987, "##여": 12988, "##raz": 12989, "ri": 12990, "512": 12991, "fie": 12992, "screen": 12993, "##보": 12994, "##ต": 12995, "##vert": 12996, "##ank": 12997, "##yal": 12998, "mail": 12999, "returning": 13000, "session": 13001, "##wards": 13002, "motion": 13003, "इन": 13004, "##반": 13005, "tota": 13006, "intelligence": 13007, "suba": 13008, "##vs": 13009, "hp": 13010, "really": 13011, "ds": 13012, "##ः": 13013, "oni": 13014, "planning": 13015, "dropped": 13016, "##レ": 13017, "sequence": 13018, "##ъ": 13019, "##ị": 13020, "ways": 13021, "represent": 13022, "299": 13023, "ind": 13024, "##chas": 13025, "spin": 13026, "##table": 13027, "##ူ": 13028, "someone": 13029, "institution": 13030, "broke": 13031, "##view": 13032, "message": 13033, "gr": 13034, "##थ": 13035, "##urt": 13036, "unable": 13037, "##Х": 13038, "##rali": 13039, "squad": 13040, "believe": 13041, "##eke": 13042, "##pre": 13043, "यस": 13044, "##pra": 13045, "selection": 13046, "##cou": 13047, "ol": 13048, "flow": 13049, "aspects": 13050, "##ả": 13051, "determined": 13052, "कम": 13053, "uga": 13054, "##cky": 13055, "##ற": 13056, "retire": 13057, "##eal": 13058, "mala": 13059, "context": 13060, "gets": 13061, "increasing": 13062, "price": 13063, "##현": 13064, "347": 13065, "educational": 13066, "difference": 13067, "##영": 13068, "##kki": 13069, "##ution": 13070, "choice": 13071, "selling": 13072, "##러": 13073, "attempted": 13074, "##ち": 13075, "refers": 13076, "doing": 13077, "criminal": 13078, "##where": 13079, "rede": 13080, "enter": 13081, "##iff": 13082, "rating": 13083, "##front": 13084, "factors": 13085, "##play": 13086, "domestic": 13087, "onto": 13088, "guru": 13089, "sal": 13090, "charges": 13091, "occurs": 13092, "##nch": 13093, "why": 13094, "##ค": 13095, "relief": 13096, "##ว": 13097, "orders": 13098, "flat": 13099, "dispute": 13100, "talk": 13101, "##З": 13102, "quite": 13103, "##vora": 13104, "wind": 13105, "influenced": 13106, "receiving": 13107, "##록": 13108, "##르": 13109, "independence": 13110, "##ળ": 13111, "##ツ": 13112, "##த": 13113, "##실": 13114, "##sc": 13115, "nor": 13116, "##rce": 13117, "catalogue": 13118, "##후": 13119, "frame": 13120, "385": 13121, "shortly": 13122, "failure": 13123, "##hel": 13124, "fruit": 13125, "slightly": 13126, "##내": 13127, "##plan": 13128, "judge": 13129, "carry": 13130, "try": 13131, "storm": 13132, "##キ": 13133, "saa": 13134, "connection": 13135, "mandato": 13136, "##ω": 13137, "##경": 13138, "reasons": 13139, "##uck": 13140, "doba": 13141, "fund": 13142, "flag": 13143, "##lines": 13144, "##வ": 13145, "##જ": 13146, "##रण": 13147, "##ril": 13148, "##rry": 13149, "##weight": 13150, "step": 13151, "calls": 13152, "##ಳ": 13153, "##่": 13154, "##kti": 13155, "##설": 13156, "##ਪ": 13157, "faced": 13158, "##ણ": 13159, "530": 13160, "##cto": 13161, "289": 13162, "##dam": 13163, "##aman": 13164, "##ҙ": 13165, "funds": 13166, "8th": 13167, "successfully": 13168, "users": 13169, "kira": 13170, "##ਵ": 13171, "##음": 13172, "##hara": 13173, "charts": 13174, "##vid": 13175, "address": 13176, "toward": 13177, "tr": 13178, "qualified": 13179, "cricket": 13180, "##wali": 13181, "pun": 13182, "bureau": 13183, "serious": 13184, "##ئ": 13185, "glass": 13186, "pur": 13187, "##esti": 13188, "##nov": 13189, "reading": 13190, "##၅": 13191, "गई": 13192, "tur": 13193, "##ğ": 13194, "plot": 13195, "##Л": 13196, "##anta": 13197, "##hta": 13198, "##rth": 13199, "##ind": 13200, "##무": 13201, "pace": 13202, "option": 13203, "401": 13204, "reserve": 13205, "##է": 13206, "##hol": 13207, "save": 13208, "rete": 13209, "sp": 13210, "eye": 13211, "investigation": 13212, "occur": 13213, "##hall": 13214, "##iation": 13215, "chain": 13216, "##30": 13217, "mining": 13218, "तर": 13219, "##gil": 13220, "##lone": 13221, "trying": 13222, "cent": 13223, "prize": 13224, "##cel": 13225, "##უ": 13226, "maintained": 13227, "##gine": 13228, "starts": 13229, "##tab": 13230, "##직": 13231, "##ỗ": 13232, "arena": 13233, "ultimately": 13234, "cour": 13235, "##₃": 13236, "jap": 13237, "##ვ": 13238, "##ડ": 13239, "##ack": 13240, "weekly": 13241, "pure": 13242, "##อ": 13243, "##합": 13244, "aspect": 13245, "avoid": 13246, "regarding": 13247, "##난": 13248, "statement": 13249, "##ț": 13250, "strength": 13251, "##판": 13252, "headed": 13253, "nothing": 13254, "entrance": 13255, "loan": 13256, "invited": 13257, "##rp": 13258, "##pati": 13259, "##card": 13260, "##チ": 13261, "assistance": 13262, "dor": 13263, "winners": 13264, "##wich": 13265, "##nese": 13266, "firme": 13267, "foundation": 13268, "16th": 13269, "##eca": 13270, "kara": 13271, "corner": 13272, "trained": 13273, "##bed": 13274, "##right": 13275, "antic": 13276, "freedom": 13277, "kor": 13278, "##ウ": 13279, "registered": 13280, "sel": 13281, "walk": 13282, "##법": 13283, "##ED": 13284, "resistance": 13285, "##vite": 13286, "##old": 13287, "##ગ": 13288, "13th": 13289, "heat": 13290, "334": 13291, "wir": 13292, "br": 13293, "improve": 13294, "error": 13295, "gaz": 13296, "11th": 13297, "501": 13298, "##ষ": 13299, "##₁": 13300, "##box": 13301, "scheduled": 13302, "trai": 13303, "items": 13304, "observed": 13305, "##³": 13306, "pool": 13307, "##sper": 13308, "reaching": 13309, "machines": 13310, "toma": 13311, "seems": 13312, "##ઇ": 13313, "ethnic": 13314, "baja": 13315, "##इ": 13316, "duty": 13317, "##17": 13318, "looking": 13319, "seconds": 13320, "skills": 13321, "operate": 13322, "limit": 13323, "##ear": 13324, "closely": 13325, "##ဝ": 13326, "mon": 13327, "components": 13328, "demand": 13329, "didn": 13330, "attend": 13331, "opportunity": 13332, "##೦": 13333, "##ై": 13334, "watch": 13335, "costs": 13336, "bill": 13337, "fest": 13338, "##dition": 13339, "##ứ": 13340, "##vest": 13341, "pu": 13342, "improved": 13343, "isa": 13344, "##ivat": 13345, "##၂": 13346, "##bur": 13347, "##ners": 13348, "##း": 13349, "##dl": 13350, "##מ": 13351, "pad": 13352, "ceremony": 13353, "601": 13354, "##ノ": 13355, "apo": 13356, "dollar": 13357, "advance": 13358, "getting": 13359, "##ngs": 13360, "##pic": 13361, "##점": 13362, "##pal": 13363, "##안": 13364, "510": 13365, "##ਹ": 13366, "cable": 13367, "falls": 13368, "stages": 13369, "easily": 13370, "fashion": 13371, "##qa": 13372, "##립": 13373, "##ட": 13374, "##mbe": 13375, "sung": 13376, "##ail": 13377, "##ठ": 13378, "##mor": 13379, "##yy": 13380, "##љ": 13381, "fri": 13382, "359": 13383, "##ダ": 13384, "ket": 13385, "##ched": 13386, "##ೀ": 13387, "##번": 13388, "##zana": 13389, "##하": 13390, "rap": 13391, "stylu": 13392, "##sement": 13393, "kis": 13394, "automobile": 13395, "ahead": 13396, "##istan": 13397, "##inte": 13398, "##კ": 13399, "humor": 13400, "weather": 13401, "ones": 13402, "##rl": 13403, "##ਬ": 13404, "require": 13405, "##グ": 13406, "##़": 13407, "indicate": 13408, "##lno": 13409, "documentation": 13410, "##أ": 13411, "##루": 13412, "update": 13413, "##hun": 13414, "##้": 13415, "stores": 13416, "##డ": 13417, "##rva": 13418, "##sted": 13419, "476": 13420, "interests": 13421, "##ံ": 13422, "##כ": 13423, "##ụ": 13424, "##ണ": 13425, "##ỏ": 13426, "mean": 13427, "reas": 13428, "##lock": 13429, "joining": 13430, "##၈": 13431, "broken": 13432, "##재": 13433, "##vaa": 13434, "##vt": 13435, "##ctive": 13436, "##임": 13437, "pattern": 13438, "##hra": 13439, "affected": 13440, "##sht": 13441, "15th": 13442, "sell": 13443, "biggest": 13444, "##ಟ": 13445, "participate": 13446, "drop": 13447, "ago": 13448, "##cov": 13449, "##၁": 13450, "disa": 13451, "phi": 13452, "##vise": 13453, "##민": 13454, "classic": 13455, "##dda": 13456, "##ppi": 13457, "##え": 13458, "agar": 13459, "typical": 13460, "##ظ": 13461, "##page": 13462, "dry": 13463, "##kum": 13464, "pick": 13465, "artificial": 13466, "##ways": 13467, "##വ": 13468, "colors": 13469, "##ੋ": 13470, "##గ": 13471, "##պ": 13472, "goods": 13473, "attached": 13474, "##TP": 13475, "##남": 13476, "path": 13477, "credit": 13478, "##ท": 13479, "calling": 13480, "##၄": 13481, "##ൺ": 13482, "##၆": 13483, "concluded": 13484, "##온": 13485, "##양": 13486, "##11": 13487, "##め": 13488, "##fre": 13489, "understanding": 13490, "replace": 13491, "galt": 13492, "##ಶ": 13493, "maintain": 13494, "trans": 13495, "##mini": 13496, "##top": 13497, "##data": 13498, "determine": 13499, "trip": 13500, "drum": 13501, "##φ": 13502, "373": 13503, "##work": 13504, "##래": 13505, "nm": 13506, "##sive": 13507, "##jang": 13508, "request": 13509, "##15": 13510, "showing": 13511, "##md": 13512, "##급": 13513, "delivered": 13514, "contest": 13515, "##cro": 13516, "349": 13517, "##ె": 13518, "videos": 13519, "409": 13520, "##분": 13521, "##ncing": 13522, "task": 13523, "fixed": 13524, "##rious": 13525, "##bbi": 13526, "##law": 13527, "lar": 13528, "##른": 13529, "##hai": 13530, "##표": 13531, "999": 13532, "virtual": 13533, "##oke": 13534, "##ώ": 13535, "purchase": 13536, "##hne": 13537, "driving": 13538, "399": 13539, "sec": 13540, "credited": 13541, "investment": 13542, "indicated": 13543, "linked": 13544, "feel": 13545, "ev": 13546, "##ড": 13547, "lawyer": 13548, "उस": 13549, "##body": 13550, "##fold": 13551, "advantage": 13552, "devices": 13553, "extremely": 13554, "##ု": 13555, "committed": 13556, "rates": 13557, "691": 13558, "charged": 13559, "warna": 13560, "returns": 13561, "testing": 13562, "##ろ": 13563, "gi": 13564, "frequency": 13565, "engage": 13566, "14th": 13567, "21st": 13568, "stable": 13569, "##sem": 13570, "ott": 13571, "##ู": 13572, "component": 13573, "##ở": 13574, "sl": 13575, "##ater": 13576, "lap": 13577, "policies": 13578, "##avat": 13579, "pain": 13580, "measures": 13581, "patient": 13582, "##၃": 13583, "##천": 13584, "installation": 13585, "entertainment": 13586, "##료": 13587, "##집": 13588, "##coming": 13589, "##작": 13590, "##uche": 13591, "455": 13592, "##esh": 13593, "##mant": 13594, "##ല": 13595, "##월": 13596, "server": 13597, "identification": 13598, "##oot": 13599, "##プ": 13600, "##ood": 13601, "heritage": 13602, "window": 13603, "##rite": 13604, "##uko": 13605, "shop": 13606, "##rtu": 13607, "##ઈ": 13608, "##ம": 13609, "movies": 13610, "##char": 13611, "coal": 13612, "loin": 13613, "earth": 13614, "##ミ": 13615, "fantasy": 13616, "restored": 13617, "requirements": 13618, "ros": 13619, "pos": 13620, "ord": 13621, "##uba": 13622, "##থ": 13623, "##ỡ": 13624, "##모": 13625, "##চ": 13626, "res": 13627, "learned": 13628, "missing": 13629, "##bh": 13630, "requires": 13631, "arranged": 13632, "membership": 13633, "sm": 13634, "otherwise": 13635, "copy": 13636, "kuri": 13637, "##એ": 13638, "##ष": 13639, "rapid": 13640, "driven": 13641, "illegal": 13642, "perspective": 13643, "prepared": 13644, "##amo": 13645, "##14": 13646, "##พ": 13647, "##ờ": 13648, "expert": 13649, "venue": 13650, "chair": 13651, "##used": 13652, "##ying": 13653, "##금": 13654, "##Ш": 13655, "##wu": 13656, "fallen": 13657, "##gence": 13658, "##jul": 13659, "windows": 13660, "baby": 13661, "intervention": 13662, "##eed": 13663, "triple": 13664, "balance": 13665, "cards": 13666, "ov": 13667, "capa": 13668, "##청": 13669, "progress": 13670, "##ُ": 13671, "significantly": 13672, "##ண": 13673, "hr": 13674, "##၇": 13675, "##ਚ": 13676, "thing": 13677, "##본": 13678, "drugs": 13679, "meets": 13680, "##Ј": 13681, "##dha": 13682, "evo": 13683, "505": 13684, "skin": 13685, "tali": 13686, "characteristics": 13687, "favorable": 13688, "##rage": 13689, "experienced": 13690, "ensure": 13691, "##eras": 13692, "hair": 13693, "insan": 13694, "else": 13695, "##lut": 13696, "interested": 13697, "##rill": 13698, "strategy": 13699, "penalty": 13700, "ऑफ": 13701, "stopped": 13702, "##석": 13703, "assist": 13704, "499": 13705, "##ൾ": 13706, "priest": 13707, "##왕": 13708, "phone": 13709, "##hle": 13710, "##बर": 13711, "##hand": 13712, "google": 13713, "##lab": 13714, "divide": 13715, "##색": 13716, "narrow": 13717, "##거": 13718, "speak": 13719, "tell": 13720, "slow": 13721, "##져": 13722, "##ધ": 13723, "##버": 13724, "cold": 13725, "replacement": 13726, "discussion": 13727, "##ಗ": 13728, "##중": 13729, "##խ": 13730, "##cot": 13731, "##ద": 13732, "judicial": 13733, "##І": 13734, "bene": 13735, "broad": 13736, "italian": 13737, "##လ": 13738, "stream": 13739, "##વ": 13740, "##lki": 13741, "##날": 13742, "vas": 13743, "##eso": 13744, "##ache": 13745, "bot": 13746, "##anda": 13747, "##tral": 13748, "ici": 13749, "##၉": 13750, "regard": 13751, "##ctions": 13752, "huge": 13753, "##ζ": 13754, "evening": 13755, "##바": 13756, "##gic": 13757, "coverage": 13758, "tro": 13759, "##sle": 13760, "sant": 13761, "sun": 13762, "780": 13763, "grow": 13764, "##wig": 13765, "offering": 13766, "pg": 13767, "##방": 13768, "ready": 13769, "processing": 13770, "##stor": 13771, "##ự": 13772, "##ช": 13773, "raise": 13774, "##stru": 13775, "dea": 13776, "everything": 13777, "##â": 13778, "anda": 13779, "##test": 13780, "##ೈ": 13781, "movements": 13782, "##খ": 13783, "##eas": 13784, "concerns": 13785, "learn": 13786, "sprint": 13787, "##rath": 13788, "##론": 13789, "refer": 13790, "##유": 13791, "anything": 13792, "##զ": 13793, "##dini": 13794, "add": 13795, "##ട": 13796, "markets": 13797, "##lore": 13798, "##dul": 13799, "##fully": 13800, "##½": 13801, "##ề": 13802, "##통": 13803, "kaks": 13804, "changing": 13805, "benefit": 13806, "apart": 13807, "diploma": 13808, "##rome": 13809, "##sol": 13810, "##imu": 13811, "technologies": 13812, "##bara": 13813, "achieve": 13814, "temporary": 13815, "##self": 13816, "styles": 13817, "##press": 13818, "categories": 13819, "weekend": 13820, "perfect": 13821, "worth": 13822, "industries": 13823, "journey": 13824, "##બ": 13825, "##િ": 13826, "check": 13827, "##mne": 13828, "##ೋ": 13829, "##ガ": 13830, "##uc": 13831, "lt": 13832, "friendly": 13833, "##속": 13834, "safe": 13835, "##link": 13836, "##mania": 13837, "##evi": 13838, "indoor": 13839, "strongly": 13840, "##ath": 13841, "##Э": 13842, "reputation": 13843, "##령": 13844, "449": 13845, "horizontal": 13846, "infrastructure": 13847, "##ố": 13848, "##량": 13849, "easy": 13850, "##pped": 13851, "suma": 13852, "dasar": 13853, "##llis": 13854, "##נ": 13855, "emergency": 13856, "##wd": 13857, "##ゴ": 13858, "555": 13859, "accounts": 13860, "relevant": 13861, "rounds": 13862, "479": 13863, "instruction": 13864, "signature": 13865, "consider": 13866, "##΄": 13867, "आई": 13868, "soft": 13869, "experiences": 13870, "external": 13871, "##voi": 13872, "fear": 13873, "happened": 13874, "declined": 13875, "##გ": 13876, "##mons": 13877, "posti": 13878, "signs": 13879, "gone": 13880, "ओर": 13881, "jobs": 13882, "##ơ": 13883, "##ؤ": 13884, "fair": 13885, "arrest": 13886, "##night": 13887, "accept": 13888, "##Е": 13889, "stan": 13890, "##૦": 13891, "##sig": 13892, "##ৎ": 13893, "exists": 13894, "##mang": 13895, "sessions": 13896, "losses": 13897, "gaya": 13898, "##ঃ": 13899, "##ਿ": 13900, "##13": 13901, "annually": 13902, "tend": 13903, "periods": 13904, "##ered": 13905, "##cir": 13906, "##격": 13907, "dare": 13908, "detail": 13909, "##akt": 13910, "##rating": 13911, "##alu": 13912, "##ẽ": 13913, "##ppo": 13914, "send": 13915, "##oce": 13916, "##hul": 13917, "##pris": 13918, "##point": 13919, "##티": 13920, "##uff": 13921, "completion": 13922, "bringing": 13923, "shares": 13924, "wants": 13925, "##iate": 13926, "exact": 13927, "##gul": 13928, "secure": 13929, "observation": 13930, "releases": 13931, "##ables": 13932, "##pite": 13933, "executed": 13934, "filed": 13935, "##18": 13936, "सन": 13937, "destination": 13938, "##파": 13939, "##ப": 13940, "associate": 13941, "ee": 13942, "nic": 13943, "voda": 13944, "##rc": 13945, "influences": 13946, "##ீ": 13947, "ge": 13948, "##류": 13949, "bound": 13950, "##ళ": 13951, "trading": 13952, "##zz": 13953, "##dhi": 13954, "decline": 13955, "parce": 13956, "##rero": 13957, "##xy": 13958, "##rupt": 13959, "appointment": 13960, "##จ": 13961, "belief": 13962, "drawing": 13963, "mo": 13964, "immediate": 13965, "##cite": 13966, "##corre": 13967, "percentage": 13968, "##yli": 13969, "##chan": 13970, "##മ": 13971, "select": 13972, "##ũ": 13973, "##oes": 13974, "##ネ": 13975, "##ジ": 13976, "##got": 13977, "##강": 13978, "##ool": 13979, "gar": 13980, "defence": 13981, "sto": 13982, "##race": 13983, "##약": 13984, "experts": 13985, "meetings": 13986, "studying": 13987, "fruits": 13988, "##せ": 13989, "##sure": 13990, "##kg": 13991, "lay": 13992, "limits": 13993, "register": 13994, "##Ц": 13995, "##철": 13996, "##21": 13997, "forum": 13998, "##take": 13999, "##೫": 14000, "express": 14001, "continuing": 14002, "varia": 14003, "##શ": 14004, "##έ": 14005, "##wind": 14006, "buy": 14007, "##bound": 14008, "count": 14009, "doesn": 14010, "##jit": 14011, "trainer": 14012, "ende": 14013, "##mn": 14014, "##ỉ": 14015, "##પ": 14016, "##언": 14017, "finance": 14018, "ref": 14019, "##ရ": 14020, "choose": 14021, "pais": 14022, "channels": 14023, "decisions": 14024, "vital": 14025, "sh": 14026, "##승": 14027, "facing": 14028, "procedure": 14029, "boss": 14030, "employment": 14031, "##lz": 14032, "##ify": 14033, "benefits": 14034, "principle": 14035, "##ప": 14036, "notice": 14037, "faces": 14038, "grid": 14039, "##aming": 14040, "##visa": 14041, "##저": 14042, "##ٍ": 14043, "##ュ": 14044, "##⁺": 14045, "##part": 14046, "item": 14047, "##디": 14048, "turning": 14049, "##ҳ": 14050, "rs": 14051, "##kh": 14052, "apply": 14053, "approval": 14054, "##함": 14055, "ride": 14056, "extent": 14057, "##요": 14058, "##ಹ": 14059, "amongst": 14060, "youngest": 14061, "##질": 14062, "everyone": 14063, "##Κ": 14064, "##ഥ": 14065, "lose": 14066, "useful": 14067, "bai": 14068, "##pai": 14069, "##cce": 14070, "voting": 14071, "##wed": 14072, "recommended": 14073, "##fit": 14074, "##ਗ": 14075, "##ạ": 14076, "surprise": 14077, "generated": 14078, "holder": 14079, "hil": 14080, "##हर": 14081, "appare": 14082, "##บ": 14083, "##շ": 14084, "correct": 14085, "understand": 14086, "541": 14087, "##æ": 14088, "##씨": 14089, "##otu": 14090, "customers": 14091, "##ป": 14092, "NO": 14093, "##his": 14094, "log": 14095, "opportunities": 14096, "##liv": 14097, "cit": 14098, "fighter": 14099, "giant": 14100, "##ਆ": 14101, "##43": 14102, "begun": 14103, "##희": 14104, "aut": 14105, "##름": 14106, "suffering": 14107, "##phones": 14108, "##lian": 14109, "545": 14110, "comment": 14111, "##ಥ": 14112, "##dres": 14113, "boom": 14114, "##kee": 14115, "insurance": 14116, "itd": 14117, "##oos": 14118, "suspended": 14119, "parle": 14120, "##ỷ": 14121, "competitive": 14122, "patterns": 14123, "wear": 14124, "##널": 14125, "##란": 14126, "exclusive": 14127, "##gav": 14128, "##yas": 14129, "##pir": 14130, "conservative": 14131, "##यर": 14132, "indicates": 14133, "##근": 14134, "##ayo": 14135, "543": 14136, "kr": 14137, "bid": 14138, "essential": 14139, "corruption": 14140, "##ါ": 14141, "##ศ": 14142, "##편": 14143, "##슨": 14144, "##よ": 14145, "american": 14146, "wider": 14147, "fortuna": 14148, "instal": 14149, "##nali": 14150, "##항": 14151, "##sl": 14152, "##arn": 14153, "hope": 14154, "ruling": 14155, "##ợ": 14156, "activa": 14157, "matters": 14158, "mart": 14159, "##녀": 14160, "steps": 14161, "pitch": 14162, "abroad": 14163, "latest": 14164, "##mentar": 14165, "rain": 14166, "continuous": 14167, "concepts": 14168, "##linger": 14169, "##さ": 14170, "spending": 14171, "hearing": 14172, "##rion": 14173, "##ddin": 14174, "mira": 14175, "keeping": 14176, "gud": 14177, "identify": 14178, "##ʻ": 14179, "##ổ": 14180, "##발": 14181, "vale": 14182, "dream": 14183, "shift": 14184, "##pect": 14185, "##ಡ": 14186, "Dear": 14187, "remove": 14188, "hole": 14189, "reduction": 14190, "##ੜ": 14191, "hero": 14192, "assets": 14193, "vary": 14194, "##환": 14195, "anyone": 14196, "2a": 14197, "##ْ": 14198, "##술": 14199, "##브": 14200, "##mii": 14201, "##rif": 14202, "enjoyed": 14203, "##칭": 14204, "raid": 14205, "pm": 14206, "##ژ": 14207, "retail": 14208, "##yada": 14209, "picked": 14210, "##ժ": 14211, "##pr": 14212, "nov": 14213, "mani": 14214, "suspension": 14215, "##출": 14216, "##jaa": 14217, "golden": 14218, "paras": 14219, "rum": 14220, "sir": 14221, "neutral": 14222, "##족": 14223, "schedule": 14224, "tou": 14225, "567": 14226, "mond": 14227, "slot": 14228, "brit": 14229, "pati": 14230, "traded": 14231, "handling": 14232, "claiming": 14233, "##mol": 14234, "hur": 14235, "cash": 14236, "situations": 14237, "##mper": 14238, "##ニ": 14239, "practical": 14240, "##품": 14241, "crown": 14242, "displayed": 14243, "aimed": 14244, "options": 14245, "##eche": 14246, "##str": 14247, "shopping": 14248, "##uria": 14249, "tol": 14250, "implementation": 14251, "tool": 14252, "599": 14253, "increases": 14254, "##ỵ": 14255, "##24": 14256, "advice": 14257, "##ိ": 14258, "##vall": 14259, "##thi": 14260, "##nded": 14261, "##ছ": 14262, "##lih": 14263, "ker": 14264, "##amp": 14265, "consul": 14266, "549": 14267, "##hri": 14268, "701": 14269, "rising": 14270, "bell": 14271, "##usen": 14272, "subsidiary": 14273, "youtube": 14274, "outstanding": 14275, "##ุ": 14276, "passion": 14277, "bear": 14278, "##19": 14279, "##հ": 14280, "##エ": 14281, "##isha": 14282, "##더": 14283, "fresh": 14284, "circumstances": 14285, "tenure": 14286, "happy": 14287, "attending": 14288, "##code": 14289, "##ਏ": 14290, "008": 14291, "##duction": 14292, "trust": 14293, "##तम": 14294, "##gging": 14295, "##duct": 14296, "##ბ": 14297, "fee": 14298, "##ワ": 14299, "##sp": 14300, "accurate": 14301, "##ফ": 14302, "##シ": 14303, "accesso": 14304, "##×": 14305, "falling": 14306, "consistent": 14307, "colleges": 14308, "##준": 14309, "beauty": 14310, "dum": 14311, "merchant": 14312, "jump": 14313, "trend": 14314, "touch": 14315, "##dn": 14316, "veri": 14317, "tension": 14318, "sheet": 14319, "एस": 14320, "marks": 14321, "listen": 14322, "##ヴ": 14323, "hii": 14324, "bond": 14325, "##ள": 14326, "##haa": 14327, "india": 14328, "missed": 14329, "pit": 14330, "kick": 14331, "##bba": 14332, "hiri": 14333, "##친": 14334, "uri": 14335, "discussed": 14336, "##ฯ": 14337, "fortune": 14338, "regi": 14339, "deb": 14340, "##サ": 14341, "##포": 14342, "comprehensive": 14343, "##ำ": 14344, "699": 14345, "delivery": 14346, "suitable": 14347, "##곡": 14348, "lowest": 14349, "indie": 14350, "##ಪ": 14351, "##gien": 14352, "##fus": 14353, "##ญ": 14354, "##घ": 14355, "favorite": 14356, "exclusively": 14357, "##scription": 14358, "##hot": 14359, "##pl": 14360, "dono": 14361, "debt": 14362, "##bble": 14363, "magic": 14364, "clean": 14365, "electricity": 14366, "gap": 14367, "sor": 14368, "guilty": 14369, "##ddy": 14370, "##nee": 14371, "mura": 14372, "soa": 14373, "exercise": 14374, "wrong": 14375, "tele": 14376, "kt": 14377, "connecting": 14378, "##パ": 14379, "aw": 14380, "##ধ": 14381, "##mah": 14382, "##ヌ": 14383, "thinking": 14384, "##ingly": 14385, "bag": 14386, "##ќ": 14387, "##unde": 14388, "doors": 14389, "birthday": 14390, "kb": 14391, "arrangements": 14392, "##ruption": 14393, "##aye": 14394, "##레": 14395, "reaches": 14396, "talks": 14397, "switch": 14398, "##런": 14399, "exposure": 14400, "##rala": 14401, "suggest": 14402, "##ect": 14403, "##ど": 14404, "##lv": 14405, "earning": 14406, "targets": 14407, "repeated": 14408, "##초": 14409, "seeing": 14410, "seem": 14411, "answer": 14412, "zi": 14413, "ari": 14414, "secured": 14415, "mac": 14416, "##ヶ": 14417, "##턴": 14418, "romantic": 14419, "closing": 14420, "##cq": 14421, "automatic": 14422, "topics": 14423, "prices": 14424, "emas": 14425, "##ೊ": 14426, "sharing": 14427, "##nated": 14428, "battery": 14429, "shi": 14430, "topic": 14431, "##ケ": 14432, "##nnie": 14433, "##tla": 14434, "devoted": 14435, "##paa": 14436, "##tress": 14437, "घर": 14438, "##ऊ": 14439, "##ξ": 14440, "##pok": 14441, "##モ": 14442, "helps": 14443, "cult": 14444, "ml": 14445, "##じ": 14446, "trouble": 14447, "##입": 14448, "##થ": 14449, "##chel": 14450, "connect": 14451, "##kul": 14452, "internationally": 14453, "liquid": 14454, "submitted": 14455, "##Α": 14456, "surveillance": 14457, "rally": 14458, "banned": 14459, "noise": 14460, "connections": 14461, "ie": 14462, "restricted": 14463, "##ૂ": 14464, "##례": 14465, "fl": 14466, "july": 14467, "##절": 14468, "messages": 14469, "eligible": 14470, "##ൈ": 14471, "##oci": 14472, "quota": 14473, "ticket": 14474, "rice": 14475, "completing": 14476, "provisional": 14477, "##션": 14478, "ii": 14479, "##ply": 14480, "looks": 14481, "##ூ": 14482, "export": 14483, "pin": 14484, "##eye": 14485, "##ச": 14486, "manage": 14487, "ras": 14488, "##될": 14489, "Ale": 14490, "preparation": 14491, "overseas": 14492, "jp": 14493, "आज": 14494, "##dr": 14495, "##nur": 14496, "supposed": 14497, "quer": 14498, "psychology": 14499, "##ữ": 14500, "requested": 14501, "##յ": 14502, "CB": 14503, "teach": 14504, "conform": 14505, "##mid": 14506, "##ચ": 14507, "594": 14508, "trace": 14509, "##び": 14510, "tourism": 14511, "hang": 14512, "##wach": 14513, "##भ": 14514, "measured": 14515, "##ipa": 14516, "##Ε": 14517, "challenges": 14518, "sugar": 14519, "##バ": 14520, "##ീ": 14521, "##ռ": 14522, "##처": 14523, "##츠": 14524, "##klub": 14525, "reporting": 14526, "cancelled": 14527, "##cla": 14528, "affect": 14529, "awareness": 14530, "##wm": 14531, "##Ü": 14532, "##icient": 14533, "monitor": 14534, "##tical": 14535, "ot": 14536, "##epe": 14537, "##36": 14538, "##へ": 14539, "reverse": 14540, "pls": 14541, "wealth": 14542, "backed": 14543, "structural": 14544, "ent": 14545, "##೨": 14546, "##mla": 14547, "catch": 14548, "##쿠": 14549, "##람": 14550, "dili": 14551, "managing": 14552, "weak": 14553, "feeling": 14554, "##rba": 14555, "##わ": 14556, "##chn": 14557, "##पर": 14558, "copper": 14559, "sank": 14560, "##ভ": 14561, "##come": 14562, "##fir": 14563, "monthly": 14564, "hell": 14565, "##mati": 14566, "aust": 14567, "##ủ": 14568, "##nth": 14569, "fastest": 14570, "##별": 14571, "##స": 14572, "##ride": 14573, "recovery": 14574, "##ٰ": 14575, "##talo": 14576, "plain": 14577, "waiting": 14578, "nahi": 14579, "##랑": 14580, "##wder": 14581, "fossil": 14582, "##kaa": 14583, "##dati": 14584, "assure": 14585, "##mone": 14586, "execution": 14587, "sky": 14588, "package": 14589, "sure": 14590, "assessment": 14591, "sna": 14592, "##fying": 14593, "penn": 14594, "chan": 14595, "##ể": 14596, "##yst": 14597, "ret": 14598, "##θ": 14599, "##ณ": 14600, "reducing": 14601, "##pli": 14602, "##urd": 14603, "ask": 14604, "cutting": 14605, "slowly": 14606, "crucial": 14607, "##vot": 14608, "##rupted": 14609, "##clo": 14610, "##Կ": 14611, "participating": 14612, "##jf": 14613, "##백": 14614, "spend": 14615, "##극": 14616, "ren": 14617, "##ml": 14618, "##loop": 14619, "##₄": 14620, "##χ": 14621, "##tones": 14622, "##pend": 14623, "motiv": 14624, "compatible": 14625, "gra": 14626, "nose": 14627, "exit": 14628, "seas": 14629, "jan": 14630, "##zur": 14631, "dena": 14632, "gent": 14633, "##vesti": 14634, "chip": 14635, "lage": 14636, "meat": 14637, "##fare": 14638, "##sore": 14639, "##ぎ": 14640, "proof": 14641, "बन": 14642, "##テ": 14643, "##cution": 14644, "##chang": 14645, "pura": 14646, "##bala": 14647, "##eek": 14648, "milk": 14649, "##load": 14650, "snow": 14651, "informed": 14652, "##cter": 14653, "arv": 14654, "##bee": 14655, "soap": 14656, "##uation": 14657, "crosses": 14658, "##မ": 14659, "consumer": 14660, "SB": 14661, "##dona": 14662, "##cting": 14663, "citizen": 14664, "enforcement": 14665, "##ktop": 14666, "##yclone": 14667, "##was": 14668, "##lick": 14669, "##roat": 14670, "attendance": 14671, "styl": 14672, "logic": 14673, "valid": 14674, "haven": 14675, "signals": 14676, "earn": 14677, "##posite": 14678, "##ź": 14679, "##lied": 14680, "##೧": 14681, "##boot": 14682, "##hant": 14683, "ministry": 14684, "removal": 14685, "brun": 14686, "##इट": 14687, "##ザ": 14688, "##nine": 14689, "##황": 14690, "##ಃ": 14691, "##fis": 14692, "##rner": 14693, "##ẹ": 14694, "##೮": 14695, "##ained": 14696, "hub": 14697, "##ộ": 14698, "wish": 14699, "faster": 14700, "##ճ": 14701, "##ղ": 14702, "##ffle": 14703, "ministers": 14704, "bog": 14705, "##uth": 14706, "##ceed": 14707, "custom": 14708, "##rila": 14709, "bearing": 14710, "##ử": 14711, "##փ": 14712, "##각": 14713, "##탄": 14714, "##ỹ": 14715, "pen": 14716, "discussions": 14717, "aware": 14718, "##nj": 14719, "##iest": 14720, "##yda": 14721, "tap": 14722, "sk": 14723, "explain": 14724, "##sung": 14725, "criteria": 14726, "##tren": 14727, "##਼": 14728, "dair": 14729, "administrator": 14730, "##each": 14731, "##ェ": 14732, "nominal": 14733, "##ump": 14734, "sending": 14735, "##ィ": 14736, "dress": 14737, "##cam": 14738, "##kil": 14739, "719": 14740, "cool": 14741, "##ồ": 14742, "##ձ": 14743, "##dish": 14744, "##림": 14745, "reflect": 14746, "##hej": 14747, "bra": 14748, "import": 14749, "payment": 14750, "##೬": 14751, "##ね": 14752, "hed": 14753, "##Ա": 14754, "instructions": 14755, "##bica": 14756, "push": 14757, "##पन": 14758, "##목": 14759, "##gres": 14760, "lover": 14761, "##atar": 14762, "##rip": 14763, "##bies": 14764, "agree": 14765, "##32": 14766, "dra": 14767, "presentation": 14768, "##backs": 14769, "##೭": 14770, "##벌": 14771, "zee": 14772, "##β": 14773, "##beat": 14774, "hung": 14775, "##퍼": 14776, "##25": 14777, "celebration": 14778, "temporarily": 14779, "##stream": 14780, "uni": 14781, "##cay": 14782, "##ficial": 14783, "##erg": 14784, "brings": 14785, "chat": 14786, "##ಧ": 14787, "##now": 14788, "##ャ": 14789, "drink": 14790, "##─": 14791, "tensions": 14792, "##워": 14793, "quick": 14794, "intra": 14795, "##့": 14796, "sectors": 14797, "##규": 14798, "##forced": 14799, "indeed": 14800, "surge": 14801, "ah": 14802, "012": 14803, "stability": 14804, "thanks": 14805, "protocol": 14806, "valuable": 14807, "prepare": 14808, "##sita": 14809, "##tton": 14810, "improvement": 14811, "##atea": 14812, "##posito": 14813, "##lgo": 14814, "##축": 14815, "##ods": 14816, "poll": 14817, "##೪": 14818, "##너": 14819, "##wil": 14820, "##긴": 14821, "##శ": 14822, "mein": 14823, "##chef": 14824, "##lpa": 14825, "align": 14826, "shut": 14827, "##plus": 14828, "##층": 14829, "##₀": 14830, "##ზ": 14831, "summary": 14832, "##wet": 14833, "##kku": 14834, "##करण": 14835, "901": 14836, "sentiment": 14837, "##rore": 14838, "traveling": 14839, "##ulate": 14840, "##복": 14841, "maxim": 14842, "warning": 14843, "##city": 14844, "hk": 14845, "##심": 14846, "##ビ": 14847, "max": 14848, "addressed": 14849, "lifetime": 14850, "citing": 14851, "##û": 14852, "stabil": 14853, "##ボ": 14854, "##ფ": 14855, "##rub": 14856, "##ള": 14857, "##건": 14858, "##bc": 14859, "25th": 14860, "ultra": 14861, "824": 14862, "discuss": 14863, "##ints": 14864, "##22": 14865, "holiday": 14866, "tire": 14867, "##fr": 14868, "dynamic": 14869, "sid": 14870, "##blo": 14871, "mera": 14872, "courte": 14873, "##pire": 14874, "asking": 14875, "pw": 14876, "##థ": 14877, "##ฟ": 14878, "customer": 14879, "maintaining": 14880, "actively": 14881, "sweet": 14882, "##hã": 14883, "##೯": 14884, "opinions": 14885, "kit": 14886, "shipping": 14887, "app": 14888, "##lux": 14889, "gai": 14890, "celebrate": 14891, "##sumed": 14892, "lion": 14893, "corporation": 14894, "explore": 14895, "##pro": 14896, "##ヤ": 14897, "##써": 14898, "confused": 14899, "afternoon": 14900, "rupa": 14901, "extending": 14902, "saha": 14903, "cuts": 14904, "instant": 14905, "remembered": 14906, "##릭": 14907, "##병": 14908, "4a": 14909, "##love": 14910, "shu": 14911, "##pou": 14912, "nearest": 14913, "aur": 14914, "deo": 14915, "##ected": 14916, "##rae": 14917, "jr": 14918, "promise": 14919, "##llan": 14920, "bayan": 14921, "##ĩ": 14922, "##vr": 14923, "##shing": 14924, "##fig": 14925, "focusing": 14926, "reflected": 14927, "##23": 14928, "confidence": 14929, "generate": 14930, "nit": 14931, "gala": 14932, "##결": 14933, "##メ": 14934, "##팀": 14935, "independently": 14936, "sensible": 14937, "probability": 14938, "##pensa": 14939, "axis": 14940, "taki": 14941, "##ష": 14942, "enabled": 14943, "directions": 14944, "##hani": 14945, "rein": 14946, "determina": 14947, "839": 14948, "##rec": 14949, "swing": 14950, "Transfer": 14951, "##ulations": 14952, "##능": 14953, "streaming": 14954, "##hmi": 14955, "##റ": 14956, "seize": 14957, "noti": 14958, "##lust": 14959, "##watch": 14960, "##closed": 14961, "aggressive": 14962, "##rmin": 14963, "##೩": 14964, "##rove": 14965, "banking": 14966, "reveal": 14967, "##투": 14968, "intelligent": 14969, "##Ö": 14970, "indice": 14971, "##낸": 14972, "##ਫ": 14973, "##훈": 14974, "##õ": 14975, "gu": 14976, "Vis": 14977, "##배": 14978, "rama": 14979, "##ヒ": 14980, "xx": 14981, "followers": 14982, "confluence": 14983, "##seh": 14984, "mall": 14985, "rep": 14986, "div": 14987, "permanently": 14988, "delay": 14989, "##ખ": 14990, "announcement": 14991, "##ხ": 14992, "##ソ": 14993, "##lyi": 14994, "##tw": 14995, "ss": 14996, "retain": 14997, "restore": 14998, "ola": 14999, "skill": 15000, "एम": 15001, "##uction": 15002, "oka": 15003, "##hwa": 15004, "##ndering": 15005, "sharp": 15006, "998": 15007, "##rowing": 15008, "##pm": 15009, "th": 15010, "##ਥ": 15011, "##kha": 15012, "##균": 15013, "advocate": 15014, "##ഷ": 15015, "lighting": 15016, "##ited": 15017, "##sides": 15018, "##네": 15019, "##may": 15020, "##01": 15021, "##start": 15022, "deals": 15023, "china": 15024, "prediction": 15025, "##울": 15026, "##그": 15027, "##ੈ": 15028, "##clu": 15029, "upcoming": 15030, "talking": 15031, "observe": 15032, "##34": 15033, "##inate": 15034, "cloud": 15035, "march": 15036, "##fone": 15037, "emerging": 15038, "##ौ": 15039, "##lasse": 15040, "##외": 15041, "init": 15042, "onwards": 15043, "##jay": 15044, "##ʳ": 15045, "##stop": 15046, "pack": 15047, "##crat": 15048, "lank": 15049, "##hav": 15050, "enable": 15051, "fina": 15052, "##ફ": 15053, "conclude": 15054, "##ァ": 15055, "email": 15056, "##향": 15057, "##ggere": 15058, "lock": 15059, "##열": 15060, "##존": 15061, "##inder": 15062, "##읍": 15063, "aviat": 15064, "fed": 15065, "activated": 15066, "Aa": 15067, "rit": 15068, "##hli": 15069, "##링": 15070, "seized": 15071, "registration": 15072, "##독": 15073, "##sday": 15074, "##rger": 15075, "779": 15076, "##ઠ": 15077, "favourite": 15078, "deliver": 15079, "##혀": 15080, "dig": 15081, "जल": 15082, "##firmation": 15083, "collect": 15084, "##ข": 15085, "pull": 15086, "honored": 15087, "impressive": 15088, "potentially": 15089, "##É": 15090, "##arma": 15091, "shirt": 15092, "##ckets": 15093, "dot": 15094, "considering": 15095, "asa": 15096, "privately": 15097, "##31": 15098, "##anese": 15099, "##ङ": 15100, "##oking": 15101, "fees": 15102, "ns": 15103, "graph": 15104, "similarly": 15105, "treat": 15106, "reactions": 15107, "toll": 15108, "prizes": 15109, "paying": 15110, "##olina": 15111, "##date": 15112, "prayer": 15113, "nak": 15114, "##timi": 15115, "##urities": 15116, "necessarily": 15117, "##́": 15118, "decrease": 15119, "lens": 15120, "loved": 15121, "viral": 15122, "sap": 15123, "hopes": 15124, "##Հ": 15125, "##북": 15126, "##gies": 15127, "kart": 15128, "##૧": 15129, "laps": 15130, "kids": 15131, "##sd": 15132, "witness": 15133, "##넷": 15134, "ligue": 15135, "##ntra": 15136, "##lity": 15137, "##lanta": 15138, "##58": 15139, "##hya": 15140, "wait": 15141, "##jara": 15142, "##vestor": 15143, "fede": 15144, "neft": 15145, "##태": 15146, "##wis": 15147, "##vle": 15148, "regardless": 15149, "organize": 15150, "currency": 15151, "investors": 15152, "##육": 15153, "##ₙ": 15154, "##kaj": 15155, "stick": 15156, "inclusion": 15157, "##sg": 15158, "prose": 15159, "##δ": 15160, "mic": 15161, "loyal": 15162, "##컬": 15163, "##હ": 15164, "##fast": 15165, "listing": 15166, "##ਖ": 15167, "watching": 15168, "##૭": 15169, "##grat": 15170, "Ok": 15171, "happen": 15172, "chances": 15173, "##dole": 15174, "withdrawn": 15175, "enjoy": 15176, "##pka": 15177, "fail": 15178, "feels": 15179, "994": 15180, "##69": 15181, "allegations": 15182, "##む": 15183, "##Σ": 15184, "cand": 15185, "voo": 15186, "relieve": 15187, "##gain": 15188, "##unki": 15189, "##belle": 15190, "##џ": 15191, "##uggling": 15192, "##릴": 15193, "banner": 15194, "rev": 15195, "##rvo": 15196, "##భ": 15197, "consulta": 15198, "solely": 15199, "zinc": 15200, "##clin": 15201, "reso": 15202, "nt": 15203, "##roe": 15204, "peaks": 15205, "bench": 15206, "expose": 15207, "achievements": 15208, "##험": 15209, "##ˢ": 15210, "##pate": 15211, "##엔": 15212, "strategies": 15213, "lifestyle": 15214, "##ponenti": 15215, "##룹": 15216, "ky": 15217, "lots": 15218, "chocolate": 15219, "acknowledged": 15220, "gula": 15221, "##66": 15222, "##bye": 15223, "contacte": 15224, "##hik": 15225, "critici": 15226, "##ှ": 15227, "bada": 15228, "##സ": 15229, "##జ": 15230, "##૫": 15231, "topo": 15232, "certainly": 15233, "##fty": 15234, "cn": 15235, "miss": 15236, "##케": 15237, "##률": 15238, "##pred": 15239, "parameters": 15240, "selva": 15241, "##99": 15242, "gathering": 15243, "##asure": 15244, "url": 15245, "ware": 15246, "##plain": 15247, "oru": 15248, "violation": 15249, "##raid": 15250, "##겨": 15251, "##そ": 15252, "##रक": 15253, "kitchen": 15254, "outcome": 15255, "##ranti": 15256, "precise": 15257, "united": 15258, "##망": 15259, "##limi": 15260, "##উ": 15261, "indicato": 15262, "##ქ": 15263, "##말": 15264, "healthy": 15265, "momentum": 15266, "##ご": 15267, "##max": 15268, "##달": 15269, "customs": 15270, "##etat": 15271, "##unted": 15272, "##lax": 15273, "nar": 15274, "gras": 15275, "##tax": 15276, "##abo": 15277, "settle": 15278, "##02": 15279, "##ಬ": 15280, "##든": 15281, "dad": 15282, "manor": 15283, "saving": 15284, "##idat": 15285, "preparing": 15286, "##틴": 15287, "##union": 15288, "##gating": 15289, "##ᵐ": 15290, "rises": 15291, "##42": 15292, "learns": 15293, "feedback": 15294, "##cei": 15295, "##चन": 15296, "bg": 15297, "activation": 15298, "detection": 15299, "##ulent": 15300, "##ซ": 15301, "tune": 15302, "##erance": 15303, "##ruit": 15304, "naturally": 15305, "##억": 15306, "platinum": 15307, "convert": 15308, "##going": 15309, "watched": 15310, "##पस": 15311, "durable": 15312, "gains": 15313, "ms": 15314, "decreased": 15315, "sim": 15316, "##yri": 15317, "##ಠ": 15318, "##ֆ": 15319, "##블": 15320, "priority": 15321, "##uting": 15322, "kora": 15323, "##베": 15324, "##૪": 15325, "modi": 15326, "truly": 15327, "##ival": 15328, "##cilla": 15329, "##unce": 15330, "fraud": 15331, "##cap": 15332, "##째": 15333, "directora": 15334, "remember": 15335, "bonds": 15336, "cycles": 15337, "premiu": 15338, "##ganza": 15339, "lease": 15340, "climb": 15341, "strange": 15342, "excess": 15343, "proceedings": 15344, "lab": 15345, "poorly": 15346, "certificate": 15347, "corn": 15348, "##lc": 15349, "underlying": 15350, "bro": 15351, "##ⁿ": 15352, "##quest": 15353, "##due": 15354, "##locke": 15355, "rak": 15356, "##umption": 15357, "##ષ": 15358, "backup": 15359, "withdrawal": 15360, "##mle": 15361, "##nnu": 15362, "bou": 15363, "mos": 15364, "##missa": 15365, "##otions": 15366, "obvious": 15367, "##oint": 15368, "tickets": 15369, "succeed": 15370, "advised": 15371, "##mins": 15372, "yu": 15373, "##dbu": 15374, "sudden": 15375, "##wala": 15376, "##ʰ": 15377, "ira": 15378, "##puri": 15379, "##ozen": 15380, "##lory": 15381, "enrollment": 15382, "cameras": 15383, "##ϊ": 15384, "inspire": 15385, "dynamics": 15386, "##ぬ": 15387, "brands": 15388, "##ぐ": 15389, "robusta": 15390, "epic": 15391, "##metric": 15392, "##endra": 15393, "##엄": 15394, "salary": 15395, "##hama": 15396, "clar": 15397, "##칸": 15398, "##예": 15399, "sebi": 15400, "##dw": 15401, "hamar": 15402, "##њ": 15403, "##adow": 15404, "##OCK": 15405, "##cited": 15406, "##엘": 15407, "attract": 15408, "celebrity": 15409, "##pectations": 15410, "kn": 15411, "##ᵢ": 15412, "##puls": 15413, "##ۃ": 15414, "combine": 15415, "electronics": 15416, "##ecu": 15417, "##anat": 15418, "dab": 15419, "##피": 15420, "##offer": 15421, "pani": 15422, "##plete": 15423, "##춘": 15424, "pk": 15425, "##jio": 15426, "consistently": 15427, "##Č": 15428, "##cept": 15429, "proud": 15430, "suspect": 15431, "##44": 15432, "bow": 15433, "predicted": 15434, "##jou": 15435, "##mendi": 15436, "marking": 15437, "demonstrate": 15438, "isn": 15439, "आय": 15440, "smart": 15441, "managers": 15442, "##aam": 15443, "##ctiva": 15444, "##bona": 15445, "blocked": 15446, "##act": 15447, "aren": 15448, "##찰": 15449, "wise": 15450, "ph": 15451, "fiber": 15452, "##gott": 15453, "prohibited": 15454, "##ൂ": 15455, "##ధ": 15456, "bana": 15457, "bike": 15458, "bowl": 15459, "payments": 15460, "##belli": 15461, "inspection": 15462, "##cri": 15463, "##హ": 15464, "##ฐ": 15465, "##nore": 15466, "##49": 15467, "responsibilities": 15468, "contestants": 15469, "mk": 15470, "continuously": 15471, "##hab": 15472, "resolved": 15473, "##cliffe": 15474, "respond": 15475, "##tely": 15476, "profits": 15477, "##켜": 15478, "accuracy": 15479, "##inite": 15480, "##૨": 15481, "##pne": 15482, "##viated": 15483, "##Ն": 15484, "##teed": 15485, "##팅": 15486, "tunnels": 15487, "##매": 15488, "##창": 15489, "##fine": 15490, "##word": 15491, "settings": 15492, "##dran": 15493, "fx": 15494, "##ఖ": 15495, "##ਧ": 15496, "##wear": 15497, "solve": 15498, "def": 15499, "##aad": 15500, "##ledge": 15501, "दर": 15502, "##Қ": 15503, "tech": 15504, "withdraw": 15505, "##ļ": 15506, "cruise": 15507, "##갈": 15508, "##등": 15509, "##련": 15510, "##볼": 15511, "##mend": 15512, "##૩": 15513, "Custom": 15514, "##ւ": 15515, "##justed": 15516, "filmy": 15517, "portfolio": 15518, "##fum": 15519, "Cl": 15520, "regulatory": 15521, "##gha": 15522, "##ハ": 15523, "##apo": 15524, "passive": 15525, "maha": 15526, "##sot": 15527, "##빈": 15528, "reflects": 15529, "gradual": 15530, "recommendations": 15531, "attractive": 15532, "BL": 15533, "bane": 15534, "equity": 15535, "steep": 15536, "dx": 15537, "spite": 15538, "loose": 15539, "professors": 15540, "##획": 15541, "ls": 15542, "loves": 15543, "##avor": 15544, "##lern": 15545, "नए": 15546, "neighbourhood": 15547, "##ษ": 15548, "##ights": 15549, "reliable": 15550, "##ธ": 15551, "##cl": 15552, "Aga": 15553, "eva": 15554, "भर": 15555, "wishes": 15556, "##dise": 15557, "##섯": 15558, "##컵": 15559, "presenting": 15560, "##लर": 15561, "##hael": 15562, "##bust": 15563, "##૬": 15564, "##f3": 15565, "judgment": 15566, "##armaceutical": 15567, "##want": 15568, "##plaints": 15569, "##citing": 15570, "whatever": 15571, "merge": 15572, "##ઝ": 15573, "##aun": 15574, "##lmen": 15575, "jungle": 15576, "sends": 15577, "knowing": 15578, "##ぼ": 15579, "transaction": 15580, "destroying": 15581, "##fing": 15582, "हम": 15583, "##감": 15584, "##etting": 15585, "crede": 15586, "happens": 15587, "##spects": 15588, "dub": 15589, "##셜": 15590, "overcome": 15591, "##담": 15592, "extraordinary": 15593, "##ـ": 15594, "##flow": 15595, "extensions": 15596, "##ぶ": 15597, "inflation": 15598, "##ယ": 15599, "##닝": 15600, "applicable": 15601, "##posit": 15602, "blow": 15603, "##살": 15604, "##℃": 15605, "loans": 15606, "mandate": 15607, "speeds": 15608, "valida": 15609, "anal": 15610, "hain": 15611, "##just": 15612, "floating": 15613, "auction": 15614, "##ict": 15615, "##ழ": 15616, "##커": 15617, "valued": 15618, "##ਠ": 15619, "adopt": 15620, "upgrade": 15621, "##edit": 15622, "introducing": 15623, "आर": 15624, "fac": 15625, "##rã": 15626, "##ശ": 15627, "karne": 15628, "##preme": 15629, "##atile": 15630, "mask": 15631, "##itted": 15632, "##inted": 15633, "##heng": 15634, "##락": 15635, "ups": 15636, "##ಷ": 15637, "##sef": 15638, "##rries": 15639, "##pliance": 15640, "##ਅ": 15641, "repeat": 15642, "##セ": 15643, "risks": 15644, "unlikely": 15645, "##छ": 15646, "##범": 15647, "##400": 15648, "veg": 15649, "tha": 15650, "tracking": 15651, "uncertain": 15652, "maya": 15653, "##템": 15654, "khan": 15655, "nurse": 15656, "##mployment": 15657, "##istics": 15658, "##glas": 15659, "##ۓ": 15660, "##raging": 15661, "##님": 15662, "believing": 15663, "##59": 15664, "##हत": 15665, "##isfied": 15666, "##flower": 15667, "##nl": 15668, "##fected": 15669, "offense": 15670, "##Ч": 15671, "##lley": 15672, "trends": 15673, "##yeng": 15674, "##맹": 15675, "##meti": 15676, "##mpt": 15677, "possibili": 15678, "##yawa": 15679, "##गल": 15680, "##sized": 15681, "chu": 15682, "linking": 15683, "##ntial": 15684, "develops": 15685, "##욕": 15686, "bigger": 15687, "##viat": 15688, "##enty": 15689, "सब": 15690, "worse": 15691, "##ဲ": 15692, "hol": 15693, "##pired": 15694, "trails": 15695, "##47": 15696, "soan": 15697, "##!": 15698, "##\"": 15699, "###": 15700, "##$": 15701, "##%": 15702, "##&": 15703, "##'": 15704, "##(": 15705, "##)": 15706, "##*": 15707, "##+": 15708, "##,": 15709, "##-": 15710, "##.": 15711, "##/": 15712, "##:": 15713, "##;": 15714, "##<": 15715, "##=": 15716, "##>": 15717, "##?": 15718, "##@": 15719, "##[": 15720, "##\\": 15721, "##]": 15722, "##^": 15723, "##_": 15724, "##{": 15725, "##|": 15726, "##}": 15727, "##~": 15728, "##¡": 15729, "##¢": 15730, "##£": 15731, "##¥": 15732, "##¦": 15733, "##§": 15734, "##¨": 15735, "##©": 15736, "##«": 15737, "##¬": 15738, "##®": 15739, "##±": 15740, "##µ": 15741, "##¶": 15742, "##·": 15743, "##¹": 15744, "##»": 15745, "##¼": 15746, "##¾": 15747, "##¿": 15748, "##À": 15749, "##Á": 15750, "##Â": 15751, "##Ã": 15752, "##Ä": 15753, "##Å": 15754, "##Æ": 15755, "##Ç": 15756, "##È": 15757, "##Ê": 15758, "##Ë": 15759, "##Ì": 15760, "##Í": 15761, "##Î": 15762, "##Ð": 15763, "##Ñ": 15764, "##Ò": 15765, "##Ó": 15766, "##Ô": 15767, "##Õ": 15768, "##Ø": 15769, "##Ú": 15770, "##Ý": 15771, "##Þ": 15772, "##÷": 15773, "##þ": 15774, "##ÿ": 15775, "##Ā": 15776, "##Ă": 15777, "##Ą": 15778, "##Ć": 15779,
[...]
